{
  "version": "1.0",
  "truncation": null,
  "padding": null,
  "added_tokens": [
    {
      "id": 0,
      "content": "[UNK]",
      "single_word": false,
      "lstrip": false,
      "rstrip": false,
      "normalized": false,
      "special": true
    }
  ],
  "normalizer": {
    "type": "NFC"
  },
  "pre_tokenizer": {
    "type": "Metaspace",
    "replacement": "▁",
    "prepend_scheme": "never",
    "split": true
  },
  "post_processor": null,
  "decoder": {
    "type": "Sequence",
    "decoders": [
      {
        "type": "ByteFallback"
      },
      {
        "type": "Metaspace",
        "replacement": "▁",
        "prepend_scheme": "never",
        "split": true
      }
    ]
  },
  "model": {
    "type": "BPE",
    "dropout": null,
    "unk_token": "[UNK]",
    "continuing_subword_prefix": null,
    "end_of_word_suffix": null,
    "fuse_unk": false,
    "byte_fallback": true,
    "ignore_merges": false,
    "vocab": {
      "[UNK]": 0,
      "\n": 1,
      "!": 2,
      "\"": 3,
      "#": 4,
      "$": 5,
      "%": 6,
      "&": 7,
      "'": 8,
      "(": 9,
      ")": 10,
      "*": 11,
      "+": 12,
      ",": 13,
      "-": 14,
      ".": 15,
      "/": 16,
      "0": 17,
      "1": 18,
      "2": 19,
      "3": 20,
      "4": 21,
      "5": 22,
      "6": 23,
      "7": 24,
      "8": 25,
      "9": 26,
      ":": 27,
      ";": 28,
      "<": 29,
      "=": 30,
      ">": 31,
      "?": 32,
      "A": 33,
      "B": 34,
      "C": 35,
      "D": 36,
      "E": 37,
      "F": 38,
      "G": 39,
      "H": 40,
      "I": 41,
      "J": 42,
      "K": 43,
      "L": 44,
      "M": 45,
      "N": 46,
      "O": 47,
      "P": 48,
      "Q": 49,
      "R": 50,
      "S": 51,
      "T": 52,
      "U": 53,
      "V": 54,
      "W": 55,
      "X": 56,
      "Y": 57,
      "Z": 58,
      "[": 59,
      "\\": 60,
      "]": 61,
      "^": 62,
      "_": 63,
      "`": 64,
      "a": 65,
      "b": 66,
      "c": 67,
      "d": 68,
      "e": 69,
      "f": 70,
      "g": 71,
      "h": 72,
      "i": 73,
      "j": 74,
      "k": 75,
      "l": 76,
      "m": 77,
      "n": 78,
      "o": 79,
      "p": 80,
      "q": 81,
      "r": 82,
      "s": 83,
      "t": 84,
      "u": 85,
      "v": 86,
      "w": 87,
      "x": 88,
      "y": 89,
      "z": 90,
      "{": 91,
      "|": 92,
      "}": 93,
      "~": 94,
      "°": 95,
      "²": 96,
      "·": 97,
      "Ö": 98,
      "á": 99,
      "â": 100,
      "æ": 101,
      "ç": 102,
      "è": 103,
      "é": 104,
      "í": 105,
      "ñ": 106,
      "ö": 107,
      "ü": 108,
      "ā": 109,
      "ī": 110,
      "İ": 111,
      "Ś": 112,
      "ś": 113,
      "ū": 114,
      "ș": 115,
      "ə": 116,
      "ɦ": 117,
      "ɪ": 118,
      "ɾ": 119,
      "ʊ": 120,
      "ʱ": 121,
      "ʼ": 122,
      "ˈ": 123,
      "ː": 124,
      "ί": 125,
      "α": 126,
      "δ": 127,
      "θ": 128,
      "ν": 129,
      "π": 130,
      "ς": 131,
      "ό": 132,
      "ँ": 133,
      "ं": 134,
      "ः": 135,
      "अ": 136,
      "आ": 137,
      "इ": 138,
      "ई": 139,
      "उ": 140,
      "ऊ": 141,
      "ऋ": 142,
      "ऍ": 143,
      "ए": 144,
      "ऐ": 145,
      "ऑ": 146,
      "ओ": 147,
      "औ": 148,
      "क": 149,
      "ख": 150,
      "ग": 151,
      "घ": 152,
      "ङ": 153,
      "च": 154,
      "छ": 155,
      "ज": 156,
      "झ": 157,
      "ञ": 158,
      "ट": 159,
      "ठ": 160,
      "ड": 161,
      "ढ": 162,
      "ण": 163,
      "त": 164,
      "थ": 165,
      "द": 166,
      "ध": 167,
      "न": 168,
      "प": 169,
      "फ": 170,
      "ब": 171,
      "भ": 172,
      "म": 173,
      "य": 174,
      "र": 175,
      "ऱ": 176,
      "ल": 177,
      "ळ": 178,
      "व": 179,
      "श": 180,
      "ष": 181,
      "स": 182,
      "ह": 183,
      "़": 184,
      "ा": 185,
      "ि": 186,
      "ी": 187,
      "ु": 188,
      "ू": 189,
      "ृ": 190,
      "ॅ": 191,
      "े": 192,
      "ै": 193,
      "ॉ": 194,
      "ॊ": 195,
      "ो": 196,
      "ौ": 197,
      "्": 198,
      "ॠ": 199,
      "।": 200,
      "०": 201,
      "१": 202,
      "२": 203,
      "३": 204,
      "४": 205,
      "५": 206,
      "६": 207,
      "७": 208,
      "८": 209,
      "९": 210,
      "॰": 211,
      "ॲ": 212,
      "ం": 213,
      "ః": 214,
      "అ": 215,
      "ఆ": 216,
      "ఇ": 217,
      "ఈ": 218,
      "ఉ": 219,
      "ఋ": 220,
      "ఎ": 221,
      "ఏ": 222,
      "ఐ": 223,
      "ఒ": 224,
      "ఓ": 225,
      "ఔ": 226,
      "క": 227,
      "ఖ": 228,
      "గ": 229,
      "ఘ": 230,
      "చ": 231,
      "ఛ": 232,
      "జ": 233,
      "ఞ": 234,
      "ట": 235,
      "ఠ": 236,
      "డ": 237,
      "ఢ": 238,
      "ణ": 239,
      "త": 240,
      "థ": 241,
      "ద": 242,
      "ధ": 243,
      "న": 244,
      "ప": 245,
      "ఫ": 246,
      "బ": 247,
      "భ": 248,
      "మ": 249,
      "య": 250,
      "ర": 251,
      "ల": 252,
      "ళ": 253,
      "వ": 254,
      "శ": 255,
      "ష": 256,
      "స": 257,
      "హ": 258,
      "ా": 259,
      "ి": 260,
      "ీ": 261,
      "ు": 262,
      "ూ": 263,
      "ృ": 264,
      "ె": 265,
      "ే": 266,
      "ై": 267,
      "ొ": 268,
      "ో": 269,
      "ౌ": 270,
      "్": 271,
      "ṅ": 272,
      "ṇ": 273,
      "Ṛ": 274,
      "ṣ": 275,
      "ṭ": 276,
      "Ἰ": 277,
      " ": 278,
      " ": 279,
      "‌": 280,
      "‍": 281,
      "‎": 282,
      "–": 283,
      "—": 284,
      "‘": 285,
      "’": 286,
      "“": 287,
      "”": 288,
      "†": 289,
      "•": 290,
      "′": 291,
      "″": 292,
      "‹": 293,
      "›": 294,
      "⁡": 295,
      "₹": 296,
      "↑": 297,
      "−": 298,
      "ⓘ": 299,
      "▁": 300,
      "▲": 301,
      "﻿": 302,
      "wi": 303,
      "ki": 304,
      "wiki": 305,
      "di": 306,
      "dia": 307,
      "or": 308,
      "ht": 309,
      "](": 310,
      "tp": 311,
      ":/": 312,
      "http": 313,
      "://": 314,
      "pe": 315,
      "](http": 316,
      "s://": 317,
      "](https://": 318,
      "g/": 319,
      ".or": 320,
      ".org/": 321,
      "pedia": 322,
      ".wiki": 323,
      ".org/wiki": 324,
      ".org/wiki/": 325,
      ".wikipedia": 326,
      ".wikipedia.org/wiki/": 327,
      "▁[": 328,
      "te": 329,
      "▁\"": 330,
      "\")": 331,
      "en": 332,
      "in": 333,
      "an": 334,
      "on": 335,
      "In": 336,
      "ti": 337,
      "th": 338,
      "ार": 339,
      "al": 340,
      "India": 341,
      "](https://en": 342,
      "](https://en.wikipedia.org/wiki/": 343,
      "re": 344,
      "्र": 345,
      "20": 346,
      "ar": 347,
      "er": 348,
      "▁|": 349,
      "hi": 350,
      "्य": 351,
      "ci": 352,
      "es": 353,
      "of": 354,
      "▁क": 355,
      "ारत": 356,
      "भारत": 357,
      "▁स": 358,
      "tion": 359,
      "్ర": 360,
      "the": 361,
      "](https://te": 362,
      "](https://te.wikipedia.org/wiki/": 363,
      "▁-": 364,
      "is": 365,
      "te_": 366,
      "](https://hi": 367,
      "](https://hi.wikipedia.org/wiki/": 368,
      "om": 369,
      "▁(": 370,
      "mr": 371,
      "](https://mr": 372,
      "](https://mr.wikipedia.org/wiki/": 373,
      "▁प": 374,
      "#ci": 375,
      "#cite_": 376,
      "and": 377,
      "ార": 378,
      "▁of": 379,
      "▁the": 380,
      "ou": 381,
      "as": 382,
      "ri": 383,
      "रा": 384,
      "▁म": 385,
      "र्": 386,
      "19": 387,
      "ान": 388,
      "le": 389,
      "](https://en.wikipedia.org/wiki/India": 390,
      "**": 391,
      "▁India": 392,
      "्या": 393,
      "no": 394,
      "201": 395,
      "ాల": 396,
      "या": 397,
      "oo": 398,
      "ra": 399,
      "▁in": 400,
      "ed": 401,
      "OT": 402,
      "si": 403,
      "్య": 404,
      "▁ह": 405,
      "▁व": 406,
      "li": 407,
      "ate": 408,
      "200": 409,
      "▁आ": 410,
      "्त": 411,
      "-0": 412,
      "ent": 413,
      "▁p": 414,
      "భార": 415,
      "](https://en.wikipedia.org/wiki/India#cite_": 416,
      "ac": 417,
      "భారత": 418,
      "దే": 419,
      "▁and": 420,
      "ation": 421,
      "▁s": 422,
      "దేశ": 423,
      "స్": 424,
      "ge": 425,
      "at": 426,
      "am": 427,
      "िक": 428,
      "ref": 429,
      "\\_": 430,
      "▁अ": 431,
      "▁ప": 432,
      "ात": 433,
      "-1": 434,
      "id": 435,
      "note": 436,
      "▁c": 437,
      "▁C": 438,
      "సా": 439,
      "ाल": 440,
      "▁A": 441,
      "[[": 442,
      ".\n": 443,
      "ర్": 444,
      "ीय": 445,
      "ref-": 446,
      "note-": 447,
      "st": 448,
      "ing": 449,
      "et": 450,
      "న్": 451,
      "▁S": 452,
      "ेश": 453,
      "\"),": 454,
      "ook": 455,
      "ve": 456,
      "fi": 457,
      "lo": 458,
      ").": 459,
      "ad": 460,
      "▁प्र": 461,
      "ें": 462,
      "um": 463,
      "▁b": 464,
      "▁द": 465,
      "ang": 466,
      "▁t": 467,
      "ch": 468,
      "ना": 469,
      "ंग": 470,
      "lin": 471,
      "we": 472,
      "▁के": 473,
      "▁f": 474,
      "78": 475,
      "ni": 476,
      "▁m": 477,
      "com": 478,
      "▁1": 479,
      "లు": 480,
      "▁ज": 481,
      "red": 482,
      "edi": 483,
      "ro": 484,
      "त्र": 485,
      "्ष": 486,
      "▁भारत": 487,
      "िया": 488,
      "ww": 489,
      "he": 490,
      "▁P": 491,
      "రా": 492,
      "ce": 493,
      "▁[↑": 494,
      "of_": 495,
      "_of_": 496,
      "ला": 497,
      "▁|\n": 498,
      "it": 499,
      "ist": 500,
      "ul": 501,
      "ver": 502,
      "IS": 503,
      "భారతదేశ": 504,
      "स्": 505,
      "राज": 506,
      "](https://hi.wikipedia.org/wiki/भारत": 507,
      "us": 508,
      "▁**": 509,
      "00": 510,
      ".శ": 511,
      ".శ.": 512,
      "link": 513,
      "లో": 514,
      "भा": 515,
      "ory": 516,
      "▁a": 517,
      "సా.శ.": 518,
      "ur": 519,
      "ter": 520,
      "FO": 521,
      "▁त": 522,
      "NOT": 523,
      "OTNOT": 524,
      "FOOTNOT": 525,
      "FOOTNOTE": 526,
      "=1": 527,
      "ons": 528,
      "edit": 529,
      "action": 530,
      "BN": 531,
      "ष्": 532,
      "▁క": 533,
      "978": 534,
      "action=": 535,
      "ास": 536,
      "ां": 537,
      "▁न": 538,
      "ISBN": 539,
      "action=edit": 540,
      "&red": 541,
      "?action=edit": 542,
      "link=1": 543,
      "&redlink=1": 544,
      "?action=edit&redlink=1": 545,
      "ची": 546,
      "▁ब": 547,
      "త్ర": 548,
      "our": 549,
      "ాలు": 550,
      "21": 551,
      "cal": 552,
      "jp": 553,
      "▁T": 554,
      "రి": 555,
      "]](https://en.wikipedia.org/wiki/India#cite_": 556,
      "enti": 557,
      "క్": 558,
      "cial": 559,
      "▁R": 560,
      "ంద": 561,
      "](https://en.wikipedia.org/wiki/India#cite_ref-": 562,
      "]](https://en.wikipedia.org/wiki/India#cite_note-": 563,
      "ले": 564,
      ".jp": 565,
      ")\n": 566,
      "▁M": 567,
      "ని": 568,
      "▁వ": 569,
      "age": 570,
      "il": 571,
      "un": 572,
      "▁201": 573,
      "identi": 574,
      "de": 575,
      "fier": 576,
      "identifier": 577,
      "web": 578,
      "देश": 579,
      "्व": 580,
      "ित": 581,
      "ol": 582,
      "▁w": 583,
      "-0)": 584,
      "chi": 585,
      "दी": 586,
      "हे": 587,
      "▁में": 588,
      "identifier)": 589,
      "ల్": 590,
      "),": 591,
      "क्ष": 592,
      "▁to": 593,
      "భారతదేశం": 594,
      "25": 595,
      "ces": 596,
      "book": 597,
      "ంగ": 598,
      "em": 599,
      "res": 600,
      "▁B": 601,
      "न्": 602,
      "▁స": 603,
      "23": 604,
      "10": 605,
      "angu": 606,
      "_(": 607,
      "ील": 608,
      "ष्ट": 609,
      ".[[": 610,
      "ों": 611,
      "▁का": 612,
      "▁మ": 613,
      "ty": 614,
      "वा": 615,
      "26": 616,
      "▁आहे": 617,
      "tic": 618,
      "·**": 619,
      "▁**·**": 620,
      ".g": 621,
      "▁D": 622,
      "वि": 623,
      "ment": 624,
      "▁*": 625,
      "్రా": 626,
      "ag": 627,
      "me": 628,
      "ली": 629,
      "ay": 630,
      "▁l": 631,
      "ic": 632,
      "IT": 633,
      "▁•": 634,
      "▁\"S": 635,
      "24": 636,
      "ీయ": 637,
      "books": 638,
      ".com": 639,
      "▁India\")": 640,
      "ig": 641,
      "ER": 642,
      "चे": 643,
      "india": 644,
      "ండ": 645,
      "_क": 646,
      "▁e": 647,
      "/978": 648,
      "EF": 649,
      "du": 650,
      "ITER": 651,
      "up": 652,
      "199": 653,
      "स्त": 654,
      "सा": 655,
      "](https://mr.wikipedia.org/wiki/भारत": 656,
      ".com/": 657,
      "ITEREF": 658,
      "ct": 659,
      "षा": 660,
      "ly": 661,
      "▁ग": 662,
      "▁श": 663,
      "pecial": 664,
      "▁[↑](https://en.wikipedia.org/wiki/India#cite_ref-": 665,
      "con": 666,
      "_in": 667,
      "జ్య": 668,
      "राज्य": 669,
      "▁చ": 670,
      "सं": 671,
      "▁है": 672,
      "▁E": 673,
      "_India": 674,
      "ld": 675,
      "ources": 676,
      "ष्ट्र": 677,
      "ber": 678,
      "pecial:": 679,
      "च्या": 680,
      "oun": 681,
      "ती": 682,
      "](https://hi.wikipedia.org/wiki/भारत#cite_": 683,
      "తా": 684,
      "प्र": 685,
      "ము": 686,
      "ir": 687,
      "28": 688,
      "Uni": 689,
      "నా": 690,
      "री": 691,
      "ha": 692,
      "తి": 693,
      "్ట": 694,
      "\")\n": 695,
      "▁20": 696,
      "www": 697,
      ".jpg": 698,
      "#C": 699,
      "_S": 700,
      "चि": 701,
      "▁G": 702,
      "भाषा": 703,
      "gory": 704,
      "ategory": 705,
      "#CITEREF": 706,
      "चा": 707,
      "Book": 708,
      "ategory:": 709,
      "సి": 710,
      "tu": 711,
      "▁H": 712,
      "मा": 713,
      "త్": 714,
      "ain": 715,
      "▁उ": 716,
      "Sources": 717,
      "www.": 718,
      "pecial:Book": 719,
      "pecial:BookSources": 720,
      "द्र": 721,
      "▁इ": 722,
      "ved": 723,
      "ने": 724,
      "11": 725,
      "▁N": 726,
      "anguage": 727,
      "▁200": 728,
      "outh": 729,
      "पु": 730,
      "ational": 731,
      "-3": 732,
      "▁\"भारत": 733,
      "और": 734,
      "pecial:BookSources/978": 735,
      "ता": 736,
      "मु": 737,
      "▁सं": 738,
      "--": 739,
      "rom": 740,
      "-4": 741,
      "▁की": 742,
      "ary": 743,
      "▁---": 744,
      "##": 745,
      "▁(సా.శ.": 746,
      "त्त": 747,
      "र्व": 748,
      "50": 749,
      "for": 750,
      "_A": 751,
      "्रे": 752,
      "op": 753,
      "▁से": 754,
      "యా": 755,
      "ry": 756,
      "0%": 757,
      "ులు": 758,
      "▁రా": 759,
      "archi": 760,
      "ew": 761,
      "–సా.శ.": 762,
      ".in": 763,
      "ंड": 764,
      "▁అ": 765,
      "el": 766,
      "ng": 767,
      "ి.": 768,
      "sia": 769,
      "हि": 770,
      "\").": 771,
      "The": 772,
      "▁on": 773,
      "ति": 774,
      "sh": 775,
      "ab": 776,
      "ून": 777,
      "▁re": 778,
      "▁ప్ర": 779,
      "ress": 780,
      "mp": 781,
      "▁और": 782,
      "णी": 783,
      "ిక": 784,
      "▁g": 785,
      "18": 786,
      "▁.": 787,
      "archive": 788,
      "30": 789,
      "था": 790,
      "rit": 791,
      "ak": 792,
      "ub": 793,
      "22": 794,
      "▁वि": 795,
      "తం": 796,
      "-8": 797,
      "_of_India": 798,
      "▁[म": 799,
      "▁सा": 800,
      "](https://en.wikipedia.org/wiki/India#CITEREF": 801,
      "▁या": 802,
      "gi": 803,
      "▁[\"": 804,
      "ిన": 805,
      "జ్యం": 806,
      "calf": 807,
      "िल": 808,
      "▁or": 809,
      "▁19": 810,
      "▁h": 811,
      "राष्ट्र": 812,
      "▁F": 813,
      "ted": 814,
      "etcalf": 815,
      "umb": 816,
      "జా": 817,
      "est": 818,
      "se": 819,
      "▁n": 820,
      "](https://mr.wikipedia.org/wiki/भारत#cite_": 821,
      "द्": 822,
      "▁र": 823,
      "ap": 824,
      "▁J": 825,
      "List": 826,
      "ంచ": 827,
      "కు": 828,
      "29": 829,
      "▁p.": 830,
      "ov": 831,
      "▁[S": 832,
      "ount": 833,
      "-0-": 834,
      "का": 835,
      "ast": 836,
      "▁([": 837,
      "40": 838,
      "](https://te.wikipedia.org/wiki/భారతదేశం": 839,
      "archive.org/": 840,
      "▁./": 841,
      "15": 842,
      "ध्य": 843,
      "_P": 844,
      "with": 845,
      "ను": 846,
      "పూ": 847,
      "▁th": 848,
      "orld": 849,
      "mons": 850,
      "versi": 851,
      "▁d": 852,
      "▁ए": 853,
      "]](https://en.wikipedia.org/wiki/India#cite_note-FOOTNOTE": 854,
      "मी": 855,
      "13": 856,
      "▁from": 857,
      "భా": 858,
      "▁by": 859,
      "▁(identifier)": 860,
      "web.": 861,
      "_(identifier)": 862,
      "▁(identifier)\")": 863,
      "पा": 864,
      "media": 865,
      "](https://web.": 866,
      "▁य": 867,
      "/http": 868,
      "ప్ర": 869,
      "web/": 870,
      "archive.org/web/": 871,
      "](https://web.archive.org/web/": 872,
      "ద్": 873,
      "ింద": 874,
      "ish": 875,
      "px": 876,
      "▁for": 877,
      "कार": 878,
      "▁In": 879,
      "र्म": 880,
      "17": 881,
      "ते": 882,
      "▁ఉ": 883,
      "_C": 884,
      "_and": 885,
      "commons": 886,
      "▁\"म": 887,
      "ం:": 888,
      "har": 889,
      "versity": 890,
      "s/": 891,
      "27": 892,
      "E0%": 893,
      "▁पर": 894,
      "ep": 895,
      "ृत": 896,
      "16": 897,
      "णि": 898,
      ".wikimedia": 899,
      "▁ఆ": 900,
      "Metcalf": 901,
      "▁[A": 902,
      "म्": 903,
      ".gov": 904,
      "▁\"C": 905,
      "ort": 906,
      "load": 907,
      "14": 908,
      "upload": 909,
      "conom": 910,
      "ी_": 911,
      "▁is": 912,
      "Har": 913,
      "gle": 914,
      "over": 915,
      "▁O": 916,
      "▁ర": 917,
      "्रा": 918,
      "![": 919,
      "▁Indian": 920,
      "AA": 921,
      "im": 922,
      "pedia/": 923,
      ".org/wikipedia/": 924,
      "▁को": 925,
      ".wikimedia.org/wikipedia/": 926,
      "upload.wikimedia.org/wikipedia/": 927,
      "](https://upload.wikimedia.org/wikipedia/": 928,
      "thumb": 929,
      "ror": 930,
      "](https://en.wikipedia.org/wiki/S": 931,
      "commons/": 932,
      "4%": 933,
      "మా": 934,
      "▁సా": 935,
      "భారతీయ": 936,
      "thumb/": 937,
      "](https://upload.wikimedia.org/wikipedia/commons/": 938,
      "*.": 939,
      "n_": 940,
      "▁ल": 941,
      "error": 942,
      "వా": 943,
      "▁L": 944,
      "inal": 945,
      "CS": 946,
      "हा": 947,
      "ut": 948,
      "px-": 949,
      "](https://upload.wikimedia.org/wikipedia/commons/thumb/": 950,
      "E0%A": 951,
      "రు": 952,
      "late": 953,
      "▁be": 954,
      "▁१": 955,
      "▁W": 956,
      "पू": 957,
      "?id": 958,
      "les": 959,
      "ot": 960,
      "oogle": 961,
      "ीय_": 962,
      "'s": 963,
      "og": 964,
      "से": 965,
      "▁प्रदेश": 966,
      "వి": 967,
      "ష్ట": 968,
      "ార్": 969,
      "పూ.": 970,
      "▁[ISBN": 971,
      "▁हो": 972,
      "క్ష": 973,
      "श्": 974,
      "▁K": 975,
      "_in_India": 976,
      "-9": 977,
      "స్థ": 978,
      "రిత్ర": 979,
      "द्ध": 980,
      "▁[C": 981,
      "ंद": 982,
      "%20": 983,
      "?id=": 984,
      "▁आहे.": 985,
      "▁भ": 986,
      ".google": 987,
      "books.google": 988,
      ".com/books": 989,
      "books.google.com/books": 990,
      "ोक": 991,
      "हार": 992,
      "books.google.com/books?id=": 993,
      "_M": 994,
      "do": 995,
      "ages": 996,
      "▁\"ISBN": 997,
      "ens": 998,
      "ISBN_(identifier)": 999,
      "న్న": 1000,
      ".p": 1001,
      "nd": 1002,
      "शिया": 1003,
      "▁[978": 1004,
      "▁The": 1005,
      "cy": 1006,
      ".in/": 1007,
      "ma": 1008,
      ")[[": 1009,
      "p.": 1010,
      "](https://en.wikipedia.org/wiki/C": 1011,
      "चित्र": 1012,
      "hin": 1013,
      "ia": 1014,
      "▁[*": 1015,
      "▁राज्य": 1016,
      "per": 1017,
      "मान": 1018,
      "▁भाषा": 1019,
      "ther": 1020,
      "स्तान": 1021,
      "े_": 1022,
      "47": 1023,
      "ru": 1024,
      "](https://books.google.com/books?id=": 1025,
      "art": 1026,
      "िय": 1027,
      "](S": 1028,
      "▁\"M": 1029,
      "University": 1030,
      "नी": 1031,
      "ance": 1032,
      "▁pp.": 1033,
      "av": 1034,
      "](https://te.wikipedia.org/wiki/భారతదేశం#cite_": 1035,
      "_T": 1036,
      "s,": 1037,
      "▁ध": 1038,
      "]](https://hi.wikipedia.org/wiki/भारत#cite_": 1039,
      "der": 1040,
      "कि": 1041,
      "_D": 1042,
      "ेत्र": 1043,
      "%E0%A": 1044,
      "वर्": 1045,
      "గా": 1046,
      "▁देश": 1047,
      ".jpg)": 1048,
      "-2": 1049,
      "](http://": 1050,
      "ంట": 1051,
      "కి": 1052,
      "▁de": 1053,
      "aj": 1054,
      "ंत": 1055,
      "ans": 1056,
      "▁[M": 1057,
      "▁\"स": 1058,
      ".jpg/": 1059,
      "మ్రా": 1060,
      "ష్ట్ర": 1061,
      "▁कर": 1062,
      "▁[↑](https://en.wikipedia.org/wiki/India#cite_ref-FOOTNOTE": 1063,
      "ong": 1064,
      "ड़": 1065,
      "ంత": 1066,
      "ow": 1067,
      "िण": 1068,
      "▁\"क": 1069,
      "▁orig": 1070,
      "umm": 1071,
      "s\")": 1072,
      "धान": 1073,
      "▁स्": 1074,
      "ंध": 1075,
      "ction": 1076,
      "](https://en.wikipedia.org/wiki/M": 1077,
      "ही": 1078,
      "ुर": 1079,
      "tern": 1080,
      "2.": 1081,
      "बा": 1082,
      "పు": 1083,
      "rie": 1084,
      "▁है।": 1085,
      "35": 1086,
      "gh": 1087,
      "▁भारतीय": 1088,
      "▁న": 1089,
      "गर": 1090,
      "▁as": 1091,
      "ana": 1092,
      "▁original": 1093,
      "ys": 1094,
      "क्षिण": 1095,
      "](Special:BookSources/978": 1096,
      "la": 1097,
      "మి": 1098,
      "ాన": 1099,
      "▁&": 1100,
      "PA": 1101,
      "_म": 1102,
      "हर": 1103,
      "ुस": 1104,
      "▁[B": 1105,
      "▁\"B": 1106,
      "ार्": 1107,
      "](https://en.wikipedia.org/wiki/ISBN_(identifier)": 1108,
      "▁[ISBN](https://en.wikipedia.org/wiki/ISBN_(identifier)": 1109,
      "ensus": 1110,
      "Category:": 1111,
      "जी": 1112,
      "वे": 1113,
      "्यां": 1114,
      "▁Category:": 1115,
      "log": 1116,
      "▁\"Special:BookSources/978": 1117,
      "tate": 1118,
      "పా": 1119,
      "▁ఇ": 1120,
      "▁త": 1121,
      "భాష": 1122,
      "-7": 1123,
      "os": 1124,
      "oli": 1125,
      "▁I": 1126,
      "\"))": 1127,
      "ence": 1128,
      "श्रे": 1129,
      "▁[क": 1130,
      "1.": 1131,
      "36": 1132,
      "ाली": 1133,
      "_के_": 1134,
      "-5": 1135,
      "Harv": 1136,
      "श्रेणी": 1137,
      "&p": 1138,
      "పాల": 1139,
      "లీ": 1140,
      "ore": 1141,
      "emp": 1142,
      "opul": 1143,
      "श्रेणी:": 1144,
      "38": 1145,
      "ंत्र": 1146,
      "%E0%A4%": 1147,
      "ud": 1148,
      "▁దేశ": 1149,
      "▁राज": 1150,
      "▁\"P": 1151,
      "స్తా": 1152,
      "▁[स": 1153,
      "िल्": 1154,
      "ोल": 1155,
      "ries": 1156,
      "%2": 1157,
      "ai": 1158,
      "land": 1159,
      "जा": 1160,
      "ani": 1161,
      "వర్": 1162,
      "ాయ": 1163,
      "▁\"A": 1164,
      "_G": 1165,
      "titu": 1166,
      "म्रा": 1167,
      "िश": 1168,
      "ori": 1169,
      "indu": 1170,
      "](https://hi.wikipedia.org/wiki/भारत#cite_ref-": 1171,
      "]](https://hi.wikipedia.org/wiki/भारत#cite_note-": 1172,
      "_N": 1173,
      "ear": 1174,
      "all": 1175,
      "दा": 1176,
      "स्क": 1177,
      "rchi": 1178,
      "▁[अ": 1179,
      "▁Ret": 1180,
      "ss": 1181,
      "tein": 1182,
      "language": 1183,
      "णा": 1184,
      "rieved": 1185,
      "▁Retrieved": 1186,
      "g=": 1187,
      "&pg=": 1188,
      "▁\"अ": 1189,
      "eral": 1190,
      "get": 1191,
      "ातील": 1192,
      "overn": 1193,
      "మ్రాజ్యం": 1194,
      "▁with": 1195,
      "▁te": 1196,
      "fn": 1197,
      "ाने": 1198,
      "దేశ్": 1199,
      "ata": 1200,
      "▁एक": 1201,
      "▁Press": 1202,
      "▁[भारत": 1203,
      "Indian": 1204,
      "omm": 1205,
      "ib": 1206,
      "▁ex": 1207,
      "48": 1208,
      "ం](https://te.wikipedia.org/wiki/": 1209,
      "▁di": 1210,
      "▁Asia": 1211,
      "](https://en.wikipedia.org/wiki/B": 1212,
      "2011": 1213,
      "gion": 1214,
      "7.": 1215,
      "▁ख": 1216,
      "▁ना": 1217,
      "2006": 1218,
      "▁language": 1219,
      "![](https://upload.wikimedia.org/wikipedia/commons/thumb/": 1220,
      "ुसार": 1221,
      "opulation": 1222,
      "vi": 1223,
      "त्": 1224,
      "▁अस": 1225,
      "▁*[": 1226,
      "थान": 1227,
      "ంబ": 1228,
      "టి": 1229,
      "39": 1230,
      "](https://web.archive.org/web/201": 1231,
      "artic": 1232,
      "▁प्रा": 1233,
      "ummit": 1234,
      "](https://en.wikipedia.org/wiki/P": 1235,
      "ख्य": 1236,
      "िस": 1237,
      "nic": 1238,
      "ity": 1239,
      "&pg=PA": 1240,
      "ంలో": 1241,
      "▁–": 1242,
      "▁आहेत": 1243,
      "స్తాన్": 1244,
      "ज़": 1245,
      "ountries": 1246,
      "▁पु": 1247,
      "70": 1248,
      "ile": 1249,
      "_R": 1250,
      "के": 1251,
      "గు": 1252,
      "డు": 1253,
      "నే": 1254,
      "్చ": 1255,
      "▁\"T": 1256,
      "_B": 1257,
      "to": 1258,
      "▁[P": 1259,
      "▁no": 1260,
      "त्तर": 1261,
      "]](https://mr.wikipedia.org/wiki/भारत#cite_": 1262,
      "वर": 1263,
      "మూ": 1264,
      "్రీ": 1265,
      "-10": 1266,
      "జాత": 1267,
      "rchived": 1268,
      "overnment": 1269,
      "शास": 1270,
      "▁घ": 1271,
      "2018": 1272,
      "मि": 1273,
      "ism": 1274,
      "45": 1275,
      "_b": 1276,
      "_प्र": 1277,
      "▁University": 1278,
      "पी": 1279,
      "istory": 1280,
      "లా": 1281,
      "\").\n": 1282,
      "ంగా": 1283,
      "60": 1284,
      "पर": 1285,
      "राष्ट्रीय": 1286,
      "4.": 1287,
      "dge": 1288,
      "_p": 1289,
      "](https://www.": 1290,
      "/https://": 1291,
      "డ్": 1292,
      "ిల్": 1293,
      "▁జ": 1294,
      "und": 1295,
      "▁was": 1296,
      "ral": 1297,
      "htm": 1298,
      "▁are": 1299,
      "onstitu": 1300,
      "ck": 1301,
      "मन": 1302,
      "चीन": 1303,
      "म्राज": 1304,
      "CS1": 1305,
      "3.": 1306,
      "ue": 1307,
      "की": 1308,
      "वी": 1309,
      "లి": 1310,
      "▁झ": 1311,
      "▁[D": 1312,
      "ank": 1313,
      "స్త్ర": 1314,
      "aint": 1315,
      "-6": 1316,
      "au": 1317,
      "*](https://books.google.com/books?id=": 1318,
      "6.": 1319,
      "हास": 1320,
      "stan": 1321,
      "ik": 1322,
      "▁an": 1323,
      "▁\"E": 1324,
      "als": 1325,
      "ard": 1326,
      "_s": 1327,
      "टी": 1328,
      "కా": 1329,
      "ణా": 1330,
      "దక్ష": 1331,
      "ధిక": 1332,
      "▁[ब": 1333,
      "▁ప్రా": 1334,
      "ेंद्र": 1335,
      "▁వి": 1336,
      "anguages": 1337,
      "సియా": 1338,
      "ture": 1339,
      "జాతీయ": 1340,
      "_E": 1341,
      ".jpg)\n": 1342,
      "▁मु": 1343,
      "ations": 1344,
      "▁con": 1345,
      "ff": 1346,
      "धिक": 1347,
      "▁हे": 1348,
      "250": 1349,
      "ust": 1350,
      "mber": 1351,
      "गु": 1352,
      "వం": 1353,
      "▁\"List": 1354,
      "](https://mr.wikipedia.org/wiki/म": 1355,
      "▁సం": 1356,
      "▁చరిత్ర": 1357,
      "](https://mr.wikipedia.org/wiki/भारत#cite_ref-": 1358,
      "]](https://mr.wikipedia.org/wiki/भारत#cite_note-": 1359,
      "hm": 1360,
      "_m": 1361,
      "ex": 1362,
      "ta": 1363,
      "▁च": 1364,
      "▁\"D": 1365,
      "ाला": 1366,
      "▁\"G": 1367,
      "](https://en.wikipedia.org/wiki/A": 1368,
      "लेख": 1369,
      "ेला": 1370,
      "డి": 1371,
      ")\")": 1372,
      "िर": 1373,
      "ame": 1374,
      "किस्तान": 1375,
      "विश": 1376,
      "](https://en.wikipedia.org/wiki/E": 1377,
      "4)": 1378,
      "5.": 1379,
      "▁जात": 1380,
      "ूची": 1381,
      "ంధ": 1382,
      "స్త": 1383,
      "▁రాజ్యం": 1384,
      "▁సామ్రాజ్యం": 1385,
      "వర్గ": 1386,
      "దక్షి": 1387,
      "37": 1388,
      "lic": 1389,
      "/http://": 1390,
      "tar": 1391,
      "ोर": 1392,
      "esh": 1393,
      "▁क्ष": 1394,
      "sher": 1395,
      "%2C": 1396,
      "_स": 1397,
      "▁it": 1398,
      "▁ने": 1399,
      "ंब": 1400,
      "▁V": 1401,
      "](https://en.wikipedia.org/wiki/T": 1402,
      "List_of_": 1403,
      "क्त": 1404,
      "ाच्या": 1405,
      "దీ": 1406,
      "ండి": 1407,
      "వర్గం:": 1408,
      "46": 1409,
      "other": 1410,
      "▁हि": 1411,
      "श्रेणी:Harv": 1412,
      "shi": 1413,
      "▁[2": 1414,
      "india.gov": 1415,
      "49": 1416,
      "िव": 1417,
      "र्थ": 1418,
      "▁\"भारतीय": 1419,
      "ध्ये": 1420,
      "conomic": 1421,
      "df": 1422,
      "तात": 1423,
      "▁\"ब": 1424,
      "sian": 1425,
      "amb": 1426,
      "tics": 1427,
      "ll": 1428,
      "తర": 1429,
      "ది": 1430,
      "▁బ": 1431,
      "tim": 1432,
      "2010": 1433,
      "▁वर्": 1434,
      "-1)": 1435,
      "errors": 1436,
      "हारा": 1437,
      "National": 1438,
      "Stein": 1439,
      "▁[G": 1440,
      "▁हैं": 1441,
      "ोग": 1442,
      "▁[1": 1443,
      "▁भाषा\")": 1444,
      "▁वा": 1445,
      "sv": 1446,
      "ట్": 1447,
      "ిత": 1448,
      "दक्षिण": 1449,
      "धार": 1450,
      "ेष": 1451,
      "▁पा": 1452,
      "1)": 1453,
      "3)": 1454,
      "ts": 1455,
      "नुसार": 1456,
      "▁ट": 1457,
      "AJ": 1458,
      "▁199": 1459,
      "](https://en.wikipedia.org/wiki/D": 1460,
      "omp": 1461,
      "ford": 1462,
      "िल्ली": 1463,
      "lish": 1464,
      "भाग": 1465,
      "BAJ": 1466,
      "QBAJ": 1467,
      "_చ": 1468,
      "ke": 1469,
      "ం\")": 1470,
      "▁\"మ": 1471,
      "▁आणि": 1472,
      "▁De": 1473,
      "ింది.": 1474,
      "▁क्षेत्र": 1475,
      "ire": 1476,
      "_1": 1477,
      "aki": 1478,
      "ove": 1479,
      "eng": 1480,
      "ties": 1481,
      "▁whi": 1482,
      "ali": 1483,
      "म्राज्य": 1484,
      "ine": 1485,
      "gen": 1486,
      "s.": 1487,
      "यु": 1488,
      "▁ఎ": 1489,
      "▁[మ": 1490,
      "tive": 1491,
      "](https://mr.wikipedia.org/wiki/स": 1492,
      "▁अभ": 1493,
      "▁(సా.శ.పూ.": 1494,
      "xford": 1495,
      "ंग्रे": 1496,
      "▁[↑](https://hi.wikipedia.org/wiki/भारत#cite_ref-": 1497,
      "▁2011": 1498,
      "-p": 1499,
      "RI": 1500,
      "a\")": 1501,
      "▁(P": 1502,
      "velo": 1503,
      "77": 1504,
      "fe": 1505,
      "ven": 1506,
      "शी": 1507,
      "riti": 1508,
      "cl": 1509,
      "ंगाल": 1510,
      "000": 1511,
      "्वी": 1512,
      ",_": 1513,
      "rou": 1514,
      "ధ్య": 1515,
      "▁గ": 1516,
      "▁శ": 1517,
      "▁error": 1518,
      "ange": 1519,
      "ంద్ర": 1520,
      "-0-19": 1521,
      "udd": 1522,
      "8.": 1523,
      "▁२": 1524,
      ".pdf": 1525,
      "AAQBAJ": 1526,
      "क्": 1527,
      "द्य": 1528,
      "मू": 1529,
      "ublic": 1530,
      "conomy": 1531,
      "चित्र:": 1532,
      "DP": 1533,
      "ైన": 1534,
      "](https://te.wikipedia.org/wiki/మ": 1535,
      "▁పే": 1536,
      ".pdf)": 1537,
      "ari": 1538,
      "्यात": 1539,
      "ach": 1540,
      "ingh": 1541,
      "###": 1542,
      "पूर्व": 1543,
      "▁धर्म": 1544,
      "uni": 1545,
      "त्य": 1546,
      "रकार": 1547,
      "MetcalfMetcalf": 1548,
      "मे": 1549,
      "sion": 1550,
      "ult": 1551,
      "United": 1552,
      "ah": 1553,
      "ज्": 1554,
      "ట్ట": 1555,
      "హింద": 1556,
      "▁భారతదేశం": 1557,
      "▁\"R": 1558,
      "▁मो": 1559,
      "ाना": 1560,
      "ంగ్": 1561,
      "ద్ధ": 1562,
      "ल्": 1563,
      "िका": 1564,
      "ठा": 1565,
      "](https://en.wikipedia.org/wiki/R": 1566,
      "पाकिस्तान": 1567,
      "कर": 1568,
      "पट": 1569,
      "ल्या": 1570,
      "▁we": 1571,
      "▁[E": 1572,
      "▁which": 1573,
      "90": 1574,
      "ath": 1575,
      "ec": 1576,
      "indi": 1577,
      "](https://en.wikipedia.org/wiki/G": 1578,
      "हिन्": 1579,
      "वर्ग": 1580,
      "ించ": 1581,
      "▁ఒ": 1582,
      "▁భాష": 1583,
      "▁[క": 1584,
      "ాల్": 1585,
      "▁भारतात": 1586,
      "▁ति": 1587,
      "DF": 1588,
      "च्": 1589,
      "न\")": 1590,
      "ark": 1591,
      "ountry": 1592,
      "हाराष्ट्र": 1593,
      "्वीप": 1594,
      "120": 1595,
      "iki": 1596,
      "▁2007": 1597,
      "new": 1598,
      "uc": 1599,
      "पं": 1600,
      "_and_": 1601,
      "html": 1602,
      "onstitution": 1603,
      "80": 1604,
      "ficial": 1605,
      "_प्रदेश": 1606,
      "2)": 1607,
      "9.": 1608,
      "]](https://te.wikipedia.org/wiki/భారతదేశం#cite_": 1609,
      "ob": 1610,
      "port": 1611,
      "वं": 1612,
      "చ్చ": 1613,
      "జీ": 1614,
      "ేంద్ర": 1615,
      "▁at": 1616,
      "▁\"క": 1617,
      "श्चि": 1618,
      "%E0%A4%B": 1619,
      "वर्ग:": 1620,
      "vis": 1621,
      "हु": 1622,
      "ding": 1623,
      "▁[R": 1624,
      "तिहास": 1625,
      "56": 1626,
      "_न": 1627,
      "tin": 1628,
      "▁\"आ": 1629,
      "_की_": 1630,
      "man": 1631,
      "थि": 1632,
      "out": 1633,
      "territ": 1634,
      "43": 1635,
      "चल": 1636,
      "लोक": 1637,
      "ूल": 1638,
      "](https://en.wikipedia.org/wiki/List_of_": 1639,
      "्रि": 1640,
      "▁South": 1641,
      "माल": 1642,
      "త్య": 1643,
      "బ్": 1644,
      "మీ": 1645,
      "hist": 1646,
      "](https://te.wikipedia.org/wiki/ద": 1647,
      "్యా": 1648,
      "2004": 1649,
      "రాష్ట్ర": 1650,
      "▁has": 1651,
      "▁./వర్గం:": 1652,
      "▁[Archived": 1653,
      "▁India's": 1654,
      "rap": 1655,
      "..": 1656,
      "sland": 1657,
      "▁li": 1658,
      "ated": 1659,
      "RICS": 1660,
      "▁(PDF": 1661,
      "bot": 1662,
      "▁[T": 1663,
      "tates": 1664,
      "जाब": 1665,
      "od": 1666,
      "10.": 1667,
      "hy": 1668,
      "ంక": 1669,
      "ప్": 1670,
      "యు": 1671,
      "▁7": 1672,
      "▁\"ज": 1673,
      "▁[↑](https://mr.wikipedia.org/wiki/भारत#cite_ref-": 1674,
      "తంత్ర": 1675,
      "▁that": 1676,
      "](https://te.wikipedia.org/wiki/భారతదేశం#cite_ref-": 1677,
      "ile:": 1678,
      "దక్షిణ": 1679,
      "पंजाब": 1680,
      "]](https://te.wikipedia.org/wiki/భారతదేశం#cite_note-": 1681,
      "जरा": 1682,
      "temp": 1683,
      "▁pro": 1684,
      "▁१९": 1685,
      "250px-": 1686,
      "5)": 1687,
      "गण": 1688,
      "▁\"N": 1689,
      "inist": 1690,
      "albot": 1691,
      "[![](https://upload.wikimedia.org/wikipedia/commons/thumb/": 1692,
      "velop": 1693,
      "33": 1694,
      "usi": 1695,
      "ass": 1696,
      "ration": 1697,
      "ंगा": 1698,
      "स्थान": 1699,
      "ृत्य": 1700,
      "67": 1701,
      "_స": 1702,
      "ळे": 1703,
      "తము": 1704,
      "వే": 1705,
      "ష్": 1706,
      "ాన్": 1707,
      "](https://mr.wikipedia.org/wiki/क": 1708,
      "aste": 1709,
      "ack": 1710,
      "స్క": 1711,
      "स्ट": 1712,
      "_Asia": 1713,
      "▁आहेत.": 1714,
      "ిల్లీ": 1715,
      "/c": 1716,
      "िग": 1717,
      "ैद": 1718,
      "▁3": 1719,
      "▁[N": 1720,
      "his": 1721,
      "ous": 1722,
      "ansk": 1723,
      "ho": 1724,
      "ूर": 1725,
      "▁\"इ": 1726,
      "ंतर": 1727,
      "Asher": 1728,
      "ost": 1729,
      "pend": 1730,
      "ome": 1731,
      "nolog": 1732,
      "aint:": 1733,
      "ritish": 1734,
      "ord": 1735,
      "arch": 1736,
      "▁स्व": 1737,
      "▁Re": 1738,
      "\"](https://web.archive.org/web/201": 1739,
      "िन": 1740,
      "జి": 1741,
      "ధాన": 1742,
      "బె": 1743,
      "ers": 1744,
      "](https://hi.wikipedia.org/wiki/अ": 1745,
      "ారు": 1746,
      "▁కా": 1747,
      "▁రాజ": 1748,
      "anskrit": 1749,
      "_भाषा": 1750,
      "na": 1751,
      "▁fi": 1752,
      "▁\"In": 1753,
      "2009": 1754,
      "िक्ष": 1755,
      "▁बा": 1756,
      "ज्ञ": 1757,
      "6)": 1758,
      "File:": 1759,
      "ठी": 1760,
      "▁5": 1761,
      "▁\"H": 1762,
      "\")*": 1763,
      "स्था": 1764,
      "ury": 1765,
      "▁पुरा": 1766,
      "विशेष": 1767,
      "विशेष:": 1768,
      "_F": 1769,
      "ug": 1770,
      "प्त": 1771,
      "velopment": 1772,
      "\"\n": 1773,
      "हित": 1774,
      "ridge": 1775,
      "▁नि": 1776,
      "▁संस्क": 1777,
      "शासित": 1778,
      "AAQBAJ&pg=PA": 1779,
      "_भारत": 1780,
      "मध्ये": 1781,
      "దు": 1782,
      "మ్": 1783,
      "శ్": 1784,
      "▁pe": 1785,
      "](https://te.wikipedia.org/wiki/క": 1786,
      "్యవ": 1787,
      "2007": 1788,
      "ames": 1789,
      "ంది.": 1790,
      "माण": 1791,
      "_చరిత్ర": 1792,
      "ure": 1793,
      "dit": 1794,
      "▁[K": 1795,
      "▁**[": 1796,
      "times": 1797,
      "pa": 1798,
      "tra": 1799,
      "▁U": 1800,
      "ten": 1801,
      "_language": 1802,
      "▁4": 1803,
      "▁18": 1804,
      "elhi": 1805,
      "mpire": 1806,
      "_d": 1807,
      "o-": 1808,
      "रु": 1809,
      "ैन": 1810,
      "▁[the": 1811,
      "▁\"The": 1812,
      "▁अन": 1813,
      "ांची": 1814,
      "-0-5": 1815,
      ".jpg/250px-": 1816,
      "ght": 1817,
      "ఢిల్లీ": 1818,
      "పంచ": 1819,
      "](File:": 1820,
      "ारी": 1821,
      "](https://en.wikipedia.org/wiki/N": 1822,
      "ree": 1823,
      "▁पू": 1824,
      "ారి": 1825,
      "▁2014": 1826,
      "మూస": 1827,
      "-m": 1828,
      ".sv": 1829,
      "census": 1830,
      "qu": 1831,
      "बर": 1832,
      "tical": 1833,
      "](https://web.archive.org/web/20": 1834,
      "-b": 1835,
      "world": 1836,
      "ंडिया": 1837,
      "oc": 1838,
      "ulture": 1839,
      "क्षेत्र": 1840,
      "emplate": 1841,
      "दे": 1842,
      "ines": 1843,
      "▁सरकार": 1844,
      "ric": 1845,
      "amil": 1846,
      "](https://en.wikipedia.org/wiki/India#cite_ref-FOOTNOTE": 1847,
      "▁ये": 1848,
      "shit": 1849,
      "MetcalfMetcalf2006": 1850,
      "World": 1851,
      "ख्या": 1852,
      "वन": 1853,
      "व्य": 1854,
      "వు": 1855,
      "▁le": 1856,
      "▁\"భారతీయ": 1857,
      "्रो": 1858,
      "ाले": 1859,
      "](http://www.": 1860,
      "▁its": 1861,
      "_आ": 1862,
      "ms": 1863,
      "िंध": 1864,
      "्री": 1865,
      "articles": 1866,
      "्रिट": 1867,
      "RC": 1868,
      "val": 1869,
      "▁[इ": 1870,
      "▁\"K": 1871,
      "ase": 1872,
      "ril": 1873,
      "ood": 1874,
      "illi": 1875,
      "ograp": 1876,
      "visi": 1877,
      ".nic": 1878,
      "12": 1879,
      "जन": 1880,
      "भू": 1881,
      "सी": 1882,
      "▁फ": 1883,
      "▁मान": 1884,
      "▁जन": 1885,
      "do-": 1886,
      "▁तिथि": 1887,
      "odi": 1888,
      "orth": 1889,
      "▁\"Indian": 1890,
      "▁प्रदेश\")": 1891,
      "ambridge": 1892,
      "7)": 1893,
      "oh": 1894,
      "ृष्": 1895,
      "జన": 1896,
      "టు": 1897,
      "టె": 1898,
      "▁r": 1899,
      "\")**": 1900,
      "](https://en.wikipedia.org/wiki/H": 1901,
      "](https://en.wikipedia.org/wiki/In": 1902,
      "arg": 1903,
      "▁cent": 1904,
      "▁చె": 1905,
      "నాయ": 1906,
      "–సా.శ.పూ.": 1907,
      "▁ఆర్": 1908,
      "चित्रपट": 1909,
      "పాలిత": 1910,
      "స్త్రం:": 1911,
      "▁ప్రాంత": 1912,
      "ేంద్రపాలిత": 1913,
      "](https://te.wikipedia.org/wiki/దస్త్రం:": 1914,
      "▁Hindu": 1915,
      "उत्तर": 1916,
      "मार": 1917,
      "रे": 1918,
      "▁[H": 1919,
      "](https://hi.wikipedia.org/wiki/म": 1920,
      "ligion": 1921,
      "चा:": 1922,
      "_by": 1923,
      "▁तिथि:": 1924,
      "णे": 1925,
      "al_": 1926,
      "▁हा": 1927,
      "2003": 1928,
      "स्व": 1929,
      "IN": 1930,
      "ef": 1931,
      "oder": 1932,
      "wn": 1933,
      "धर्म": 1934,
      "ोन": 1935,
      "्ह": 1936,
      "▁un": 1937,
      "end": 1938,
      "any": 1939,
      "नाड": 1940,
      "hel": 1941,
      "ांत": 1942,
      "गुजरा": 1943,
      "Wiki": 1944,
      "गातील": 1945,
      "डिया": 1946,
      "ఖ్య": 1947,
      "గో": 1948,
      "తో": 1949,
      "బి": 1950,
      "హి": 1951,
      "isation": 1952,
      "न्न": 1953,
      "▁साम्राज्य": 1954,
      "मिळ": 1955,
      "స్కృ": 1956,
      "_c": 1957,
      "ढ़": 1958,
      "dition": 1959,
      "lection": 1960,
      "▁अभिग": 1961,
      "usic": 1962,
      "▁अभिगमन": 1963,
      "oi": 1964,
      "ीत": 1965,
      "ेट": 1966,
      "▁8": 1967,
      "▁[L": 1968,
      "▁[![": 1969,
      "rad": 1970,
      "▁अने": 1971,
      "▁अनेक": 1972,
      "Oxford": 1973,
      "ind": 1974,
      "▁तथा": 1975,
      "दी\")": 1976,
      "_का": 1977,
      "▁History": 1978,
      "पुर": 1979,
      "yson": 1980,
      "्रोत": 1981,
      "s-": 1982,
      "▁se": 1983,
      "ंग्": 1984,
      "▁languages": 1985,
      "▁उप": 1986,
      "late_": 1987,
      "india.gov.in/": 1988,
      "्रिटिश": 1989,
      "57": 1990,
      "8)": 1991,
      "_ప": 1992,
      "uro": 1993,
      "रब": 1994,
      "ौद्ध": 1995,
      "హా": 1996,
      "ి.\n": 1997,
      "▁ను": 1998,
      "▁జాతీయ": 1999,
      "ini": 2000,
      "alth": 2001,
      "ater": 2002,
      "ign": 2003,
      "doi": 2004,
      "तात.": 2005,
      "▁हैं।": 2006,
      "్యవస్థ": 2007,
      "62": 2008,
      "mer": 2009,
      "▁2021": 2010,
      "▁रो": 2011,
      "/https://www.": 2012,
      "59": 2013,
      "PP": 2014,
      "ili": 2015,
      "ves": 2016,
      "▁ri": 2017,
      "](https://en.wikipedia.org/wiki/K": 2018,
      "](https://hi.wikipedia.org/wiki/क": 2019,
      "ashm": 2020,
      "uring": 2021,
      "1998": 2022,
      "akistan": 2023,
      "श्चिम": 2024,
      "0.": 2025,
      "_the": 2026,
      "act": 2027,
      "AARC": 2028,
      "▁were": 2029,
      "tinent": 2030,
      "05": 2031,
      "डी": 2032,
      "ork": 2033,
      "alay": 2034,
      "age/": 2035,
      "विध": 2036,
      "स्तक": 2037,
      "पुस्तक": 2038,
      "▁[978-1": 2039,
      "विशेष:पुस्तक": 2040,
      "odern": 2041,
      "्रोत/978": 2042,
      "ron": 2043,
      "तमिळ": 2044,
      "డా": 2045,
      "దా": 2046,
      "బడ": 2047,
      "మే": 2048,
      "రణ": 2049,
      "▁లో": 2050,
      "](https://mr.wikipedia.org/wiki/अ": 2051,
      "](https://mr.wikipedia.org/wiki/आ": 2052,
      "ram": 2053,
      "▁కూ": 2054,
      "ాలు,": 2055,
      "▁काळ": 2056,
      "india-": 2057,
      "▁गण": 2058,
      "▁రాష్ట్ర": 2059,
      "ते.": 2060,
      "%20%20": 2061,
      "కిస్తాన్": 2062,
      "▁చరిత్ర\")": 2063,
      "Dw": 2064,
      "तु": 2065,
      "दिल्ली": 2066,
      "सद": 2067,
      "▁26": 2068,
      "on-": 2069,
      "cies": 2070,
      "](https://hi.wikipedia.org/wiki/स": 2071,
      "2008": 2072,
      "\\_S": 2073,
      "▁Ap": 2074,
      "](https://hi.wikipedia.org/wiki/भारतीय_": 2075,
      "une": 2076,
      "▁भू": 2077,
      "radesh": 2078,
      "urope": 2079,
      "national": 2080,
      "tro": 2081,
      "जात": 2082,
      "▁[ग": 2083,
      "▁\"ग": 2084,
      "▁sub": 2085,
      "▁2019": 2086,
      "roup": 2087,
      "द्वीप": 2088,
      "▁ad": 2089,
      "old": 2090,
      "Stein2010": 2091,
      "65": 2092,
      "ेत": 2093,
      "▁v": 2094,
      "2005": 2095,
      "continent": 2096,
      "ंदिर": 2097,
      "matics": 2098,
      "\"](https://www.": 2099,
      "69": 2100,
      "▁2": 2101,
      "▁ఈ": 2102,
      "▁భారత": 2103,
      "▁ha": 2104,
      "▁[In": 2105,
      "▁\"L": 2106,
      "ission": 2107,
      "▁आशिया": 2108,
      "త్రి": 2109,
      "ాలు](https://te.wikipedia.org/wiki/": 2110,
      "dust": 2111,
      "▁[भारतीय": 2112,
      "▁वर्ष": 2113,
      "▁संस्कृ": 2114,
      ".;": 2115,
      "/p": 2116,
      "▁सर्व": 2117,
      "2014": 2118,
      "ternational": 2119,
      "yste": 2120,
      "rg": 2121,
      "िं": 2122,
      "▁[न": 2123,
      "▁मेला": 2124,
      "entral": 2125,
      "▁शिक्ष": 2126,
      ".jpg)](File:": 2127,
      "_In": 2128,
      "air": 2129,
      "ब्": 2130,
      "म\")": 2131,
      "▁भाग": 2132,
      "eneral": 2133,
      "ारा": 2134,
      "▁ही": 2135,
      "▁par": 2136,
      ".nic.in/": 2137,
      "330": 2138,
      "Edit": 2139,
      "Page/": 2140,
      "hand": 2141,
      "kno": 2142,
      "197": 2143,
      "▁Comm": 2144,
      "मुख": 2145,
      "▁यु": 2146,
      "श्मी": 2147,
      "inistry": 2148,
      "EditPage/": 2149,
      "1/": 2150,
      "_క": 2151,
      "తు": 2152,
      "పతి": 2153,
      "▁ని": 2154,
      "▁స్థ": 2155,
      "▁चित्रपट": 2156,
      "▁[आ": 2157,
      "▁[అ": 2158,
      "▁[ప": 2159,
      "▁\"భారతదేశం": 2160,
      "్రి": 2161,
      "](https://mr.wikipedia.org/wiki/इ": 2162,
      "](https://mr.wikipedia.org/wiki/ब": 2163,
      "ament": 2164,
      "ర్వ": 2165,
      "న్ని": 2166,
      "▁भारताच्या": 2167,
      "మిళ": 2168,
      "వంశ": 2169,
      "▁पूर्व": 2170,
      "34": 2171,
      "_L": 2172,
      "cre": 2173,
      "टक": 2174,
      "धी": 2175,
      "▁[ज": 2176,
      "▁हु": 2177,
      "ंग्र": 2178,
      "विधान": 2179,
      "_में": 2180,
      "खंड": 2181,
      "डा": 2182,
      "बंध": 2183,
      "▁si": 2184,
      "्रम": 2185,
      "▁ते": 2186,
      "ower": 2187,
      "ories": 2188,
      "दू": 2189,
      "▁ऑ": 2190,
      "▁\"F": 2191,
      "ese": 2192,
      "\\_errors": 2193,
      "लेखित": 2194,
      "ंग्रेज़": 2195,
      "help": 2196,
      "IA": 2197,
      "pu": 2198,
      "ority": 2199,
      "▁st": 2200,
      "▁Asian": 2201,
      "uly": 2202,
      "/http://www.": 2203,
      "87": 2204,
      "_మ": 2205,
      "_భాష": 2206,
      "ंप": 2207,
      "००": 2208,
      "ఫ్": 2209,
      "▁స్": 2210,
      "▁[బ": 2211,
      "▁[స": 2212,
      "▁\"అ": 2213,
      "▁सूची": 2214,
      "](https://mr.wikipedia.org/wiki/ज": 2215,
      "](https://mr.wikipedia.org/wiki/चित्र:": 2216,
      "న్నాయ": 2217,
      "▁కాల": 2218,
      "ాలు\")": 2219,
      "ులు](https://te.wikipedia.org/wiki/": 2220,
      "▁రై": 2221,
      ".jpg)](https://te.wikipedia.org/wiki/దస్త్రం:": 2222,
      "article": 2223,
      "హిందూ": 2224,
      "ज्ञान": 2225,
      "-0-521": 2226,
      "rary": 2227,
      "ोब": 2228,
      "ined": 2229,
      "omb": 2230,
      "rib": 2231,
      "ace": 2232,
      "\\_with": 2233,
      "▁अधिक": 2234,
      "line": 2235,
      "▁15": 2236,
      "▁17": 2237,
      "▁बहु": 2238,
      "berg": 2239,
      "▁इस": 2240,
      "▁विविध": 2241,
      "union": 2242,
      ".\"\n": 2243,
      "Talbot": 2244,
      "_4": 2245,
      "eb": 2246,
      "ran": 2247,
      "uk": 2248,
      "▁25": 2249,
      "in-": 2250,
      "led": 2251,
      "usines": 2252,
      "ters": 2253,
      "ेंद्रशासित": 2254,
      "target": 2255,
      "AsherTalbot": 2256,
      "▁April": 2257,
      "1,": 2258,
      "8/": 2259,
      "ati": 2260,
      "rof": 2261,
      "ूप": 2262,
      "▁ra": 2263,
      "▁मि": 2264,
      "uman": 2265,
      "▁दक्षिण": 2266,
      "राजस्थान": 2267,
      "_देश": 2268,
      "hp": 2269,
      "iv": 2270,
      "mund": 2271,
      "▁territ": 2272,
      "tes": 2273,
      "](https://en.wikipedia.org/wiki/L": 2274,
      "1947": 2275,
      "साँ": 2276,
      "ctor": 2277,
      "▁शास": 2278,
      "▁लोक": 2279,
      "othermund": 2280,
      "las": 2281,
      "mar": 2282,
      "wart": 2283,
      "zberg": 2284,
      "ंदी": 2285,
      "ळी": 2286,
      "ाची": 2287,
      "ఆసియా": 2288,
      "ద్ర": 2289,
      "భూ": 2290,
      "మె": 2291,
      "య్య": 2292,
      "ర్య": 2293,
      "▁ల": 2294,
      "▁राष्ट्र": 2295,
      "dis": 2296,
      "▁\"ప": 2297,
      "▁\"బ": 2298,
      "▁\"స": 2299,
      "chwart": 2300,
      "▁[↑](https://te.wikipedia.org/wiki/భారతదేశం#cite_ref-": 2301,
      "త్త": 2302,
      "मुळे": 2303,
      "▁అధిక": 2304,
      "▁ప్రదేశ్": 2305,
      "ప్రదేశ్": 2306,
      "पूर": 2307,
      "▁भी": 2308,
      "वर्ग:CS1": 2309,
      "▁నుండి": 2310,
      "▁रोजी": 2311,
      "chwartzberg": 2312,
      ").\n": 2313,
      "-s": 2314,
      "aw": 2315,
      "▁[सं": 2316,
      "lear": 2317,
      "ulke": 2318,
      "](https://hi.wikipedia.org/wiki/भारत_के_": 2319,
      "](https://hi.wikipedia.org/wiki/भारत_में": 2320,
      "ill": 2321,
      "मुद्र": 2322,
      "_and_S": 2323,
      "▁language\")": 2324,
      "ंबई": 2325,
      "uclear": 2326,
      "\\_with\\_": 2327,
      "▁\"न": 2328,
      "no-": 2329,
      "▁An": 2330,
      "▁2010": 2331,
      "Union": 2332,
      "▁इतिहास": 2333,
      "पुरा": 2334,
      "▁[Archived](https://web.archive.org/web/20": 2335,
      "_H": 2336,
      "fter": 2337,
      "oci": 2338,
      "year": 2339,
      "aman": 2340,
      "िक्": 2341,
      "▁countries": 2342,
      "▁Pro": 2343,
      "ystem": 2344,
      "▁ड": 2345,
      "▁राष्ट्रीय": 2346,
      "▁[F": 2347,
      "▁[W": 2348,
      "▁सम": 2349,
      "ats": 2350,
      "\\_and": 2351,
      "▁स्था": 2352,
      "▁temp": 2353,
      "ikshit": 2354,
      ".svg": 2355,
      "ographi": 2356,
      "ail": 2357,
      "co": 2358,
      "mb": 2359,
      "धील": 2360,
      "मिल": 2361,
      "ाक": 2362,
      "१९": 2363,
      "ణి": 2364,
      "తమిళ": 2365,
      "మైన": 2366,
      "హార": 2367,
      "ోర్": 2368,
      "▁[प": 2369,
      "▁\"ఇ": 2370,
      "▁\"భారత": 2371,
      "](https://te.wikipedia.org/wiki/బ": 2372,
      "umber": 2373,
      "▁మొ": 2374,
      "india/": 2375,
      "నాగ": 2376,
      "త్తర": 2377,
      "▁उत्": 2378,
      "ులు\")": 2379,
      "120px-": 2380,
      "_की_स": 2381,
      "శ్మీ": 2382,
      "మూస:": 2383,
      "नाडू": 2384,
      "/0": 2385,
      "_at": 2386,
      "han": 2387,
      "yn": 2388,
      "लि": 2389,
      "ेक": 2390,
      "▁\"प": 2391,
      "ongress": 2392,
      "data": 2393,
      "rst": 2394,
      "tal": 2395,
      "वस्था": 2396,
      "](https://en.wikipedia.org/wiki/F": 2397,
      "ligi": 2398,
      "्त्र": 2399,
      "emb": 2400,
      "ound": 2401,
      "nglish": 2402,
      "▁स्थान": 2403,
      "श्मीर": 2404,
      "Template": 2405,
      "par": 2406,
      "uj": 2407,
      "तर": 2408,
      "्यान": 2409,
      "▁India,": 2410,
      "lim": 2411,
      "▁([help": 2412,
      "▁World": 2413,
      "s\"))\n": 2414,
      "▁errors\"))\n": 2415,
      "मालय": 2416,
      "history": 2417,
      "▁स्थाप": 2418,
      "C&pg=PA": 2419,
      "a,": 2420,
      "countries": 2421,
      "ugh": 2422,
      "ूच": 2423,
      "▁9": 2424,
      "peration": 2425,
      "▁[उ": 2426,
      "inis": 2427,
      "▁Asia\")": 2428,
      "ashmir": 2429,
      "-20": 2430,
      ".html": 2431,
      "100": 2432,
      "athe": 2433,
      "hen": 2434,
      "ण्": 2435,
      "శా": 2436,
      "ైనా": 2437,
      "▁[ఇ": 2438,
      "▁\"జ": 2439,
      "](https://te.wikipedia.org/wiki/ఇ": 2440,
      "](https://te.wikipedia.org/wiki/స": 2441,
      "▁विक": 2442,
      "▁pl": 2443,
      "భారత_": 2444,
      "low": 2445,
      "▁tra": 2446,
      "రాజ": 2447,
      "లో](https://te.wikipedia.org/wiki/": 2448,
      "రిజ": 2449,
      "క్కు": 2450,
      "ండ్": 2451,
      "_Indian_": 2452,
      "▁साहित": 2453,
      "तेल": 2454,
      "▁होता": 2455,
      "స్కృతి": 2456,
      "तमिळनाडू": 2457,
      "-l": 2458,
      "2_": 2459,
      "9)": 2460,
      "rec": 2461,
      "नाग": 2462,
      "▁तक": 2463,
      "▁विश": 2464,
      "▁July": 2465,
      "imes": 2466,
      "](Special:BookSources/978-1": 2467,
      "▁\"Special:BookSources/978-1": 2468,
      "olitical": 2469,
      "▁Island": 2470,
      "▁not": 2471,
      "330px-": 2472,
      "121": 2473,
      "_अ": 2474,
      "fn_": 2475,
      "वार": 2476,
      "स.": 2477,
      "arget": 2478,
      "▁आधार": 2479,
      "\\_no-": 2480,
      "▁Sfn": 2481,
      "▁दे": 2482,
      "▁target": 2483,
      "1994": 2484,
      "मुंबई": 2485,
      "ople": 2486,
      ".php": 2487,
      "fn\\_no-": 2488,
      "▁error:": 2489,
      "template_": 2490,
      "illion": 2491,
      "\\_Sfn\\_no-": 2492,
      "\\_errors\n": 2493,
      "target\\_errors\n": 2494,
      "_and_Sfn_": 2495,
      "\\_and\\_Sfn\\_no-": 2496,
      "▁template": 2497,
      "▁target:": 2498,
      "template_errors": 2499,
      "_and_Sfn_template_errors": 2500,
      "\\_and\\_Sfn\\_no-target\\_errors\n": 2501,
      "/A": 2502,
      "Singh": 2503,
      "ober": 2504,
      "भारतीय": 2505,
      "](https://en.wikipedia.org/wiki/Indian_": 2506,
      "ेशिया": 2507,
      "▁10": 2508,
      "▁त्या": 2509,
      "▁Empire": 2510,
      "▁New": 2511,
      "▁./Category:": 2512,
      "isher": 2513,
      "म्मू": 2514,
      "news/": 2515,
      "dustry": 2516,
      "68": 2517,
      "_सा": 2518,
      "तंत्र": 2519,
      "ृष्ट": 2520,
      "▁वे": 2521,
      "ates": 2522,
      "entre": 2523,
      "▁CITEREF": 2524,
      "▁En": 2525,
      "हाय": 2526,
      "▁प्राचीन": 2527,
      "-language": 2528,
      "2-0)": 2529,
      "_सं": 2530,
      "ris": 2531,
      "ution": 2532,
      "त्या": 2533,
      "द्या": 2534,
      "वरी": 2535,
      "ం?action=edit&redlink=1": 2536,
      "చే": 2537,
      "బా": 2538,
      "▁[జ": 2539,
      "▁[![](https://upload.wikimedia.org/wikipedia/commons/thumb/": 2540,
      "▁\"उ": 2541,
      "ant": 2542,
      "cient": 2543,
      "](https://hi.wikipedia.org/wiki/ब": 2544,
      "ley": 2545,
      "ledge": 2546,
      "ed.": 2547,
      "▁हवा": 2548,
      "▁असे": 2549,
      "▁పా": 2550,
      "ाता": 2551,
      "त्रि": 2552,
      "urr": 2553,
      "ासून": 2554,
      "ले.": 2555,
      "▁వా": 2556,
      "▁काही": 2557,
      "ండు": 2558,
      "▁చూ": 2559,
      "త్వ": 2560,
      "ప్రధాన": 2561,
      "ुरु": 2562,
      "ुरू": 2563,
      "▁తే": 2564,
      "DwAAQBAJ&pg=PA": 2565,
      "▁संस्कृती": 2566,
      "_की_सूची": 2567,
      "2-": 2568,
      "_ब": 2569,
      "ocial": 2570,
      "xt": 2571,
      "\")*.": 2572,
      "र्ना": 2573,
      "duc": 2574,
      "auth": 2575,
      "युक्त": 2576,
      "र्नाटक": 2577,
      "\"](https://": 2578,
      "%28": 2579,
      ",000": 2580,
      "_3": 2581,
      "_19": 2582,
      "dom": 2583,
      "dus": 2584,
      "ओं": 2585,
      "▁ओ": 2586,
      "king": 2587,
      "ref-1": 2588,
      "note-1": 2589,
      "dex": 2590,
      "depend": 2591,
      "▁\"South": 2592,
      "iron": 2593,
      "पुरी": 2594,
      "▁this": 2595,
      "▁लि": 2596,
      "ियों": 2597,
      "]](https://hi.wikipedia.org/wiki/भारत#cite_note-FOOTNOTE": 2598,
      "ummit\")": 2599,
      "engal": 2600,
      "▁have": 2601,
      "ंग्रेज़ी": 2602,
      "pt": 2603,
      "दार": 2604,
      "दर्": 2605,
      "नि": 2606,
      "▁24": 2607,
      "tember": 2608,
      "row": 2609,
      "▁government": 2610,
      "eptember": 2611,
      "ffair": 2612,
      "ian": 2613,
      "van": 2614,
      "दल": 2615,
      "▁[J": 2616,
      "▁\"J": 2617,
      "cience": 2618,
      "▁किया": 2619,
      "rab": 2620,
      "▁प्रकार": 2621,
      "anges": 2622,
      "here": 2623,
      "▁नृत्य": 2624,
      "outh_Asia": 2625,
      "Stein1998": 2626,
      "गुजरात": 2627,
      "Singh2009": 2628,
      "_20": 2629,
      "_సా": 2630,
      "hat": 2631,
      "ग्": 2632,
      "तील": 2633,
      "मधील": 2634,
      "ाचे": 2635,
      "ంప": 2636,
      "కో": 2637,
      "గణ": 2638,
      "దిన": 2639,
      "నై": 2640,
      "రీ": 2641,
      "▁\"చ": 2642,
      "time": 2643,
      "](https://te.wikipedia.org/wiki/జ": 2644,
      "ారం": 2645,
      "sid": 2646,
      "-17": 2647,
      "▁క్రీ": 2648,
      "క్‌": 2649,
      "నికి": 2650,
      "ల్ల": 2651,
      "क्षा": 2652,
      "ంగీ": 2653,
      "▁సి": 2654,
      "संख्या": 2655,
      "నాభా": 2656,
      "జాబి": 2657,
      ".jpg/120px-": 2658,
      "▁శా": 2659,
      "▁భాష\")": 2660,
      "బెంగ": 2661,
      "జాబితా": 2662,
      "Dyson": 2663,
      "Vi": 2664,
      "_%28": 2665,
      "eth": 2666,
      "viron": 2667,
      "शि": 2668,
      "▁year": 2669,
      "ince": 2670,
      "](https://en.wikipedia.org/wiki/J": 2671,
      "eser": 2672,
      "▁into": 2673,
      "▁Aug": 2674,
      "ctober": 2675,
      "ritan": 2676,
      "_Press": 2677,
      "▁October": 2678,
      "logy": 2679,
      "nologue": 2680,
      "uropean": 2681,
      "ombined": 2682,
      "vironment": 2683,
      "▁August": 2684,
      "51": 2685,
      "pi": 2686,
      "▁(201": 2687,
      "▁their": 2688,
      "▁sfn": 2689,
      "▁अर्थ": 2690,
      "▁comp": 2691,
      "ंगीत": 2692,
      "210": 2693,
      "ember": 2694,
      ".jpg/330px-": 2695,
      "▁dis": 2696,
      "fficial": 2697,
      "ya": 2698,
      "लय": 2699,
      "श्र": 2700,
      "▁us": 2701,
      "▁भा": 2702,
      "\").[[": 2703,
      "ond": 2704,
      "ally": 2705,
      "▁मंदिर": 2706,
      "sical": 2707,
      "नाथ": 2708,
      "▁Pradesh": 2709,
      "स्ला": 2710,
      "त्तरा": 2711,
      "▁June": 2712,
      "▁during": 2713,
      ".gov/": 2714,
      "▁खाना": 2715,
      "also": 2716,
      "_summit": 2717,
      "▁मुख्य": 2718,
      "india.gov.in": 2719,
      "▁(PDF)": 2720,
      "▁Commission": 2721,
      "CN": 2722,
      "ओड": 2723,
      "कल": 2724,
      "गा": 2725,
      "पे": 2726,
      "ीस": 2727,
      "ेर": 2728,
      "estern": 2729,
      "▁पद": 2730,
      "न्द": 2731,
      "able": 2732,
      "च्च": 2733,
      "oor": 2734,
      "पती": 2735,
      "बसे": 2736,
      "ऱ्या": 2737,
      "చల్": 2738,
      "యన్": 2739,
      "షు": 2740,
      "ూర్": 2741,
      "▁ला": 2742,
      "▁[చ": 2743,
      "▁[భారత": 2744,
      "▁[భారతీయ": 2745,
      "\"):": 2746,
      "anu": 2747,
      "one": 2748,
      "](https://te.wikipedia.org/wiki/ప": 2749,
      "](https://te.wikipedia.org/wiki/భారతీయ": 2750,
      "ార్ట": 2751,
      "ాలయ": 2752,
      "▁ch": 2753,
      "▁Archived": 2754,
      "క్క": 2755,
      "▁వ్యవస్థ": 2756,
      "▁ము": 2757,
      "ली.": 2758,
      "ండో": 2759,
      "](https://mr.wikipedia.org/wiki/भारतीय_": 2760,
      "▁गया": 2761,
      "ముంబ": 2762,
      "▁2023": 2763,
      "సిన": 2764,
      "-81": 2765,
      "ినల్": 2766,
      "ద్ద": 2767,
      "▁ఉన్న": 2768,
      "▁ఉన్నాయ": 2769,
      "▁राज्ये": 2770,
      "▁राज्यों": 2771,
      "పాకిస్తాన్": 2772,
      "▁Press\").": 2773,
      "ంధీ": 2774,
      "हिन्दी": 2775,
      "▁ఒక": 2776,
      "▁ఒరిజ": 2777,
      "outledge": 2778,
      "▁first": 2779,
      "argest": 2780,
      "వంశం": 2781,
      "▁తేదీ": 2782,
      "ార్టీ": 2783,
      "▁ఒరిజినల్": 2784,
      "58": 2785,
      "NG": 2786,
      "a/": 2787,
      "je": 2788,
      "ne": 2789,
      "oy": 2790,
      "भी": 2791,
      "विक": 2792,
      "lig": 2793,
      "230": 2794,
      "मुख्य": 2795,
      "ibrary": 2796,
      "च्छ": 2797,
      "▁सूची\")": 2798,
      "-g": 2799,
      "5%": 2800,
      "CO": 2801,
      "Combined": 2802,
      "Rothermund": 2803,
      "_K": 2804,
      "_University": 2805,
      "jab": 2806,
      "ote": 2807,
      "uis": 2808,
      "▁थ": 2809,
      "▁22": 2810,
      "ara": 2811,
      "▁कि": 2812,
      "life": 2813,
      "ing\\_": 2814,
      "ade": 2815,
      "▁दिल्ली": 2816,
      "▁ag": 2817,
      "▁तर": 2818,
      "▁बन": 2819,
      "न्द्र": 2820,
      "ayan": 2821,
      "▁[मूल": 2822,
      "ार्थ": 2823,
      "earch": 2824,
      "व्यवस्था": 2825,
      "Dyson2018": 2826,
      "_re": 2827,
      "cri": 2828,
      "por": 2829,
      "son": 2830,
      "जय": 2831,
      "पाल": 2832,
      "▁लेख": 2833,
      "wing": 2834,
      "▁[I": 2835,
      "liament": 2836,
      "2000": 2837,
      "▁September": 2838,
      "ural": 2839,
      "ांक": 2840,
      "▁world": 2841,
      "▁region": 2842,
      "ी_भाषा": 2843,
      "ण्ड": 2844,
      "Ar": 2845,
      "Kulke": 2846,
      "_W": 2847,
      "gy": 2848,
      "सभा": 2849,
      "▁also": 2850,
      "▁\"सं": 2851,
      "India)": 2852,
      "▁सबसे": 2853,
      "](https://hi.wikipedia.org/wiki/चित्र:": 2854,
      "▁population": 2855,
      "▁system": 2856,
      "▁maint:": 2857,
      "लादेश": 2858,
      "ourt": 2859,
      "ight": 2860,
      "संख्य": 2861,
      "बाद": 2862,
      "hism": 2863,
      "▁पुरालेखित": 2864,
      "ृष्ठ": 2865,
      "▁युद्ध": 2866,
      "▁पुरालेखित।": 2867,
      "country": 2868,
      "डे": 2869,
      "ूळ": 2870,
      "జ్": 2871,
      "వరి": 2872,
      "శ్చ": 2873,
      "ిన్న": 2874,
      "ెల": 2875,
      "▁wi": 2876,
      "▁al": 2877,
      "▁per": 2878,
      "▁\"భారతదేశ": 2879,
      "▁कार": 2880,
      "్రె": 2881,
      "](https://mr.wikipedia.org/wiki/ग": 2882,
      "▁म्ह": 2883,
      "्याया": 2884,
      "ांच्या": 2885,
      "ాలు\n": 2886,
      "నిస్తాన్": 2887,
      "▁2016": 2888,
      "▁మధ్య": 2889,
      "](https://te.wikipedia.org/wiki/భారతదేశంలో": 2890,
      "స్థాన్": 2891,
      "-2)": 2892,
      "▁झाले": 2893,
      "▁పేజీ": 2894,
      "▁(PDF).": 2895,
      "ैदिक": 2896,
      "మ్మూ": 2897,
      "▁\"భారతదేశంలో": 2898,
      "▁मिळ": 2899,
      "▁చూసిన": 2900,
      "▁తేదీ:": 2901,
      "శ్చి": 2902,
      "▁म्हण": 2903,
      "▁పేజీని": 2904,
      "-19": 2905,
      "31": 2906,
      "7/": 2907,
      "_I": 2908,
      "gar": 2909,
      "ich": 2910,
      "iver": 2911,
      "सि": 2912,
      "ॉल": 2913,
      "▁सु": 2914,
      "▁Act": 2915,
      "etwe": 2916,
      "ument": 2917,
      "cember": 2918,
      "term": 2919,
      "▁इंडिया": 2920,
      "umbai": 2921,
      "hina": 2922,
      "emple": 2923,
      "िशा": 2924,
      "क्ति": 2925,
      "द्योग": 2926,
      "पूर्वी": 2927,
      "मेर": 2928,
      "vision": 2929,
      "ughal": 2930,
      "ffairs": 2931,
      "ritannic": 2932,
      "etween": 2933,
      "_f": 2934,
      "_पर": 2935,
      "dle": 2936,
      "oast": 2937,
      "गोल": 2938,
      "ौर": 2939,
      "▁[t": 2940,
      "anisation": 2941,
      "ool": 2942,
      "िकी": 2943,
      "adu": 2944,
      "▁उत्तर": 2945,
      "▁form": 2946,
      "epublic": 2947,
      "ंत्री": 2948,
      "▁नाम": 2949,
      "ographic": 2950,
      "\".": 2951,
      "-in-": 2952,
      "ok": 2953,
      "rm": 2954,
      "tain": 2955,
      "सम": 2956,
      "।[[": 2957,
      "▁es": 2958,
      "▁21": 2959,
      "tera": 2960,
      "▁India:": 2961,
      "ियाँ": 2962,
      "▁Population": 2963,
      "unjab": 2964,
      "ortal": 2965,
      "ogni": 2966,
      "gency": 2967,
      "embly": 2968,
      "_University_Press": 2969,
      "KulkeRothermund": 2970,
      "mu": 2971,
      "zed": 2972,
      "रत": 2973,
      "▁6": 2974,
      "▁\"O": 2975,
      "▁India\"),": 2976,
      "iddle": 2977,
      "ेश्व": 2978,
      "▁16": 2979,
      "▁जु": 2980,
      "माज": 2981,
      "▁been": 2982,
      "▁विश्व": 2983,
      "ेश्वर": 2984,
      "%29": 2985,
      "8](https://en.wikipedia.org/wiki/India#CITEREF": 2986,
      "_धर्म": 2987,
      "aper": 2988,
      "her": 2989,
      "pl": 2990,
      "ण्यात": 2991,
      "लाल": 2992,
      "షన్": 2993,
      "హ్": 2994,
      "ెలు": 2995,
      "–1": 2996,
      "▁'": 2997,
      "ारे": 2998,
      "](https://te.wikipedia.org/wiki/అ": 2999,
      "omen": 3000,
      "▁आक": 3001,
      "ama": 3002,
      "ातंत्र": 3003,
      "▁Ass": 3004,
      "▁Se": 3005,
      "▁प्रजात": 3006,
      "](https://hi.wikipedia.org/wiki/भारत#CITEREF": 3007,
      "రియా": 3008,
      "oll": 3009,
      "ों_की_सूची": 3010,
      "▁మార్": 3011,
      "वाद": 3012,
      "▁साथ": 3013,
      "ప్రపంచ": 3014,
      "▁है।\n": 3015,
      "स्कृत": 3016,
      "▁సంస్కృతి": 3017,
      "దీవ": 3018,
      "▁टक्": 3019,
      "udden": 3020,
      "▁येथ": 3021,
      "िंधू": 3022,
      "▁subcontinent": 3023,
      "▁शिक्षण": 3024,
      "▁हवामान": 3025,
      "▁प्रजाती": 3026,
      "CE": 3027,
      "cat": 3028,
      "pp": 3029,
      "ंका": 3030,
      "ern": 3031,
      "▁state": 3032,
      "▁cons": 3033,
      "▁Ch": 3034,
      "ीलंका": 3035,
      "▁2024": 3036,
      "formatics": 3037,
      "les/": 3038,
      "view": 3039,
      "ujar": 3040,
      "clo": 3041,
      "ies": 3042,
      "rans": 3043,
      "▁था": 3044,
      "▁\"W": 3045,
      "▁\"श्रेणी:Harv": 3046,
      "India_": 3047,
      "](https://hi.wikipedia.org/wiki/श्रेणी:Harv": 3048,
      "raven": 3049,
      "chnolog": 3050,
      "▁most": 3051,
      "▁जा": 3052,
      "▁जिस": 3053,
      "its": 3054,
      "▁Metcalf": 3055,
      "olper": 3056,
      "दीव": 3057,
      "▁National": 3058,
      "▁2006": 3059,
      "▁संघ": 3060,
      "▁For": 3061,
      "▁./श्रेणी:Harv": 3062,
      "_De": 3063,
      "_नदी": 3064,
      "▁([help](https://hi.wikipedia.org/wiki/श्रेणी:Harv": 3065,
      "_and_Sfn_template_errors?action=edit&redlink=1": 3066,
      "chnology": 3067,
      "olpert": 3068,
      "▁./श्रेणी:Harv\\_and\\_Sfn\\_no-target\\_errors\n": 3069,
      "▁([help](https://hi.wikipedia.org/wiki/श्रेणी:Harv_and_Sfn_template_errors?action=edit&redlink=1": 3070,
      ":[": 3071,
      "lag": 3072,
      "टा": 3073,
      "िहार": 3074,
      "ोह": 3075,
      "▁ac": 3076,
      ".org/10.": 3077,
      "▁\"I": 3078,
      "-06": 3079,
      "▁1.": 3080,
      "▁गे": 3081,
      "%2F": 3082,
      "doi.org/10.": 3083,
      "▁गणराज्य": 3084,
      "Template:": 3085,
      "61": 3086,
      "are": 3087,
      "fric": 3088,
      "how": 3089,
      "way": 3090,
      "गत": 3091,
      "टन": 3092,
      "▁en": 3093,
      "▁ar": 3094,
      "▁28": 3095,
      "▁ru": 3096,
      "encies": 3097,
      "andhi": 3098,
      "▁व्य": 3099,
      "▁Census": 3100,
      "▁but": 3101,
      "▁between": 3102,
      "▁more": 3103,
      "00)": 3104,
      "साय": 3105,
      "118": 3106,
      "apit": 3107,
      "harma": 3108,
      "Harle": 3109,
      "](https://en.wikipedia.org/wiki/South": 3110,
      "known": 3111,
      "▁ऑफ": 3112,
      "inister": 3113,
      "ritannica": 3114,
      "-f": 3115,
      "2/": 3116,
      "98": 3117,
      "_వ": 3118,
      "ned": 3119,
      "दु": 3120,
      "ाचा": 3121,
      "ेड": 3122,
      "ం\"),": 3123,
      "ంత్రి": 3124,
      "ఆఫ్": 3125,
      "కత": 3126,
      "కై": 3127,
      "క్య": 3128,
      "దాయ": 3129,
      "రే": 3130,
      "లంక": 3131,
      "వీ": 3132,
      "శ్రీ": 3133,
      "షి": 3134,
      "సు": 3135,
      "▁ई": 3136,
      "▁ఏ": 3137,
      "▁[సి": 3138,
      "resid": 3139,
      "](https://te.wikipedia.org/wiki/చ": 3140,
      "▁(20": 3141,
      "స్సా": 3142,
      "▁పరి": 3143,
      "▁పార్టీ": 3144,
      "న్‌": 3145,
      "▁तसे": 3146,
      "▁కు": 3147,
      "▁बंगाल": 3148,
      "▁వచ్చ": 3149,
      "ముద్ర": 3150,
      "ताज": 3151,
      "▁संविधान": 3152,
      "▁यां": 3153,
      "▁national": 3154,
      "harat": 3155,
      "म्ब": 3156,
      ".gov.in/": 3157,
      "▁bec": 3158,
      "▁होती": 3159,
      "గాంధీ": 3160,
      "నేపాల": 3161,
      "िवस": 3162,
      "▁Development": 3163,
      "▁పేరు": 3164,
      "హిందీ": 3165,
      "▁निर्": 3166,
      "▁2014.\n": 3167,
      "▁చెయ్య": 3168,
      "actbook": 3169,
      "▁కూడా": 3170,
      "▁साहित्य": 3171,
      "हाय्य": 3172,
      "ంగీతం": 3173,
      "श्रीलंका": 3174,
      "ముంబై": 3175,
      "శ్చిమ": 3176,
      "▁మార్గ": 3177,
      "▁तसेच": 3178,
      "▁చెయ్యబడ": 3179,
      "d/": 3180,
      "ology": 3181,
      "va": 3182,
      "wo": 3183,
      "गढ़": 3184,
      "तमिल": 3185,
      "▁Y": 3186,
      "▁[च": 3187,
      "▁[Indian": 3188,
      "ash": 3189,
      "edu": 3190,
      "▁Constitution": 3191,
      "स्थ": 3192,
      "▁ब्रिटिश": 3193,
      "हिमा": 3194,
      "ublish": 3195,
      "-80": 3196,
      "▁1950": 3197,
      "▁यह": 3198,
      "पूर्": 3199,
      "cyclo": 3200,
      "_के_राज्य": 3201,
      "-107": 3202,
      "▁December": 3203,
      "▁century": 3204,
      "AsherTalbot2008": 3205,
      "anuary": 3206,
      "07": 3207,
      "back": 3208,
      "tle": 3209,
      "ोर्": 3210,
      "▁23": 3211,
      "ped": 3212,
      "▁[3": 3213,
      "er,": 3214,
      "ofindia": 3215,
      "1950": 3216,
      "▁Cambridge": 3217,
      "न्स": 3218,
      "▁(identifier)\"):[": 3219,
      "र्थिक": 3220,
      "ovement": 3221,
      "ंग्ल": 3222,
      "-26": 3223,
      "1_": 3224,
      "4/": 3225,
      "4–": 3226,
      "lad": 3227,
      "rish": 3228,
      "t-": 3229,
      "uch": 3230,
      "फ़": 3231,
      "में": 3232,
      "▁[[": 3233,
      "▁\"ह": 3234,
      "▁मा": 3235,
      "▁music": 3236,
      "▁after": 3237,
      "▁January": 3238,
      "▁dance": 3239,
      "avid": 3240,
      "▁खास": 3241,
      "शास्त्र": 3242,
      "ompany": 3243,
      "-0-19-8": 3244,
      "censusindia.gov.in/": 3245,
      "recogni": 3246,
      "दर्भ": 3247,
      "-c": 3248,
      "1-0)": 3249,
      "South": 3250,
      "ख्": 3251,
      "५०": 3252,
      "▁k": 3253,
      "▁other": 3254,
      "▁[e": 3255,
      "▁आज": 3256,
      "▁pri": 3257,
      "▁comm": 3258,
      "▁Th": 3259,
      "▁India\")\n": 3260,
      "चेरी": 3261,
      "प्रधान": 3262,
      "▁2020": 3263,
      "▁number": 3264,
      "%E0%A4%A": 3265,
      "Wikipedia": 3266,
      "3-0)": 3267,
      "53": 3268,
      "_या": 3269,
      "_और": 3270,
      "tary": 3271,
      "ttar": 3272,
      "एं": 3273,
      "ळ\")": 3274,
      "ूटी": 3275,
      "గర": 3276,
      "టక": 3277,
      "టా": 3278,
      "దార": 3279,
      "నీ": 3280,
      "రో": 3281,
      "సభ": 3282,
      "ెద్ద": 3283,
      "▁over": 3284,
      "▁\"సి": 3285,
      "ones": 3286,
      "▁कु": 3287,
      "](https://te.wikipedia.org/wiki/భారత_": 3288,
      "▁पठ": 3289,
      "राण": 3290,
      "▁పు": 3291,
      "fic": 3292,
      "▁दि": 3293,
      "come": 3294,
      "ross": 3295,
      "రాజ్య": 3296,
      "▁ab": 3297,
      "▁కేంద్రపాలిత": 3298,
      "▁May": 3299,
      "▁who": 3300,
      "▁మా": 3301,
      "▁చే": 3302,
      "▁East": 3303,
      "▁English": 3304,
      "ము\")": 3305,
      "త్స": 3306,
      "form": 3307,
      "▁రాజ్య": 3308,
      "ake": 3309,
      "వాతంత్ర": 3310,
      ".png": 3311,
      ".jpg)](https://mr.wikipedia.org/wiki/चित्र:": 3312,
      "▁దేశాల": 3313,
      "▁Press.": 3314,
      "లాదేశ్": 3315,
      "ustral": 3316,
      "స్తు": 3317,
      "▁సామ్రాజ్యం](https://te.wikipedia.org/wiki/": 3318,
      "ంగ్లాదేశ్": 3319,
      "▁భాషలు": 3320,
      "%E0%A4%BE": 3321,
      "ారు.": 3322,
      "times.com/": 3323,
      "_ప్రా": 3324,
      "్రిటి": 3325,
      "▁అధికార": 3326,
      "_साम्राज्य": 3327,
      "▁years": 3328,
      "ओडिशा": 3329,
      "ూర్పు": 3330,
      "संख्ये": 3331,
      "▁टक्के": 3332,
      "కైవు": 3333,
      "recognized": 3334,
      "_यादी": 3335,
      "ID": 3336,
      "_J": 3337,
      "ey": 3338,
      "uri": 3339,
      "टि": 3340,
      "तां": 3341,
      "नगर": 3342,
      "िने": 3343,
      "४७": 3344,
      "▁३": 3345,
      "▁27": 3346,
      "▁[v": 3347,
      "▁\"ल": 3348,
      "tis": 3349,
      "theast": 3350,
      "ान\")": 3351,
      "rac": 3352,
      "2001": 3353,
      "▁spe": 3354,
      "▁Congress": 3355,
      "lob": 3356,
      "▁नदी": 3357,
      "▁*The": 3358,
      "ंडोन": 3359,
      "तिश": 3360,
      "ंध्र": 3361,
      "हासा": 3362,
      "विश्व": 3363,
      "ovember": 3364,
      "त्रिपुरा": 3365,
      "ंडोनेशिया": 3366,
      "%7": 3367,
      "/articles": 3368,
      "6_": 3369,
      "79": 3370,
      "NC": 3371,
      "_ए": 3372,
      "ban": 3373,
      "eg": 3374,
      "f/": 3375,
      "hol": 3376,
      "mi": 3377,
      "oth": 3378,
      "pr": 3379,
      "ंद्र": 3380,
      "गढ": 3381,
      "तो": 3382,
      "मर": 3383,
      "मह": 3384,
      "kim": 3385,
      "pear": 3386,
      "▁\"विशेष:पुस्तक": 3387,
      "](https://en.wikipedia.org/wiki/W": 3388,
      "▁स्रोत/978": 3389,
      "](https://hi.wikipedia.org/wiki/ISBN_(identifier)": 3390,
      "](https://hi.wikipedia.org/wiki/विशेष:पुस्तक": 3391,
      "▁Sh": 3392,
      "anglad": 3393,
      "edic": 3394,
      "_of_the": 3395,
      "लाई": 3396,
      "istan": 3397,
      "cture": 3398,
      "ird": 3399,
      "हिमालय": 3400,
      "▁./श्रेणी:": 3401,
      "▁[ISBN](https://hi.wikipedia.org/wiki/ISBN_(identifier)": 3402,
      "▁[*A": 3403,
      "_के_आ": 3404,
      "_स्रोत/978": 3405,
      "▁2011.\n": 3406,
      "▁धर्म\")": 3407,
      "tent": 3408,
      "rofile": 3409,
      "▁territories": 3410,
      "साँचा:": 3411,
      "lassical": 3412,
      "countries_by": 3413,
      "censusindia.gov.in/2011": 3414,
      "](https://hi.wikipedia.org/wiki/विशेष:पुस्तक_स्रोत/978": 3415,
      "angladesh": 3416,
      "-d": 3417,
      "-21": 3418,
      ".as": 3419,
      "UCN": 3420,
      "_उ": 3421,
      "bi": 3422,
      "c=": 3423,
      "sch": 3424,
      "तन": 3425,
      "हरी": 3426,
      "erv": 3427,
      "eration": 3428,
      "▁व्या": 3429,
      "ालय": 3430,
      "▁प्रत्य": 3431,
      "▁जो": 3432,
      "चिन्": 3433,
      "visions": 3434,
      "-re": 3435,
      ".india": 3436,
      "110": 3437,
      "4-0)": 3438,
      "_V": 3439,
      "oin": 3440,
      "oon": 3441,
      "डो": 3442,
      "ल\")": 3443,
      "ीन": 3444,
      "ोड़": 3445,
      "०१": 3446,
      "▁art": 3447,
      "▁[Metcalf": 3448,
      "▁\"बा": 3449,
      "2023": 3450,
      "arb": 3451,
      "ess": 3452,
      "▁India.": 3453,
      "rahm": 3454,
      "▁part": 3455,
      "-14": 3456,
      "▁[↑](https://hi.wikipedia.org/wiki/भारत#cite_": 3457,
      "ilk": 3458,
      "▁election": 3459,
      "▁है,": 3460,
      "▁[South": 3461,
      "eport": 3462,
      "▁[2](https://en.wikipedia.org/wiki/India#cite_ref-FOOTNOTE": 3463,
      "▁[1](https://en.wikipedia.org/wiki/India#cite_ref-FOOTNOTE": 3464,
      "obb": 3465,
      "▁बाद": 3466,
      "ूचना": 3467,
      ".स.": 3468,
      "_द": 3469,
      "_territ": 3470,
      "ges": 3471,
      "has": 3472,
      "wal": 3473,
      "ंती": 3474,
      "जास": 3475,
      "ण्या": 3476,
      "रो": 3477,
      "वली": 3478,
      "ంజా": 3479,
      "గి": 3480,
      "టీ": 3481,
      "టాన్": 3482,
      "మంత్రి": 3483,
      "లను": 3484,
      "వె": 3485,
      "వరణ": 3486,
      "హదార": 3487,
      "ూచ": 3488,
      "▁హ": 3489,
      "▁భారతదేశ": 3490,
      "▁up": 3491,
      "](https://doi.org/10.": 3492,
      "▁केंद्र": 3493,
      "్రమ": 3494,
      "▁official": 3495,
      "ased": 3496,
      "riod": 3497,
      "▁मार्": 3498,
      "▁केले": 3499,
      "భారతదేశ_": 3500,
      "▁కొ": 3501,
      "▁వ్యా": 3502,
      "▁2012": 3503,
      "23)": 3504,
      "▁మత": 3505,
      "▁మతము": 3506,
      "▁आहे.\n": 3507,
      "▁आहे.[[": 3508,
      "24)": 3509,
      "తావరణ": 3510,
      "నాడు": 3511,
      "▁Hindi": 3512,
      "▁इतर": 3513,
      "▁2009": 3514,
      "त्ताक": 3515,
      "▁रूप": 3516,
      "पाद": 3517,
      "▁ఉంది.": 3518,
      "doc": 3519,
      "वेब": 3520,
      "्यांची": 3521,
      "▁ఇతర": 3522,
      "ालीन": 3523,
      "ాయి": 3524,
      "णाचल": 3525,
      "▁नाव": 3526,
      "पर्य": 3527,
      "▁झाला": 3528,
      "ణాసియా": 3529,
      "▁मोठ": 3530,
      "▁[Archived](https://web.archive.org/web/201": 3531,
      "रुणाचल": 3532,
      "देव": 3533,
      "టెడ్": 3534,
      "▁ఆర్కైవు": 3535,
      "▁రైలు": 3536,
      "భూటాన్": 3537,
      "्यानमार": 3538,
      "▁tradition": 3539,
      "_సామ్రాజ్యం": 3540,
      "ातंत्र्य": 3541,
      "వాతంత్ర్య": 3542,
      "जासत्ताक": 3543,
      "500": 3544,
      "85": 3545,
      "Pages": 3546,
      "_e": 3547,
      "lam": 3548,
      "ose": 3549,
      "pur": 3550,
      "rin": 3551,
      "s.[[": 3552,
      "ura": 3553,
      "आई": 3554,
      "खन": 3555,
      "छत्त": 3556,
      "ध्या": 3557,
      "▁all": 3558,
      "orther": 3559,
      "thnologue": 3560,
      "off": 3561,
      "▁सर्": 3562,
      "ouse": 3563,
      "asia": 3564,
      "ानुसार": 3565,
      "▁states": 3566,
      "▁अप": 3567,
      "▁जय": 3568,
      "▁March": 3569,
      "विष": 3570,
      "gions": 3571,
      "▁[Stein": 3572,
      "▁Oxford": 3573,
      "ndaman": 3574,
      "▁स्थ": 3575,
      "olicy": 3576,
      "orities": 3577,
      "धार_पर": 3578,
      "clu": 3579,
      "ligious": 3580,
      "ed.).": 3581,
      "▁2006](https://en.wikipedia.org/wiki/India#CITEREF": 3582,
      "_के_आधार_पर": 3583,
      "छत्तीस": 3584,
      "orthern": 3585,
      "_के_आधार_पर_भारत": 3586,
      "*,": 3587,
      "73": 3588,
      "BC": 3589,
      "Hindi": 3590,
      "fr": 3591,
      "▁ro": 3592,
      "▁[O": 3593,
      "▁[U": 3594,
      "▁[ल": 3595,
      "ering": 3596,
      "▁पर्व": 3597,
      "▁Schwartzberg": 3598,
      "▁13": 3599,
      "िया\")": 3600,
      "▁नदी\")": 3601,
      "ilg": 3602,
      "▁2017": 3603,
      "olk": 3604,
      "क्षद्वीप": 3605,
      "1997": 3606,
      "ikh": 3607,
      "-le": 3608,
      "1–": 3609,
      "86": 3610,
      "Fisher": 3611,
      "JP": 3612,
      "_O": 3613,
      "eh": 3614,
      "lang": 3615,
      "pib": 3616,
      "ton": 3617,
      "▁४": 3618,
      "▁ले": 3619,
      "▁res": 3620,
      "index": 3621,
      "onwe": 3622,
      "ale": 3623,
      "alley": 3624,
      "rick": 3625,
      "िकोब": 3626,
      "▁द्वीप": 3627,
      "▁न्याया": 3628,
      "▁Budd": 3629,
      "▁BCE": 3630,
      "▁had": 3631,
      "erala": 3632,
      "▁[2](https://en.wikipedia.org/wiki/India#cite_ref-": 3633,
      "▁[1](https://en.wikipedia.org/wiki/India#cite_ref-": 3634,
      "ocra": 3635,
      "▁2010](https://en.wikipedia.org/wiki/India#CITEREF": 3636,
      "▁पुरालेखित।.": 3637,
      "▁जुलाई": 3638,
      ".indiatimes.com/": 3639,
      "_के_आधार_पर_भारत_के_राज्य": 3640,
      "Fisher2018": 3641,
      "onwealth": 3642,
      "िकोबार": 3643,
      ".n": 3644,
      "32": 3645,
      "88": 3646,
      "lu": 3647,
      "work": 3648,
      "धु": 3649,
      "▁Union": 3650,
      "▁time": 3651,
      "order": 3652,
      "pect": 3653,
      "▁[doi": 3654,
      "ar,": 3655,
      "eds.": 3656,
      "▁Times": 3657,
      "प्रदेश": 3658,
      "-40": 3659,
      "abad": 3660,
      "▁[\"C": 3661,
      "_Centre": 3662,
      "imf": 3663,
      "▁[Dikshit": 3664,
      "▁\"Doi": 3665,
      "oi_(identifier)": 3666,
      "ujarat": 3667,
      "▁(identifier)\"):[10.": 3668,
      ".b": 3669,
      "1]](https://en.wikipedia.org/wiki/India#cite_note-FOOTNOTE": 3670,
      "ft": 3671,
      "imp": 3672,
      "oa": 3673,
      "खा": 3674,
      "झार": 3675,
      "न](https://hi.wikipedia.org/wiki/": 3676,
      "पासून": 3677,
      "ంశ": 3678,
      "ఆర్": 3679,
      "ఉత్తర": 3680,
      "ఒడి": 3681,
      "కీయ": 3682,
      "గలు": 3683,
      "చు": 3684,
      "జరా": 3685,
      "తూర్పు": 3686,
      "భు": 3687,
      "మన్": 3688,
      "యి": 3689,
      "లస": 3690,
      "ీన": 3691,
      "ేక": 3692,
      "▁డ": 3693,
      "▁30": 3694,
      "▁జాబితా": 3695,
      "▁[ह": 3696,
      "▁[భారతదేశ": 3697,
      "▁\"सा": 3698,
      "▁\"पंजाब": 3699,
      "ारिक": 3700,
      "city": 3701,
      "▁किल्": 3702,
      "iss": 3703,
      "](https://hi.wikipedia.org/wiki/प": 3704,
      "](https://mr.wikipedia.org/wiki/न": 3705,
      "andard": 3706,
      "ough": 3707,
      "▁मध्ये": 3708,
      "190": 3709,
      "site": 3710,
      "▁आहार": 3711,
      "achin": 3712,
      "▁పట్ట": 3713,
      "▁two": 3714,
      "change": 3715,
      "ंगलादेश": 3716,
      "rop": 3717,
      "▁**జాతీయ": 3718,
      "ांचा": 3719,
      "▁Talbot": 3720,
      "నిక": 3721,
      "ంగ్రె": 3722,
      "▁సభ": 3723,
      "ticles": 3724,
      "ics": 3725,
      "साठी": 3726,
      "](https://mr.wikipedia.org/wiki/भारत#": 3727,
      "संदर्भ": 3728,
      "తాబ్": 3729,
      "नेपा": 3730,
      "ell": 3731,
      "▁ప్రపంచ": 3732,
      "▁ప్రభు": 3733,
      "▁यादी": 3734,
      "▁\"मध्य": 3735,
      "▁पर्य": 3736,
      "▁ఆసియా": 3737,
      "सेना": 3738,
      "▁होते.": 3739,
      "_Temple": 3740,
      "▁देशों": 3741,
      "మ్రాజ్య": 3742,
      "्यांच्या": 3743,
      "▁It": 3744,
      "గుజరా": 3745,
      "▁झाली": 3746,
      "_Empire": 3747,
      "▁సామ్రాజ్యం\")": 3748,
      "▁हिन्": 3749,
      "▁[↑](https://hi.wikipedia.org/wiki/भारत#cite_ref-FOOTNOTE": 3750,
      "త్యేక": 3751,
      "రాష్ట్రపతి": 3752,
      "ప్ప": 3753,
      "▁కాశ్మీ": 3754,
      "▁రాజవంశం": 3755,
      "▁చెంద": 3756,
      "▁ఆర్ధిక": 3757,
      "▁స్థాన": 3758,
      "ंग्रजी": 3759,
      "usiness": 3760,
      "िक्की": 3761,
      "తమిళనాడు": 3762,
      "▁होता.": 3763,
      "ప్రధానమంత్రి": 3764,
      "గణతంత్ర": 3765,
      "▁క్రీడ": 3766,
      "▁अर्थव्यवस्था": 3767,
      "▁ఉన్నాయి.": 3768,
      "how/": 3769,
      "ఆఫ్ఘ": 3770,
      "శ్రీలంక": 3771,
      "షియా": 3772,
      "న్‌ఫ": 3773,
      "▁became": 3774,
      "నేపాల్": 3775,
      "संख्येनुसार": 3776,
      "తాబ్ద": 3777,
      "-28": 3778,
      "99": 3779,
      "Asia": 3780,
      "IM": 3781,
      "_प": 3782,
      "ffi": 3783,
      "द्व": 3784,
      "ोष": 3785,
      "▁0.": 3786,
      "▁[बा": 3787,
      "text": 3788,
      "▁समुद्र": 3789,
      "▁पक्ष": 3790,
      "▁मूल": 3791,
      "र्दू": 3792,
      "files/": 3793,
      "▁प्रमाण": 3794,
      "्षिक": 3795,
      "cean": 3796,
      "ासा": 3797,
      "ांधी": 3798,
      "▁Di": 3799,
      "▁[\"India": 3800,
      "▁period": 3801,
      "▁विकास": 3802,
      "resident": 3803,
      "हासागर": 3804,
      "-to": 3805,
      "4-7": 3806,
      "5-0)": 3807,
      "6/": 3808,
      ":CS1": 3809,
      "cms": 3810,
      "sha": 3811,
      "ymb": 3812,
      "फ्र": 3813,
      "▁$": 3814,
      "▁\"व": 3815,
      "ann": 3816,
      "](https://en.wikipedia.org/wiki/The": 3817,
      "religion": 3818,
      "ised": 3819,
      "▁मध्य": 3820,
      "▁summit\")": 3821,
      "▁caste": 3822,
      "stani": 3823,
      "▁Plate": 3824,
      "▁तट": 3825,
      "वाधिक": 3826,
      "_in_S": 3827,
      "▁2025": 3828,
      "▁2022": 3829,
      "_Asian": 3830,
      "▁group": 3831,
      "▁general": 3832,
      "▁एवं": 3833,
      "onstituent": 3834,
      "▁\"Economy": 3835,
      "](https://en.wikipedia.org/wiki/Economy": 3836,
      "crease": 3837,
      "ivil": 3838,
      "हिमाचल": 3839,
      "िनेमा": 3840,
      "6-0)": 3841,
      "Taj": 3842,
      "rar": 3843,
      "tb": 3844,
      "क्र": 3845,
      "जे": 3846,
      "पात": 3847,
      "रि": 3848,
      "रक्ष": 3849,
      "ल्य": 3850,
      "ोच्च": 3851,
      "▁history": 3852,
      "tel": 3853,
      "▁क्र": 3854,
      "▁सी": 3855,
      "▁Pe": 3856,
      "istrar": 3857,
      "26)": 3858,
      "upta": 3859,
      "1996": 3860,
      "cond": 3861,
      "▁उदा": 3862,
      "▁War": 3863,
      "ruary": 3864,
      "National_In": 3865,
      "ल्प": 3866,
      "वंट": 3867,
      "arch_": 3868,
      "▁अन्य": 3869,
      "▁साम्राज्य\")": 3870,
      "trol": 3871,
      "ebruary": 3872,
      "▁Commissioner": 3873,
      ",[[": 3874,
      "-B": 3875,
      "-23": 3876,
      "44": 3877,
      "5–": 3878,
      "89": 3879,
      "II": 3880,
      "ced": 3881,
      "ple": 3882,
      "vid": 3883,
      "vol": 3884,
      "▁[India": 3885,
      "▁\"च": 3886,
      "ala": 3887,
      "](https://en.wikipedia.org/wiki/O": 3888,
      "tionary": 3889,
      "](https://hi.wikipedia.org/wiki/उ": 3890,
      "right": 3891,
      "राठी": 3892,
      "ooperation": 3893,
      "atar": 3894,
      "\\_us": 3895,
      "▁अनुसार": 3896,
      "loy": 3897,
      "▁प्रमुख": 3898,
      "chool": 3899,
      "ित्त": 3900,
      "▁BRICS": 3901,
      "_(India)": 3902,
      "▁2003": 3903,
      "fore": 3904,
      "▁[978-0-": 3905,
      "ड़ी": 3906,
      "▁Press](https://en.wikipedia.org/wiki/": 3907,
      "▁जाते": 3908,
      "](https://en.wikipedia.org/wiki/Doi_(identifier)": 3909,
      "_का_": 3910,
      "olden": 3911,
      "rganisation": 3912,
      "Articles": 3913,
      "_Island": 3914,
      "▁[doi](https://en.wikipedia.org/wiki/Doi_(identifier)": 3915,
      "-of": 3916,
      "/P": 3917,
      "_घ": 3918,
      "_ప్రదేశ్": 3919,
      "c.": 3920,
      "olo": 3921,
      "ode": 3922,
      "voy": 3923,
      "कालीन": 3924,
      "ट्": 3925,
      "ळवंट": 3926,
      "वळ": 3927,
      "िपी": 3928,
      "ुव": 3929,
      "ैकी": 3930,
      "ం,": 3931,
      "ఉప": 3932,
      "కొ": 3933,
      "కేంద్రపాలిత": 3934,
      "జె": 3935,
      "ఢ్": 3936,
      "ది.": 3937,
      "నాల": 3938,
      "లే": 3939,
      "ళు": 3940,
      "ౌద్ధ": 3941,
      "▁५": 3942,
      "▁భా": 3943,
      "▁2.": 3944,
      "▁[19": 3945,
      "▁[వి": 3946,
      "▁[पंजाब": 3947,
      "reat": 3948,
      "errit": 3949,
      "▁सण": 3950,
      "र्जा": 3951,
      "ాలీ": 3952,
      "▁आप": 3953,
      "-00": 3954,
      "-15": 3955,
      "ర్చ": 3956,
      "ర్\")": 3957,
      "ास्त": 3958,
      "▁निव": 3959,
      "साम": 3960,
      "▁2004": 3961,
      "–సా.శ.18": 3962,
      "▁అత్య": 3963,
      "हिंदी": 3964,
      "aksh": 3965,
      "▁./वर्ग:": 3966,
      "▁than": 3967,
      "▁ఆధ": 3968,
      "మాఖ్య": 3969,
      "వాణా": 3970,
      "%E0%A5%": 3971,
      "ంటి": 3972,
      "▁దేశం": 3973,
      "డ్డ": 3974,
      "▁జనాభా": 3975,
      "దక్షిణాసియా": 3976,
      "▁पाहि": 3977,
      "▁గల": 3978,
      "ahal": 3979,
      "▁భారతదేశంలో": 3980,
      "ంగ్లీ": 3981,
      "वंश": 3982,
      "యునై": 3983,
      "ష్ణ": 3984,
      "_చరిత్ర?action=edit&redlink=1": 3985,
      "ांची_यादी": 3986,
      "_आणि": 3987,
      "odiversity": 3988,
      "▁రాష్ట్రాలు,": 3989,
      "%20%20%20%20": 3990,
      "िंह": 3991,
      "inistry_of_": 3992,
      "_మతము": 3993,
      "▁మొద": 3994,
      "_at_the": 3995,
      "NGDP": 3996,
      "▁येथील": 3997,
      "formatics_Centre": 3998,
      "▁చెయ్యబడింది.": 3999,
      "lobal": 4000,
      "▁प्रत्येक": 4001,
      "National_Informatics_Centre": 4002,
      "िपीडिया": 4003,
      "యునైటెడ్": 4004,
      "-india": 4005,
      "/auth": 4006,
      "129": 4007,
      "2).": 4008,
      "55": 4009,
      "C).": 4010,
      "Craven": 4011,
      "TR": 4012,
      "Wolpert": 4013,
      "a-": 4014,
      "az": 4015,
      "day": 4016,
      "ele": 4017,
      "gan": 4018,
      "gram": 4019,
      "hang": 4020,
      "ls": 4021,
      "ras": 4022,
      "slam": 4023,
      "yan": 4024,
      "yayan": 4025,
      "एँ": 4026,
      "मंत्री": 4027,
      "ैक": 4028,
      "।\n": 4029,
      "▁j": 4030,
      "▁hi": 4031,
      "▁am": 4032,
      "▁ref": 4033,
      "▁[द": 4034,
      "▁[दक्षिण": 4035,
      "▁[पाकिस्तान": 4036,
      "teen": 4037,
      "tecture": 4038,
      "▁\"दक्षिण": 4039,
      "▁\"पाकिस्तान": 4040,
      "\");": 4041,
      "than": 4042,
      "](https://en.wikipedia.org/wiki/I": 4043,
      "arn": 4044,
      "astern": 4045,
      "▁sup": 4046,
      "inguis": 4047,
      "▁Sanskrit": 4048,
      "▁modern": 4049,
      "ष्ण": 4050,
      "ung": 4051,
      "▁war": 4052,
      ".com/news/": 4053,
      "▁GDP": 4054,
      "▁सेना": 4055,
      "▁one": 4056,
      "म्बर": 4057,
      "imalay": 4058,
      ".jpg)](https://hi.wikipedia.org/wiki/चित्र:": 4059,
      "ड़ा": 4060,
      "हरिया": 4061,
      "olitics": 4062,
      "induism": 4063,
      "ainting": 4064,
      "general": 4065,
      "-0-19-9": 4066,
      "मूह": 4067,
      "ultan": 4068,
      "▁2021.\n": 4069,
      "atsyayan": 4070,
      "parame": 4071,
      "तेलंग": 4072,
      "garh": 4073,
      "Harle1994": 4074,
      "ublishing": 4075,
      "censusindia.gov.in/2011census": 4076,
      "langoff": 4077,
      "झारखंड": 4078,
      "Craven1997": 4079,
      "gramme": 4080,
      "/S": 4081,
      "5/": 4082,
      "7,": 4083,
      "84": 4084,
      "8-0)": 4085,
      ";\n": 4086,
      "EO": 4087,
      "En": 4088,
      "UN": 4089,
      "WEO": 4090,
      "c/c": 4091,
      "lor": 4092,
      "ze": 4093,
      "टे": 4094,
      "प्": 4095,
      "स\")": 4096,
      "ाट": 4097,
      "alore": 4098,
      "esearch": 4099,
      "▁वन": 4100,
      "ammu": 4101,
      "▁अरब": 4102,
      "▁Al": 4103,
      "stru": 4104,
      "angalore": 4105,
      "cher": 4106,
      "▁14": 4107,
      "uslim": 4108,
      "▁2013": 4109,
      "▁British": 4110,
      "▁Nations": 4111,
      "▁February": 4112,
      "▁\"महाराष्ट्र": 4113,
      "▁K.": 4114,
      "osed": 4115,
      "_New": 4116,
      "पूर्ण": 4117,
      "ervation": 4118,
      "IMF": 4119,
      "erritory": 4120,
      "127": 4121,
      "2,": 4122,
      "2]](https://en.wikipedia.org/wiki/India#cite_note-FOOTNOTE": 4123,
      "3/": 4124,
      "300": 4125,
      "Main": 4126,
      "ahar": 4127,
      "can": 4128,
      "cent": 4129,
      "jan": 4130,
      "lations": 4131,
      "minist": 4132,
      "ner": 4133,
      "nam": 4134,
      "vatsyayan": 4135,
      "योग": 4136,
      "वान": 4137,
      "शन": 4138,
      "शा": 4139,
      "ोज": 4140,
      "२६": 4141,
      "▁29": 4142,
      "▁emp": 4143,
      "▁union": 4144,
      "ors": 4145,
      "▁[United": 4146,
      "al_P": 4147,
      "arge": 4148,
      "omas": 4149,
      "▁(eds.": 4150,
      "2012": 4151,
      "2017": 4152,
      "्तर": 4153,
      "▁some": 4154,
      "▁such": 4155,
      "▁classical": 4156,
      "▁Chin": 4157,
      "▁दिस": 4158,
      "नाम": 4159,
      "▁million": 4160,
      "ussia": 4161,
      "▁**राष्ट्रीय": 4162,
      "ांध": 4163,
      "▁later": 4164,
      "duction": 4165,
      "1990": 4166,
      "प्रा": 4167,
      "▁[मध्य": 4168,
      "▁1947": 4169,
      "▁northern": 4170,
      "▁एशिया": 4171,
      "ia\")": 4172,
      "▁[*The": 4173,
      "](Special:BookSources/978-0-": 4174,
      "_मेला": 4175,
      "▁\"Special:BookSources/978-0-": 4176,
      "orical": 4177,
      "_BRICS": 4178,
      "_pro": 4179,
      "athak": 4180,
      "...": 4181,
      "गणना": 4182,
      "▁under": 4183,
      ".html)": 4184,
      "-lord": 4185,
      "स्लामी": 4186,
      "▁लाग": 4187,
      "ौर्य": 4188,
      "_Development": 4189,
      "ताजमह": 4190,
      "▁सर्वाधिक": 4191,
      "ehru": 4192,
      "ymbol": 4193,
      "\\_using\\_": 4194,
      "vatsyayan-lord": 4195,
      "&s": 4196,
      "7-0)": 4197,
      "9-0)": 4198,
      "Con": 4199,
      "_11": 4200,
      "_for": 4201,
      "a.": 4202,
      "nai": 4203,
      "तिक": 4204,
      "बी": 4205,
      "ैल": 4206,
      "▁\"द": 4207,
      "▁(1,": 4208,
      "rim": 4209,
      "र्क": 4210,
      "\\_m": 4211,
      "▁Ar": 4212,
      "▁दो": 4213,
      "▁1,": 4214,
      "itz": 4215,
      "25)": 4216,
      "icon": 4217,
      "▁गु": 4218,
      "▁Economic": 4219,
      "▁संसद": 4220,
      "ritsch": 4221,
      "राष्ट्रीय_": 4222,
      "धानी": 4223,
      "म्राट": 4224,
      "_भारतीय_": 4225,
      "hennai": 4226,
      "तेलु": 4227,
      "2–": 4228,
      "6).": 4229,
      "71": 4230,
      ":EditPage/": 4231,
      "LA": 4232,
      "_న": 4233,
      "_14": 4234,
      "cul": 4235,
      "ealth": 4236,
      "gl": 4237,
      "min": 4238,
      "pic": 4239,
      "war": 4240,
      "घालय": 4241,
      "पति": 4242,
      "वेश": 4243,
      "िझ": 4244,
      "ఖండ": 4245,
      "గం": 4246,
      "టిక": 4247,
      "డే": 4248,
      "ద్య": 4249,
      "మార్": 4250,
      "మాలయ": 4251,
      "లలో": 4252,
      "లకు": 4253,
      "ళ్": 4254,
      "వ](https://te.wikipedia.org/wiki/": 4255,
      "ానికి": 4256,
      "ాళు": 4257,
      "ీర్": 4258,
      "▁భ": 4259,
      "▁యు": 4260,
      "▁\"వి": 4261,
      "arly": 4262,
      "arna": 4263,
      "्यता": 4264,
      "▁क्रम": 4265,
      "▁सैन": 4266,
      "them": 4267,
      "](https://mr.wikipedia.org/wiki/सा": 4268,
      "▁पड": 4269,
      "▁पह": 4270,
      "▁पार्": 4271,
      "ould": 4272,
      "asing": 4273,
      "ాలో": 4274,
      "▁वैदिक": 4275,
      "▁south": 4276,
      "స్వ": 4277,
      "స్లా": 4278,
      "atak": 4279,
      "\\_articles": 4280,
      "▁अज": 4281,
      "▁పాల": 4282,
      "▁Con": 4283,
      "ालदीव": 4284,
      "etail": 4285,
      "న్\")": 4286,
      "ेंज": 4287,
      "▁दोन": 4288,
      "▁me": 4289,
      "▁mathe": 4290,
      "त्रूटी": 4291,
      "▁Per": 4292,
      "vers": 4293,
      "urch": 4294,
      "▁కార": 4295,
      "▁కలి": 4296,
      "ాలు?action=edit&redlink=1": 4297,
      "21)": 4298,
      "రిహ": 4299,
      "రికత": 4300,
      "క్నాల": 4301,
      "ంది.\n": 4302,
      "నిమా": 4303,
      "▁2018](https://en.wikipedia.org/wiki/India#CITEREF": 4304,
      "olle": 4305,
      "▁సంగీతం": 4306,
      "▁చి": 4307,
      "ులు\"),": 4308,
      "–సా.శ.13": 4309,
      "▁అయ": 4310,
      "▁ప్రధాన": 4311,
      "akh": 4312,
      "ప్రదాయ": 4313,
      "ప్రత్యేక": 4314,
      "ద్వీ": 4315,
      "▁ఉప": 4316,
      "▁రె": 4317,
      "▁Language": 4318,
      "ंदू": 4319,
      "ंदमान": 4320,
      "న్నడ": 4321,
      "▁[*India": 4322,
      "ంటు": 4323,
      "owland": 4324,
      "▁original](https://": 4325,
      "वेर": 4326,
      "▁దేశంలో": 4327,
      "▁असले": 4328,
      "▁असून": 4329,
      "▁*[The": 4330,
      "▁प्राणी": 4331,
      "▁\"Template": 4332,
      "वरील": 4333,
      "ankar": 4334,
      "కాశ్మీ": 4335,
      "गुप्त": 4336,
      "▁जाता": 4337,
      "▁जातो": 4338,
      "ంధు": 4339,
      "వర్గం:Harv": 4340,
      "ద్ధం": 4341,
      "ద్ధి": 4342,
      "करण": 4343,
      "ాల్దీవ": 4344,
      "చ్చే": 4345,
      "దక్షిణ_": 4346,
      "\"](https://web.archive.org/web/20160": 4347,
      "▁కాంగ్రె": 4348,
      "_आशिया": 4349,
      "do-A": 4350,
      "టెక్నాల": 4351,
      "▁ప్రాంతాలు": 4352,
      "హిమాలయ": 4353,
      "▁काळात": 4354,
      "▁2019.": 4355,
      "▁शासन": 4356,
      "▁లే": 4357,
      "త్తరా": 4358,
      "](https://hi.wikipedia.org/wiki/भारत_में_": 4359,
      "నాగరికత": 4360,
      "ynas": 4361,
      "limate": 4362,
      "క్కువ": 4363,
      "तंत्रता": 4364,
      "-language\\_": 4365,
      "rowth": 4366,
      "క్‌సభ": 4367,
      "▁శాస్త్ర": 4368,
      "▁Act,": 4369,
      "ెలుగు": 4370,
      "▁వచ్చింది.": 4371,
      "हाय्य:CS1": 4372,
      "▁पठार": 4373,
      "_ప్రాంత": 4374,
      "चिन्हे": 4375,
      "](https://en.wikipedia.org/wiki/Economy_of_": 4376,
      "ర్చ:": 4377,
      "▁\"पाकिस्तान\")": 4378,
      "inguistic": 4379,
      ":EditPage/మూస:": 4380,
      "ాళుక్య": 4381,
      "ప్రత్యేక:EditPage/మూస:": 4382,
      "టెక్నాలజీ": 4383,
      "545": 4384,
      "Qu": 4385,
      "_t": 4386,
      "_with": 4387,
      "aus": 4388,
      "gni": 4389,
      "ning": 4390,
      "ures": 4391,
      "ving": 4392,
      "▁ऊ": 4393,
      "▁\"United": 4394,
      "ality": 4395,
      "▁संगीत": 4396,
      "issi": 4397,
      "ominal": 4398,
      "▁पृष्ठ": 4399,
      "1967": 4400,
      "▁आर्थिक": 4401,
      "▁Ac": 4402,
      "state": 4403,
      "etary": 4404,
      "local": 4405,
      "नाव": 4406,
      "▁mi": 4407,
      "003": 4408,
      "onservation": 4409,
      "वादी": 4410,
      "agar": 4411,
      "▁General": 4412,
      "▁[\"The": 4413,
      "श्च": 4414,
      "▁देश\")": 4415,
      "▁original](https://www.": 4416,
      "पीठ": 4417,
      "▁area": 4418,
      "-pro": 4419,
      "▁2021.": 4420,
      "भीम": 4421,
      "voyage": 4422,
      "\"](https://books.google.com/books?id=": 4423,
      ".ए": 4424,
      "3]](https://en.wikipedia.org/wiki/India#cite_note-FOOTNOTE": 4425,
      "76": 4426,
      "94": 4427,
      "Dikshit": 4428,
      "European": 4429,
      "Schwartzberg": 4430,
      "_2": 4431,
      "_13": 4432,
      "ao": 4433,
      "adi": 4434,
      "dones": 4435,
      "gra": 4436,
      "if": 4437,
      "ii": 4438,
      "मृत": 4439,
      "र\")": 4440,
      "रवरी": 4441,
      "शोक": 4442,
      "ाय": 4443,
      "ेस": 4444,
      "▁रा": 4445,
      "win": 4446,
      "▁\"[": 4447,
      "inance": 4448,
      "tig": 4449,
      "read": 4450,
      "arliament": 4451,
      "ise": 4452,
      "](https://hi.wikipedia.org/wiki/ग": 4453,
      "▁महा": 4454,
      "rative": 4455,
      "▁industry": 4456,
      "▁वै": 4457,
      "ingdom": 4458,
      "ेशन": 4459,
      "▁दर": 4460,
      "▁द्व": 4461,
      "▁many": 4462,
      "▁जी": 4463,
      "rown": 4464,
      "▁Pakistan": 4465,
      "](https://hi.wikipedia.org/wiki/भारत_की_": 4466,
      "▁Min": 4467,
      "▁2015": 4468,
      "्वे": 4469,
      "▁total": 4470,
      "resent": 4471,
      "विज्ञान": 4472,
      "ayback": 4473,
      "▁land": 4474,
      "▁long": 4475,
      "▁large": 4476,
      "0%E0%A": 4477,
      "▁[महाराष्ट्र": 4478,
      "gical": 4479,
      "ast_Asia": 4480,
      "णिपुरी": 4481,
      "utra": 4482,
      "hindi": 4483,
      "]](https://hi.wikipedia.org/wiki/भारत#cite_note-1": 4484,
      "▁depend": 4485,
      "%2C_": 4486,
      "▁3,": 4487,
      "▁people": 4488,
      ".svg/": 4489,
      "MetcalfMetcalf2006),": 4490,
      "▁right": 4491,
      "▁समय": 4492,
      ".svg.png": 4493,
      "नागाल": 4494,
      "▁Environment": 4495,
      "▁Assembly": 4496,
      "▁rule": 4497,
      "/articleshow/": 4498,
      ".aspx": 4499,
      "▁[↑](https://hi.wikipedia.org/wiki/भारत#cite_ref-1": 4500,
      "▁among": 4501,
      "हरियाणा": 4502,
      "▁(eds.).": 4503,
      "DikshitSchwartzberg": 4504,
      "DikshitSchwartzberg2023": 4505,
      ".fr": 4506,
      "IB": 4507,
      "iodiversity": 4508,
      "languages": 4509,
      "काल": 4510,
      "तान": 4511,
      "निक": 4512,
      "ोप": 4513,
      "dik": 4514,
      "orest": 4515,
      "▁[व": 4516,
      "▁\"U": 4517,
      "▁\"National": 4518,
      "cia": 4519,
      "▁काल": 4520,
      "▁(इ": 4521,
      "र्ष": 4522,
      "lib": 4523,
      "▁since": 4524,
      "▁अग": 4525,
      "-11": 4526,
      "▁CE": 4527,
      "▁St": 4528,
      "▁जून": 4529,
      "_of_S": 4530,
      "ष्ठ": 4531,
      "▁R.": 4532,
      "ments": 4533,
      "▁शहर": 4534,
      "▁विष": 4535,
      "▁विद्य": 4536,
      "▁dom": 4537,
      "_Mahal": 4538,
      "ैदान": 4539,
      "क्षेत्रफ": 4540,
      "ront": 4541,
      "मेरिक": 4542,
      "ffice": 4543,
      "▁उदाहर": 4544,
      "National_Informatics_Centre2005": 4545,
      "-25": 4546,
      ".htm": 4547,
      "Ludden": 4548,
      "RL": 4549,
      "_n": 4550,
      "_राज": 4551,
      "cted": 4552,
      "each": 4553,
      "m.nic.in/": 4554,
      "ncl": 4555,
      "osi": 4556,
      "ua": 4557,
      "uth": 4558,
      "west": 4559,
      "y,": 4560,
      "एस": 4561,
      "दरा": 4562,
      "यार": 4563,
      "▁—": 4564,
      "▁em": 4565,
      "▁out": 4566,
      "pee": 4567,
      "▁[m": 4568,
      "▁[s": 4569,
      "▁\"India": 4570,
      "▁\"उत्तर": 4571,
      "arti": 4572,
      "arri": 4573,
      "](https://hi.wikipedia.org/wiki/इ": 4574,
      "](https://hi.wikipedia.org/wiki/सं": 4575,
      "rial": 4576,
      "2016": 4577,
      "▁inclu": 4578,
      "▁power": 4579,
      "▁sh": 4580,
      "▁ser": 4581,
      "atus": 4582,
      "▁Arab": 4583,
      "▁Afric": 4584,
      "umar": 4585,
      "▁दी": 4586,
      "chin": 4587,
      "chedu": 4588,
      "▁11": 4589,
      "▁Modern": 4590,
      "▁Bank": 4591,
      "igh": 4592,
      "▁economic": 4593,
      "_Summit": 4594,
      "वेली": 4595,
      "▁cont": 4596,
      "ffer": 4597,
      "▁चु": 4598,
      "ineering": 4599,
      "arket": 4600,
      "▁हुई": 4601,
      "▁Islands": 4602,
      "त्तराखंड": 4603,
      "▁estim": 4604,
      "माजिक": 4605,
      "apita": 4606,
      "_in_South_Asia": 4607,
      "ynasty": 4608,
      "0%E0%A4%": 4609,
      "ast_Asia_Summit": 4610,
      "nclm.nic.in/": 4611,
      ".పూ.": 4612,
      "0)": 4613,
      "3_": 4614,
      "7_": 4615,
      "_-": 4616,
      "aha": 4617,
      "ph": 4618,
      "इंडिया": 4619,
      "घल": 4620,
      "जिं": 4621,
      "भि": 4622,
      "रस्व": 4623,
      "लया": 4624,
      "ळू": 4625,
      "ळ](https://mr.wikipedia.org/wiki/": 4626,
      "ంతం": 4627,
      "ఆగ": 4628,
      "కళ": 4629,
      "ఖండ్": 4630,
      "గ్": 4631,
      "గిన": 4632,
      "గఢ్": 4633,
      "జో": 4634,
      "ట్ర": 4635,
      "తెలుగు": 4636,
      "ద్రా": 4637,
      "పద": 4638,
      "భి": 4639,
      "యో": 4640,
      "లక్ష": 4641,
      "వర": 4642,
      "శో": 4643,
      "షా": 4644,
      "హు": 4645,
      "హార్": 4646,
      "హాయ": 4647,
      "ాష్ట్ర": 4648,
      "ీక": 4649,
      "ీహార్": 4650,
      "ుల": 4651,
      "ుల్": 4652,
      "ోల్": 4653,
      "ోత్స": 4654,
      "ౌర్య": 4655,
      "▁[హ": 4656,
      "▁\"హ": 4657,
      "▁\"ఢిల్లీ": 4658,
      "enni": 4659,
      "India_G": 4660,
      "reme": 4661,
      "2019": 4662,
      "్రూ": 4663,
      "](https://te.wikipedia.org/wiki/సి": 4664,
      "▁(*": 4665,
      "mrits": 4666,
      "](https://mr.wikipedia.org/wiki/प": 4667,
      "](https://mr.wikipedia.org/wiki/ल": 4668,
      "▁पान": 4669,
      "▁मस": 4670,
      "ాలా": 4671,
      "ాలలో": 4672,
      "్యం": 4673,
      "▁वृ": 4674,
      "▁अतिश": 4675,
      "ात्": 4676,
      "ర్ణా": 4677,
      "ర్మే": 4678,
      "లోక్‌సభ": 4679,
      "ांमध्ये": 4680,
      "▁వంశ": 4681,
      "def": 4682,
      "ండర్": 4683,
      "_in_M": 4684,
      "త్మా": 4685,
      "-30": 4686,
      "▁అతి": 4687,
      "ికి": 4688,
      "22)": 4689,
      "▁./वर्ग:CS1": 4690,
      "ద్దు": 4691,
      "▁రహదార": 4692,
      "మాచల్": 4693,
      "▁సామ్రాజ్య": 4694,
      "రువా": 4695,
      "రుణా": 4696,
      "న్నో": 4697,
      "artment": 4698,
      "ियन": 4699,
      "▁देशांची": 4700,
      "ंतप्रधान": 4701,
      "మిజో": 4702,
      "्यांमध्ये": 4703,
      "▁ఇది": 4704,
      "▁असते.": 4705,
      "▁घे": 4706,
      "▁జరి": 4707,
      "▁విస్త": 4708,
      "▁1994": 4709,
      "▁శతాబ్ద": 4710,
      "ట్టు": 4711,
      "▁2007](https://mr.wikipedia.org/wiki/भारत#": 4712,
      "onstitutional": 4713,
      "రాష్ట్రాలు": 4714,
      "▁\"जगातील": 4715,
      "వేద": 4716,
      "▁రాజకీయ": 4717,
      "▁अनु": 4718,
      "shit),": 4719,
      "गुजराती": 4720,
      "गातील_देश": 4721,
      "హిమాచల్": 4722,
      "హాత్మా": 4723,
      "](https://mr.wikipedia.org/wiki/जगातील_देश": 4724,
      "union_territ": 4725,
      "▁ప్రదేశ్\")": 4726,
      "హారాష్ట్ర": 4727,
      "శాస్త్ర": 4728,
      "రాజస్థాన్": 4729,
      "वार्षिक": 4730,
      "▁వాతావరణ": 4731,
      "దినోత్స": 4732,
      "బెంగాలీ": 4733,
      "యన్మార్": 4734,
      "▁ముఖ్య": 4735,
      "विकिपीडिया": 4736,
      "ంజాబ్": 4737,
      "▁వ్యాస": 4738,
      "▁मोठ्या": 4739,
      "▁पर्वत": 4740,
      "index.php": 4741,
      "▁किल्ला": 4742,
      "గుజరాత్": 4743,
      "ఆఫ్ఘనిస్తాన్": 4744,
      "న్‌ఫర్మే": 4745,
      "Taj_Mahal": 4746,
      "arch_2004": 4747,
      "వ](https://te.wikipedia.org/wiki/List_of_": 4748,
      "రిహద్దు": 4749,
      "वेरूळ": 4750,
      "చ్చేరి": 4751,
      "dikshit),": 4752,
      "▁विद्यार्थ": 4753,
      "जिंठा": 4754,
      "रस्वती": 4755,
      "ర్ణాటక": 4756,
      "_in_March_2004": 4757,
      "రుణాచల్": 4758,
      "▁2007](https://mr.wikipedia.org/wiki/भारत#dikshit),": 4759,
      "विकिपीडिया:": 4760,
      "న్‌ఫర్మేషన్": 4761,
      "Taj_Mahal_in_March_2004": 4762,
      ",NGDP": 4763,
      "-78": 4764,
      ".IN": 4765,
      "34)": 4766,
      "64": 4767,
      "6–": 4768,
      "6]](https://en.wikipedia.org/wiki/India#cite_note-": 4769,
      "72": 4770,
      "81": 4771,
      "Pro": 4772,
      "Spear": 4773,
      "dlife": 4774,
      "fgh": 4775,
      "k:": 4776,
      "nal": 4777,
      "press": 4778,
      "rdu": 4779,
      "zation": 4780,
      "खाना": 4781,
      "हू": 4782,
      "ेघालय": 4783,
      "ोवा": 4784,
      "१८": 4785,
      "▁ठ": 4786,
      "▁he": 4787,
      "▁article": 4788,
      "▁imp": 4789,
      "dian": 4790,
      "oral": 4791,
      "pen": 4792,
      "▁\"हिन्": 4793,
      "▁\"Oxford": 4794,
      "oni": 4795,
      "reed": 4796,
      "20)": 4797,
      "▁समा": 4798,
      "lem": 4799,
      "▁inf": 4800,
      "lia": 4801,
      "-0)\n": 4802,
      "▁social": 4803,
      "-16": 4804,
      "-111": 4805,
      "▁दिया": 4806,
      "▁maj": 4807,
      "urton": 4808,
      "▁नगर": 4809,
      "▁बढ़": 4810,
      "▁Mon": 4811,
      "ildlife": 4812,
      "identifiers": 4813,
      "ictionary": 4814,
      "pecial:EditPage/": 4815,
      "_Sh": 4816,
      "ainism": 4817,
      "▁Nadu": 4818,
      "-317": 4819,
      "▁संबंध": 4820,
      "apan": 4821,
      "▁परंत": 4822,
      "▁[Asher": 4823,
      "▁१२": 4824,
      "▁Kashmir": 4825,
      "hindu": 4826,
      "स्तान\")": 4827,
      "ड़े": 4828,
      "logo": 4829,
      "overe": 4830,
      "template": 4831,
      "meric": 4832,
      "ility": 4833,
      "▁हुआ": 4834,
      "▁territory": 4835,
      ".html).": 4836,
      "dependence": 4837,
      "▁लिए": 4838,
      "▁नृत्य\")": 4839,
      "▁भाष": 4840,
      "ligence": 4841,
      "teracy": 4842,
      "ricket": 4843,
      "telligence": 4844,
      "Wolpert2003": 4845,
      "▁high": 4846,
      "teenth": 4847,
      "arnatak": 4848,
      "WEO.IN": 4849,
      "IMFWEO.IN": 4850,
      "Spear1990": 4851,
      "fghan": 4852,
      "pecial:EditPage/Template:": 4853,
      "▁परंतु": 4854,
      "*)": 4855,
      "-29": 4856,
      "119": 4857,
      "=`": 4858,
      "`|": 4859,
      "nominal": 4860,
      "ंची": 4861,
      "धि": 4862,
      "नत": 4863,
      "मिक": 4864,
      "ैस": 4865,
      "inf": 4866,
      "aran": 4867,
      "hib": 4868,
      "▁सो": 4869,
      "▁पार": 4870,
      "▁Science": 4871,
      "▁जल": 4872,
      "▁निकोबार": 4873,
      "वाहर": 4874,
      "▁India\").": 4875,
      "▁शै": 4876,
      "ubcontinent": 4877,
      "▁([link": 4878,
      "rief": 4879,
      "%E0%A4%9": 4880,
      "_maint:": 4881,
      "ship": 4882,
      "aint:\\_": 4883,
      "स्थाप": 4884,
      "ject": 4885,
      "▁लेख:": 4886,
      "\\_maint:\\_": 4887,
      "वाहरलाल": 4888,
      "\"[[": 4889,
      "/article": 4890,
      "1200": 4891,
      "6]](https://en.wikipedia.org/wiki/India#cite_note-FOOTNOTE": 4892,
      "Hindu": 4893,
      "_26": 4894,
      "ae": 4895,
      "b/": 4896,
      "iri": 4897,
      "owe": 4898,
      "y\")": 4899,
      "ंक": 4900,
      "भरत": 4901,
      "वसाय": 4902,
      "हान": 4903,
      "िख": 4904,
      "ीया": 4905,
      "▁छ": 4906,
      "▁ci": 4907,
      "▁50": 4908,
      "▁6.": 4909,
      "▁oc": 4910,
      "▁end": 4911,
      "▁term": 4912,
      "▁[Oxford": 4913,
      "▁\"V": 4914,
      "▁\"य": 4915,
      "ances": 4916,
      "](https://en.wikipedia.org/wiki/V": 4917,
      "estic": 4918,
      "▁(2018": 4919,
      "▁they": 4920,
      "▁there": 4921,
      "1970": 4922,
      "▁incre": 4923,
      "▁वार": 4924,
      "ety": 4925,
      "etra": 4926,
      "▁SAARC": 4927,
      "vel": 4928,
      "▁both": 4929,
      "ियां": 4930,
      "ulti": 4931,
      "verse": 4932,
      "ISO": 4933,
      "urve": 4934,
      "109": 4935,
      "▁largest": 4936,
      "duct": 4937,
      "▁2026": 4938,
      "▁...": 4939,
      "▁Official": 4940,
      "▁कोर": 4941,
      "▁[978-0": 4942,
      "](Special:BookSources/978-0": 4943,
      "▁\"Special:BookSources/978-0": 4944,
      "_GDP": 4945,
      "दादरा": 4946,
      "-108": 4947,
      "▁क्षेत्र\")": 4948,
      "engali": 4949,
      "-0-19-5": 4950,
      "क्स": 4951,
      "904-7": 4952,
      "श्चिमी": 4953,
      "▁\"History": 4954,
      "माणु": 4955,
      "reek": 4956,
      "riculture": 4957,
      "्रीका": 4958,
      "ography": 4959,
      "▁फ़": 4960,
      "ohn": 4961,
      "](https://en.wikipedia.org/wiki/History": 4962,
      "ंग्ला": 4963,
      "india-gl": 4964,
      "-0-521-80": 4965,
      "▁rate": 4966,
      "▁play": 4967,
      "▁used": 4968,
      "▁खाना\")": 4969,
      "▁थी": 4970,
      "▁world's": 4971,
      "द्योगिकी": 4972,
      "KulkeRothermund2004": 4973,
      "cyclopedia": 4974,
      "ंग्लिश": 4975,
      "-0-19-88": 4976,
      "Wikipedia\\_articles": 4977,
      "▁2006](https://en.wikipedia.org/wiki/India#CITEREFMetcalfMetcalf2006),": 4978,
      "JPG": 4979,
      "achine": 4980,
      "▁हिन्दी": 4981,
      "-to-": 4982,
      "▁दिसम्बर": 4983,
      "▁article:": 4984,
      "fghanistan": 4985,
      "▁occ": 4986,
      "india-glance": 4987,
      "-0-521-80904-7": 4988,
      "/India": 4989,
      "63": 4990,
      "CIA": 4991,
      "ser": 4992,
      "गी": 4993,
      "गरा": 4994,
      "थक": 4995,
      "शक": 4996,
      "सभ": 4997,
      "सर": 4998,
      "ाप": 4999,
      "▁[V": 5000,
      "▁[लोक": 5001,
      "▁[उत्तर": 5002,
      "\")[[": 5003,
      "208": 5004,
      "▁केंद्रशासित": 5005,
      "राठा": 5006,
      "lect": 5007,
      "▁Affairs": 5008,
      "ंगे": 5009,
      "▁movement": 5010,
      "▁12": 5011,
      "▁बौद्ध": 5012,
      "विद्या": 5013,
      "▁economy": 5014,
      "ains": 5015,
      "epartment": 5016,
      "rust": 5017,
      "_Delhi": 5018,
      "ंग्रेस": 5019,
      "_नृत्य": 5020,
      "▁Reg": 5021,
      "▁निर्म": 5022,
      "quality": 5023,
      "पेक्ष": 5024,
      "ilgrim": 5025,
      "प्पा": 5026,
      "nominal)": 5027,
      "B0%": 5028,
      "DD": 5029,
      "Robb": 5030,
      "Sharma": 5031,
      "_a": 5032,
      "_en": 5033,
      "_क्षेत्र": 5034,
      "bank": 5035,
      "detail": 5036,
      "economic": 5037,
      "ihar": 5038,
      "lack": 5039,
      "ock": 5040,
      "stitu": 5041,
      "ंचा": 5042,
      "एशिया": 5043,
      "कल्प": 5044,
      "पैकी": 5045,
      "मारत": 5046,
      "य.ए": 5047,
      "ळख": 5048,
      "वारी": 5049,
      "ह्या": 5050,
      "ूण": 5051,
      "ैंड": 5052,
      "ంతి": 5053,
      "కాల": 5054,
      "కారం": 5055,
      "ఖ్": 5056,
      "గర్": 5057,
      "గంగా": 5058,
      "టో": 5059,
      "డిన": 5060,
      "తీ": 5061,
      "ధి": 5062,
      "ధించ": 5063,
      "నల్": 5064,
      "మన": 5065,
      "మర": 5066,
      "ర్యా": 5067,
      "లం": 5068,
      "లతో": 5069,
      "లమె": 5070,
      "ీస్": 5071,
      "ూప": 5072,
      "ూరు": 5073,
      "ెనీ": 5074,
      "ౌక": 5075,
      "▁,": 5076,
      "▁/": 5077,
      "▁ద": 5078,
      "▁ఫ": 5079,
      "▁దక్షిణ": 5080,
      "▁హిందూ": 5081,
      "▁గాంధీ": 5082,
      "▁[ओ": 5083,
      "▁[ड": 5084,
      "▁[భారతదేశం": 5085,
      "▁[ఢిల్లీ": 5086,
      "ancy": 5087,
      "tici": 5088,
      "▁किन": 5089,
      "▁सद": 5090,
      "](https://hi.wikipedia.org/wiki/न": 5091,
      "▁(India": 5092,
      "](https://mr.wikipedia.org/wiki/उ": 5093,
      "](https://mr.wikipedia.org/wiki/सं": 5094,
      "▁पासून": 5095,
      "ారస": 5096,
      "asi": 5097,
      "र्चा:": 5098,
      "▁India*](https://books.google.com/books?id=": 5099,
      "ాలను": 5100,
      "ations/": 5101,
      "స్](https://te.wikipedia.org/wiki/": 5102,
      "atter": 5103,
      "ature": 5104,
      "\\_con": 5105,
      "\\_identifiers": 5106,
      "▁పెద్ద": 5107,
      "▁Company": 5108,
      "ర్లు": 5109,
      "states": 5110,
      "inger": 5111,
      "▁Summit\")": 5112,
      "ada": 5113,
      "▁trans": 5114,
      "▁केली": 5115,
      "▁member": 5116,
      "▁minister": 5117,
      "లు\")": 5118,
      "▁जगातील": 5119,
      "road": 5120,
      "▁Pl": 5121,
      "00–సా.శ.పూ.": 5122,
      "▁नद": 5123,
      "▁बांध": 5124,
      "▁Raj": 5125,
      "ంది": 5126,
      "▁వే": 5127,
      "emale": 5128,
      "emocra": 5129,
      "▁Bengal": 5130,
      ".[[3": 5131,
      "ोंड": 5132,
      "▁काम": 5133,
      "वाघ": 5134,
      "वाह": 5135,
      "▁Delhi": 5136,
      "स्तन": 5137,
      "](https://mr.wikipedia.org/wiki/भारत#CITEREF": 5138,
      "▁गेट": 5139,
      "▁Gandhi": 5140,
      "త్తం": 5141,
      "द्रा": 5142,
      "▁इमारत": 5143,
      "नेय": 5144,
      "▁2005": 5145,
      "▁(సా.శ.15": 5146,
      "▁(సా.శ.13": 5147,
      "त्त्व": 5148,
      "ryan": 5149,
      "▁అనే": 5150,
      "▁rep": 5151,
      "▁ప్రజ": 5152,
      "తం\")": 5153,
      "▁साम्राज": 5154,
      "▁सामाजिक": 5155,
      "▁human": 5156,
      "▁Fund": 5157,
      "▁north": 5158,
      "ంచి": 5159,
      "harm": 5160,
      "epal": 5161,
      "णिपूर": 5162,
      "▁ఆఫ్": 5163,
      "▁సాం": 5164,
      "▁began": 5165,
      "ార్లమె": 5166,
      "కిస్థాన్": 5167,
      "▁dec": 5168,
      "▁करून": 5169,
      "हीं": 5170,
      "▁నే": 5171,
      "▁నగర": 5172,
      "ాయి.": 5173,
      "ibet": 5174,
      "▁extra": 5175,
      "48)": 5176,
      "viol": 5177,
      "టిబె": 5178,
      "वरून": 5179,
      "్రీ.పూ.": 5180,
      "▁control": 5181,
      "extra": 5182,
      "ండియా": 5183,
      "llchin": 5184,
      "▁ఎక్కువ": 5185,
      "▁ఎన్నో": 5186,
      "uddhism": 5187,
      "ingham": 5188,
      "_and_depend": 5189,
      "▁./వర్గం:Wikipedia\\_articles": 5190,
      "_సం": 5191,
      "ారు.\n": 5192,
      "timesofindia": 5193,
      "టుంబ": 5194,
      "Oxford_University_Press": 5195,
      "indus": 5196,
      "▁उपसा": 5197,
      "Stein2010),": 5198,
      "▁భారత్": 5199,
      "▁वर्षां": 5200,
      "▁सर्वांत": 5201,
      "rgani": 5202,
      "మెరి": 5203,
      "▁మొత్తం": 5204,
      "▁उत्प": 5205,
      "▁उत्पाद": 5206,
      "▁Empire\")": 5207,
      "ृष्ट्या": 5208,
      "▁वेग": 5209,
      "బాద్": 5210,
      "ducation": 5211,
      "▁ओळख": 5212,
      "ग्नेय": 5213,
      "ంపెనీ": 5214,
      "esert": 5215,
      "హ్మ": 5216,
      "▁ఏర్": 5217,
      "formation": 5218,
      "ustralia": 5219,
      "్రిటిషు": 5220,
      "तांशी": 5221,
      "hola": 5222,
      "▁मार्च": 5223,
      "वेबैक": 5224,
      "▁2010](https://en.wikipedia.org/wiki/India#CITEREFStein2010),": 5225,
      "िक्कीम": 5226,
      "▁Press](https://en.wikipedia.org/wiki/Oxford_University_Press": 5227,
      "_Islands": 5228,
      "▁निवड": 5229,
      "▁అత్యధిక": 5230,
      "ांची_यादी_(": 5231,
      "yanmar": 5232,
      "ultanate": 5233,
      "ministrative": 5234,
      "ీర్ణ": 5235,
      "దక్షిణ_ఆసియా": 5236,
      "▁द्वारा": 5237,
      "▁अतिशय": 5238,
      "](https://mr.wikipedia.org/wiki/जगातील_देशांची_यादी_(": 5239,
      "विकिपीडिया:संदर्भ": 5240,
      "reedom": 5241,
      "Spear199024": 5242,
      "▁फ़रवरी": 5243,
      "ह्याद्र": 5244,
      "timesofindia.indiatimes.com/": 5245,
      "/index.php": 5246,
      "124": 5247,
      "318": 5248,
      "9,": 5249,
      "Ethnologue": 5250,
      "Report": 5251,
      "dr": 5252,
      "ox": 5253,
      "s18": 5254,
      "ym": 5255,
      "ंच": 5256,
      "काता": 5257,
      "गू": 5258,
      "बेट": 5259,
      "भु": 5260,
      "यो": 5261,
      "लम": 5262,
      "▁\"राजस्थान": 5263,
      "rect": 5264,
      "the-": 5265,
      "as,": 5266,
      "र्ज": 5267,
      "2013": 5268,
      "ams": 5269,
      "\\_parame": 5270,
      "ide": 5271,
      "▁country": 5272,
      "▁S.": 5273,
      "▁States": 5274,
      "▁दु": 5275,
      "ists": 5276,
      "urn": 5277,
      "217": 5278,
      "▁western": 5279,
      "न्ह": 5280,
      "▁D.": 5281,
      "▁Data": 5282,
      "चेन्न": 5283,
      "▁शा": 5284,
      "28)": 5285,
      "-3)": 5286,
      "▁विस्त": 5287,
      "▁परि": 5288,
      "-90": 5289,
      "ोलकाता": 5290,
      "िरपेक्ष": 5291,
      "▁हिमालय": 5292,
      "▁२०१": 5293,
      "aries": 5294,
      "▁आक्रम": 5295,
      "hasha": 5296,
      "▁जयंती": 5297,
      "-of-": 5298,
      "भीमबेट": 5299,
      ".svg.png)": 5300,
      "▁\"राजस्थान\")": 5301,
      "\\_parameters": 5302,
      "चेन्नई": 5303,
      "भीमबेटका": 5304,
      "3TR": 5305,
      "577": 5306,
      "_g": 5307,
      "_pe": 5308,
      "_38": 5309,
      "eval": 5310,
      "fli": 5311,
      "lm": 5312,
      "nf": 5313,
      "ंट": 5314,
      "खण्ड": 5315,
      "ण\")": 5316,
      "दि": 5317,
      "समूह": 5318,
      "ोस": 5319,
      "▁ed.).": 5320,
      "dives": 5321,
      "](Category:": 5322,
      "▁\"ओ": 5323,
      "▁\"ड": 5324,
      "▁\"दिल्ली": 5325,
      "anor": 5326,
      "tice": 5327,
      "aldives": 5328,
      "](https://en.wikipedia.org/wiki/U": 5329,
      "hild": 5330,
      "hief": 5331,
      "cise": 5332,
      "▁कम": 5333,
      "▁सिनेमा": 5334,
      "rid": 5335,
      "▁महासागर": 5336,
      "19.": 5337,
      "2015": 5338,
      "rade": 5339,
      "sive": 5340,
      "्ता": 5341,
      "▁C.": 5342,
      "los": 5343,
      "lowing": 5344,
      "adhy": 5345,
      "▁made": 5346,
      "edieval": 5347,
      "onsoon": 5348,
      "ांस": 5349,
      "ांति": 5350,
      "▁बदल": 5351,
      "ournal": 5352,
      "▁M.": 5353,
      "▁2011.": 5354,
      "्वज": 5355,
      "चा_": 5356,
      "ताब्": 5357,
      "्रेल": 5358,
      "▁rec": 5359,
      "akhand": 5360,
      "▁non-": 5361,
      "▁रु": 5362,
      "aputra": 5363,
      "407": 5364,
      "](https://web.archive.org/web/200": 5365,
      "▁\"Category:": 5366,
      "ots": 5367,
      "otals": 5368,
      "oreign": 5369,
      "](https://hi.wikipedia.org/wiki/भारत#cite_ref-FOOTNOTE": 5370,
      "▁text": 5371,
      "ommonwealth": 5372,
      "_East_Asia_Summit": 5373,
      "▁Valley": 5374,
      "▁हैं,": 5375,
      "युद्ध": 5376,
      "rough": 5377,
      "ultural": 5378,
      "](https://en.wikipedia.org/wiki/List_of_countries_by": 5379,
      "स्ट्रेल": 5380,
      "िंधु": 5381,
      "रेल": 5382,
      "endra": 5383,
      "AARC_summit": 5384,
      "जाति": 5385,
      "knowin": 5386,
      "ंपनी": 5387,
      "▁इसके": 5388,
      "िक्कि": 5389,
      "१९४७": 5390,
      "View": 5391,
      "पालिका": 5392,
      "▁York": 5393,
      "rishna": 5394,
      "▁prime": 5395,
      "ttarakhand": 5396,
      "_उत्": 5397,
      "rahmaputra": 5398,
      "▁स्थित": 5399,
      "छत्तीसगढ": 5400,
      "▁सीमा": 5401,
      "▁\"महाराष्ट्र\")": 5402,
      "do-Aryan": 5403,
      "uthority": 5404,
      "urvey": 5405,
      "▁(India)\")": 5406,
      "rganization": 5407,
      "3TRt": 5408,
      "flict": 5409,
      "knowindia": 5410,
      "\"](http://www.": 5411,
      "-S": 5412,
      "/files/": 5413,
      "09": 5414,
      "5).": 5415,
      "82": 5416,
      "At": 5417,
      "m2": 5418,
      "s\n": 5419,
      "sci": 5420,
      "गान": 5421,
      "पया": 5422,
      "पृष्ठ": 5423,
      "व्ह": 5424,
      "ुक": 5425,
      "▁९": 5426,
      "▁[c": 5427,
      "▁[य": 5428,
      "▁[पु": 5429,
      "▁\"लोक": 5430,
      "arsh": 5431,
      "▁सर": 5432,
      "▁सभा": 5433,
      "▁(2006": 5434,
      "▁मिल": 5435,
      "▁दिवस": 5436,
      "▁जे": 5437,
      "_of_C": 5438,
      "ांड": 5439,
      "▁Republic": 5440,
      "105": 5441,
      "ict": 5442,
      "▁उद्य": 5443,
      "▁रहा": 5444,
      ".gov.in": 5445,
      "ार्क": 5446,
      "▁प्राप्त": 5447,
      "शीन": 5448,
      "▁second": 5449,
      "ेंद्रशासित_प्रदेश": 5450,
      "1947)": 5451,
      "urrent": 5452,
      "ondon": 5453,
      "cript": 5454,
      "Pages\\_using\\_": 5455,
      "olkata": 5456,
      "धुनिक": 5457,
      "ymbols": 5458,
      "मेरिकन": 5459,
      "▁उदाहरण": 5460,
      "_maint:_": 5461,
      "-C": 5462,
      "-पाकिस्तान": 5463,
      "-on-": 5464,
      ".world": 5465,
      "125": 5466,
      "4]](https://en.wikipedia.org/wiki/India#cite_note-": 5467,
      "52": 5468,
      "7]](https://en.wikipedia.org/wiki/India#cite_note-FOOTNOTE": 5469,
      "C-0": 5470,
      "PE": 5471,
      "Re": 5472,
      "Rowland": 5473,
      "Se": 5474,
      "St": 5475,
      "Sanskrit": 5476,
      "_ह": 5477,
      "aury": 5478,
      "bb": 5479,
      "busines": 5480,
      "britannica": 5481,
      "ece": 5482,
      "eld": 5483,
      "ham": 5484,
      "ling": 5485,
      "lass": 5486,
      "mil": 5487,
      "operation": 5488,
      "que": 5489,
      "rd": 5490,
      "s_of_India": 5491,
      "पान": 5492,
      "बे": 5493,
      "ल](https://hi.wikipedia.org/wiki/": 5494,
      "हरा": 5495,
      "ूड": 5496,
      "ौद्योगिकी": 5497,
      "१५": 5498,
      "१६": 5499,
      "▁his": 5500,
      ".org": 5501,
      "▁[4": 5502,
      "▁[पुरा": 5503,
      "▁[हिन्दी": 5504,
      "▁\"19": 5505,
      "ins": 5506,
      "thnic": 5507,
      "cis": 5508,
      "tions": 5509,
      "thehindu": 5510,
      "▁पश्चिम": 5511,
      "rig": 5512,
      "▁मत": 5513,
      "leg": 5514,
      "lion": 5515,
      "▁अव": 5516,
      "ाती": 5517,
      "-13": 5518,
      "▁found": 5519,
      "rote": 5520,
      "▁Publishing": 5521,
      "urban": 5522,
      "▁Tamil": 5523,
      "▁Territory": 5524,
      "▁River": 5525,
      "क्षण": 5526,
      "108": 5527,
      "▁David": 5528,
      "aylor": 5529,
      "▁Ex": 5530,
      "ounci": 5531,
      "irst": 5532,
      "▁Ge": 5533,
      "▁Himalay": 5534,
      "force": 5535,
      "_Affairs": 5536,
      "abha": 5537,
      "ूनि": 5538,
      "▁विभाग": 5539,
      "राष्ट्रपति": 5540,
      "▁new": 5541,
      "2905": 5542,
      "asting": 5543,
      "म्म": 5544,
      "overty": 5545,
      "▁Ocean": 5546,
      "imach": 5547,
      "▁Li": 5548,
      "▁Wiki": 5549,
      "िये": 5550,
      "avi": 5551,
      "वर्ष": 5552,
      "osp": 5553,
      "▁घोष": 5554,
      "वीं": 5555,
      "धिकारिक": 5556,
      "▁जाती": 5557,
      "ंबेड": 5558,
      "▁left": 5559,
      "do-P": 5560,
      "india.gov.in/india-glance": 5561,
      "inion": 5562,
      "62-2": 5563,
      "ilitary": 5564,
      "1971": 5565,
      "▁status": 5566,
      "illenni": 5567,
      "ociety": 5568,
      "▁डॉल": 5569,
      "स्लाम": 5570,
      "-107-111": 5571,
      "▁न्यायालय": 5572,
      "donesia": 5573,
      "▁अगस्त": 5574,
      "mritsar": 5575,
      "_GDP_(": 5576,
      "-0-19-882905": 5577,
      "्ता:": 5578,
      "ताब्दी": 5579,
      "Rowland1970": 5580,
      "britannica.com/": 5581,
      "▁[पुरालेखित": 5582,
      "ंबेडकर": 5583,
      "-107-11162-2": 5584,
      "-0-19-882905-8": 5585,
      "-n": 5586,
      "-50": 5587,
      ".ni": 5588,
      "01": 5589,
      "130": 5590,
      "4).": 5591,
      "9/": 5592,
      "Library": 5593,
      "_ग": 5594,
      "_राज्य": 5595,
      "_జాబితా": 5596,
      "_languages": 5597,
      "cor": 5598,
      "ctive": 5599,
      "e/": 5600,
      "ime": 5601,
      "p?": 5602,
      "yy": 5603,
      "ंनी": 5604,
      "गस्ट": 5605,
      "णारे": 5606,
      "फगा": 5607,
      "रवि": 5608,
      "वृत": 5609,
      "ुष्": 5610,
      "ॅक": 5611,
      "ोळी": 5612,
      "६-": 5613,
      "ఆంధ": 5614,
      "కీ": 5615,
      "కాలు": 5616,
      "క్రమ": 5617,
      "డో": 5618,
      "థి": 5619,
      "నె": 5620,
      "నాలు": 5621,
      "పించ": 5622,
      "బడ్డ": 5623,
      "భర": 5624,
      "మహ": 5625,
      "మై": 5626,
      "యన": 5627,
      "రంగ": 5628,
      "లయా": 5629,
      "వార": 5630,
      "శీ": 5631,
      "షనల్": 5632,
      "స్య": 5633,
      "ృద్ధి": 5634,
      "ెంగ": 5635,
      "ేర": 5636,
      "▁ऋ": 5637,
      "▁uni": 5638,
      "▁దా": 5639,
      "▁నాగరికత": 5640,
      "▁టెక్నాలజీ": 5641,
      "▁[National": 5642,
      "▁\"वर्ग:CS1": 5643,
      "▁\"तमिळनाडू": 5644,
      "▁सुरु": 5645,
      "్రై": 5646,
      "్రప్రదేశ్": 5647,
      "](https://te.wikipedia.org/wiki/ఢిల్లీ": 5648,
      "](https://mr.wikipedia.org/wiki/ह": 5649,
      "](https://mr.wikipedia.org/wiki/बा": 5650,
      "](https://mr.wikipedia.org/wiki/वर्ग:CS1": 5651,
      "](https://mr.wikipedia.org/wiki/तमिळनाडू": 5652,
      "outheast": 5653,
      "▁मे": 5654,
      "▁महाराष्ट्र": 5655,
      "▁मैदान": 5656,
      "raj": 5657,
      "▁आढ": 5658,
      "▁आर्": 5659,
      "▁आले": 5660,
      "▁sq": 5661,
      "దేశం": 5662,
      "దేశాల": 5663,
      "దేశాలు": 5664,
      "స్\")": 5665,
      "\\_of": 5666,
      "ర్‌": 5667,
      "adwe": 5668,
      "▁billion": 5669,
      "లు?action=edit&redlink=1": 5670,
      "రాఠ": 5671,
      "▁तरी": 5672,
      "▁तयार": 5673,
      "▁కి": 5674,
      "▁కో": 5675,
      "క్టో": 5676,
      "▁Research": 5677,
      "ले.\n": 5678,
      "నియా": 5679,
      "▁వర్": 5680,
      "▁వారస": 5681,
      "िती": 5682,
      "ల్వే": 5683,
      "▁సరిహద్దు": 5684,
      ".[[३": 5685,
      ".[[४": 5686,
      "▁మన": 5687,
      "▁మూ": 5688,
      "विजय": 5689,
      "agari": 5690,
      "iger": 5691,
      "ండమా": 5692,
      "▁చిన్న": 5693,
      "తాన": 5694,
      "प्रजासत्ताक": 5695,
      "ముఖ": 5696,
      "▁Government": 5697,
      "త్వం": 5698,
      "▁2008": 5699,
      "▁(సా.శ.17": 5700,
      "▁(సా.శ.14": 5701,
      "ులు,": 5702,
      "–సా.శ.15": 5703,
      "–సా.శ.17": 5704,
      "▁ప్రతి": 5705,
      "▁ప్రస్తు": 5706,
      "▁ప్రకారం": 5707,
      "▁ప్రముఖ": 5708,
      "ంచిన": 5709,
      "కుడు": 5710,
      "నుమ": 5711,
      "ింది.\n": 5712,
      "▁Increase": 5713,
      "E0%B0%": 5714,
      "▁రో": 5715,
      "▁రంగ": 5716,
      "▁రవాణా": 5717,
      "▁సాధించ": 5718,
      "ogue": 5719,
      "ష్టు": 5720,
      "▁होत": 5721,
      "शियातील": 5722,
      "ంతో": 5723,
      "own": 5724,
      "▁తరువా": 5725,
      "పాలన": 5726,
      "▁राज्यात": 5727,
      "ानेवारी": 5728,
      "ం](https://te.wikipedia.org/wiki/భారతీయ": 5729,
      "▁नावा": 5730,
      "▁प्रामुख्य": 5731,
      "केर": 5732,
      "గుర్": 5733,
      "నేషనల్": 5734,
      "overnment_of_India": 5735,
      "▁ప్రాంతం": 5736,
      "వందే": 5737,
      "](https://mr.wikipedia.org/wiki/महाराष्ट्र": 5738,
      "ext": 5739,
      "▁రాజ్యం](https://te.wikipedia.org/wiki/": 5740,
      "▁नेहर": 5741,
      "▁[2](https://mr.wikipedia.org/wiki/भारत#cite_ref-": 5742,
      "▁\"बंगाल": 5743,
      "▁బా": 5744,
      "▁బహు": 5745,
      "▁బెంగ": 5746,
      "▁[1](https://mr.wikipedia.org/wiki/भारत#cite_ref-": 5747,
      ",_కేంద్రపాలిత": 5748,
      "▁मोठा": 5749,
      "ాల్లో": 5750,
      "लोकसंख्येनुसार": 5751,
      "శ్వా": 5752,
      "ారిటీ": 5753,
      "स्वातंत्र्य": 5754,
      "గోళ": 5755,
      "ditional": 5756,
      "బడిన": 5757,
      "▁2019.\n": 5758,
      "ेतील": 5759,
      "▁आशिया\")": 5760,
      "▁भागात": 5761,
      "తున్న": 5762,
      "న్నిక": 5763,
      "▁స్వాతంత్ర్య": 5764,
      "▁కాలంలో": 5765,
      "▁बहुतांशी": 5766,
      "▁राष्ट्रपती": 5767,
      "ेकड": 5768,
      "▁स्थानिक": 5769,
      "▁देख": 5770,
      "vanagari": 5771,
      "ంపి": 5772,
      "బెంగాల్": 5773,
      "▁dispu": 5774,
      "ెలవు": 5775,
      "](https://te.wikipedia.org/wiki/భారతదేశంలో_": 5776,
      "▁खासदार": 5777,
      "ख्खन": 5778,
      "▁km2": 5779,
      "▁అధికారిక": 5780,
      "टिबंध": 5781,
      "document": 5782,
      "▁लेणी": 5783,
      "ఆర్ధిక": 5784,
      "▁పట్టణ": 5785,
      "▁झाली.": 5786,
      "▁కాశ్మీరు": 5787,
      "akshadwe": 5788,
      "ంగ్లీషు": 5789,
      "▁अजून": 5790,
      "▁అయిన": 5791,
      "▁రెండు": 5792,
      "▁जातो.": 5793,
      "ాల్దీవులు": 5794,
      "क्षेत्रफळ": 5795,
      "ట్రో": 5796,
      "ుల్తాన": 5797,
      "▁./वर्ग:CS1\\_maint:\\_": 5798,
      "రాష్ట్రాలు,_కేంద్రపాలిత": 5799,
      "దినోత్సవం": 5800,
      "▁వ్యాసం:": 5801,
      "▁([link](https://mr.wikipedia.org/wiki/वर्ग:CS1": 5802,
      "\\_contain": 5803,
      "ార్లమెంట": 5804,
      "▁./వర్గం:Wikipedia\\_articles\\_with\\_": 5805,
      "▁ఏర్ప": 5806,
      "ह्याद्री": 5807,
      "ुष्क": 5808,
      "ఆంధ్రప్రదేశ్": 5809,
      "లయాళ": 5810,
      "▁\"तमिळनाडू\")": 5811,
      "▁सुरुव": 5812,
      "▁प्रामुख्याने": 5813,
      "akshadweep": 5814,
      "రాష్ట్రాలు,_కేంద్రపాలిత_ప్రాంత": 5815,
      "▁([link](https://mr.wikipedia.org/wiki/वर्ग:CS1_maint:_": 5816,
      "-and": 5817,
      "-with": 5818,
      ".uk": 5819,
      "/D": 5820,
      "/g": 5821,
      "/lin": 5822,
      "/ark": 5823,
      "2)\n": 5824,
      "75": 5825,
      "Census": 5826,
      "LO": 5827,
      "af": 5828,
      "aul": 5829,
      "ael": 5830,
      "ez": 5831,
      "hal": 5832,
      "ks": 5833,
      "kar": 5834,
      "lurton": 5835,
      "mal": 5836,
      "sur": 5837,
      "udi": 5838,
      "uil": 5839,
      "udu": 5840,
      "}}": 5841,
      "ऑस्ट्रेल": 5842,
      "तृत": 5843,
      "थवा": 5844,
      "फे": 5845,
      "मक": 5846,
      "यी": 5847,
      "रण": 5848,
      "रेंद्र": 5849,
      "रूप": 5850,
      "वी_": 5851,
      "संगीत": 5852,
      "ाम": 5853,
      "्स": 5854,
      "▁7.": 5855,
      "▁9.": 5856,
      "din": 5857,
      "ortheast": 5858,
      ":/121": 5859,
      "▁[p": 5860,
      "▁[श": 5861,
      "▁[गण": 5862,
      "▁[राजस्थान": 5863,
      "▁\"पु": 5864,
      "▁\"मुंबई": 5865,
      "onom": 5866,
      "](https://en.wikipedia.org/wiki/United": 5867,
      "203": 5868,
      "arath": 5869,
      "▁कॉ": 5870,
      "▁संग": 5871,
      "](https://hi.wikipedia.org/wiki/आ": 5872,
      "▁them": 5873,
      "▁मह": 5874,
      "196": 5875,
      "**\n": 5876,
      "ravi": 5877,
      "educ": 5878,
      "lief": 5879,
      "▁painting": 5880,
      "▁set": 5881,
      "▁summit": 5882,
      "att": 5883,
      "\\_p": 5884,
      "\\_template": 5885,
      "▁अप्र": 5886,
      "▁अथवा": 5887,
      "▁co": 5888,
      "▁Sec": 5889,
      "▁ज्या": 5890,
      "red/lin": 5891,
      "▁भारत\")": 5892,
      "▁P.": 5893,
      "▁app": 5894,
      "▁नी": 5895,
      "▁बना": 5896,
      "unrecognized": 5897,
      "cess": 5898,
      "▁B.": 5899,
      "▁Be": 5900,
      "23.": 5901,
      ".[[4": 5902,
      "वायु": 5903,
      "icob": 5904,
      "▁eastern": 5905,
      "ctu": 5906,
      "ly,": 5907,
      "28.": 5908,
      "tures": 5909,
      "115": 5910,
      "▁November": 5911,
      "elang": 5912,
      "▁rem": 5913,
      "▁house": 5914,
      "द्दा": 5915,
      "▁J.": 5916,
      "160": 5917,
      "▁Lank": 5918,
      "▁Kingdom": 5919,
      "ages/": 5920,
      "मान्य": 5921,
      "▁भाषाओं": 5922,
      "avy": 5923,
      "▁करने": 5924,
      "▁[↑](https://en.wikipedia.org/wiki/India#cite_ref-FOOTNOTEMetcalfMetcalf2006": 5925,
      "ummer": 5926,
      "▁स्मार": 5927,
      "ternal": 5928,
      "▁राजधानी": 5929,
      "▁exp": 5930,
      "48/c": 5931,
      "पीपी": 5932,
      "ikkim": 5933,
      "exis": 5934,
      "%2C_India": 5935,
      "ंग्रेजी": 5936,
      "▁\"Re": 5937,
      "](https://en.wikipedia.org/wiki/Re": 5938,
      "▁life": 5939,
      "ैदरा": 5940,
      "▁संस्कृत": 5941,
      "▁unrecognized": 5942,
      "नाडु": 5943,
      "▁मेला\")": 5944,
      "▁पूर्वी": 5945,
      "▁हुए": 5946,
      "▁Programme": 5947,
      "_Indian_general": 5948,
      "-largest": 5949,
      "पेक्षा": 5950,
      "ichael": 5951,
      "](https://en.wikipedia.org/wiki/South_Asian": 5952,
      "▁निर्माण": 5953,
      "%7C": 5954,
      "%7c": 5955,
      "pringer": 5956,
      "kimages/": 5957,
      "_election": 5958,
      "pectancy": 5959,
      ".bnf": 5960,
      "shared/lin": 5961,
      "volution": 5962,
      "ological": 5963,
      "cherry": 5964,
      "▁employ": 5965,
      "तेलुगू": 5966,
      "▁mathema": 5967,
      ".aspx?": 5968,
      ".fr/ark": 5969,
      "▁contrib": 5970,
      "nclm.nic.in/shared/lin": 5971,
      "▁influ": 5972,
      "3TRtDwAAQBAJ&pg=PA": 5973,
      "▁[हिन्दी](https://hi.wikipedia.org/wiki/": 5974,
      "illennium": 5975,
      "uducherry": 5976,
      ":/12148/c": 5977,
      "education": 5978,
      "_Indian_general_election": 5979,
      ".bnf.fr/ark": 5980,
      "nclm.nic.in/shared/linkimages/": 5981,
      ":/12148/cb": 5982,
      ".bnf.fr/ark:/12148/cb": 5983,
      "\"](https://web.archive.org/web/20": 5984,
      "3–": 5985,
      "350": 5986,
      "IUCN": 5987,
      "Ministry_of_": 5988,
      "ek": 5989,
      "jpe": 5990,
      "yam": 5991,
      "गध": 5992,
      "भोज": 5993,
      "मत": 5994,
      "महा": 5995,
      "यल": 5996,
      "लेशिया": 5997,
      "वै": 5998,
      "हम": 5999,
      "ैथि": 6000,
      "ॉग": 6001,
      "ोड": 6002,
      "▁z": 6003,
      "kil": 6004,
      "side": 6005,
      "-07": 6006,
      "\\_country": 6007,
      "▁Centre": 6008,
      "str": 6009,
      "▁border": 6010,
      "▁14.": 6011,
      "क्षर": 6012,
      "emon": 6013,
      ".[[23": 6014,
      "26.": 6015,
      "1999": 6016,
      "▁गा": 6017,
      "▁शहरी": 6018,
      "irth": 6019,
      "_Ass": 6020,
      "ंडी": 6021,
      "▁only": 6022,
      "▁[\"A": 6023,
      "▁1960": 6024,
      "▁Factbook": 6025,
      "▁des": 6026,
      "27)": 6027,
      "▁[Ministry": 6028,
      "ुरक्षा": 6029,
      "_मंदिर": 6030,
      "▁\"British": 6031,
      "_population": 6032,
      "▁[बौद्ध": 6033,
      "hmed": 6034,
      "त्यमे": 6035,
      "obox": 6036,
      "▁produc": 6037,
      "_For": 6038,
      "8/8": 6039,
      "risti": 6040,
      "pical": 6041,
      "Articles\\_contain": 6042,
      "cia.gov/": 6043,
      "infobox": 6044,
      "▁Registrar": 6045,
      "विजयनगर": 6046,
      "भोजपुरी": 6047,
      "ैथिली": 6048,
      "त्यमेव": 6049,
      "1-1": 6050,
      "3,": 6051,
      "3-8": 6052,
      "54": 6053,
      "66": 6054,
      "Home": 6055,
      "IJ": 6056,
      "QAAQBAJ&pg=PA": 6057,
      "S.": 6058,
      "SAARC_summit": 6059,
      "_on": 6060,
      "_17": 6061,
      "_36": 6062,
      "aut": 6063,
      "dar": 6064,
      "hu": 6065,
      "hra": 6066,
      "i-": 6067,
      "ji": 6068,
      "ka": 6069,
      "lal": 6070,
      "oard": 6071,
      "ren": 6072,
      "ward": 6073,
      "{{": 6074,
      "ँच": 6075,
      "इट": 6076,
      "चर": 6077,
      "तट": 6078,
      "मरी": 6079,
      "व्या": 6080,
      "स्य": 6081,
      "ुल": 6082,
      "▁औ": 6083,
      "▁६": 6084,
      "▁७": 6085,
      "▁im": 6086,
      "▁United": 6087,
      "▁[गुजरात": 6088,
      "tered": 6089,
      "▁\"गुजरात": 6090,
      "ency": 6091,
      "alli": 6092,
      "report": 6093,
      "2024": 6094,
      "arli": 6095,
      "arty": 6096,
      "arendra": 6097,
      "esti": 6098,
      "▁(क": 6099,
      "▁पुर": 6100,
      "anda": 6101,
      "र्ग": 6102,
      "](https://en.wikipedia.org/wiki/Indian": 6103,
      "▁India](https://en.wikipedia.org/wiki/G": 6104,
      "यास": 6105,
      "ootb": 6106,
      "rate": 6107,
      "ederal": 6108,
      "▁हवेली": 6109,
      "▁pre": 6110,
      "▁sp": 6111,
      "ating": 6112,
      "-135": 6113,
      "▁culture": 6114,
      "▁State": 6115,
      "▁प्रति": 6116,
      "ंगल": 6117,
      "▁केन्द्र": 6118,
      "▁far": 6119,
      "▁Public": 6120,
      "ver,": 6121,
      "0000": 6122,
      "▁नहीं": 6123,
      "▁बी": 6124,
      "ource": 6125,
      "▁women": 6126,
      "ema": 6127,
      ".[[40": 6128,
      "_industry": 6129,
      "▁Gu": 6130,
      "माय": 6131,
      "▁Nehru": 6132,
      "पुत्र": 6133,
      "▁से](http://": 6134,
      "architecture": 6135,
      "ability": 6136,
      "▁report": 6137,
      "▁regions": 6138,
      "▁gre": 6139,
      "akes": 6140,
      "22.": 6141,
      "▁From": 6142,
      "▁forest": 6143,
      "▁Indus": 6144,
      "▁१५": 6145,
      "▁१८": 6146,
      "ंदर": 6147,
      "aves": 6148,
      "▁है।[[": 6149,
      "▁original](http://www.": 6150,
      "emplate_": 6151,
      "anipur": 6152,
      "_Nadu": 6153,
      "ssam": 6154,
      "▁technology": 6155,
      "gional": 6156,
      "iley": 6157,
      "_Re": 6158,
      "undament": 6159,
      "_map": 6160,
      "ोरम": 6161,
      "▁[Government": 6162,
      "▁टि": 6163,
      "▁२००": 6164,
      "ublications/": 6165,
      "MetcalfMetcalf201": 6166,
      "athura": 6167,
      "html).": 6168,
      "](https://en.wikipedia.org/wiki/List_of_SAARC_summit": 6169,
      "▁\"जम्मू": 6170,
      "ंतरराष्ट्रीय": 6171,
      "विशेष:EditPage/": 6172,
      "amil_Nadu": 6173,
      "▁Hinduism": 6174,
      "▁[![A": 6175,
      "PPP": 6176,
      "ashmiri": 6177,
      "▁भूगोल": 6178,
      "▁2,": 6179,
      "▁सर्वोच्च": 6180,
      "awahar": 6181,
      "countries_and_depend": 6182,
      "kingdom": 6183,
      "_2024": 6184,
      "eserve": 6185,
      "terature": 6186,
      "encies_by": 6187,
      "4/4": 6188,
      "fication": 6189,
      "▁स्रोत/978-1": 6190,
      "](https://hi.wikipedia.org/wiki/विशेष:पुस्तक_स्रोत/978-1": 6191,
      "पर्यटन": 6192,
      "-lead": 6193,
      "▁द्वीपसमूह": 6194,
      "▁groups": 6195,
      "omason": 6196,
      "_BRICS_summit": 6197,
      "▁Persian": 6198,
      "▁dependencies": 6199,
      "▁चुनाव": 6200,
      "Provision": 6201,
      "overeign": 6202,
      "etrag": 6203,
      "रेलू": 6204,
      "▁summits\")": 6205,
      "icobar": 6206,
      "▁\"गुजरात\")": 6207,
      "ootball": 6208,
      "](https://en.wikipedia.org/wiki/List_of_SAARC_summits": 6209,
      "विशेष:EditPage/साँचा:": 6210,
      "awaharlal": 6211,
      "countries_and_dependencies_by": 6212,
      "\"](http://": 6213,
      "-an": 6214,
      "1-3": 6215,
      "3-": 6216,
      "7%": 6217,
      "91": 6218,
      "NA": 6219,
      "New": 6220,
      "_10": 6221,
      "_24": 6222,
      "ate_": 6223,
      "bhasha": 6224,
      "ues": 6225,
      "ल्त": 6226,
      "षभ": 6227,
      "ैव": 6228,
      "२०": 6229,
      "▁[World": 6230,
      "▁\"का": 6231,
      "\"))\n": 6232,
      "en:": 6233,
      "202": 6234,
      "arth": 6235,
      "erg": 6236,
      "ervi": 6237,
      "idy": 6238,
      "url": 6239,
      "ांवर": 6240,
      "10)": 6241,
      "1017": 6242,
      "षाण": 6243,
      "▁religious": 6244,
      "22-9": 6245,
      "_of_India.svg": 6246,
      "▁1965": 6247,
      "17.": 6248,
      "▁Linguistic": 6249,
      "▁def": 6250,
      "▁[British": 6251,
      "ार्मिक": 6252,
      "▁[बंगाल": 6253,
      "▁\"Government": 6254,
      "▁\"बौद्ध": 6255,
      "ज्ज": 6256,
      "मालया": 6257,
      "▁१९९": 6258,
      "▁composed": 6259,
      "▁wide": 6260,
      "▁along": 6261,
      "rmy": 6262,
      "d/d": 6263,
      "olden_Temple": 6264,
      "▁सैन्य": 6265,
      "▁estimate": 6266,
      "cording": 6267,
      "\\_of\\_": 6268,
      "ristian": 6269,
      "ल्तनत": 6270,
      "-D": 6271,
      "-se": 6272,
      "-विज्ञान": 6273,
      "-वेरूळ": 6274,
      ".\")\n": 6275,
      ".](https://upload.wikimedia.org/wikipedia/commons/thumb/": 6276,
      "/).": 6277,
      "2]](https://en.wikipedia.org/wiki/India#cite_note-": 6278,
      "4]](https://en.wikipedia.org/wiki/India#cite_note-FOOTNOTE": 6279,
      "4-108": 6280,
      "5]](https://en.wikipedia.org/wiki/India#cite_note-FOOTNOTE": 6281,
      "7).": 6282,
      "9–": 6283,
      "AS": 6284,
      "Chennai": 6285,
      "Gua": 6286,
      "JIJ": 6287,
      "Kashmir": 6288,
      "MC": 6289,
      "MID": 6290,
      "Vu": 6291,
      "Zva": 6292,
      "ZVu": 6293,
      "_&": 6294,
      "_श": 6295,
      "_వి": 6296,
      "_కాశ్మీ": 6297,
      "a)": 6298,
      "casting": 6299,
      "edia": 6300,
      "go": 6301,
      "ker": 6302,
      "kZVu": 6303,
      "lation": 6304,
      "lood": 6305,
      "ncient": 6306,
      "pture": 6307,
      "t,": 6308,
      "ting": 6309,
      "ंपी": 6310,
      "आणि": 6311,
      "इतिहास": 6312,
      "ईरा": 6313,
      "ओ.": 6314,
      "णात": 6315,
      "न्या": 6316,
      "फ्रीका": 6317,
      "बट": 6318,
      "मण": 6319,
      "ये": 6320,
      "र-": 6321,
      "लग": 6322,
      "ळक": 6323,
      "सून": 6324,
      "िस्तान": 6325,
      "िज़": 6326,
      "ोआ": 6327,
      "्हा": 6328,
      "१]](https://mr.wikipedia.org/wiki/भारत#cite_note-": 6329,
      "४]](https://mr.wikipedia.org/wiki/भारत#cite_note-": 6330,
      "ంస్కృ": 6331,
      "ఉత్తరా": 6332,
      "ఖో": 6333,
      "ఘాలయ": 6334,
      "చ్": 6335,
      "టై": 6336,
      "టర్": 6337,
      "డమ్": 6338,
      "డఖ్": 6339,
      "ణే": 6340,
      "ణంగా": 6341,
      "తే": 6342,
      "తెల": 6343,
      "దరంగ": 6344,
      "నో": 6345,
      "నంద": 6346,
      "బర్": 6347,
      "బార్": 6348,
      "యె": 6349,
      "రె": 6350,
      "లడఖ్": 6351,
      "ళా": 6352,
      "ళి": 6353,
      "శు": 6354,
      "హించ": 6355,
      "ుకు": 6356,
      "ెన్న": 6357,
      "ెట్రో": 6358,
      "ేతి": 6359,
      "ేఘాలయ": 6360,
      "ైనిక": 6361,
      "ొగలు": 6362,
      "ోళ": 6363,
      "‌కా": 6364,
      "‌మహ": 6365,
      "–4": 6366,
      "▁:": 6367,
      "▁ఐ": 6368,
      "▁ఖ": 6369,
      "▁–సా.శ.": 6370,
      "▁భారతీయ": 6371,
      "▁4.": 6372,
      "▁5.": 6373,
      "▁8.": 6374,
      "▁Qu": 6375,
      "▁urban": 6376,
      "dies": 6377,
      "orn": 6378,
      "ored": 6379,
      ".org/w": 6380,
      "▁[f": 6381,
      "▁[चीन": 6382,
      "▁[రాష్ట్ర": 6383,
      "▁[జన": 6384,
      "▁[గో": 6385,
      "▁[तमिळनाडू": 6386,
      "▁\"పా": 6387,
      "▁\"गण": 6388,
      "▁\"జన": 6389,
      "▁\"గో": 6390,
      "▁\"మూస:": 6391,
      "\")\"": 6392,
      "on,": 6393,
      "th_BRICS_summit": 6394,
      "ारचे": 6395,
      "aland": 6396,
      "arlo": 6397,
      "araj": 6398,
      "्ये": 6399,
      "es,": 6400,
      "▁कई": 6401,
      "▁कमी": 6402,
      "▁कश्मीर": 6403,
      "▁सह": 6404,
      "▁संग्र": 6405,
      "▁सुरू": 6406,
      "▁सध्या": 6407,
      "](https://te.wikipedia.org/wiki/B": 6408,
      "](https://te.wikipedia.org/wiki/G": 6409,
      "](https://te.wikipedia.org/wiki/భారతదేశ": 6410,
      "](https://te.wikipedia.org/wiki/గో": 6411,
      "](https://te.wikipedia.org/wiki/మూస:": 6412,
      "](https://hi.wikipedia.org/wiki/ह": 6413,
      "](https://hi.wikipedia.org/wiki/पंजाब": 6414,
      "▁(पूर्वी": 6415,
      "](https://mr.wikipedia.org/wiki/च": 6416,
      "](https://mr.wikipedia.org/wiki/द": 6417,
      "](https://mr.wikipedia.org/wiki/पाकिस्तान": 6418,
      "](https://mr.wikipedia.org/wiki/पंजाब": 6419,
      "](https://mr.wikipedia.org/wiki/उत्तर": 6420,
      "▁पंतप्रधान": 6421,
      "ారస్వ": 6422,
      "rime": 6423,
      "198": 6424,
      "ानंतर": 6425,
      "्याच्या": 6426,
      "ాలె": 6427,
      "rak": 6428,
      "rain": 6429,
      "▁आण": 6430,
      "▁आधिकारिक": 6431,
      "స్ట": 6432,
      "స్వాతంత్ర్య": 6433,
      "▁अशी": 6434,
      "▁పర": 6435,
      "▁పండు": 6436,
      "▁caus": 6437,
      "▁class": 6438,
      "▁Chand": 6439,
      "▁China": 6440,
      "▁Civil": 6441,
      "[[14": 6442,
      "▁प्रां": 6443,
      "▁प्रधान": 6444,
      "▁tree": 6445,
      "ches": 6446,
      "లు](https://te.wikipedia.org/wiki/": 6447,
      "▁जास्त": 6448,
      "▁भारताने": 6449,
      "▁भारताचे": 6450,
      "▁Punjab": 6451,
      "రాన్": 6452,
      "రాస్య": 6453,
      "_of_2011": 6454,
      "लां": 6455,
      "istorical": 6456,
      "ular": 6457,
      "स्कार": 6458,
      "▁तो": 6459,
      "▁तिस": 6460,
      "FOOTNOTENational_Informatics_Centre2005": 6461,
      "▁కే": 6462,
      "▁కోర్": 6463,
      "ांनी": 6464,
      "త్రిక": 6465,
      "▁This": 6466,
      "క్స్": 6467,
      "క్కి": 6468,
      "लेट": 6469,
      "▁వె": 6470,
      "▁వంట": 6471,
      "▁2018": 6472,
      "oloni": 6473,
      "▁when": 6474,
      "253": 6475,
      "ంగో": 6476,
      "emographic": 6477,
      "न्दा": 6478,
      "▁సముద్ర": 6479,
      "▁సూచ": 6480,
      "▁సౌక": 6481,
      "▁काश्मीर": 6482,
      "▁आहे,": 6483,
      "్రామ": 6484,
      "24.": 6485,
      "ండా": 6486,
      "ండీ": 6487,
      "ండ్య": 6488,
      "1993": 6489,
      "स्त्र": 6490,
      "▁शत": 6491,
      "▁शे": 6492,
      "▁शताब्दी": 6493,
      "▁Europe": 6494,
      "ldlife": 6495,
      "తాజ్": 6496,
      "నాథ": 6497,
      "త్వా": 6498,
      "▁इन": 6499,
      "▁(సా.శ.16": 6500,
      "oples": 6501,
      "▁से](http://www.": 6502,
      "ులు?action=edit&redlink=1": 6503,
      "▁అభి": 6504,
      "हिंदू": 6505,
      "▁religi": 6506,
      "▁ప్రజా": 6507,
      "▁gen": 6508,
      "1857": 6509,
      "తం?action=edit&redlink=1": 6510,
      "▁[मूळ": 6511,
      "](https://en.wikipedia.org/wiki/India#CITEREFB": 6512,
      "▁[\"G": 6513,
      "▁hum": 6514,
      "▁name": 6515,
      "द्दु": 6516,
      "_Paper": 6517,
      "పూర్": 6518,
      "▁these": 6519,
      "ప్రిల్": 6520,
      "ishing": 6521,
      "▁ఉంట": 6522,
      "▁ఉత్తర": 6523,
      "▁సామా": 6524,
      "▁लग": 6525,
      "వాద": 6526,
      "▁१०": 6527,
      "విధ": 6528,
      "ార్ఖండ్": 6529,
      "క్షరాస్య": 6530,
      "श्मि": 6531,
      "े_आणि": 6532,
      "_Totals": 6533,
      "वर्सि": 6534,
      "▁development": 6535,
      "▁करण्यात": 6536,
      "▁करोड़": 6537,
      "▁[↑](https://en.wikipedia.org/wiki/India#cite_ref-FOOTNOTEB": 6538,
      "▁\"कर्नाटक": 6539,
      "▁\"केर": 6540,
      "పుర": 6541,
      "▁నడి": 6542,
      "्यांना": 6543,
      "्यांचा": 6544,
      "▁ఇండియా": 6545,
      "▁[कर्नाटक": 6546,
      "▁राजनी": 6547,
      "▁[अंग्रेज़ी": 6548,
      "▁\"अंग्रेज़ी": 6549,
      "▁एकूण": 6550,
      "▁Press](https://en.wikipedia.org/wiki/C": 6551,
      "ibco": 6552,
      "▁language\"),": 6553,
      "opulation_Totals": 6554,
      "▁प्राण": 6555,
      "_River": 6556,
      "గుప్": 6557,
      "డుకు": 6558,
      "నేషియా": 6559,
      "▁घाट": 6560,
      "ంగాణ": 6561,
      "▁జన": 6562,
      "లియా": 6563,
      "▁झाल": 6564,
      "▁[Dyson": 6565,
      "ikhism": 6566,
      "▁ప్రాచ": 6567,
      "▁విభ": 6568,
      "▁వివిధ": 6569,
      "▁मुघल": 6570,
      "](https://mr.wikipedia.org/wiki/मध्य": 6571,
      "▁సంఘ": 6572,
      "▁चळ": 6573,
      "ండిచ్చేరి": 6574,
      "िवूड": 6575,
      "हाराज": 6576,
      "▁वापर": 6577,
      "▁वाळवंट": 6578,
      "_1_of_2011": 6579,
      "html)": 6580,
      "జీరియా": 6581,
      "ంకేతి": 6582,
      "[![](https://upload.wikimedia.org/wikipedia/commons/thumb/7/": 6583,
      "674": 6584,
      "వేలీ": 6585,
      "orden": 6586,
      "▁स्वातंत्र्य": 6587,
      "\")*,": 6588,
      "हित.": 6589,
      "_dom": 6590,
      "o-operation": 6591,
      "भूतान": 6592,
      "▁मानवी": 6593,
      "▁जनगणना": 6594,
      "do-European": 6595,
      "▁ప్రాంతాలు\")": 6596,
      "బియా": 6597,
      "▁sector": 6598,
      "▁languages\")": 6599,
      "ignored": 6600,
      "▁हैं।\n": 6601,
      "డామన్": 6602,
      "▁రాష్ట్రపతి": 6603,
      "national-language": 6604,
      "త్రిపుర": 6605,
      "▁संस्कृति": 6606,
      "ब्ब": 6607,
      "_కాల": 6608,
      "](https://mr.wikipedia.org/wiki/बंगाल": 6609,
      "ंग्रज": 6610,
      "डाख": 6611,
      "▁రైల్వే": 6612,
      "ोबत": 6613,
      "rancis": 6614,
      "ंदीगढ": 6615,
      "య్యూ": 6616,
      "disha": 6617,
      "త్తీస్": 6618,
      "▁ప్రదేశ్](https://te.wikipedia.org/wiki/": 6619,
      "ociation": 6620,
      "నాగాలా": 6621,
      "▁\"पश्चिम": 6622,
      "▁\"జమ్మూ": 6623,
      "▁Islands\")": 6624,
      "स.ओ.": 6625,
      "_संघ": 6626,
      "▁పాకిస్తాన్": 6627,
      "కోవ": 6628,
      "కోబార్": 6629,
      "](https://te.wikipedia.org/wiki/జమ్మూ": 6630,
      "ల్లవ": 6631,
      "ethnologue": 6632,
      "शिष्ट": 6633,
      "न्दिर": 6634,
      "jection": 6635,
      "uisine": 6636,
      "gypt": 6637,
      "ighth": 6638,
      "▁कारण": 6639,
      "▁म्हणून": 6640,
      "ॉलिवूड": 6641,
      "catal": 6642,
      "▁जिसमें": 6643,
      "▁गणराज्यचे": 6644,
      "రేబియా": 6645,
      "▁संविधान\")": 6646,
      "▁होती.": 6647,
      "074-108": 6648,
      "ोर्ड": 6649,
      "టాక్": 6650,
      "▁మాత్ర": 6651,
      "్రిటిష్": 6652,
      "urity": 6653,
      "तो.": 6654,
      "ण्यास": 6655,
      "వెను": 6656,
      "ూచి": 6657,
      "భారతదేశ_రాష్ట్రాలు,_కేంద్రపాలిత_ప్రాంత": 6658,
      "विषुव": 6659,
      "-4020": 6660,
      "issing": 6661,
      "ప్పటిక": 6662,
      "▁Plateau": 6663,
      "▁जाते.": 6664,
      "లేషియా": 6665,
      "▁पाहिले.\n": 6666,
      "▁మొదల": 6667,
      "al_Population_Totals": 6668,
      "ताजमहाल": 6669,
      "ద్యు": 6670,
      "arnatic": 6671,
      "▁क्रमांक": 6672,
      "ेंजो": 6673,
      "▁చిత్ర": 6674,
      "ద్వీప్": 6675,
      "▁ఉపఖండ": 6676,
      "▁దేశంలోని": 6677,
      "▁కాంగ్రెసు": 6678,
      "▁वैशिष्ट": 6679,
      "library": 6680,
      "ఆగష్టు": 6681,
      "లక్షద్వీప్": 6682,
      "హాయం:": 6683,
      "ీకరణ": 6684,
      "ోల్‌కా": 6685,
      "India_Goa": 6686,
      "మిజోరా": 6687,
      "जिंठा-वेरूळ": 6688,
      "-78074-108": 6689,
      "▁ठिका": 6690,
      "य.एस.ओ.": 6691,
      "ర్యానా": 6692,
      "▁[ఢిల్లీ](https://te.wikipedia.org/wiki/ఢిల్లీ": 6693,
      "roadcasting": 6694,
      "టిబెట్": 6695,
      "▁वर्षांपूर्वी": 6696,
      "మెరికా": 6697,
      "ूनिवर्सि": 6698,
      "फगाणि": 6699,
      "బడ్డీ": 6700,
      "ేరళ": 6701,
      "్రైస్త": 6702,
      "▁आढळ": 6703,
      "ండమాన్": 6704,
      "ेकडील": 6705,
      "ెలవుదిన": 6706,
      "क्षेत्रफळानुसार": 6707,
      "▁बीच": 6708,
      "मायण": 6709,
      "Provisional_Population_Totals": 6710,
      "etraglia": 6711,
      "GuaJIJ": 6712,
      "ZvaGuaJIJ": 6713,
      "తెలంగాణ": 6714,
      "ెన్నై": 6715,
      "‌మహల్": 6716,
      "▁संग्रहित.": 6717,
      "తాజ్‌మహల్": 6718,
      "द्दुचेरी": 6719,
      "_Paper_1_of_2011": 6720,
      "క్షరాస్యత": 6721,
      "▁[अंग्रेज़ी](https://hi.wikipedia.org/wiki/अ": 6722,
      "ibcode": 6723,
      "నాగాలాండ్": 6724,
      "](https://te.wikipedia.org/wiki/జమ్మూ_కాశ్మీ": 6725,
      "ethnologue.com/": 6726,
      "ోల్‌కాతా": 6727,
      "जिंठा-वेरूळची": 6728,
      "-78074-108-6": 6729,
      "Provisional_Population_Totals_Paper_1_of_2011": 6730,
      "ZvaGuaJIJgo": 6731,
      "Provisional_Population_Totals_Paper_1_of_2011_India": 6732,
      ")\"),": 6733,
      "0/0": 6734,
      "1-4": 6735,
      "8D": 6736,
      "Biodiversity": 6737,
      "ault": 6738,
      "ds": 6739,
      "ggle": 6740,
      "oti": 6741,
      "s:": 6742,
      "णाली": 6743,
      "र्य": 6744,
      "dir": 6745,
      "▁[का": 6746,
      "▁[दिल्ली": 6747,
      "Indian_": 6748,
      "▁साल": 6749,
      "▁(2014": 6750,
      "asu": 6751,
      "राक": 6752,
      "▁मंत्री": 6753,
      "-05": 6754,
      "\\_(": 6755,
      "▁प्रांत": 6756,
      "78.": 6757,
      "▁man": 6758,
      "ासी": 6759,
      "uns": 6760,
      "content": 6761,
      "▁उद्योग": 6762,
      "▁इत्या": 6763,
      "▁संख्या": 6764,
      "▁[\"H": 6765,
      "29.": 6766,
      "▁([स": 6767,
      "▁International": 6768,
      "्राम": 6769,
      "▁Languages": 6770,
      "वर्ण": 6771,
      "_November": 6772,
      "▁differ": 6773,
      "▁नेतृत": 6774,
      "▁1998": 6775,
      "▁२६": 6776,
      "%E0%A4%B0%E0%A4%": 6777,
      "_des": 6778,
      "▁स्थापत्य": 6779,
      "issile": 6780,
      "▁mi)": 6781,
      "▁Minorities": 6782,
      "/index.php?": 6783,
      "-India": 6784,
      "/hindi": 6785,
      "219": 6786,
      "338": 6787,
      ":**": 6788,
      "AG": 6789,
      "IF": 6790,
      "_9": 6791,
      "_v": 6792,
      "_2011": 6793,
      "_43": 6794,
      "ax": 6795,
      "ave": 6796,
      "ading": 6797,
      "bu": 6798,
      "cover": 6799,
      "i,": 6800,
      "iz": 6801,
      "most": 6802,
      "os/": 6803,
      "ption": 6804,
      "rance": 6805,
      "s_in_India": 6806,
      "yle": 6807,
      "जि": 6808,
      "सू": 6809,
      "ूस": 6810,
      "ो-": 6811,
      "५७": 6812,
      "–24": 6813,
      "▁3.": 6814,
      "▁hist": 6815,
      "▁low": 6816,
      "▁`|": 6817,
      "digarh": 6818,
      "](Template:": 6819,
      "▁[घ": 6820,
      "▁[सा": 6821,
      "▁[राज्य": 6822,
      "▁[मुंबई": 6823,
      "▁\"श": 6824,
      "inan": 6825,
      "2025": 6826,
      "eri": 6827,
      "cip": 6828,
      "▁सूचना": 6829,
      "](https://hi.wikipedia.org/wiki/ओ": 6830,
      "ashi": 6831,
      "ripu": 6832,
      "र्मा": 6833,
      "▁India](https://en.wikipedia.org/wiki/C": 6834,
      "raz": 6835,
      "entury": 6836,
      "▁prom": 6837,
      "atab": 6838,
      "▁colle": 6839,
      "▁Central": 6840,
      "▁Cooperation": 6841,
      "▁At": 6842,
      "▁Singh": 6843,
      "\"),[[": 6844,
      "loth": 6845,
      "adra": 6846,
      "adras": 6847,
      "▁दशक": 6848,
      "▁fam": 6849,
      "ediff": 6850,
      "▁Park": 6851,
      "_of_B": 6852,
      "vert": 6853,
      "](https://hi.wikipedia.org/wiki/भारत_का_": 6854,
      "▁नौ": 6855,
      "21.": 6856,
      "]](https://en.wikipedia.org/wiki/India#cite_note-Combined": 6857,
      "▁Machine": 6858,
      "▁2012.": 6859,
      "▁2014.": 6860,
      "1016": 6861,
      "type": 6862,
      "267": 6863,
      "agore": 6864,
      "aya": 6865,
      "1991": 6866,
      "▁गांधी": 6867,
      "▁शक्ति": 6868,
      "pecially": 6869,
      "hai": 6870,
      "▁Games": 6871,
      "▁H.": 6872,
      "▁2001": 6873,
      "aryana": 6874,
      "50th": 6875,
      "_Act": 6876,
      "▁religion": 6877,
      "▁growth": 6878,
      "▁[\"P": 6879,
      "▁her": 6880,
      "▁near": 6881,
      "archive.org/detail": 6882,
      "_Pro": 6883,
      "▁through": 6884,
      "166": 6885,
      "AAJ": 6886,
      "▁लोग": 6887,
      "▁\"Mughal": 6888,
      "_Data": 6889,
      "law": 6890,
      "▁within": 6891,
      "▁tex": 6892,
      "▁Press,": 6893,
      "](https://en.wikipedia.org/wiki/British": 6894,
      "2011religion": 6895,
      "arden": 6896,
      "svara": 6897,
      "▁क्षेत्रीय": 6898,
      "हिन्द": 6899,
      "▁जनसंख्या": 6900,
      "▁river": 6901,
      "श्चिम_ब": 6902,
      "▁शिक्षा": 6903,
      "_Lank": 6904,
      "धीश": 6905,
      "▁[जम्मू": 6906,
      "ंपरा": 6907,
      "▁शासित": 6908,
      "ographical": 6909,
      "handigarh": 6910,
      "]](https://hi.wikipedia.org/wiki/भारत#cite_note-FOOTNOTEStein1998": 6911,
      "]](https://hi.wikipedia.org/wiki/भारत#cite_note-FOOTNOTESingh2009": 6912,
      "▁use": 6913,
      "त्तराखण्ड": 6914,
      "ote:": 6915,
      "▁ago": 6916,
      "Dyson2018),": 6917,
      "▁especially": 6918,
      "ortal:": 6919,
      "▁बंगाल\")": 6920,
      "rishn": 6921,
      "▁कुल": 6922,
      "▁व्याप": 6923,
      "osey": 6924,
      "▁Buddhist": 6925,
      "▁\"पंजाब\")": 6926,
      "%E0%A5%87": 6927,
      "nergy": 6928,
      "_मेला?action=edit&redlink=1": 6929,
      "culpture": 6930,
      "urchasing": 6931,
      "▁2018](https://en.wikipedia.org/wiki/India#CITEREFDyson2018),": 6932,
      "▁\"Template:": 6933,
      "▁दीव": 6934,
      "arnataka": 6935,
      "▁increased": 6936,
      "violence": 6937,
      "adhya": 6938,
      "िक्किम": 6939,
      "osphere": 6940,
      "▁[पुरालेखित](https://web.archive.org/web/201": 6941,
      "Census2011religion": 6942,
      "▁\"मुंबई\")": 6943,
      "▁अप्रैल": 6944,
      "ैदराबाद": 6945,
      "▁[हिन्दी](https://hi.wikipedia.org/wiki/हिन्दी": 6946,
      "ंडीगढ़": 6947,
      "▁Quote:": 6948,
      "▁\"कर्नाटक\")": 6949,
      "ZvaGuaJIJgoC&pg=PA": 6950,
      "ripura": 6951,
      "archive.org/details/": 6952,
      "श्चिम_बंगाल": 6953,
      "-F": 6954,
      ".P": 6955,
      "123": 6956,
      "2%": 6957,
      "6)\n": 6958,
      "8+": 6959,
      "Flag": 6960,
      "Forest": 6961,
      "Front": 6962,
      "Sikh": 6963,
      "Web": 6964,
      "ahib": 6965,
      "evanagari": 6966,
      "hdr": 6967,
      "kb": 6968,
      "sm": 6969,
      "tou": 6970,
      "tandard": 6971,
      "जार": 6972,
      "ज्य": 6973,
      "डु": 6974,
      "नता": 6975,
      "पदी": 6976,
      "वरा": 6977,
      "सित": 6978,
      "हात्": 6979,
      "ुट": 6980,
      "ृती": 6981,
      "ोला": 6982,
      "ोडिया": 6983,
      "ौपदी": 6984,
      "anchi": 6985,
      "onte": 6986,
      "2022": 6987,
      "▁समाज": 6988,
      "▁(अ": 6989,
      "asht": 6990,
      "▁मन": 6991,
      "▁India\n": 6992,
      "▁India*": 6993,
      "▁अस्त": 6994,
      "▁Conservation": 6995,
      "▁All": 6996,
      "loc": 6997,
      "umeration": 6998,
      "ंगोल": 6999,
      "▁जि": 7000,
      "rowing": 7001,
      "त्री": 7002,
      "लाओ": 7003,
      "ांचे": 7004,
      "▁Muslim": 7005,
      "iles": 7006,
      "238": 7007,
      "260": 7008,
      "269,": 7009,
      "▁Dictionary": 7010,
      "agen": 7011,
      "upreme": 7012,
      "_in_A": 7013,
      "_in_New": 7014,
      "287,": 7015,
      "_Sahib": 7016,
      "द्रौपदी": 7017,
      "117": 7018,
      "ablish": 7019,
      "र्मू": 7020,
      "Harman": 7021,
      "▁लाल": 7022,
      "▁भवन": 7023,
      "_Map": 7024,
      "▁धार्मिक": 7025,
      "वर्तन": 7026,
      "▁[सी": 7027,
      "_Golden_Temple": 7028,
      "दाबाद": 7029,
      "45)": 7030,
      "_pilgrim": 7031,
      "धारण": 7032,
      "▁टा": 7033,
      "angetic": 7034,
      "onstitution_of_India": 7035,
      "▁१९७": 7036,
      "▁[New": 7037,
      "न्नड": 7038,
      "▁[पश्चिम": 7039,
      "ported": 7040,
      "sites/": 7041,
      "%E0%A5%8D": 7042,
      "_at_the_Golden_Temple": 7043,
      "langoff-1": 7044,
      "▁(1,269,": 7045,
      "▁3,287,": 7046,
      "▁विषय": 7047,
      "aranth": 7048,
      "वसायिक": 7049,
      "rajbhasha": 7050,
      "द्दाख": 7051,
      "हमदाबाद": 7052,
      "hmedabad": 7053,
      "Home_Affairs": 7054,
      "dir_Sahib": 7055,
      "▁(2014).": 7056,
      "Sikh_pilgrim": 7057,
      "touch": 7058,
      "हात्मा": 7059,
      "_in_New_Delhi": 7060,
      "Harmandir_Sahib": 7061,
      "Sikh_pilgrim_at_the_Golden_Temple": 7062,
      "-e": 7063,
      "-r": 7064,
      "/india/": 7065,
      "2-4": 7066,
      "2)[[": 7067,
      "3.\n": 7068,
      "313": 7069,
      "58)": 7070,
      "677": 7071,
      "7C": 7072,
      "9]](https://en.wikipedia.org/wiki/India#cite_note-": 7073,
      "9]](https://en.wikipedia.org/wiki/India#cite_note-FOOTNOTE": 7074,
      ";[[": 7075,
      "Alig": 7076,
      "LM": 7077,
      "Map": 7078,
      "_15": 7079,
      "_45": 7080,
      "_Union": 7081,
      "_term": 7082,
      "_युद्ध": 7083,
      "ative": 7084,
      "baki": 7085,
      "ca": 7086,
      "caste": 7087,
      "cbi": 7088,
      "dy": 7089,
      "hut": 7090,
      "khand": 7091,
      "ns": 7092,
      "ncbi": 7093,
      "subcontinent": 7094,
      "ual": 7095,
      "utical": 7096,
      "vent": 7097,
      "wana": 7098,
      "zer": 7099,
      "ऊर्जा": 7100,
      "कूल": 7101,
      "गल": 7102,
      "जल": 7103,
      "ट्य": 7104,
      "ढा": 7105,
      "भार": 7106,
      "यपुर": 7107,
      "लिक": 7108,
      "लिस": 7109,
      "श्य": 7110,
      "िवा": 7111,
      "ॉकी": 7112,
      "ोध": 7113,
      "▁36": 7114,
      "▁eng": 7115,
      "orship": 7116,
      "teg": 7117,
      "▁\"चीन": 7118,
      "▁\"World": 7119,
      "▁\"तमिल": 7120,
      "ensi": 7121,
      "ences": 7122,
      "an,": 7123,
      "alit": 7124,
      "](https://en.wikipedia.org/wiki/World": 7125,
      "2021": 7126,
      "erman": 7127,
      "▁सकल": 7128,
      "▁सिंह": 7129,
      "](https://hi.wikipedia.org/wiki/च": 7130,
      "](https://hi.wikipedia.org/wiki/बा": 7131,
      "▁(ed.).": 7132,
      "asian": 7133,
      "र्ड": 7134,
      "र्त": 7135,
      "▁India*.": 7136,
      "ed,": 7137,
      "lima": 7138,
      "ately": 7139,
      "▁popul": 7140,
      "▁political": 7141,
      "ation,": 7142,
      "▁sha": 7143,
      "atna": 7144,
      "attle": 7145,
      "amp": 7146,
      "▁coast": 7147,
      "▁capita": 7148,
      "▁Comp": 7149,
      "ets": 7150,
      "▁प्रभा": 7151,
      "▁प्रौद्योगिकी": 7152,
      "ango": 7153,
      "angam": 7154,
      "ंगम": 7155,
      "▁men": 7156,
      "ull": 7157,
      "very": 7158,
      "urasian": 7159,
      "ourbaki": 7160,
      "▁Rothermund": 7161,
      "▁Man": 7162,
      "iland": 7163,
      "dem": 7164,
      "्वाला": 7165,
      "oln": 7166,
      "▁work": 7167,
      "254": 7168,
      "▁By": 7169,
      "▁*E": 7170,
      "ager": 7171,
      "▁\"Sanskrit": 7172,
      "cts": 7173,
      "▁गंगा": 7174,
      "-39": 7175,
      "मुना": 7176,
      "-415": 7177,
      "▁relations": 7178,
      "ubram": 7179,
      "▁nation": 7180,
      "_Comm": 7181,
      "harkhand": 7182,
      "▁परंपरा": 7183,
      "▁\"Ch": 7184,
      "▁\"Cambridge": 7185,
      "▁before": 7186,
      "▁१६": 7187,
      "▁[Cambridge": 7188,
      "%20A": 7189,
      "ndhra": 7190,
      "▁[978-0-521": 7191,
      "▁[978-81": 7192,
      "](https://en.wikipedia.org/wiki/Ch": 7193,
      "▁राज्य\")": 7194,
      "ियार": 7195,
      "_Di": 7196,
      "▁[↑](https://en.wikipedia.org/wiki/India#cite_ref-FOOTNOTEStein2010": 7197,
      "](Special:BookSources/978-81": 7198,
      "lative": 7199,
      "▁\"Special:BookSources/978-81": 7200,
      "▁राजवंश": 7201,
      "ोलन": 7202,
      "aith": 7203,
      "परमाणु": 7204,
      "svg": 7205,
      "aking": 7206,
      "akistani": 7207,
      "vention": 7208,
      "ecu": 7209,
      "▁2007](https://en.wikipedia.org/wiki/India#CITEREF": 7210,
      "%E0%A4%B8": 7211,
      "शासित_प्रदेश": 7212,
      "ureau": 7213,
      "▁अन्त": 7214,
      "भूषा": 7215,
      "orthographic": 7216,
      "ambridge_University_Press": 7217,
      "▁range": 7218,
      "स्वतंत्रता": 7219,
      "ंग्लादेश": 7220,
      "ौद्ध_धर्म": 7221,
      "on-Alig": 7222,
      "troduction": 7223,
      "▁\"गंगा": 7224,
      "▁vill": 7225,
      "aceutical": 7226,
      "▁News": 7227,
      "ichell": 7228,
      "सिद्ध": 7229,
      "ollingham": 7230,
      "▁2024.": 7231,
      "▁था।": 7232,
      "NCLM": 7233,
      "f/f": 7234,
      "oint": 7235,
      "docs/": 7236,
      "छत्तीसगढ़": 7237,
      ".nlm": 7238,
      "द्वार": 7239,
      "▁[India](https://en.wikipedia.org/wiki/India": 7240,
      "_projection": 7241,
      "vatsyayan-lord-4": 7242,
      "vatsyayan-lord_43": 7243,
      "▁पहले": 7244,
      "▁पार्टी": 7245,
      "artition": 7246,
      "▁including": 7247,
      "6]](https://en.wikipedia.org/wiki/India#cite_note-vatsyayan-lord-4": 7248,
      "▁\"हिन्दी\")": 7249,
      "▁शैली": 7250,
      "owever,": 7251,
      "विद्यालय": 7252,
      "bank.org/": 7253,
      "harmaceutical": 7254,
      "Report.pdf)": 7255,
      "anorama": 7256,
      "ouncil": 7257,
      "do-Pakistani": 7258,
      "▁डॉलर": 7259,
      ".nih": 7260,
      "nclm.nic.in/shared/linkimages/NCLM": 7261,
      "महाद्वीप": 7262,
      "arliest": 7263,
      "estival": 7264,
      "undamental": 7265,
      "▁चुनावों": 7266,
      "kZVuDwAAQBAJ&pg=PA": 7267,
      "▁प्रधानमंत्री": 7268,
      "olonial": 7269,
      "▁Press](https://en.wikipedia.org/wiki/Cambridge_University_Press": 7270,
      "inancial": 7271,
      "50thReport.pdf)": 7272,
      "hutan": 7273,
      "ncbi.nlm": 7274,
      "▁\"चीन\")": 7275,
      "्वालामुख": 7276,
      "orthographic_projection": 7277,
      "on-Aligned": 7278,
      "nclm.nic.in/shared/linkimages/NCLM50thReport.pdf)": 7279,
      "ncbi.nlm.nih": 7280,
      "%3": 7281,
      "%;\n": 7282,
      "%E0%B0%": 7283,
      "&ss": 7284,
      "-27": 7285,
      "-II": 7286,
      "4,": 7287,
      "41": 7288,
      "CH": 7289,
      "Central": 7290,
      "Constituent": 7291,
      "Mumbai": 7292,
      "Raj": 7293,
      "TO": 7294,
      "_అ": 7295,
      "_ఎ": 7296,
      "_ర": 7297,
      "_con": 7298,
      "_యు": 7299,
      "_రాజ": 7300,
      "_त्रूटी": 7301,
      "_శాస్త్ర": 7302,
      "cen": 7303,
      "e,": 7304,
      "eitz": 7305,
      "equality": 7306,
      "iis": 7307,
      "ive": 7308,
      "sources": 7309,
      "y=": 7310,
      "ंबा": 7311,
      "आशियातील": 7312,
      "टना": 7313,
      "टके": 7314,
      "डप्पा": 7315,
      "णु": 7316,
      "तै": 7317,
      "तून": 7318,
      "दिवस": 7319,
      "दडो": 7320,
      "धा": 7321,
      "मिका": 7322,
      "ळा": 7323,
      "वणी": 7324,
      "शत": 7325,
      "शस्": 7326,
      "षद": 7327,
      "ह्य": 7328,
      "हशत": 7329,
      "ृष": 7330,
      "ोबर": 7331,
      "२]](https://mr.wikipedia.org/wiki/भारत#cite_note-": 7332,
      "८]](https://mr.wikipedia.org/wiki/भारत#cite_note-": 7333,
      "ఒలి": 7334,
      "కూ": 7335,
      "క్ర": 7336,
      "గే": 7337,
      "గ్ర": 7338,
      "గతి": 7339,
      "జు": 7340,
      "ఞాన": 7341,
      "టం": 7342,
      "టన్": 7343,
      "పం": 7344,
      "పో": 7345,
      "పచ్చ": 7346,
      "మ్య": 7347,
      "యాలో": 7348,
      "లె": 7349,
      "వై": 7350,
      "వ్": 7351,
      "వత్స": 7352,
      "వృద్ధి": 7353,
      "శ్రమ": 7354,
      "సీ": 7355,
      "స్రా": 7356,
      "హక": 7357,
      "హన": 7358,
      "ాంగ": 7359,
      "ీఠ": 7360,
      "ువు": 7361,
      "ూపా": 7362,
      "ృష్": 7363,
      "ెహ": 7364,
      "ెట్": 7365,
      "ేన": 7366,
      "ైద": 7367,
      "ైగా": 7368,
      "ొయ": 7369,
      "▁%": 7370,
      "▁]": 7371,
      "▁ఘ": 7372,
      "▁జా": 7373,
      "▁46": 7374,
      "▁त्रूटी": 7375,
      "▁[n": 7376,
      "▁[ए": 7377,
      "▁[గ": 7378,
      "▁[కు": 7379,
      "▁[పా": 7380,
      "▁[దక్షిణ": 7381,
      "▁[హిందూ": 7382,
      "▁[పాకిస్తాన్": 7383,
      "▁[श्रीलंका": 7384,
      "▁[ముంబై": 7385,
      "▁\"గ": 7386,
      "▁\"రాష్ట్ర": 7387,
      "▁\"దక్షిణ": 7388,
      "▁\"మూస": 7389,
      "▁\"भू": 7390,
      "▁\"హిందూ": 7391,
      "▁\"పాకిస్తాన్": 7392,
      "▁\"ప్రపంచ": 7393,
      "▁\"श्रीलंका": 7394,
      "▁\"ముంబై": 7395,
      "▁\"వర్గం:Harv": 7396,
      "▁\"ప్రత్యేక:EditPage/మూస:": 7397,
      "▁\"en:": 7398,
      "rest": 7399,
      "्यु": 7400,
      "cit": 7401,
      "▁कला": 7402,
      "▁कंपनी": 7403,
      "भारतात": 7404,
      "▁साली": 7405,
      "▁सिंधू": 7406,
      "▁सस्तन": 7407,
      "](https://te.wikipedia.org/wiki/మూస": 7408,
      "](https://te.wikipedia.org/wiki/జన": 7409,
      "](https://te.wikipedia.org/wiki/వర్గం:Harv": 7410,
      "](https://te.wikipedia.org/wiki/ప్రత్యేక:EditPage/మూస:": 7411,
      "](https://mr.wikipedia.org/wiki/व": 7412,
      "](https://mr.wikipedia.org/wiki/दक्षिण": 7413,
      "](https://mr.wikipedia.org/wiki/लोक": 7414,
      "](https://mr.wikipedia.org/wiki/राजस्थान": 7415,
      "▁पृष्": 7416,
      "राव": 7417,
      "रामायण": 7418,
      "19)": 7419,
      "्या\")": 7420,
      "्याचे": 7421,
      "్యాలె": 7422,
      "▁ह्या": 7423,
      "▁आम": 7424,
      "▁आली": 7425,
      "-03": 7426,
      "-08": 7427,
      "ation_in_India": 7428,
      "స్వా": 7429,
      "\\_देश": 7430,
      "▁పొ": 7431,
      "▁పద్ధ": 7432,
      "▁పైగా": 7433,
      "▁can": 7434,
      "ర్ద": 7435,
      "ర్ష": 7436,
      "న్ను": 7437,
      "▁प्रजासत्ताक": 7438,
      "▁केला": 7439,
      "▁भारताची": 7440,
      "రాజ్యం": 7441,
      "▁[↑](https://mr.wikipedia.org/wiki/भारत#cite_": 7442,
      "स्पती": 7443,
      "లోయ": 7444,
      "▁त्यात": 7445,
      "▁కేంద్ర": 7446,
      "▁కంపెనీ": 7447,
      "ांना": 7448,
      "▁नका": 7449,
      "ాలు\")\n": 7450,
      "ాలుగా": 7451,
      "క్తి": 7452,
      "लेला": 7453,
      "▁వై": 7454,
      "देशांक": 7455,
      "▁top": 7456,
      "భారతదేశం\n": 7457,
      "▁సమా": 7458,
      "▁సర్వ": 7459,
      "▁సుల్తాన": 7460,
      "वाळवंट": 7461,
      "▁शक": 7462,
      "▁చర్చ:": 7463,
      "తాక": 7464,
      "నాట": 7465,
      "తి](https://te.wikipedia.org/wiki/": 7466,
      "సింది.": 7467,
      "▁इ.": 7468,
      "▁(సా.శ.6": 7469,
      "–సా.శ.14": 7470,
      "–సా.శ.1947)": 7471,
      ".in)\n": 7472,
      "▁అను": 7473,
      "ిక,": 7474,
      "▁यात": 7475,
      "▁1962": 7476,
      "establish": 7477,
      "द्दल": 7478,
      "కుపచ్చ": 7479,
      "▁[SAARC": 7480,
      "](https://te.wikipedia.org/wiki/భారతదేశం#CITEREF": 7481,
      "ध्यम": 7482,
      "▁ఆకుపచ్చ": 7483,
      "म्ह": 7484,
      "▁On": 7485,
      "▁రే": 7486,
      "మాతర": 7487,
      "మాబాద్": 7488,
      "▁London": 7489,
      "రుపు": 7490,
      "రుగు": 7491,
      "▁प्रदेशात": 7492,
      "शियाई": 7493,
      "▁\"सहाय्य:CS1": 7494,
      "ुरोप": 7495,
      "▁నది": 7496,
      "गर\")": 7497,
      "మించ": 7498,
      "_मो": 7499,
      "जीव": 7500,
      "▁తన": 7501,
      "▁[केर": 7502,
      "Harv\\_and\\_Sfn\\_no-target\\_errors\n": 7503,
      "▁राजक": 7504,
      "_Nations": 7505,
      "णाऱ्या": 7506,
      "ం](https://te.wikipedia.org/wiki/అ": 7507,
      "ం](https://te.wikipedia.org/wiki/క": 7508,
      "▁नाटके": 7509,
      "ంబంధ": 7510,
      "398": 7511,
      "▁आहेत.\n": 7512,
      "గువ": 7513,
      "▁घड": 7514,
      "CS1\\_": 7515,
      "▁[बिहार": 7516,
      "▁సంస్థ": 7517,
      "▁సంవత్స": 7518,
      "డియా": 7519,
      "▁\"बिहार": 7520,
      "▁वाघ": 7521,
      "ట్లు": 7522,
      "▁पाकिस्तान": 7523,
      "▁1997": 7524,
      "_చర్చ:": 7525,
      "▁\"మధ్య": 7526,
      "▁ఎన్నిక": 7527,
      "▁ఎన్ను": 7528,
      "▁[మధ్య": 7529,
      "](https://mr.wikipedia.org/wiki/सहाय्य:CS1": 7530,
      "▁(సా.శ.పూ.1200": 7531,
      "शीख": 7532,
      "▁గణ": 7533,
      "](https://te.wikipedia.org/wiki/మధ్య": 7534,
      "ल्ली": 7535,
      "_and_union_territ": 7536,
      "▁\"आसा": 7537,
      "▁./వర్గం:Pages\\_using\\_": 7538,
      "▁./వర్గం:Harv\\_and\\_Sfn\\_no-target\\_errors\n": 7539,
      "]](https://te.wikipedia.org/wiki/భారతదేశం#cite_note-india.gov.in": 7540,
      "_సంగీతం": 7541,
      "\"](https://web.archive.org/web/20140": 7542,
      "▁fig": 7543,
      "\")*\n": 7544,
      "_Fund": 7545,
      "हित्य": 7546,
      "▁**[आ": 7547,
      "ారిగా": 7548,
      ".nic.in)\n": 7549,
      "నాయక": 7550,
      "–సా.శ.పూ.3": 7551,
      "హాస": 7552,
      "దావరి": 7553,
      "](https://mr.wikipedia.org/wiki/आसाम": 7554,
      "▁కూడిన": 7555,
      "▁भूमिका": 7556,
      "▁वर्षात": 7557,
      "/publications/": 7558,
      "▁[नवी": 7559,
      "1975": 7560,
      "▁నిర్వ": 7561,
      "▁స్థా": 7562,
      "ోర్చు": 7563,
      "्यानंतर": 7564,
      "▁([help](https://te.wikipedia.org/wiki/వర్గం:Harv": 7565,
      "శాఖ": 7566,
      "▁विकसित": 7567,
      "▁त्यामुळे": 7568,
      "ृष्टी": 7569,
      "▁[జమ్మూ": 7570,
      "▁[![](https://upload.wikimedia.org/wikipedia/commons/thumb/c/c": 7571,
      "▁పాత్ర": 7572,
      "▁प्रकारच्या": 7573,
      "▁\"చైనా": 7574,
      "▁पदवी": 7575,
      "▁ఉన్నాయి.\n": 7576,
      "▁ఒకటి": 7577,
      "a/a": 7578,
      "జ్ఞాన": 7579,
      "▁म्हणजे": 7580,
      "▁[t](https://te.wikipedia.org/wiki/మూస": 7581,
      "▁आकर्ष": 7582,
      "ernet": 7583,
      "ोहेंजो": 7584,
      "▁गेल्या": 7585,
      "▁गेली.": 7586,
      "▁28.": 7587,
      "▁ईस्ट": 7588,
      "actbook/": 7589,
      "हाय्य](https://mr.wikipedia.org/wiki/सहाय्य:CS1": 7590,
      "▁మార్గాలు": 7591,
      "▁[e](https://te.wikipedia.org/wiki/ప్రత్యేక:EditPage/మూస:": 7592,
      "▁2020.": 7593,
      "Wikipedia:": 7594,
      "రోపా": 7595,
      "▁[v](https://te.wikipedia.org/wiki/మూస:": 7596,
      "▁नदी\"),": 7597,
      "▁व्यावसायिक": 7598,
      "ण्याची": 7599,
      "▁భారతదేశానికి": 7600,
      "▁మతము\")": 7601,
      "▁మతము\"),": 7602,
      "▁आहे.[[१": 7603,
      "पर्यंत": 7604,
      "ీనంలో": 7605,
      "▁జాబితా\")\n": 7606,
      "नेपाळ": 7607,
      "▁ప్రపంచంలో": 7608,
      "▁ప్రభుత్వ": 7609,
      "▁ప్రభుత్వం": 7610,
      "▁पर्यंत": 7611,
      "▁People": 7612,
      "ित्त्व": 7613,
      "c.ernet": 7614,
      "साम](https://mr.wikipedia.org/wiki/आसाम": 7615,
      "▁पाहिले.": 7616,
      "▁మొదటి": 7617,
      "▁वनस्पती": 7618,
      "प्राचीन": 7619,
      "...]": 7620,
      "స్లామాబాద్": 7621,
      "▁పాలన": 7622,
      "▁కార్య": 7623,
      "▁కారణంగా": 7624,
      "▁కలిగి": 7625,
      "ంటుంది.": 7626,
      "▁प्राणी**": 7627,
      "-language\\_text": 7628,
      "-language\\_sources": 7629,
      "▁[महाराष्ट्र](https://mr.wikipedia.org/wiki/महाराष्ट्र": 7630,
      "శోకుడు": 7631,
      "default": 7632,
      "▁జరిగిన": 7633,
      "వ](https://te.wikipedia.org/wiki/List_of_countries_by": 7634,
      "▁सोयी": 7635,
      "▁निर्मिती": 7636,
      "▁[భారతదేశంలో": 7637,
      "▁అనేక": 7638,
      "▁ఎక్కువగా": 7639,
      "▁उपसागरा": 7640,
      "▁वेगळे": 7641,
      "Atlas": 7642,
      "▁(2006).": 7643,
      "▁जेव": 7644,
      "_of_Congress": 7645,
      "१६६-": 7646,
      "वृतीय": 7647,
      "▁వారసత్వ": 7648,
      "▁ప్రస్తుతం": 7649,
      "▁రోడ్": 7650,
      "▁తరువాత": 7651,
      "▁బెంగాల్": 7652,
      "ంపిక్": 7653,
      "▁अजूनही": 7654,
      "▁पुरस्कार": 7655,
      "▁टिळक": 7656,
      "▁widely": 7657,
      "ంస్కృతం": 7658,
      "▁వెబ్": 7659,
      "▁సౌకర్య": 7660,
      "ండీగఢ్": 7661,
      "▁అభివృద్ధి": 7662,
      "▁నడిపించ": 7663,
      "గుప్త": 7664,
      "భారతదేశ_రాష్ట్రాలు,_కేంద్రపాలిత_ప్రాంతాలు": 7665,
      "▁इत्यादी": 7666,
      "▁([सहाय्य](https://mr.wikipedia.org/wiki/सहाय्य:CS1": 7667,
      "▁नेतृत्व": 7668,
      "8+5": 7669,
      "ontek": 7670,
      "▁अस्तित्त्व": 7671,
      "_त्रूटी#": 7672,
      "eitzman": 7673,
      "iisc.ernet": 7674,
      "ృష్ణా": 7675,
      "▁\"श्रीलंका\")": 7676,
      "▁पृष्ठा": 7677,
      "▁नकाशा": 7678,
      "▁\"बिहार\")": 7679,
      "▁(సా.శ.పూ.1200–సా.శ.పూ.": 7680,
      "_and_union_territories": 7681,
      "ోర్చుగ": 7682,
      "▁([help](https://te.wikipedia.org/wiki/వర్గం:Harv_and_Sfn_template_errors": 7683,
      "▁[t](https://te.wikipedia.org/wiki/మూస_చర్చ:": 7684,
      "ोहेंजोदडो": 7685,
      "-language\\_sources\\_(": 7686,
      "▁([सहाय्य](https://mr.wikipedia.org/wiki/सहाय्य:CS1_त्रूटी#": 7687,
      "&action=edit": 7688,
      "-H": 7689,
      "-ex": 7690,
      ".६": 7691,
      "/s": 7692,
      "/national": 7693,
      "2nd": 7694,
      "324": 7695,
      "5]](https://en.wikipedia.org/wiki/India#cite_note-": 7696,
      "6.\n": 7697,
      "Ali": 7698,
      "Collingham": 7699,
      "DIA": 7700,
      "F)": 7701,
      "OV": 7702,
      "Pakistan": 7703,
      "S$": 7704,
      "Tarlo": 7705,
      "YS": 7706,
      "_ऑ": 7707,
      "_di": 7708,
      "_per": 7709,
      "_to": 7710,
      "atp": 7711,
      "aci": 7712,
      "d=": 7713,
      "ij": 7714,
      "ite": 7715,
      "lue": 7716,
      "mit": 7717,
      "mill": 7718,
      "odia": 7719,
      "rand": 7720,
      "rune": 7721,
      "round": 7722,
      "tw": 7723,
      "top": 7724,
      "yth": 7725,
      "yer": 7726,
      "ँग": 7727,
      "ंस": 7728,
      "को": 7729,
      "चार": 7730,
      "जं": 7731,
      "न्तर": 7732,
      "पि": 7733,
      "फोर्ड": 7734,
      "मंड": 7735,
      "यत": 7736,
      "वत": 7737,
      "वन\")": 7738,
      "ेन्द्र": 7739,
      "ैंक": 7740,
      "ोली": 7741,
      "▁°": 7742,
      "▁·": 7743,
      "▁ge": 7744,
      "▁old": 7745,
      "▁here": 7746,
      "▁kingdom": 7747,
      ".wikipedia.org/w": 7748,
      "▁[Y": 7749,
      "▁[राष्ट्रीय": 7750,
      "▁[१९": 7751,
      "▁\"ओडिशा": 7752,
      "▁\"हिमालय": 7753,
      "ender": 7754,
      "ino-": 7755,
      "inema": 7756,
      "anat": 7757,
      "International": 7758,
      "tile": 7759,
      "title": 7760,
      "alam": 7761,
      "](https://en.wikipedia.org/wiki/List": 7762,
      "arl": 7763,
      "er-": 7764,
      "official": 7765,
      "ofker": 7766,
      "भारत)": 7767,
      "▁सि": 7768,
      "▁सार": 7769,
      "▁स्त": 7770,
      "▁सम्": 7771,
      "▁सम्राट": 7772,
      "▁सल्तनत": 7773,
      "](https://hi.wikipedia.org/wiki/ल": 7774,
      "](https://hi.wikipedia.org/wiki/दक्षिण": 7775,
      "](https://hi.wikipedia.org/wiki/पाकिस्तान": 7776,
      "omo": 7777,
      "ominion": 7778,
      "▁पहा": 7779,
      "asthan": 7780,
      "राम": 7781,
      "▁मौ": 7782,
      "rat": 7783,
      "rates": 7784,
      "liance": 7785,
      "▁आधुनिक": 7786,
      "-0\").\n": 7787,
      "acmill": 7788,
      "▁sty": 7789,
      "▁school": 7790,
      "atures": 7791,
      "\\_n": 7792,
      "-1\").\n": 7793,
      "▁Ad": 7794,
      "▁As": 7795,
      "[[18": 7796,
      "ingap": 7797,
      "etry": 7798,
      "etwork": 7799,
      "▁Sabha": 7800,
      "▁Society": 7801,
      "ficient": 7802,
      "▁प्रेस": 7803,
      "chang": 7804,
      "नाइट": 7805,
      "well": 7806,
      "▁fe": 7807,
      "▁four": 7808,
      "▁fol": 7809,
      "789": 7810,
      "▁main": 7811,
      "▁12.": 7812,
      "▁जग": 7813,
      "urk": 7814,
      "urry": 7815,
      "▁नव": 7816,
      "ourts": 7817,
      "jpg": 7818,
      "▁Temple": 7819,
      "▁Routledge": 7820,
      "▁would": 7821,
      "▁B.;": 7822,
      "वियत": 7823,
      "▁*India": 7824,
      "igration": 7825,
      "▁[↑](https://en.wikipedia.org/wiki/India#cite_ref-4": 7826,
      "_in_": 7827,
      "hak": 7828,
      "hailand": 7829,
      "▁Greek": 7830,
      "tudies": 7831,
      "▁Health": 7832,
      "ained": 7833,
      "▁उन": 7834,
      "▁N.": 7835,
      "▁Nicobar": 7836,
      "-459": 7837,
      "त्ता": 7838,
      "_A7C": 7839,
      "elated": 7840,
      "ngineering": 7841,
      "abh": 7842,
      "18.": 7843,
      "▁विदेश": 7844,
      "-85": 7845,
      "▁रच": 7846,
      "aph": 7847,
      "ountain": 7848,
      "_Pradesh": 7849,
      "▁third": 7850,
      "▁dynasty": 7851,
      "▁\"Chin": 7852,
      "14.": 7853,
      "ी_म": 7854,
      "▁Organization": 7855,
      "otal": 7856,
      "ogri": 7857,
      "ogam": 7858,
      "▁[Central": 7859,
      "▁राज्यक्षेत्र": 7860,
      "](https://books.google.com/books?id=3TRtDwAAQBAJ&pg=PA": 7861,
      "▁dem": 7862,
      "▁deci": 7863,
      "ड़ियाँ": 7864,
      "](https://en.wikipedia.org/wiki/Mughal": 7865,
      "-53": 7866,
      "orea": 7867,
      "_Nuclear": 7868,
      "त्न": 7869,
      "िसी": 7870,
      "ज़ा": 7871,
      "709": 7872,
      "_Bank": 7873,
      "▁now": 7874,
      "▁areas": 7875,
      "▁contin": 7876,
      "ameez": 7877,
      "▁Ved": 7878,
      "49-2": 7879,
      "ambodia": 7880,
      "▁पाव": 7881,
      "▁क्षेत्रों": 7882,
      "_128": 7883,
      "feb": 7884,
      "angered": 7885,
      "eccan": 7886,
      "ports": 7887,
      "▁[Re": 7888,
      "▁like": 7889,
      "ody": 7890,
      "▁१९५०": 7891,
      "[![](https://upload.wikimedia.org/wikipedia/commons/thumb/c/c": 7892,
      "33-7": 7893,
      "Asher2006": 7894,
      "AsherAsher2006": 7895,
      "▁स्वतंत्रता": 7896,
      "▁स्वरूप": 7897,
      "ज्ञाप": 7898,
      "▁[Kulke": 7899,
      "_dance": 7900,
      "▁led": 7901,
      "▁lead": 7902,
      "▁मानसून": 7903,
      "▁जनवरी": 7904,
      "do-G": 7905,
      "ohen": 7906,
      "efficient": 7907,
      "▁[![The": 7908,
      "indhi": 7909,
      "पुरम": 7910,
      "alaysia": 7911,
      "alayalam": 7912,
      "DwAAQBAJ": 7913,
      "dustrial": 7914,
      "▁मेला\"),": 7915,
      "▁युग": 7916,
      "बंधन": 7917,
      "ंग्रेज़ी_भाषा": 7918,
      "▁अधिकार": 7919,
      "▁बहुत": 7920,
      "▁बहुमत": 7921,
      "ukesh": 7922,
      "-symbols": 7923,
      "▁[Archived](https://web.archive.org/web/20210": 7924,
      "ynth": 7925,
      "athematics": 7926,
      "▁आधारित": 7927,
      "▁ओर": 7928,
      "निष्ठ": 7929,
      "hattis": 7930,
      "▁Pradesh\")": 7931,
      "▁change": 7932,
      "▁agriculture": 7933,
      "▁पुरालेखित।,": 7934,
      "▁कार्य": 7935,
      "_from": 7936,
      "समिया": 7937,
      "–123": 7938,
      "▁See": 7939,
      "▁subcontinent\")": 7940,
      "▁Force": 7941,
      "▁ईसा": 7942,
      "▁These": 7943,
      "_और_संघ": 7944,
      "▁कुछ": 7945,
      "▁species": 7946,
      "egistrar": 7947,
      "▁rock": 7948,
      "-level": 7949,
      "_के_आधार_पर_भारत_के_राज्यों_की_सूची": 7950,
      "cms).": 7951,
      "▁2025.": 7952,
      "ataraj": 7953,
      "तेलंगाना": 7954,
      "▁वन्य": 7955,
      "janta": 7956,
      "▁Chinese": 7957,
      "tiger": 7958,
      "/articleshow/5": 7959,
      "▁domestic": 7960,
      ".htm)": 7961,
      "▁emerg": 7962,
      "chedule": 7963,
      "भिज्ञाप": 7964,
      "▁majority": 7965,
      "▁Monetary": 7966,
      "b/b": 7967,
      "क्सफोर्ड": 7968,
      "▁occup": 7969,
      "Sharma2007": 7970,
      "emocracy": 7971,
      "\\_parameters#": 7972,
      "▁Wikidata": 7973,
      "ravidian": 7974,
      "elangana": 7975,
      "▁employed": 7976,
      "\\_country\\_with\\_": 7977,
      "_Force": 7978,
      "_industry_in_India": 7979,
      "rakash": 7980,
      "▁[अंग्रेज़ी](https://hi.wikipedia.org/wiki/अंग्रेज़ी_भाषा": 7981,
      "/index.php?title": 7982,
      "IFT": 7983,
      "razil": 7984,
      "olnar": 7985,
      "_Commission": 7986,
      "/national-symbols": 7987,
      "Tarlo1996": 7988,
      "runei": 7989,
      ".wikipedia.org/w/index.php?title": 7990,
      "acmillan": 7991,
      "ingapore": 7992,
      "भिज्ञापक": 7993,
      ".wikipedia.org/w/index.php?title=": 7994,
      "%)": 7995,
      "-L": 7996,
      "1%20": 7997,
      "223": 7998,
      "623": 7999,
      "74": 8000,
      "96": 8001,
      "Bal": 8002,
      "KI": 8003,
      "States": 8004,
      "_28": 8005,
      "_इंडिया": 8006,
      "cus": 8007,
      "curr": 8008,
      "hā": 8009,
      "ice": 8010,
      "ंभ": 8011,
      "ग्वे": 8012,
      "छा": 8013,
      "दर": 8014,
      "निरपेक्ष": 8015,
      "पास": 8016,
      "भर": 8017,
      "मोर": 8018,
      "रद": 8019,
      "रल": 8020,
      "ुरा": 8021,
      "४०": 8022,
      "▁ob": 8023,
      "▁kil": 8024,
      "▁establish": 8025,
      "](https://id": 8026,
      "▁[ध": 8027,
      "▁[त्रिपुरा": 8028,
      "tex": 8029,
      "▁\"पूर्व": 8030,
      "▁\"त्रिपुरा": 8031,
      "\")1": 8032,
      "्रु": 8033,
      "▁सुरक्षा": 8034,
      "▁(in": 8035,
      "▁(nominal)": 8036,
      "▁पुरु": 8037,
      "-04": 8038,
      "\\_link": 8039,
      "▁census": 8040,
      "▁based": 8041,
      "त्रिक": 8042,
      "▁बद": 8043,
      "▁Report": 8044,
      "unknown": 8045,
      "107": 8046,
      "263": 8047,
      "▁*A": 8048,
      "▁शुष्क": 8049,
      "hap": 8050,
      "▁Gujarat": 8051,
      "forest": 8052,
      "elp": 8053,
      "▁198": 8054,
      "▁1980": 8055,
      "135": 8056,
      "र्मदा": 8057,
      "▁\"मान": 8058,
      "harata": 8059,
      "णिपुर": 8060,
      "▁Library": 8061,
      "_Mon": 8062,
      ".in/curr": 8063,
      "47.": 8064,
      "_Times": 8065,
      "ुरत": 8066,
      "earning": 8067,
      "489": 8068,
      "tatis": 8069,
      "▁वर्षा": 8070,
      "नुसार_देश": 8071,
      "ultur": 8072,
      "▁\"आंध्र": 8073,
      "▁\"इंडोनेशिया": 8074,
      "▁\"International": 8075,
      "paper": 8076,
      "world-f": 8077,
      "ocument": 8078,
      "▁[इंडोनेशिया": 8079,
      "Wikivoyage": 8080,
      "▁adop": 8081,
      "34238": 8082,
      "IAF": 8083,
      "_संविधान": 8084,
      "_1960": 8085,
      "▁युद्ध\")": 8086,
      "place": 8087,
      "way_of_India": 8088,
      "▁communi": 8089,
      "▁वृद्ध": 8090,
      "11934238": 8091,
      "the-world-f": 8092,
      "sci/": 8093,
      "▁zone": 8094,
      "countries_and_dependencies_by_population": 8095,
      "sites/default": 8096,
      ".in/currsci/": 8097,
      "▁\"इंडोनेशिया\")": 8098,
      "11934238p": 8099,
      "sites/default/files/": 8100,
      "([": 8101,
      "-k": 8102,
      "-logo": 8103,
      ".५": 8104,
      ".200": 8105,
      ".ac": 8106,
      ".edu": 8107,
      "/we": 8108,
      "1]](https://en.wikipedia.org/wiki/India#cite_note-": 8109,
      "2),": 8110,
      "226": 8111,
      "3).": 8112,
      "5-3": 8113,
      "7.\n": 8114,
      "7]](https://en.wikipedia.org/wiki/India#cite_note-": 8115,
      "8]](https://en.wikipedia.org/wiki/India#cite_note-FOOTNOTE": 8116,
      "A%E0%A4%BE": 8117,
      "Allchin": 8118,
      "C)": 8119,
      "Countries": 8120,
      "CCN": 8121,
      "E﻿": 8122,
      "Language": 8123,
      "Political": 8124,
      "Petraglia": 8125,
      "SE": 8126,
      "Wright": 8127,
      "YC": 8128,
      "\\*": 8129,
      "_0": 8130,
      "_h": 8131,
      "_ड": 8132,
      "_39": 8133,
      "_जय": 8134,
      "ather": 8135,
      "a-b": 8136,
      "cu": 8137,
      "cet": 8138,
      "codi": 8139,
      "eck": 8140,
      "gis": 8141,
      "mall": 8142,
      "ocal": 8143,
      "rup": 8144,
      "rana": 8145,
      "sing": 8146,
      "ui": 8147,
      "uries": 8148,
      "vin": 8149,
      "var": 8150,
      "vil": 8151,
      "via": 8152,
      "ई\")": 8153,
      "कृष्ट": 8154,
      "गोर": 8155,
      "घा": 8156,
      "थे": 8157,
      "नृत्य": 8158,
      "पाली": 8159,
      "फा": 8160,
      "भग": 8161,
      "भ्यता": 8162,
      "यर": 8163,
      "ळम": 8164,
      "ृश्य": 8165,
      "ोसी": 8166,
      "२००": 8167,
      "२०१": 8168,
      "३०": 8169,
      "▁X": 8170,
      "▁ve": 8171,
      "▁edi": 8172,
      "▁known": 8173,
      "wildlife": 8174,
      "orb": 8175,
      "orpor": 8176,
      "▁[ख": 8177,
      "▁\"साँ": 8178,
      "onk": 8179,
      "alace": 8180,
      "alk:": 8181,
      "](https://en.wikipedia.org/wiki/National": 8182,
      "reen": 8183,
      "20.": 8184,
      "arv": 8185,
      "eries": 8186,
      "cir": 8187,
      "भारतीय_": 8188,
      "▁सित": 8189,
      "](https://hi.wikipedia.org/wiki/व": 8190,
      "](https://hi.wikipedia.org/wiki/साँ": 8191,
      "](https://hi.wikipedia.org/wiki/तमिल": 8192,
      "▁(b": 8193,
      "▁(19": 8194,
      "▁(2007": 8195,
      "▁(India)": 8196,
      "rian": 8197,
      "▁मई": 8198,
      "▁मशीन": 8199,
      "र्ध": 8200,
      "▁indi": 8201,
      "▁independence": 8202,
      "aten": 8203,
      "▁आदि": 8204,
      "्तु": 8205,
      "▁poli": 8206,
      "▁prac": 8207,
      "acred": 8208,
      "geoh": 8209,
      "\\_or": 8210,
      "ातर": 8211,
      "-138": 8212,
      "▁cal": 8213,
      "▁cre": 8214,
      "▁Agency": 8215,
      "stor": 8216,
      "ett": 8217,
      "ेंगल": 8218,
      "▁buil": 8219,
      "▁दर्": 8220,
      "▁दिन": 8221,
      "▁talk:": 8222,
      "cha": 8223,
      "▁milk": 8224,
      "▁military": 8225,
      "▁millennium": 8226,
      "comm": 8227,
      "▁11.": 8228,
      "▁जब": 8229,
      "rove": 8230,
      "rocodi": 8231,
      "▁Policy": 8232,
      "▁[↑](https://en.wikipedia.org/wiki/India#cite_": 8233,
      "itage": 8234,
      "ISE": 8235,
      "ourism": 8236,
      "▁Te": 8237,
      "▁Trade": 8238,
      "](https://en.wikipedia.org/wiki/India#cite_ref-vatsyayan-lord_43": 8239,
      "▁Mana": 8240,
      "▁Michael": 8241,
      "ilber": 8242,
      "unctu": 8243,
      "ola": 8244,
      "हेब": 8245,
      "▁में,": 8246,
      "emen": 8247,
      "emori": 8248,
      "_(भारत)": 8249,
      "▁Dance": 8250,
      "विले": 8251,
      "▁last": 8252,
      "▁\"Special:EditPage/Template:": 8253,
      "ign_": 8254,
      "india.com/": 8255,
      "_केंद्र": 8256,
      "▁east": 8257,
      "lymp": 8258,
      "▁गई": 8259,
      "संधान": 8260,
      "▁Economy": 8261,
      "▁Emer": 8262,
      "beral": 8263,
      "oung": 8264,
      "ती\")": 8265,
      "▁Gana": 8266,
      "▁Ganges": 8267,
      "tual": 8268,
      "▁Hindus": 8269,
      "▁इस्लामी": 8270,
      "नेपाली": 8271,
      "▁2007.": 8272,
      "-4\").\n": 8273,
      "त्तरी": 8274,
      "opland": 8275,
      "हिनी": 8276,
      "तिब्ब": 8277,
      "abind": 8278,
      "▁gar": 8279,
      "▁gra": 8280,
      "akers": 8281,
      "](https://en.wikipedia.org/wiki/India#CITEREFM": 8282,
      "sey": 8283,
      "▁ne": 8284,
      "29)": 8285,
      "▁[Singh": 8286,
      "40px-": 8287,
      "15.": 8288,
      "15/": 8289,
      "▁though": 8290,
      "▁यूनिवर्सि": 8291,
      "_Cooperation": 8292,
      "_and_C": 8293,
      "_and_Development": 8294,
      "16.": 8295,
      "म्भ": 8296,
      "▁\"Central": 8297,
      "▁\"Climate": 8298,
      "▁लिये": 8299,
      "▁become": 8300,
      "ogn": 8301,
      "▁होते": 8302,
      "▁[Ch": 8303,
      "▁[China": 8304,
      "](https://en.wikipedia.org/wiki/Central": 8305,
      "](https://en.wikipedia.org/wiki/China": 8306,
      "](Special:BookSources": 8307,
      "](Special:EditPage/Template:": 8308,
      "▁\"Ministry": 8309,
      "▁धर्मा": 8310,
      "ड़िया": 8311,
      "](https://en.wikipedia.org/wiki/Ministry_of_": 8312,
      "▁original](http://": 8313,
      "](Special:BookSources/978-0-521": 8314,
      "▁\"Special:BookSources/978-0-521": 8315,
      "▁[कु": 8316,
      "_के_अ": 8317,
      "_Games": 8318,
      "_Gandhi": 8319,
      "]](https://hi.wikipedia.org/wiki/भारत#cite_note-pib": 8320,
      "rchitecture": 8321,
      "▁tea": 8322,
      "ibli": 8323,
      "▁direct": 8324,
      "▁नाग": 8325,
      "▁नागर": 8326,
      "undarb": 8327,
      "▁ancient": 8328,
      "▁\"En": 8329,
      "_Economic": 8330,
      "_music": 8331,
      "tate_": 8332,
      "▁चल": 8333,
      "▁\"Delhi": 8334,
      "](https://en.wikipedia.org/wiki/En": 8335,
      "37)": 8336,
      "ंबर": 8337,
      "▁V.": 8338,
      "▁Vedic": 8339,
      "](https://en.wikipedia.org/wiki/Template_": 8340,
      "▁वर्ग": 8341,
      "▁[GDP": 8342,
      "1):": 8343,
      "](https://en.wikipedia.org/wiki/Delhi": 8344,
      "genous": 8345,
      "▁2011](https://en.wikipedia.org/wiki/India#CITEREF": 8346,
      "▁\"Routledge": 8347,
      "▁मोदी": 8348,
      "](https://en.wikipedia.org/wiki/Routledge": 8349,
      "हिन्दू": 8350,
      "▁[Routledge": 8351,
      "▁[Tamil": 8352,
      "▁\"जन": 8353,
      "times.indiatimes.com/": 8354,
      "▁Urdu": 8355,
      "▁US$": 8356,
      "_dynasty": 8357,
      "▁2014](https://en.wikipedia.org/wiki/India#CITEREF": 8358,
      "व्यु": 8359,
      "जनप": 8360,
      "▁जनजाति": 8361,
      "▁centuries": 8362,
      "▁[History": 8363,
      "रबी": 8364,
      "ronom": 8365,
      "▁मेला](https://hi.wikipedia.org/wiki/": 8366,
      "▁parliament": 8367,
      "ctorate": 8368,
      "▁शास्त्र": 8369,
      "](https://hi.wikipedia.org/wiki/भारत_के_राज्य": 8370,
      "▁[Fisher": 8371,
      "लिंग": 8372,
      "talk:": 8373,
      "▁स्थापना": 8374,
      "▁plain": 8375,
      "2_22": 8376,
      "▁notation": 8377,
      "शिवा": 8378,
      "▁(2017).": 8379,
      "विकास": 8380,
      "_War": 8381,
      "▁2016.\n": 8382,
      "▁[t](https://en.wikipedia.org/wiki/Template_": 8383,
      "ोर्ट": 8384,
      "South_Asian": 8385,
      "▁[e](Special:EditPage/Template:": 8386,
      "▁numbers": 8387,
      "▁[v](Template:": 8388,
      "_एशिया": 8389,
      "ंद्रनाथ": 8390,
      "▁upper": 8391,
      "orities/": 8392,
      "▁Buddha": 8393,
      "Fisher2018),": 8394,
      ".net": 8395,
      "ासाहेब": 8396,
      "cms)": 8397,
      "▁2025.\n": 8398,
      "hanghai": 8399,
      "▁refor": 8400,
      "▁[पाकिस्तान](https://hi.wikipedia.org/wiki/पाकिस्तान": 8401,
      "struction": 8402,
      "▁2018](https://en.wikipedia.org/wiki/India#CITEREFFisher2018),": 8403,
      "arliamentary": 8404,
      "▁(इंग्लिश": 8405,
      "_of_South_Asia": 8406,
      "cheduled": 8407,
      "▁1994](https://en.wikipedia.org/wiki/India#CITEREF": 8408,
      "merican": 8409,
      "IMFWEO.IN-": 8410,
      "%E0%A4%9A%E0%A4%BE": 8411,
      "Hindustan": 8412,
      "▁(2018),": 8413,
      "](https://en.wikipedia.org/wiki/History_of_": 8414,
      "ockey": 8415,
      "▁republic": 8416,
      "ibetan": 8417,
      "timesofindia.indiatimes.com/india/": 8418,
      "-of-india-": 8419,
      "▁\"दिल्ली\")": 8420,
      ".worldbank.org/": 8421,
      "क्षणिक": 8422,
      "forcement": 8423,
      "imachal": 8424,
      "▁आर्द्र": 8425,
      "▁नेहरु": 8426,
      ".uk/": 8427,
      "▁कॉंग्रेस": 8428,
      "▁appro": 8429,
      "jpeg": 8430,
      "क्षरता": 8431,
      "▁India](https://en.wikipedia.org/wiki/Government_of_India": 8432,
      "lothing": 8433,
      "▁Games\")": 8434,
      "rishnan": 8435,
      "▁engineering": 8436,
      "limate_": 8437,
      "%E0%A4%B8%E0%A4%BE": 8438,
      "▁village": 8439,
      "्वालामुखी": 8440,
      "&action=edit)": 8441,
      "▁democra": 8442,
      ".wikipedia.org/w/index.php?title=%E0%A4%B8%E0%A4%BE": 8443,
      "PetragliaAllchin": 8444,
      "Wright2010": 8445,
      "ranath": 8446,
      "▁(2007).": 8447,
      "geohack": 8448,
      "ेंगलुरु": 8449,
      "abindranath": 8450,
      "▁यूनिवर्सिटी": 8451,
      "▁[China](https://en.wikipedia.org/wiki/China": 8452,
      "undarbans": 8453,
      "▁\"Routledge\").": 8454,
      "▁[Routledge](https://en.wikipedia.org/wiki/Routledge": 8455,
      "▁[t](https://en.wikipedia.org/wiki/Template_talk:": 8456,
      "%E0%A4%9A%E0%A4%BE:": 8457,
      "*),": 8458,
      ".JPG": 8459,
      "/m": 8460,
      "1)\n": 8461,
      "2-10": 8462,
      "400": 8463,
      "421": 8464,
      "418": 8465,
      "Bangalore": 8466,
      "Gum": 8467,
      "HQ": 8468,
      "Official": 8469,
      "Republic": 8470,
      "Sanchi": 8471,
      "VII": 8472,
      "Yum": 8473,
      "_50": 8474,
      "fun": 8475,
      "fos": 8476,
      "gu": 8477,
      "hl": 8478,
      "ky": 8479,
      "nknown": 8480,
      "po": 8481,
      "pper": 8482,
      "uin": 8483,
      "v3-": 8484,
      "कात": 8485,
      "खिल": 8486,
      "छत्र": 8487,
      "मराव": 8488,
      "सार": 8489,
      "सरा": 8490,
      "िंगा": 8491,
      "ुद्ध": 8492,
      "ूमर": 8493,
      "ृह": 8494,
      "ेख": 8495,
      "ॉर्ड": 8496,
      "ोदा": 8497,
      "ोत्तर": 8498,
      "्ञ": 8499,
      "▁+": 8500,
      "▁web": 8501,
      "▁local": 8502,
      "▁[धर्म": 8503,
      "▁\"राष्ट्रीय": 8504,
      "Infos": 8505,
      "thang": 8506,
      "्रं": 8507,
      "of%20": 8508,
      "▁सूर": 8509,
      "▁(c": 8510,
      "▁(2011": 8511,
      "रावली": 8512,
      "▁मौर्य": 8513,
      "ान्स": 8514,
      "▁India\".": 8515,
      "rah": 8516,
      "▁आग": 8517,
      "▁sug": 8518,
      "\\_language": 8519,
      "▁Age": 8520,
      "stat": 8521,
      "▁प्रग": 8522,
      "▁प्रसिद्ध": 8523,
      "▁birth": 8524,
      "▁दल": 8525,
      "नाट्य": 8526,
      "ंगाली": 8527,
      "▁ज्ञ": 8528,
      "भाज": 8529,
      "ily": 8530,
      "under": 8531,
      "25.": 8532,
      "▁*B": 8533,
      "240": 8534,
      "▁Home": 8535,
      "▁इंड": 8536,
      "▁Ne": 8537,
      "▁2000": 8538,
      "_Army": 8539,
      "▁growing": 8540,
      "िलि": 8541,
      "▁Food": 8542,
      "40)": 8543,
      "40.": 8544,
      "▁do": 8545,
      "27.": 8546,
      "▁being": 8547,
      "▁११": 8548,
      "▁१७": 8549,
      "पूजा": 8550,
      "ott": 8551,
      "ogo-": 8552,
      "%20of%20": 8553,
      "47)": 8554,
      "किर्ग": 8555,
      "_DS": 8556,
      "▁deb": 8557,
      "ghat": 8558,
      "ysHQ": 8559,
      "_महासागर": 8560,
      "वेद": 8561,
      "▁[अरुणाचल": 8562,
      "▁\"अरुणाचल": 8563,
      "39)": 8564,
      "_Roti": 8565,
      "▁any": 8566,
      "▁चार": 8567,
      "ंबोडिया": 8568,
      "▁\"ब्रिटिश": 8569,
      "ali_C": 8570,
      "मेनि": 8571,
      "ठाणे": 8572,
      "2004).": 8573,
      "_Fort": 8574,
      "ृष्णा": 8575,
      "तुर्क": 8576,
      "▁[International": 8577,
      "▁[संयुक्त": 8578,
      "684": 8579,
      "2-26": 8580,
      "भीमा": 8581,
      "▁\"संस्कृत": 8582,
      "मेरिका": 8583,
      "▁\"Official": 8584,
      "ताजिक": 8585,
      "▁\"लक्षद्वीप": 8586,
      "c=0": 8587,
      "gested": 8588,
      "रुणाचल_प्रदेश": 8589,
      "▁जयते": 8590,
      "▁[लक्षद्वीप": 8591,
      "▁पर्यटन": 8592,
      "Articles\\_with\\_": 8593,
      "▁Art": 8594,
      "▁According": 8595,
      "मृतसर": 8596,
      "ैसूर": 8597,
      "भरतनाट्य": 8598,
      "वाहन": 8599,
      "▁रुपया": 8600,
      "_उत्पाद": 8601,
      "ictor": 8602,
      "बेकिस्तान": 8603,
      "Library_of_Congress": 8604,
      "Ministry_of_Home_Affairs": 8605,
      "▁different": 8606,
      "▁Minorities,": 8607,
      "FrontView": 8608,
      "डुचेरी": 8609,
      "▁प्रभाव": 8610,
      "_and_union_territories_of_India": 8611,
      "-Logo-": 8612,
      "▁\"त्रिपुरा\")": 8613,
      "्रुने": 8614,
      "Wikivoyage-Logo-": 8615,
      "Gumpa": 8616,
      "Sanchi2": 8617,
      "Yumthang": 8618,
      "v3-icon": 8619,
      "ोदावरी": 8620,
      "InfosysHQ": 8621,
      "\\_language\n": 8622,
      "तुर्कमेनि": 8623,
      "▁\"लक्षद्वीप\")": 8624,
      "Ministry_of_Home_Affairs_1960": 8625,
      "Wikivoyage-Logo-v3-icon": 8626,
      "InfosysHQFrontView": 8627,
      ")[": 8628,
      ")\"))": 8629,
      "*](https://mr.wikipedia.org/wiki/": 8630,
      "-R": 8631,
      "-०": 8632,
      "-th": 8633,
      "-li": 8634,
      "-asia": 8635,
      "0-0)": 8636,
      "1.\n": 8637,
      "122": 8638,
      "2.\n": 8639,
      "2]](https://te.wikipedia.org/wiki/భారతదేశం#cite_note-india.gov.in": 8640,
      "3]](https://en.wikipedia.org/wiki/India#cite_note-": 8641,
      "41)": 8642,
      "5_": 8643,
      "528": 8644,
      "5–సా.శ.": 8645,
      "613": 8646,
      "7-1": 8647,
      ":\n": 8648,
      "Ag": 8649,
      "CA": 8650,
      "DR": 8651,
      "David": 8652,
      "Ex": 8653,
      "Economic": 8654,
      "F%E0%A4%A": 8655,
      "MAAJ": 8656,
      "SN": 8657,
      "SYS": 8658,
      "Th": 8659,
      "Times": 8660,
      "Ze": 8661,
      "_ఇ": 8662,
      "_ఫ": 8663,
      "_శ": 8664,
      "_200": 8665,
      "_స్": 8666,
      "_18": 8667,
      "_se": 8668,
      "_द्या": 8669,
      "_గాంధీ": 8670,
      "ajp": 8671,
      "be": 8672,
      "da": 8673,
      "ded": 8674,
      "ea": 8675,
      "fer": 8676,
      "gre": 8677,
      "iti": 8678,
      "ical": 8679,
      "iosphere": 8680,
      "jo-": 8681,
      "mas": 8682,
      "oz": 8683,
      "rince": 8684,
      "s–": 8685,
      "san": 8686,
      "tritsch": 8687,
      "tances": 8688,
      "uff": 8689,
      "ually": 8690,
      "wa": 8691,
      "xim": 8692,
      "आर्": 8693,
      "इन": 8694,
      "इल": 8695,
      "इव्ह": 8696,
      "ईल": 8697,
      "ईसा": 8698,
      "उप": 8699,
      "ऋत्य": 8700,
      "घात": 8701,
      "चेंज": 8702,
      "चर्चा:": 8703,
      "जें": 8704,
      "टान": 8705,
      "ड\")": 8706,
      "तम": 8707,
      "थारचे": 8708,
      "थियार": 8709,
      "नु": 8710,
      "पणे": 8711,
      "फल": 8712,
      "बळ": 8713,
      "बद्दल": 8714,
      "लब्": 8715,
      "वट": 8716,
      "वळी": 8717,
      "शान": 8718,
      "समी": 8719,
      "हज": 8720,
      "हळू": 8721,
      "िन्": 8722,
      "िधा": 8723,
      "ैऋत्य": 8724,
      "ॉक": 8725,
      "३]](https://mr.wikipedia.org/wiki/भारत#cite_note-": 8726,
      "५]](https://mr.wikipedia.org/wiki/भारत#cite_note-": 8727,
      "ం.\n": 8728,
      "ం\")\n": 8729,
      "ఎల": 8730,
      "ఏప్రిల్": 8731,
      "జిల్": 8732,
      "డీ": 8733,
      "ఢా": 8734,
      "తై": 8735,
      "థారిటీ": 8736,
      "ధు": 8737,
      "పై": 8738,
      "పార": 8739,
      "ఫి": 8740,
      "బీ": 8741,
      "బై": 8742,
      "మల": 8743,
      "మంత": 8744,
      "యం": 8745,
      "యూ": 8746,
      "యి.": 8747,
      "రల్": 8748,
      "వో": 8749,
      "వి.": 8750,
      "విక": 8751,
      "వార్": 8752,
      "వాల్": 8753,
      "వలస": 8754,
      "వలం": 8755,
      "వత్రిక": 8756,
      "శక": 8757,
      "శి": 8758,
      "శకు": 8759,
      "సై": 8760,
      "సార్": 8761,
      "హిత": 8762,
      "హోర్": 8763,
      "ితి": 8764,
      "ిటన్": 8765,
      "ీం": 8766,
      "ీర": 8767,
      "ుప్ర": 8768,
      "ుతున్న": 8769,
      "ృత్య": 8770,
      "ెర్": 8771,
      "ే,": 8772,
      "ైల్": 8773,
      "ైథి": 8774,
      "ోత్తర": 8775,
      "ౌర": 8776,
      "▁ॲ": 8777,
      "▁ధ": 8778,
      "▁du": 8779,
      "▁తి": 8780,
      "▁ద్": 8781,
      "▁గా": 8782,
      "▁45": 8783,
      "▁భూ": 8784,
      "▁దీవ": 8785,
      "▁దక్షిణాసియా": 8786,
      "▁ద్వీ": 8787,
      "▁గుర్": 8788,
      "▁దినోత్సవం": 8789,
      "▁education": 8790,
      "▁టై": 8791,
      "▁డామన్": 8792,
      "dira": 8793,
      "▁[ర": 8794,
      "▁[राज": 8795,
      "▁[హిందీ": 8796,
      "▁[तमिल": 8797,
      "▁[భూటాన్": 8798,
      "▁[ఉత్తర": 8799,
      "▁[ఒడి": 8800,
      "▁[తూర్పు": 8801,
      "▁[రాష్ట్రపతి": 8802,
      "▁[తమిళనాడు": 8803,
      "▁[గణతంత్ర": 8804,
      "▁[శ్రీలంక": 8805,
      "▁[నేపాల్": 8806,
      "teri": 8807,
      "▁\"కు": 8808,
      "▁\"హిందీ": 8809,
      "▁\"భూటాన్": 8810,
      "▁\"ఉత్తర": 8811,
      "▁\"ఒడి": 8812,
      "▁\"తూర్పు": 8813,
      "▁\"नेपा": 8814,
      "▁\"తమిళనాడు": 8815,
      "▁\"ప్రధానమంత్రి": 8816,
      "▁\"గణతంత్ర": 8817,
      "▁\"శ్రీలంక": 8818,
      "▁\"నేపాల్": 8819,
      "▁\"हिमाचल": 8820,
      "▁\"యునైటెడ్": 8821,
      "▁\"विकिपीडिया:संदर्भ": 8822,
      "ants": 8823,
      "anada": 8824,
      "tices": 8825,
      "till": 8826,
      "ारो": 8827,
      "ारम्भ": 8828,
      "](https://en.wiki": 8829,
      "rely": 8830,
      "arrow": 8831,
      "him": 8832,
      "▁कड": 8833,
      "▁स.": 8834,
      "▁स्तर": 8835,
      "▁सभ्यता": 8836,
      "](https://te.wikipedia.org/wiki/D": 8837,
      "](https://te.wikipedia.org/wiki/హ": 8838,
      "](https://te.wikipedia.org/wiki/పా": 8839,
      "](https://te.wikipedia.org/wiki/హిందూ": 8840,
      "](https://te.wikipedia.org/wiki/పాకిస్తాన్": 8841,
      "](https://te.wikipedia.org/wiki/హిందీ": 8842,
      "](https://te.wikipedia.org/wiki/ముంబై": 8843,
      "](https://te.wikipedia.org/wiki/భారతదేశ_": 8844,
      "](https://te.wikipedia.org/wiki/భూటాన్": 8845,
      "](https://te.wikipedia.org/wiki/ఒడి": 8846,
      "](https://te.wikipedia.org/wiki/తమిళనాడు": 8847,
      "](https://te.wikipedia.org/wiki/ప్రధానమంత్రి": 8848,
      "](https://te.wikipedia.org/wiki/శ్రీలంక": 8849,
      "](https://te.wikipedia.org/wiki/నేపాల్": 8850,
      "▁-15": 8851,
      "ising": 8852,
      "isted": 8853,
      "is_a": 8854,
      "](https://hi.wikipedia.org/wiki/य": 8855,
      "omin": 8856,
      "▁(भारत": 8857,
      "](https://mr.wikipedia.org/w/index.php?title=%E0%A4%B8%E0%A4%BE": 8858,
      "](https://mr.wikipedia.org/wiki/ड": 8859,
      "](https://mr.wikipedia.org/wiki/य": 8860,
      "](https://mr.wikipedia.org/wiki/पु": 8861,
      "](https://mr.wikipedia.org/wiki/चीन": 8862,
      "](https://mr.wikipedia.org/wiki/गण": 8863,
      "](https://mr.wikipedia.org/wiki/दिल्ली": 8864,
      "](https://mr.wikipedia.org/wiki/मुंबई": 8865,
      "](https://mr.wikipedia.org/wiki/गुजरात": 8866,
      "](https://mr.wikipedia.org/wiki/ओडिशा": 8867,
      "](https://mr.wikipedia.org/wiki/हिमालय": 8868,
      "▁पहि": 8869,
      "▁often": 8870,
      "▁मराठी": 8871,
      "▁महाराज": 8872,
      "19).": 8873,
      "▁India.[[": 8874,
      "▁India\"](https://web.archive.org/web/201": 8875,
      "ాలకు": 8876,
      "ాలతో": 8877,
      "్యాయ": 8878,
      "▁हळू": 8879,
      "▁वर": 8880,
      "▁वेष": 8881,
      "▁वारे": 8882,
      "▁वास्त": 8883,
      "▁आला": 8884,
      "▁आकार": 8885,
      "ents": 8886,
      "▁poll": 8887,
      "స్?action=edit&redlink=1": 8888,
      "స్ట్": 8889,
      "geos/": 8890,
      "atri": 8891,
      "am\")": 8892,
      "ampi": 8893,
      "ref-10": 8894,
      "\\_क": 8895,
      "\\_in": 8896,
[...]
