{
  "version": "1.0",
  "truncation": null,
  "padding": null,
  "added_tokens": [
    {
      "id": 0,
      "content": "<unk>",
      "single_word": false,
      "lstrip": false,
      "rstrip": false,
      "normalized": false,
      "special": true
    }
  ],
  "normalizer": {
    "type": "NFC"
  },
  "pre_tokenizer": {
    "type": "ByteLevel",
    "add_prefix_space": false,
    "trim_offsets": true,
    "use_regex": false
  },
  "post_processor": null,
  "decoder": {
    "type": "ByteLevel",
    "add_prefix_space": true,
    "trim_offsets": true,
    "use_regex": true
  },
  "model": {
    "type": "BPE",
    "dropout": null,
    "unk_token": "<unk>",
    "continuing_subword_prefix": null,
    "end_of_word_suffix": null,
    "fuse_unk": false,
    "byte_fallback": false,
    "ignore_merges": false,
    "vocab": {
      "<unk>": 0,
      "\"": 1,
      "$": 2,
      "%": 3,
      "&": 4,
      "'": 5,
      "(": 6,
      ")": 7,
      "+": 8,
      ",": 9,
      "-": 10,
      ".": 11,
      "/": 12,
      "0": 13,
      "1": 14,
      "2": 15,
      "3": 16,
      "4": 17,
      "5": 18,
      "6": 19,
      "7": 20,
      "8": 21,
      "9": 22,
      ":": 23,
      ";": 24,
      "=": 25,
      "A": 26,
      "B": 27,
      "C": 28,
      "D": 29,
      "E": 30,
      "F": 31,
      "G": 32,
      "H": 33,
      "I": 34,
      "J": 35,
      "K": 36,
      "L": 37,
      "M": 38,
      "N": 39,
      "O": 40,
      "P": 41,
      "R": 42,
      "S": 43,
      "T": 44,
      "U": 45,
      "V": 46,
      "W": 47,
      "Y": 48,
      "Z": 49,
      "^": 50,
      "a": 51,
      "b": 52,
      "c": 53,
      "d": 54,
      "e": 55,
      "f": 56,
      "g": 57,
      "h": 58,
      "i": 59,
      "j": 60,
      "k": 61,
      "l": 62,
      "m": 63,
      "n": 64,
      "o": 65,
      "p": 66,
      "q": 67,
      "r": 68,
      "s": 69,
      "t": 70,
      "u": 71,
      "v": 72,
      "w": 73,
      "x": 74,
      "y": 75,
      "z": 76,
      "|": 77,
      "¡": 78,
      "¢": 79,
      "£": 80,
      "¤": 81,
      "¥": 82,
      "¦": 83,
      "§": 84,
      "¨": 85,
      "©": 86,
      "ª": 87,
      "«": 88,
      "¬": 89,
      "®": 90,
      "¯": 91,
      "°": 92,
      "±": 93,
      "²": 94,
      "³": 95,
      "´": 96,
      "µ": 97,
      "¶": 98,
      "·": 99,
      "¸": 100,
      "¹": 101,
      "¼": 102,
      "½": 103,
      "¾": 104,
      "¿": 105,
      "Â": 106,
      "Ã": 107,
      "Ä": 108,
      "Å": 109,
      "Î": 110,
      "Ï": 111,
      "à": 112,
      "á": 113,
      "â": 114,
      "Ġ": 115,
      "Ģ": 116,
      "ģ": 117,
      "Ĥ": 118,
      "ĥ": 119,
      "ħ": 120,
      "Ĩ": 121,
      "ĩ": 122,
      "Ī": 123,
      "ī": 124,
      "Ĭ": 125,
      "ĭ": 126,
      "Į": 127,
      "į": 128,
      "İ": 129,
      "ı": 130,
      "Ĳ": 131,
      "ĳ": 132,
      "Ĵ": 133,
      "ĵ": 134,
      "Ķ": 135,
      "ķ": 136,
      "ĸ": 137,
      "Ĺ": 138,
      "ĺ": 139,
      "Ļ": 140,
      "ļ": 141,
      "Ľ": 142,
      "ľ": 143,
      "Ŀ": 144,
      "ŀ": 145,
      "Ł": 146,
      "ł": 147,
      "Ń": 148,
      "à¤": 149,
      "à°": 150,
      "à¥": 151,
      "Ġà¤": 152,
      "à±": 153,
      "à¤¾": 154,
      "Ġà°": 155,
      "à¤¾à¤": 156,
      "à¥į": 157,
      "à¥įà¤": 158,
      "eĠ": 159,
      "à±į": 160,
      "à°¾": 161,
      "à±įà°": 162,
      "à°¾à°": 163,
      "à°¿": 164,
      "th": 165,
      "à¥ĩ": 166,
      "an": 167,
      "sĠ": 168,
      "in": 169,
      "dĠ": 170,
      "à±ģ": 171,
      "à¥Ģ": 172,
      "à°Ĥ": 173,
      "er": 174,
      ",Ġ": 175,
      "à¤¤": 176,
      "theĠ": 177,
      "on": 178,
      "à¤¿": 179,
      "à°¿à°": 180,
      "à¤°": 181,
      "à°Ĥà°": 182,
      "en": 183,
      "à¤¿à¤": 184,
      "à¤¾Ġà¤": 185,
      "al": 186,
      "ar": 187,
      "st": 188,
      "yĠ": 189,
      "di": 190,
      "at": 191,
      "Ĥà¤": 192,
      "à¥ĩĠà¤": 193,
      "à¥įà¤¯": 194,
      "or": 195,
      "edĠ": 196,
      "à¥ĢĠà¤": 197,
      "à°¤": 198,
      ".Ġ": 199,
      "In": 200,
      "à¥ĩà¤": 201,
      "ĠtheĠ": 202,
      "of": 203,
      "andĠ": 204,
      "à°¨": 205,
      "à°²": 206,
      "re": 207,
      "aĠ": 208,
      "à°°": 209,
      "à¤¾à¤°": 210,
      "à±ĩ": 211,
      "ion": 212,
      "à±ĭ": 213,
      "à¥įà¤°": 214,
      "Indi": 215,
      "à±įà°°": 216,
      "Ġà°ª": 217,
      "it": 218,
      "à¥Ģà¤": 219,
      "à¥ĭ": 220,
      "ic": 221,
      "Ġà¤ķ": 222,
      "à°¾à°°": 223,
      "ofĠ": 224,
      "ing": 225,
      "à°ķ": 226,
      "alĠ": 227,
      "tĠ": 228,
      "à¥ģ": 229,
      "à¤ķ": 230,
      "à¤¨": 231,
      "à°¾à°²": 232,
      "à°¦": 233,
      "à±Ģ": 234,
      "om": 235,
      "anĠ": 236,
      "to": 237,
      "à¤¸": 238,
      "Ġà¤¸": 239,
      "à¤¾à¤¤": 240,
      "à¤¹": 241,
      "ou": 242,
      "à±ģĠà°": 243,
      ",Ġà°": 244,
      "à¤²": 245,
      "asĠ": 246,
      "Ġà¤ª": 247,
      "inĠ": 248,
      "ec": 249,
      "ingĠ": 250,
      "à±ĩà°": 251,
      "Ġà¤®": 252,
      "erĠ": 253,
      "ur": 254,
      "à¤Ĥà¤": 255,
      "esĠ": 256,
      "à°®": 257,
      "à°¿Ġà°": 258,
      "à±įà°¯": 259,
      "à¤®": 260,
      "à¤¾à¤°à¤¤": 261,
      "à¤°à¥įà¤": 262,
      "à¤¦": 263,
      "Ńà¤¾à¤°à¤¤": 264,
      "à±ĭĠà°": 265,
      "toĠ": 266,
      "à°µ": 267,
      "s,Ġ": 268,
      "ionĠ": 269,
      "is": 270,
      "¸à±įà°": 271,
      "stĠ": 272,
      "lyĠ": 273,
      "ent": 274,
      "thĠ": 275,
      "à°Ĥà°¦": 276,
      "à°¾Ġà°": 277,
      ".Ġà°": 278,
      "Ġà¤¹": 279,
      "il": 280,
      "à¤Ĥ": 281,
      "à±ĩà°¶": 282,
      "hĠ": 283,
      "à¤µ": 284,
      "Th": 285,
      "em": 286,
      "à¤¾à¤¨": 287,
      "Ġà¤µ": 288,
      "am": 289,
      "à¤£": 290,
      "ol": 291,
      "à±Ĩ": 292,
      "à°¿à°ķ": 293,
      "à°¡": 294,
      "à¥Ī": 295,
      "ul": 296,
      "à¥įà¤¯à¤¾Ġà¤": 297,
      "IndiaĠ": 298,
      "à¤¾à¤²": 299,
      "à¤¾à¤Ĥà¤": 300,
      "à°ª": 301,
      "Ńà°¾à°°": 302,
      "Ńà°¾à°°à°¤": 303,
      "à±įà°¨": 304,
      "isĠ": 305,
      "19": 306,
      "Ġà°ªà±įà°°": 307,
      "à¤¿à¤ķ": 308,
      "Ġà¤ħ": 309,
      "ri": 310,
      "à°ĤĠà°": 311,
      "Ġà¤Ĩ": 312,
      "for": 313,
      "as": 314,
      "à°Ł": 315,
      "à±Ĥ": 316,
      "à±Ī": 317,
      "à¤¾à¤ļ": 318,
      "li": 319,
      "à¥Ĥà¤": 320,
      "à¤ª": 321,
      "à°¿à°¨": 322,
      "ern": 323,
      "ra": 324,
      "es": 325,
      "âĢ": 326,
      "TheĠ": 327,
      "à°¾à°¨": 328,
      "ow": 329,
      "à°¯": 330,
      "entĠ": 331,
      "el": 332,
      "India": 333,
      "à°°à±įà°": 334,
      "à¥įà¤¤": 335,
      "00": 336,
      "byĠ": 337,
      "Ġà¤Ńà¤¾à¤°à¤¤": 338,
      "à±ģà°²": 339,
      "à°Ĺ": 340,
      "ir": 341,
      "à°¨à±įà°¨": 342,
      "Ġà°¸": 343,
      "ofĠtheĠ": 344,
      "ch": 345,
      "con": 346,
      "à¤¹à¥ĩ": 347,
      "à¤§": 348,
      "à¥ĩà¤Ĥ": 349,
      "IndianĠ": 350,
      "à°¿.Ġà°": 351,
      "ov": 352,
      "su": 353,
      "op": 354,
      "à¥ģà¤": 355,
      "ag": 356,
      "iv": 357,
      "du": 358,
      "à¤¾à¤ľ": 359,
      "à°¾à°¯": 360,
      "ea": 361,
      "à¥¤": 362,
      "et": 363,
      "wi": 364,
      "Ġà°µ": 365,
      "ist": 366,
      "à°Ĥà°ļ": 367,
      "à°¦à±ĩà°¶": 368,
      "Ġà¤¤": 369,
      ".ĠTheĠ": 370,
      "Ġà°ķ": 371,
      "ĠandĠ": 372,
      "à¥Ĥ": 373,
      "à¤¾à¤®": 374,
      "un": 375,
      "wh": 376,
      "à°¾à°¤": 377,
      "à°Ĥà°Ĺ": 378,
      "'sĠ": 379,
      "à¤¾à¤¸": 380,
      "ex": 381,
      "icĠ": 382,
      "à¥Ģà¤¯": 383,
      "à¥ĭà¤": 384,
      "²à±ĭĠà°": 385,
      "à¥Ģà¤²": 386,
      "inĠtheĠ": 387,
      "wasĠ": 388,
      "à°§": 389,
      "im": 390,
      ",ĠtheĠ": 391,
      ",ĠandĠ": 392,
      "ac": 393,
      "enĠ": 394,
      "Ġà¤¨": 395,
      "orĠ": 396,
      "Ġà¤¦": 397,
      "Ġà¤¬": 398,
      "Ġà¤ľ": 399,
      "inc": 400,
      "Ġà¤ªà¥įà¤°": 401,
      "à¥įà¤·": 402,
      "à±įà°Ł": 403,
      "à¤¿à¤¯": 404,
      "Ġà¤ķà¥ĩĠà¤": 405,
      "à°¿à°Ĥà°¦": 406,
      "ong": 407,
      "Ġà°°": 408,
      "ear": 409,
      "res": 410,
      "Ġà¤®à¥ĩà¤Ĥ": 411,
      "ig": 412,
      "ut": 413,
      "ad": 414,
      "Ġà¤¯": 415,
      "Ġà¤°": 416,
      "ang": 417,
      "oc": 418,
      "ab": 419,
      "à¤¾à¤µ": 420,
      "id": 421,
      "rom": 422,
      "à¤¯": 423,
      "pl": 424,
      "à¤¿à¤¤": 425,
      "est": 426,
      "Ġ(": 427,
      "Ġà¥": 428,
      "à±įà°²": 429,
      "à°ķà±įà°": 430,
      "oĠ": 431,
      "20": 432,
      "Ńà°¾à°°à°¤à°¦à±ĩà°¶": 433,
      "us": 434,
      "ationĠ": 435,
      "à±Ģà°¯": 436,
      "à¤ļ": 437,
      "à¥įà¤µ": 438,
      "à¥ĥ": 439,
      "à¤¶": 440,
      "à¥ĩà¤²": 441,
      "ernĠ": 442,
      "à°¸": 443,
      "à°¿à°Ĥà°ļ": 444,
      "¸à±įà°¤": 445,
      "¦à±ĩà°¶": 446,
      "à±įà°µ": 447,
      "ereĠ": 448,
      "à°¹": 449,
      "à¤¡": 450,
      "à°Ĥà°¡": 451,
      "Ġà°®": 452,
      "à¥ĩà¤¶": 453,
      "à¤ľ": 454,
      "·à¥įà¤": 455,
      "à¤Ĥà¤¤": 456,
      "os": 457,
      "par": 458,
      "à±Ĭ": 459,
      "withĠ": 460,
      "ev": 461,
      "ha": 462,
      "à¤¹à¥ĩ.": 463,
      "à¤Ĺ": 464,
      "from": 465,
      "à°¾à°²à±ģ": 466,
      "à°¾à°Ĥ": 467,
      "edĠbyĠ": 468,
      "hasĠ": 469,
      "ma": 470,
      "ect": 471,
      "ichĠ": 472,
      "pr": 473,
      "and": 474,
      "à¥Ĥà¤¨": 475,
      "à°£": 476,
      "ation": 477,
      "ill": 478,
      "à¤°à¥įà¤µ": 479,
      "Ġà¤ĩ": 480,
      "ud": 481,
      "à°ļ": 482,
      "all": 483,
      "allyĠ": 484,
      "à¥ĭà¤Ĥ": 485,
      "mo": 486,
      "à¥įà¤¥": 487,
      "um": 488,
      "ĠofĠ": 489,
      "anc": 490,
      "whichĠ": 491,
      "ast": 492,
      "sĠofĠ": 493,
      "à°¾à°²à±ģĠà°": 494,
      "cont": 495,
      "à¤¾à¤ľà¥įà¤¯": 496,
      "Ķà¤°": 497,
      "rit": 498,
      "§à¥": 499,
      "com": 500,
      "s.Ġ": 501,
      "à¤¾à¤¹": 502,
      "be": 503,
      "es,Ġ": 504,
      "leĠ": 505,
      "ult": 506,
      "à¥ĢĠà¤¸": 507,
      "icalĠ": 508,
      "à°¿à°¤": 509,
      "enc": 510,
      "y,Ġ": 511,
      "à¤Ń": 512,
      "atĠ": 513,
      "à°Ĥà°²à±ĭĠà°": 514,
      "à¤Ĥà¤Ĺ": 515,
      "¸à±įà°¥": 516,
      "Ġà¤Ĺ": 517,
      "à°Ĥà°Ł": 518,
      "onĠ": 519,
      "estĠ": 520,
      "itsĠ": 521,
      "à±Īà°¨": 522,
      "ªà¥įà¤°": 523,
      "toĠtheĠ": 524,
      "sp": 525,
      "Ġà¤¶": 526,
      "à°¿.": 527,
      "à±įĠà°": 528,
      "à±ģà°¤": 529,
      "ter": 530,
      "oun": 531,
      "iesĠ": 532,
      "à¤¾Ġà¤ķ": 533,
      "ateĠ": 534,
      "à°²à±ĭĠà°": 535,
      "cent": 536,
      ".ĠIn": 537,
      "à¤³": 538,
      "à¤¾à¤Ĥà¤ļ": 539,
      "India'sĠ": 540,
      "sh": 541,
      "à±ģĠà°ª": 542,
      "lar": 543,
      "à°Ń": 544,
      "cl": 545,
      "wereĠ": 546,
      "¹à¥Ī": 547,
      "à¤¾à¤Ĺ": 548,
      "fromĠ": 549,
      "ed": 550,
      ";Ġ": 551,
      "à±ģà°ķ": 552,
      "à¥ĭà¤¤": 553,
      "end": 554,
      "co": 555,
      "si": 556,
      "Ġà¤Ń": 557,
      "à°¾à°ľ": 558,
      "à°¦à±įà°": 559,
      "mar": 560,
      "à°ľ": 561,
      "à¤¾à¤ª": 562,
      "form": 563,
      "à¤¾Ġà¤¸": 564,
      "à¥ĩà¤ķ": 565,
      "lat": 566,
      "²à±ĭ": 567,
      "Ġà¤²": 568,
      "à¤¾à¤¦": 569,
      "wor": 570,
      "econ": 571,
      "à±Ĥà°¡": 572,
      "à±ģà°²à±ģ": 573,
      "ain": 574,
      "Ġà¤ī": 575,
      "à¥įà¤ķ": 576,
      "à°¾à°·": 577,
      "à°¿à°Ĺ": 578,
      "iveĠ": 579,
      "à°Ĥà°¤": 580,
      "forĠ": 581,
      "ialĠ": 582,
      "īà°¨à±įà°¨": 583,
      "à¤ķà¥įà¤·": 584,
      "gh": 585,
      "à¥ĩà¤¤": 586,
      "areĠ": 587,
      "·à¥įà¤Ł": 588,
      "larg": 589,
      "à¥ĩĠà¤Ĩ": 590,
      "ort": 591,
      "ism": 592,
      "à¤§à¥įà¤¯": 593,
      "à°ķà±įà°·": 594,
      "e,Ġ": 595,
      "ure": 596,
      "low": 597,
      "Ġà¤µà¤¿à¤": 598,
      "ct": 599,
      ".ĠA": 600,
      "ingĠtheĠ": 601,
      "ver": 602,
      "µà°¿à°": 603,
      "Ġm": 604,
      "edĠinĠ": 605,
      "à¥Ģà¤¨": 606,
      "tr": 607,
      "à±ģà°µ": 608,
      "ityĠ": 609,
      "à¥ĥà¤¤": 610,
      "à¥ĢĠà¤µ": 611,
      "à°²à±ģĠà°": 612,
      "ay": 613,
      "min": 614,
      "à¤¼": 615,
      "per": 616,
      "à¤Ł": 617,
      "arĠ": 618,
      "Ġà¤¹à¥Ī": 619,
      "à±įà°ļ": 620,
      "à¥ĩ.": 621,
      "à±ģà°": 622,
      "à¥ĩĠà¤¸": 623,
      "âĢĮ": 624,
      "âĢĵ": 625,
      "ot": 626,
      "à¥¦": 627,
      "Ġà¤Ķà¤°": 628,
      "Ġà°ľ": 629,
      "à¥Ģà¤ļ": 630,
      "ass": 631,
      "mentĠ": 632,
      "à¥ģà¤°": 633,
      "elyĠ": 634,
      "eĠofĠ": 635,
      "à°¾à°®": 636,
      "à¤¾à¤ļà¥įà¤¯à¤¾Ġà¤": 637,
      "à°¨à±ģĠà°": 638,
      "Ġb": 639,
      "eĠtheĠ": 640,
      "à±įâĢĮ": 641,
      "à°¿à°ª": 642,
      "reg": 643,
      "à¤°à¥įà¤®": 644,
      "up": 645,
      "à¤¾à¤¤à¥Ģà¤²": 646,
      "ak": 647,
      "andĠtheĠ": 648,
      "our": 649,
      "nor": 650,
      "aryĠ": 651,
      "Ġà¤ķà¤°": 652,
      "indu": 653,
      "à¤¿à¤¨": 654,
      "Ġà¤¸à¤Ĥà¤": 655,
      "Ġà¤ħà¤¸": 656,
      "overn": 657,
      "gr": 658,
      "à°¾à°°à±ģ": 659,
      "econom": 660,
      "200": 661,
      "ap": 662,
      "se": 663,
      "à¤¾à¤£": 664,
      "Ch": 665,
      "à¤¿à¤²": 666,
      "à¤ķà¤¾à¤°": 667,
      "à°Ĺà°¾Ġà°": 668,
      "CE": 669,
      "Ġà°ħ": 670,
      "à¤¦à¥įà¤": 671,
      "201": 672,
      "a,Ġ": 673,
      "à°¬": 674,
      "à¥ĢĠà¤ķ": 675,
      "af": 676,
      "à¤¿à¤®": 677,
      "à°¿à°¯": 678,
      "centur": 679,
      "à¤¾à¤¯": 680,
      "à¤¹à¥ĩà¤¤": 681,
      "à°²à±ģ": 682,
      "ıà¤ķ": 683,
      "Ŀà¤¾à¤²": 684,
      "Ġà¤ªà¤°": 685,
      "Ġà¤Ĩà¤¹à¥ĩ.": 686,
      "ep": 687,
      "iĠ": 688,
      "anyĠ": 689,
      "sub": 690,
      ".ĠInĠ": 691,
      "der": 692,
      "ef": 693,
      "tsĠ": 694,
      "µà¤¿à¤": 695,
      "à¥įà¤²": 696,
      "terĠ": 697,
      "à¤¬": 698,
      "à°Ĥ,Ġà°": 699,
      "à°¿à°²": 700,
      "gen": 701,
      "à°¾à°ķ": 702,
      "à°¿,Ġà°": 703,
      "à°§à°¿à°ķ": 704,
      "Ġà°¦à±ĩà°¶": 705,
      "bo": 706,
      "port": 707,
      "à¤¿à¤Ĥà¤": 708,
      "edĠbyĠtheĠ": 709,
      "%Ġ": 710,
      "og": 711,
      "ķà±Ĥà°¡": 712,
      "à°Ńà°¾à°°à°¤à°¦à±ĩà°¶": 713,
      "à°Ĥà°²à±ĭ": 714,
      "à°¿à°Ĥà°¦à°¿.Ġà°": 715,
      "govern": 716,
      "uag": 717,
      "à¤¾à¤³": 718,
      "à°¾à°¦": 719,
      "à°¾à°¯à°¿.Ġà°": 720,
      "à°Ĥà°Ĺà°¾Ġà°": 721,
      "anguag": 722,
      "av": 723,
      "tra": 724,
      "atedĠ": 725,
      "¯à¥": 726,
      "stit": 727,
      "dit": 728,
      "à¥ĩĠà¤ķ": 729,
      "nĠ": 730,
      "Ġà°¨": 731,
      "ionsĠ": 732,
      "à°Łà±įà°Ł": 733,
      "incl": 734,
      "Ġà¤ļ": 735,
      "à±ĥ": 736,
      "Ńà°¾à°°à°¤à±Ģà°¯": 737,
      "irĠ": 738,
      "Ġà¥§à¥": 739,
      "year": 740,
      "outh": 741,
      "minist": 742,
      "Asi": 743,
      "Hindu": 744,
      "languag": 745,
      "Ġà°¶": 746,
      "à±įà°¤": 747,
      "includ": 748,
      "bu": 749,
      "chĠ": 750,
      "fir": 751,
      "pri": 752,
      "pop": 753,
      "à¤¥": 754,
      "à°¾à°¬": 755,
      "à¤¿à¤¶": 756,
      "à¤¿à¤¸": 757,
      "à°ļà±įà°ļ": 758,
      "north": 759,
      "bec": 760,
      "fl": 761,
      "we": 762,
      "ans": 763,
      "âĢĶ": 764,
      "ext": 765,
      "à¤¾,": 766,
      "à°¿à°¸à±įà°¤": 767,
      "à¥ĢĠà¤¹": 768,
      "ongĠ": 769,
      "part": 770,
      "hav": 771,
      "0Ġ": 772,
      "à¤Ńà¤¾à¤°à¤¤": 773,
      "Ġà¤§": 774,
      "à°¾à°Ĺ": 775,
      "à¥ĩĠà¤®": 776,
      "à¥ĢĠà¤Ĩ": 777,
      "¸à±įà°µ": 778,
      "the": 779,
      "à¤¤à¥įà¤¤": 780,
      "à°¨à°¿Ġà°": 781,
      "à°ķà±įà°ķ": 782,
      "illionĠ": 783,
      "à¤¹à¥ĩà¤¤.": 784,
      "dec": 785,
      "i,Ġ": 786,
      "kĠ": 787,
      "qu": 788,
      "west": 789,
      "à¥Į": 790,
      "therĠ": 791,
      "à°¿à°°": 792,
      "à±ĩà°°": 793,
      "ameĠ": 794,
      "ldĠ": 795,
      "sy": 796,
      "eralĠ": 797,
      ".ĠI": 798,
      "à¤°à¥įà¤·": 799,
      "à°Ĥà°¦à°¿.Ġà°": 800,
      "elect": 801,
      "à±įà°®": 802,
      "à¥Ģ.": 803,
      "à°¿à°®": 804,
      "à¤¾Ġà¤ľ": 805,
      "edĠtoĠ": 806,
      "firstĠ": 807,
      "popul": 808,
      "eĠandĠ": 809,
      "str": 810,
      "à¥ĩĠà¤ª": 811,
      "à¥ĢĠà¤®": 812,
      "reas": 813,
      "à±įà°°à±Ģ": 814,
      "outhĠ": 815,
      "inĠ19": 816,
      "à±įà°Łà±įà°°": 817,
      "à°¾à°·à±įà°Łà±įà°°": 818,
      "stitut": 819,
      "à±į,Ġà°": 820,
      "à¥Ĥà¤°à¥įà¤µ": 821,
      "à°¾à°¤à±Ģà°¯": 822,
      "eg": 823,
      "à¥įà¤¹": 824,
      "erv": 825,
      "à¤¾Ġà¤¦": 826,
      "Ġà¤ķà¥ĭ": 827,
      "lig": 828,
      "ĠB": 829,
      "à¤¾Ġà¤ª": 830,
      "à¥ĩĠà¤µ": 831,
      "à¥ĩĠà¤Ńà¤¾à¤°à¤¤": 832,
      "ousĠ": 833,
      "Ġà¤ħà¤¨": 834,
      ",Ġà°ª": 835,
      "ment": 836,
      "sc": 837,
      "wĠ": 838,
      "Ġ1": 839,
      "stem": 840,
      "itĠ": 841,
      "à°¦à±įà°¦": 842,
      "à¤¦à¥įà¤§": 843,
      "à¤¾.": 844,
      "Ġà°Ń": 845,
      "à°¿Ġà°ª": 846,
      "à°®à±Īà°¨": 847,
      "à¥ĥà¤": 848,
      "Cong": 849,
      "dh": 850,
      "dur": 851,
      "ghĠ": 852,
      "Ġà°Ĩ": 853,
      "à±įà°ª": 854,
      "sĠandĠ": 855,
      "oughĠ": 856,
      "à¤Ĥà¤¡": 857,
      "ishĠ": 858,
      "à°¿à°ķà°¿Ġà°": 859,
      "Ġà°¸à°Ĥà°": 860,
      "contin": 861,
      "à°Ĥà°¤à±įà°°": 862,
      "system": 863,
      "Congres": 864,
      "à¤¾à¤Ĥ": 865,
      "Ġà¤ķà¥ĢĠà¤": 866,
      "à°®à±ģ": 867,
      "thĠcentur": 868,
      "duc": 869,
      "Em": 870,
      "rat": 871,
      "Ĵà°ķ": 872,
      "à¤¤à¤¾à¤¤": 873,
      "à¥ĩà¤ļ": 874,
      "Ġà¤¹à¥ĭà¤¤": 875,
      "astĠ": 876,
      "ĸà±įà°¯": 877,
      "à¥§à¥": 878,
      "Ġà°ļ": 879,
      "ant": 880,
      "intoĠ": 881,
      "à¤¾Ġà¤¹à¥Ī": 882,
      "à¥ĩĠà¤ħ": 883,
      "Ġà¤Ńà¤¾à¤°à¤¤à¥Ģà¤¯": 884,
      "omeĠ": 885,
      "à±įà°¯à°µ": 886,
      "ionĠofĠ": 887,
      "à¥ģà¤ĸ": 888,
      "mostĠ": 889,
      "bl": 890,
      "à¤¿à¤£": 891,
      "à°¤à°°": 892,
      "mod": 893,
      "meĠ": 894,
      "à¤¾à¤·à¥įà¤Ł": 895,
      "eĠinĠ": 896,
      "onĠtheĠ": 897,
      "à¤¿à¤µ": 898,
      "art": 899,
      "hadĠ": 900,
      "à¤¾à¤·à¥įà¤Łà¥įà¤°": 901,
      "me": 902,
      "rul": 903,
      "à¤¾Ġà¤Ĩ": 904,
      ".ĠTh": 905,
      "fic": 906,
      "ph": 907,
      "à°¸à±įà°¥": 908,
      "Ġà¤Ŀà¤¾à¤²": 909,
      "à°¾à°¸": 910,
      "à¤¤à¥įà¤¯": 911,
      "ionalĠ": 912,
      "IndiaĠhasĠ": 913,
      "Ġà¤°à¤¾à¤ľà¥įà¤¯": 914,
      "ayĠ": 915,
      "pre": 916,
      "soĠ": 917,
      "®à±Ĭ": 918,
      "à±Į": 919,
      "eĠofĠtheĠ": 920,
      "à°¾à°Ł": 921,
      "erg": 922,
      "south": 923,
      "Ġ19": 924,
      "Ġà°¤": 925,
      "à¤¾Ġà¤¨": 926,
      "à¤¾Ġà¤¹": 927,
      "edĠtheĠ": 928,
      "à°¾à°°à±įà°": 929,
      "over": 930,
      "à¤Ĥà¤¤à¥įà¤°": 931,
      "à°¾à°ľà±įà°¯": 932,
      "haveĠ": 933,
      "mor": 934,
      "ne": 935,
      "ni": 936,
      "à¥įà¤®": 937,
      "à¥ĩĠà¤¹": 938,
      "à¥ĩĠà¤ľ": 939,
      ":Ġ": 940,
      "tw": 941,
      "ansĠ": 942,
      ",ĠwhichĠ": 943,
      "eng": 944,
      "relig": 945,
      "maj": 946,
      "ric": 947,
      "à¥Ģ,": 948,
      "alsoĠ": 949,
      "reat": 950,
      "increas": 951,
      "comm": 952,
      "SouthĠ": 953,
      "cast": 954,
      "dingĠ": 955,
      "od": 956,
      "serv": 957,
      "à°¸à±įà°¤": 958,
      "Ġà°¦": 959,
      "them": 960,
      "à¥ĢĠà¤ħ": 961,
      "à°¤à±įà°¤": 962,
      "à¥ĩà¤µ": 963,
      "à°¨à±ĩ": 964,
      "à¥ĭà¤ķ": 965,
      "beenĠ": 966,
      "primeĠ": 967,
      "primeĠminist": 968,
      "cor": 969,
      "dom": 970,
      "danc": 971,
      "İà°¨à±įà°¨": 972,
      "à±ģà°¨à±įà°¨": 973,
      "à°²à±ĭ": 974,
      "Ġà°ªà°°": 975,
      "s,ĠandĠ": 976,
      "à±ģà°²à±ģĠà°": 977,
      "suchĠ": 978,
      "with": 979,
      "CongressĠ": 980,
      "dev": 981,
      "pol": 982,
      "stat": 983,
      "à¥įà¤¯à¤¾à¤¤": 984,
      "à¥ģà¤¤": 985,
      "à¤¾à¤Ĥà¤¨": 986,
      "à¤¾à¤Ĥà¤®": 987,
      "Ġà¤¸à¤Ĥà¤¸": 988,
      "twoĠ": 989,
      "ld": 990,
      "ok": 991,
      "à°¾,Ġà°": 992,
      "à¤¾Ġà¤®": 993,
      "à¥ģà¤¸": 994,
      "ever": 995,
      "pro": 996,
      "Ġà¤ĩà¤¸": 997,
      "à¥įà¤ķà¥ĥà¤¤": 998,
      "tradit": 999,
      "à¤¾à¤Ĥà¤¤": 1000,
      "Emp": 1001,
      "1Ġ": 1002,
      "26": 1003,
      "num": 1004,
      "ru": 1005,
      "soc": 1006,
      "¹à°¿à°Ĥà°¦": 1007,
      "à¥įà¤ļ": 1008,
      "à°ĤĠà°ķ": 1009,
      "à¤ķà¥įà¤·à¤¿à¤£": 1010,
      "coun": 1011,
      "e-": 1012,
      "pe": 1013,
      "antĠ": 1014,
      "à°ķà±ģĠà°": 1015,
      "beg": 1016,
      "à°¦à±įà°§": 1017,
      "à±ģà°²à±ģ,Ġà°": 1018,
      "vers": 1019,
      "governmentĠ": 1020,
      "butĠ": 1021,
      ")Ġ": 1022,
      "cult": 1023,
      "à°³": 1024,
      "à¤¾à¤¬": 1025,
      "à°Ĥà°¬": 1026,
      "à¤¾Ġà¤µ": 1027,
      "uralĠ": 1028,
      "à±Ĩà°Ĥà°¡": 1029,
      "lif": 1030,
      "lim": 1031,
      "à°¿à°¨à±įà°¨": 1032,
      "à¥ģà¤³": 1033,
      "earĠ": 1034,
      "igh": 1035,
      "à¤¤à¥įà¤¤à¤°": 1036,
      "moreĠ": 1037,
      "suchĠasĠ": 1038,
      ",00": 1039,
      "50": 1040,
      "eci": 1041,
      "comp": 1042,
      "world": 1043,
      "Ġà¤§à¤°à¥įà¤®": 1044,
      "Brit": 1045,
      "ca": 1046,
      "¦à¥įà¤°": 1047,
      "à¥Ģà¤¤": 1048,
      "aĠf": 1049,
      "à¤¦à¥ĩà¤¶": 1050,
      "etwe": 1051,
      "etweenĠ": 1052,
      "s.ĠTheĠ": 1053,
      "à¤ĸ": 1054,
      "à°¾à°£": 1055,
      "à¥ģà¤¨": 1056,
      "Ġà¤Ńà¤¾à¤°à¤¤à¤¾à¤¤": 1057,
      "grow": 1058,
      "µà¤¿à¤§": 1059,
      "pres": 1060,
      "ĠâĢĵ": 1061,
      "Ġà¤ıà¤ķ": 1062,
      "à¤¾à¥¤": 1063,
      "Ġà°ī": 1064,
      "à¤¾à¤Ł": 1065,
      "à¤¾à¤ł": 1066,
      "thisĠ": 1067,
      "ationalĠ": 1068,
      "¸à±įà°¥à°¾à°¨": 1069,
      "largestĠ": 1070,
      "afterĠ": 1071,
      "ĠBCE": 1072,
      "à±įà°¯à°µà°¸à±įà°¥": 1073,
      "o-": 1074,
      "pt": 1075,
      "ralĠ": 1076,
      "ħà°¤": 1077,
      "à°·": 1078,
      "à¥įà¤Ł": 1079,
      "à¥ĩĠà¤¤": 1080,
      "à¥ĢĠà¤ª": 1081,
      "Ind": 1082,
      "à±įà°°à°®": 1083,
      "urb": 1084,
      "à°¿Ġà°ķ": 1085,
      "toĠb": 1086,
      "isĠtheĠ": 1087,
      "India,Ġ": 1088,
      "à°§à°¾à°¨": 1089,
      "act": 1090,
      "Ġà°°à±Ī": 1091,
      "à¤¤à¤¾à¤¤.": 1092,
      "%ĠofĠ": 1093,
      "ersĠ": 1094,
      "à¤¿à¤°": 1095,
      "ish": 1096,
      "berĠ": 1097,
      "arm": 1098,
      "à¤ªà¥įà¤°": 1099,
      "ĠmillionĠ": 1100,
      "caus": 1101,
      "18": 1102,
      "Ma": 1103,
      "à°¶": 1104,
      "à¥įà¤¨": 1105,
      "thatĠ": 1106,
      "à¤¿à¤³": 1107,
      "à°¨à°¾à°": 1108,
      "à°¿Ġà°¸": 1109,
      "à°¾à°Ĥà°¤": 1110,
      "theirĠ": 1111,
      "modernĠ": 1112,
      "Pak": 1113,
      "vi": 1114,
      "à¤ł": 1115,
      "divers": 1116,
      "à¥įà¤¯à¤¾à¤¨": 1117,
      ".ĠD": 1118,
      "Ġà¤¸à¤¾à¤®": 1119,
      "à°ªà°Ĥà°ļ": 1120,
      "196": 1121,
      "à¤Ĥà¤¤à¤°": 1122,
      "à°¾à°²à±ģ,Ġà°": 1123,
      "Ġà¤¹à¥Īà¥¤": 1124,
      "à°¿à°²à±įà°²": 1125,
      "Pakist": 1126,
      "ļà±Ĩ": 1127,
      "à°¿à°µ": 1128,
      "à°Ĥà°ª": 1129,
      "à¥įà¤¯à¤¾à¤ļ": 1130,
      "à¥Ģà¤ª": 1131,
      "à±Ģ,Ġà°": 1132,
      "ous": 1133,
      "à°¿Ġà°ħ": 1134,
      "à¤¾à¤²à¤¯": 1135,
      "à°§à±įà°¯": 1136,
      "à°§à°¿à°ķà°¾à°°": 1137,
      "Bud": 1138,
      "fol": 1139,
      "manyĠ": 1140,
      "à¤¾à¤·": 1141,
      "tĠofĠ": 1142,
      "à¤²à¥ĩà¤²": 1143,
      "à¤Ĥà¥¤": 1144,
      "olog": 1145,
      "sup": 1146,
      "Un": 1147,
      "hum": 1148,
      "land": 1149,
      "à¥ī": 1150,
      "à¤¾à¤ķ": 1151,
      "Ġà¤¸à¥įà¤¥": 1152,
      "à¤°à¥įà¤¥": 1153,
      "und": 1154,
      "ationĠofĠ": 1155,
      "fromĠtheĠ": 1156,
      "nu": 1157,
      "Ġà¤ĺ": 1158,
      "on-": 1159,
      "à¥ĩĠà¤¬": 1160,
      "à¥ĩĠà¤ªà¥įà¤°": 1161,
      "Ġà°ªà±įà°°à°¾à°Ĥà°¤": 1162,
      "ell": 1163,
      "à¤ļà¥įà¤¯à¤¾Ġà¤": 1164,
      "class": 1165,
      "à¤¾Ġà¤¹à¥Īà¥¤": 1166,
      "withĠtheĠ": 1167,
      "har": 1168,
      "odĠ": 1169,
      "y.Ġ": 1170,
      "à¥«": 1171,
      "à¥įà¤¦": 1172,
      "à°¿à°£": 1173,
      "ari": 1174,
      "esĠofĠ": 1175,
      "ament": 1176,
      "Ġà°ªà±įà°°à°ªà°Ĥà°ļ": 1177,
      "à°¾à°¯à°¿.": 1178,
      ",ĠandĠtheĠ": 1179,
      "à°¿à°¤à±įà°°": 1180,
      "enceĠ": 1181,
      "à°ķà±įà°·à°¿à°£": 1182,
      "economicĠ": 1183,
      "westernĠ": 1184,
      "Con": 1185,
      "Eur": 1186,
      "gl": 1187,
      "rol": 1188,
      "ķà±ĥ": 1189,
      "ľà°°": 1190,
      "à°¾à°§": 1191,
      "à°¾à°µ": 1192,
      "à¤¾Ġà¤ħ": 1193,
      "à¥ĢĠà¤Ń": 1194,
      "à°¨à±ģ": 1195,
      "à¥įà¤°à¤¾à¤ľà¥įà¤¯": 1196,
      "à°¾à°°à±įà°Ł": 1197,
      "à±Ģà°¤": 1198,
      "Ġà¤®à¤¹": 1199,
      "à¤Ĥà¤¦": 1200,
      "emerg": 1201,
      "à±Ĩà°²": 1202,
      "Ġà°ªà±įà°°à°§à°¾à°¨": 1203,
      "à¤¿à¤ķà¥įà¤·": 1204,
      "Ġà¤Ĩà¤¹à¥ĩà¤¤.": 1205,
      "à°¾à°¨à°¿à°ķà°¿Ġà°": 1206,
      "à°°à±įà°µ": 1207,
      "cons": 1208,
      "east": 1209,
      "angesĠ": 1210,
      "à°¾à°°à±ģ.Ġà°": 1211,
      "à°¬à°¡": 1212,
      "bothĠ": 1213,
      "ķà±Ĥà°¡à°¾Ġà°": 1214,
      "yearsĠ": 1215,
      "pow": 1216,
      "Ġà¤Ł": 1217,
      "Ġà¤¸à¤®": 1218,
      "rib": 1219,
      "eastĠ": 1220,
      "imal": 1221,
      "202": 1222,
      "BritishĠ": 1223,
      "Buddh": 1224,
      "ByĠ": 1225,
      "istĠ": 1226,
      "tim": 1227,
      "ubl": 1228,
      "à¥ĩĠà¤¨": 1229,
      "à¥ĢĠà¤¨": 1230,
      "à¥ĢĠà¤¬": 1231,
      "aĠandĠ": 1232,
      "à¤¸à¥įà¤¤": 1233,
      "ough": 1234,
      "à¤¾à¤ļà¥Ģà¤¨": 1235,
      "à¤¾à¤µà¤°": 1236,
      "peri": 1237,
      "subcontin": 1238,
      "47": 1239,
      "ber": 1240,
      "lit": 1241,
      "lea": 1242,
      "war": 1243,
      "īà°Ĥà°¦à°¿.Ġà°": 1244,
      "à¤¾à¤Ī": 1245,
      "à¤¾Ġà¤ªà¥įà¤°": 1246,
      "à¥ĩà¤¨": 1247,
      "à°¾à°²à°²à±ĭĠà°": 1248,
      "ilit": 1249,
      "à°ªà±įà°°": 1250,
      "à¤§à¤¿à¤ķ": 1251,
      "à¥Ĥà¤°": 1252,
      "à¤¾à¤Ĥà¤ļà¥įà¤¯à¤¾Ġà¤": 1253,
      "Ġà¤¸à¤Ĥà¤¸à¥įà¤ķà¥ĥà¤¤": 1254,
      "¹à°¿à°Ĥà°¦à±Ĥ": 1255,
      "beganĠ": 1256,
      "ob": 1257,
      "ine": 1258,
      "indi": 1259,
      "à¤¿à¤¹": 1260,
      "edĠaĠ": 1261,
      "à¥ĢĠà¤ľ": 1262,
      "à¥ĢĠà¤Ńà¤¾à¤°à¤¤": 1263,
      "à¥ĭà¤²": 1264,
      "à°¾Ġà°¸": 1265,
      "Ġà°ªà±įà°°à°ľ": 1266,
      "·à¥įà¤ł": 1267,
      "main": 1268,
      "à±ģà°ķà±ģ": 1269,
      "à°ķà±įà°ķà±ģà°µ": 1270,
      "Ġà¤ħà¤¨à¥ĩà¤ķ": 1271,
      "betweenĠ": 1272,
      "her": 1273,
      "hist": 1274,
      "ugh": 1275,
      "ĩà°¤à°°": 1276,
      "à°¸à±įà°": 1277,
      "à°Ńà°¾à°°à°¤à±Ģà°¯": 1278,
      "à¥įà¤ª": 1279,
      "à±įà°¡": 1280,
      "à°¿.Ġ": 1281,
      "à¤¾Ġà¤Ĺ": 1282,
      "à°¤à±įà°µ": 1283,
      ".ĠS": 1284,
      "à¥ĩà¤Ĥà¤": 1285,
      "à¥Ģà¤®": 1286,
      "à±ĭĠà°ķà±Ĥà°¡": 1287,
      "à°¿à°ķĠà°µ": 1288,
      "à°ªà±įà°ª": 1289,
      "à°ĤĠà°µ": 1290,
      "à¥Ĥà¤ª": 1291,
      "à¤ªà¤Ł": 1292,
      "à°¿à°Ĥà°ļà°¿à°¨": 1293,
      "à°¾à°Ĥà°Ĺ": 1294,
      "à°ľà°¾à°¤à±Ģà°¯": 1295,
      ".ĠItĠ": 1296,
      "à°¾à°°à±įà°Ĺ": 1297,
      "à¤¾à¤Ĥà¤®à¤§à¥įà¤¯": 1298,
      "histor": 1299,
      "1.": 1300,
      "fer": 1301,
      "sinc": 1302,
      "à¥ĩà¤°": 1303,
      "à¤¾à¤Ĥà¤ª": 1304,
      "ireĠ": 1305,
      "Ġà¤¦à¥ĩà¤¶": 1306,
      "abl": 1307,
      "ableĠ": 1308,
      "à¤¿à¤¤à¥įà¤°": 1309,
      "à¥ĭà¤ĤĠà¤ķà¥ĩĠà¤": 1310,
      "generalĠ": 1311,
      "world'sĠ": 1312,
      "à¤¿à¤ķà¥įà¤·à¤£": 1313,
      "generalĠelect": 1314,
      "17": 1315,
      "Ar": 1316,
      "ik": 1317,
      "ĩà°¦": 1318,
      "à¤°à¤ķà¤¾à¤°": 1319,
      "à¥ĢĠà¤¯": 1320,
      "itedĠ": 1321,
      "à¥Ģà¤ķ": 1322,
      "ilĠ": 1323,
      "à¥Īà¤¦": 1324,
      "à¥ĭà¤Ĺ": 1325,
      "à¤Ĥà¤Ĺà¥įà¤°": 1326,
      "à¤¾Ġà¤Ĩà¤¹à¥ĩ.": 1327,
      "Com": 1328,
      "ce": 1329,
      "gre": 1330,
      "long": 1331,
      "à¤¾à¤¥": 1332,
      "à¤¾à¤§": 1333,
      "à°Ĥ.Ġà°": 1334,
      "à¤°à¤£": 1335,
      "à¥ĩĠà¤¦": 1336,
      "Ġà¤ķà¥ĩà¤²": 1337,
      "Ġà¤®à¤§à¥įà¤¯": 1338,
      "197": 1339,
      "ett": 1340,
      "à¥ĭà¤ł": 1341,
      "Ġà¤¬à¤¨": 1342,
      "Ġà¥¨": 1343,
      "allĠ": 1344,
      "clearĠ": 1345,
      "largeĠ": 1346,
      "northernĠ": 1347,
      "becameĠ": 1348,
      "peop": 1349,
      "à°¨à°¾à°Ń": 1350,
      "liter": 1351,
      ";ĠtheĠ": 1352,
      "Mugh": 1353,
      "ainĠ": 1354,
      "ke": 1355,
      "krit": 1356,
      "mid": 1357,
      "otĠ": 1358,
      "¦à°ķà±įà°·à°¿à°£": 1359,
      "ther": 1360,
      "infl": 1361,
      "dis": 1362,
      "icallyĠ": 1363,
      "à°°à±įà°ª": 1364,
      "Ġà°¸à°®": 1365,
      "app": 1366,
      ",000Ġ": 1367,
      "urbanĠ": 1368,
      "influ": 1369,
      ";ĠandĠ": 1370,
      "ies": 1371,
      "mill": 1372,
      "non-": 1373,
      "Ġà°²": 1374,
      "Ġà°Ĺ": 1375,
      "à¤¾à¤¡": 1376,
      "à°¿à°¶": 1377,
      "à°¿à°Ł": 1378,
      "ens": 1379,
      "à°°à±įà°¯": 1380,
      "à°°à°£": 1381,
      "à±ĩà°¦": 1382,
      "à¥ĭà¤¨": 1383,
      "à°¦à°¾à°¯": 1384,
      "à±Ģà°¨": 1385,
      "à°Ĥà°¦à°¿.": 1386,
      "à±Ĩà°¸": 1387,
      "Ġà°ªà±įà°°à°Ń": 1388,
      "riv": 1389,
      "à°¯à°¿à°¨": 1390,
      "elop": 1391,
      "constitut": 1392,
      "overĠ": 1393,
      "à°¾à°¤à±įà°°": 1394,
      "à¥įà¤·à¥ĩà¤¤": 1395,
      "occ": 1396,
      "parli": 1397,
      "à±ģà°¤à±įà°µ": 1398,
      ".ĠInĠtheĠ": 1399,
      "à±ģà°ķà±ĭ": 1400,
      "Ġà¥§à¥¯à¥": 1401,
      "à°¾à°°à±įà°Łà±Ģ": 1402,
      "Ġà°ªà±įà°°à°Ńà±ģà°¤à±įà°µ": 1403,
      "à¥įà¤·à¥ĩà¤¤à¥įà¤°": 1404,
      "Af": 1405,
      "aw": 1406,
      "cour": 1407,
      "eat": 1408,
      "ire": 1409,
      "ianĠ": 1410,
      "s.": 1411,
      "y,ĠtheĠ": 1412,
      "à¤«": 1413,
      "à¥¨": 1414,
      "à¥ª": 1415,
      "eĠinĠtheĠ": 1416,
      "thr": 1417,
      "à¥ĩĠà¤°": 1418,
      "à¥ĢĠà¤¤": 1419,
      "à¥ĢĠà¤¶": 1420,
      "à¥ĭ.": 1421,
      "à¤¸à¥įà¤¥": 1422,
      "à¤Ĥà¤ª": 1423,
      "199": 1424,
      "à¤¾à¤¸à¥įà¤¤": 1425,
      "Ġà¤°à¤¾à¤ľ": 1426,
      "à¤¡à¤¼": 1427,
      "ultan": 1428,
      "à¤¾Ġà¤ľà¤¾à¤¤": 1429,
      "duringĠ": 1430,
      "increasedĠ": 1431,
      "hiĠ": 1432,
      "milit": 1433,
      "publ": 1434,
      "ris": 1435,
      "à¤Ī": 1436,
      "à¤¾à¤ģ": 1437,
      "à¤¤à¥ĩ.": 1438,
      "alit": 1439,
      "atĠtheĠ": 1440,
      "à¥ĢĠà¤¦": 1441,
      "à¥ĢĠà¤°": 1442,
      "à¥įà¤°à¤¿à¤": 1443,
      "s,ĠtheĠ": 1444,
      "ement": 1445,
      "IndiaĠandĠ": 1446,
      "à¤§à¥Ģà¤²": 1447,
      "Ġà¤¦à¤ķà¥įà¤·à¤¿à¤£": 1448,
      "Chin": 1449,
      "newĠ": 1450,
      "toĠbeĠ": 1451,
      "follow": 1452,
      ",Ġà¤ľ": 1453,
      "1,Ġ": 1454,
      "An": 1455,
      "Sans": 1456,
      "adĠ": 1457,
      "eredĠ": 1458,
      "à¤°à¤¤": 1459,
      "sty": 1460,
      "à¥ĩĠà¤Ĺ": 1461,
      "orityĠ": 1462,
      "ion,Ġ": 1463,
      "Ġà¤¸à¤°à¥įà¤µ": 1464,
      "à¤Ĥà¤¬": 1465,
      "Ġà¤ªà¥įà¤°à¤¦à¥ĩà¤¶": 1466,
      "uresĠ": 1467,
      "à¤¿à¤²à¥įà¤²": 1468,
      "à¥įà¤¹à¤£": 1469,
      "Sanskrit": 1470,
      "Beng": 1471,
      "S$": 1472,
      "US$": 1473,
      "now": 1474,
      "notĠ": 1475,
      "perĠ": 1476,
      "Ġ2": 1477,
      "ĩà°Ĥà°¡": 1478,
      "Ġà°¬": 1479,
      "thoughĠ": 1480,
      "à°¿à°§": 1481,
      "à°Ĥà°§": 1482,
      "à°Ĥà°ķ": 1483,
      "enni": 1484,
      "are": 1485,
      "atelyĠ": 1486,
      "à¥ĢĠà¤¹à¥Ī": 1487,
      "à¥įà¤°à¤®": 1488,
      "Ġà¤ķà¤¿à¤¯": 1489,
      "Ġà¤ªà¥Ĥà¤°à¥įà¤µ": 1490,
      "à¤®à¤¾à¤£": 1491,
      "à¤°à¥įà¤£": 1492,
      "empl": 1493,
      "à±Ĩà°¦à±įà°¦": 1494,
      "isĠaĠ": 1495,
      "à°°à±įà°£": 1496,
      "exp": 1497,
      "à°¿à°Ĥà°¦à°¿.": 1498,
      "Ġà°°à°¾à°·à±įà°Łà±įà°°": 1499,
      "à°¿à°Ĺà°¾Ġà°": 1500,
      "à±ģà°ĸà±įà°¯": 1501,
      "à°¿à°¯à°¾Ġà°": 1502,
      "includingĠ": 1503,
      "develop": 1504,
      "countr": 1505,
      "Indo-": 1506,
      "Europ": 1507,
      "powerĠ": 1508,
      "à¤¿à¤¤à¥įà¤°à¤ªà¤Ł": 1509,
      "MughalĠ": 1510,
      "millenni": 1511,
      "millennium": 1512,
      "Himal": 1513,
      "Pun": 1514,
      "dr": 1515,
      "def": 1516,
      "jab": 1517,
      "landĠ": 1518,
      "¨à°¿à°°": 1519,
      "à°Ńà°¾à°°à°¤": 1520,
      "à±įĠà°ķ": 1521,
      "à±įà°¸": 1522,
      "à°¾à°ª": 1523,
      "à°¾à°¹": 1524,
      "thanĠ": 1525,
      "anis": 1526,
      "à°¿à°³": 1527,
      "à°¿à°²à±ĭĠà°": 1528,
      "à¤¾Ġà¤Ń": 1529,
      "à¥ĩà¤£": 1530,
      "à±ĭà°°": 1531,
      "à¥Ģà¤Ĥà¤": 1532,
      "omet": 1533,
      "ech": 1534,
      "à¤°à¥įà¤¤": 1535,
      "à¤¦à¥įà¤°": 1536,
      "à¤¦à¤²": 1537,
      "à¤£à¤¿": 1538,
      "à°ªà±ģĠà°": 1539,
      "Ġà°ªà±įà°°à°¤": 1540,
      "Ġà°¸à°Ń": 1541,
      "à°¿à°Ĥà°¦à°¿.Ġ": 1542,
      "ongĠtheĠ": 1543,
      "oundĠ": 1544,
      "laterĠ": 1545,
      "īà°¨à±įà°¨à°¾à°¯à°¿.Ġà°": 1546,
      "à±ģà°µà°¾à°¤": 1547,
      "à°¾à°°à±ģ.": 1548,
      "Ġà°Ńà°¾à°·": 1549,
      "à¥ĥà¤·à¥įà¤Ł": 1550,
      "ļà±Ĩà°Ĥà°¦": 1551,
      "ķà±ĥà°¤": 1552,
      "ľà°°à°¿à°Ĺ": 1553,
      "parliament": 1554,
      "Himalay": 1555,
      "Punjab": 1556,
      "Is": 1557,
      "Wor": 1558,
      "ientĠ": 1559,
      "sur": 1560,
      "Äģ": 1561,
      "ĠinĠ": 1562,
      "Ġà¤«": 1563,
      ",ĠaĠ": 1564,
      "à¤°à¥įà¤¯": 1565,
      "prov": 1566,
      "speci": 1567,
      "work": 1568,
      "à¥ģà¤ĸà¥įà¤¯": 1569,
      "sinceĠ": 1570,
      "throughĠ": 1571,
      "WorldĠ": 1572,
      "¦à¥įà¤¯": 1573,
      "ĠCE": 1574,
      "intoĠtheĠ": 1575,
      "à¤¾Ġà¤¯": 1576,
      "Indu": 1577,
      "à¥ĩà¤¥": 1578,
      "à¥ĩà¤Ł": 1579,
      "offic": 1580,
      "à°ķà±ģĠà°ª": 1581,
      "à¥ģà¤²": 1582,
      "à¥Īà¤¨": 1583,
      "Ġà¤Ńà¤¾à¤°à¤¤à¤¾à¤ļà¥įà¤¯à¤¾Ġà¤": 1584,
      "plac": 1585,
      "à¤ľà¤¾à¤¤": 1586,
      "Ġà¤ĩà¤¤": 1587,
      "Ġà¤Ńà¤¾à¤·": 1588,
      "Ġà¤²à¥ĭà¤ķ": 1589,
      "à¥§à¥¯à¥": 1590,
      "casteĠ": 1591,
      "socialĠ": 1592,
      "humanĠ": 1593,
      "militaryĠ": 1594,
      "4Ġ": 1595,
      "Cent": 1596,
      "Mus": 1597,
      "Ne": 1598,
      "cit": 1599,
      "leg": 1600,
      "ron": 1601,
      "rateĠ": 1602,
      "someĠ": 1603,
      "tenĠ": 1604,
      "à¤¢": 1605,
      "Ġà¤¥": 1606,
      "eĠwasĠ": 1607,
      "à¥ĩ,": 1608,
      "dif": 1609,
      "à¥ĩĠà¤¯": 1610,
      "edĠasĠ": 1611,
      "à¤¾à¤°à¥įà¤¥": 1612,
      "ing,Ġ": 1613,
      "à±ĩà°¸": 1614,
      "forĠtheĠ": 1615,
      "owever": 1616,
      "wid": 1617,
      "à¥įà¤µà¥Ģà¤ª": 1618,
      "ation,Ġ": 1619,
      "à¤¾à¤¹à¤¿à¤¤": 1620,
      "à¥¦à¥¦": 1621,
      "à¤¿à¤®à¤¾à¤²à¤¯": 1622,
      "duringĠtheĠ": 1623,
      "primeĠministerĠ": 1624,
      "numberĠ": 1625,
      "Pakistan": 1626,
      "à¥įà¤°à¤¿à¤Ł": 1627,
      "Europe": 1628,
      "Muslim": 1629,
      "42": 1630,
      "5,Ġ": 1631,
      "Sik": 1632,
      "col": 1633,
      "noĠ": 1634,
      "ro": 1635,
      "İà°ķà±įà°ķà±ģà°µ": 1636,
      "à±įà°¦": 1637,
      "à±ģà°¨": 1638,
      ",Ġwh": 1639,
      "à°¿à°¹": 1640,
      "à°¿à°ļ": 1641,
      "edĠonĠ": 1642,
      "edĠonĠtheĠ": 1643,
      "à±ĩà°Ĥà°¦": 1644,
      "à°¦à°Ł": 1645,
      "à¤µà¥įà¤¯": 1646,
      "à¥įà¤¯à¤¾Ġà¤ķ": 1647,
      "1950": 1648,
      "à¤¿à¤ķĠà¤ķ": 1649,
      "eseĠ": 1650,
      "à°¾à°¨à±įà°¨": 1651,
      "duct": 1652,
      "Ġà¤¤à¥įà¤¯": 1653,
      "Ġà¤¬à¤¹": 1654,
      "Ġà¤°à¤¾à¤·à¥įà¤Łà¥įà¤°": 1655,
      "à¤¶à¥įà¤ļ": 1656,
      "majorĠ": 1657,
      "Ġà¤¸à¤¾à¤®à¥įà¤°à¤¾à¤ľà¥įà¤¯": 1658,
      "à¥įà¤°à¤¿à¤Łà¤¿à¤¶": 1659,
      "2.": 1660,
      "5.": 1661,
      "Ac": 1662,
      "Gand": 1663,
      "dleĠ": 1664,
      "gra": 1665,
      "otherĠ": 1666,
      "®à°¾à°°à±įà°Ĺ": 1667,
      "°à±Ĩà°Ĥà°¡": 1668,
      "īà°Ĥà°Ł": 1669,
      "ıà°°à±įà°ª": 1670,
      "à¥¬": 1671,
      "Ġà°Ńà°¾à°°à°¤": 1672,
      "à±įà°²à±ĭĠà°": 1673,
      "à°¾à°ļ": 1674,
      "à°¿Ġà°ªà±įà°°": 1675,
      "à±ģ,Ġà°": 1676,
      "à±ģà°¡": 1677,
      "à±ģà°ª": 1678,
      "à±ģà°Ĺ": 1679,
      "à±ģà°Ĺà°¾Ġà°": 1680,
      "à±ģà°Ĥà°¬": 1681,
      "à¥Ģà¤°": 1682,
      "à°¿à°¦": 1683,
      "à¤¾Ġà¤ī": 1684,
      "à¥ĩà¤ĸ": 1685,
      "à±įà°°à±Ĩà°¸": 1686,
      "Ġà°ªà±ĩà°°": 1687,
      "Ġà°ªà°¾à°°à±įà°Łà±Ģ": 1688,
      "à¤ķà¥įà¤ķ": 1689,
      "à°¾à°²à°¨à±ģĠà°": 1690,
      "à°¦à°¿.Ġà°": 1691,
      "à±ĩà°¯": 1692,
      "esĠandĠ": 1693,
      "à°ªà°¤": 1694,
      "ash": 1695,
      "à°°à±įà°¤": 1696,
      "à¤§à¤¾à¤¨": 1697,
      "Ġà¤¤à¤¥": 1698,
      "à¤¾à¤®à¥ģà¤³": 1699,
      "under": 1700,
      "à¥ĭà¤¡": 1701,
      "Ġà°°à°¾à°ľà±įà°¯": 1702,
      "Ġà°®à°¤": 1703,
      "oseĠ": 1704,
      "à¥ĭà¤ĤĠà¤®à¥ĩà¤Ĥ": 1705,
      "à¤¾à¤Ĺà¤°": 1706,
      "à±įà°°à±Ģà°¡": 1707,
      "à¤¾Ġà¤¦à¥ĩà¤¶": 1708,
      "à°¸à±įà°¤à±ģà°¤": 1709,
      "tradition": 1710,
      "nuclearĠ": 1711,
      "à°¾à°Ĥà°Ĺà±įà°°à±Ĩà°¸": 1712,
      "30": 1713,
      "cre": 1714,
      "dep": 1715,
      "fam": 1716,
      "nolog": 1717,
      "sig": 1718,
      "à¥Ń": 1719,
      "sĠ(": 1720,
      "arch": 1721,
      "iticalĠ": 1722,
      "à¥Ģà¤Ĥ": 1723,
      "à¥ģà¤µ": 1724,
      "à¤Ĥà¤§": 1725,
      "à¤®à¤¾à¤¨": 1726,
      "Ġà¤µà¤°à¥įà¤·": 1727,
      "Ġà¤Ĩà¤¹": 1728,
      "esp": 1729,
      "Ġà¤¤à¤ķ": 1730,
      "ationsĠ": 1731,
      "control": 1732,
      "gener": 1733,
      "à¤¿à¤Ĥà¤¦": 1734,
      "religi": 1735,
      "SouthĠAsi": 1736,
      "primeĠminister": 1737,
      "cordingĠ": 1738,
      "politicalĠ": 1739,
      "EmpireĠ": 1740,
      "periodĠ": 1741,
      "Comp": 1742,
      "peopleĠ": 1743,
      "ies,Ġ": 1744,
      "lin": 1745,
      "mon": 1746,
      "nat": 1747,
      "roc": 1748,
      "sch": 1749,
      "à¥©": 1750,
      "à¤¾à¤¶": 1751,
      "ank": 1752,
      "à¤¿à¤°à¥įà¤®": 1753,
      "alis": 1754,
      "dire": 1755,
      "à¥ĩĠà¤²": 1756,
      "à¥ģà¤ķ": 1757,
      "à¥ģà¤¦à¥įà¤§": 1758,
      "à°¦à±įà°°": 1759,
      "à¤¦à¥įà¤¯": 1760,
      "olv": 1761,
      "ularĠ": 1762,
      "Ġà¤Ĩà¤²": 1763,
      "byĠtheĠ": 1764,
      "IndianĠsubcontin": 1765,
      "agric": 1766,
      "à¤¾à¤¸à¥Ĥà¤¨": 1767,
      "ack": 1768,
      "Ġà¤ķà¥ĩĠà¤¸": 1769,
      "earlyĠ": 1770,
      "à¤¶à¤¿à¤¯": 1771,
      "medi": 1772,
      "domin": 1773,
      "à¤¿à¤¹à¤¾à¤¸": 1774,
      "publicĠ": 1775,
      "à¤¶à¥įà¤ļà¤¿à¤®": 1776,
      "agricult": 1777,
      "\"Ġ": 1778,
      "Jan": 1779,
      "aj": 1780,
      "bir": 1781,
      "mov": 1782,
      "ood": 1783,
      "tech": 1784,
      "ĠtoĠ": 1785,
      "Ġà¤ı": 1786,
      "à¤¾Ġà¤Ķà¤°": 1787,
      "à¤¾à¤°à¤£": 1788,
      "à¤¹à¤°": 1789,
      "Ġà¤ªà¥ģà¤°": 1790,
      "Ġà¤¹à¥ģà¤": 1791,
      "ementĠ": 1792,
      "Ġà¤µà¥ĩà¤": 1793,
      "à¥Ĥà¤®": 1794,
      "es.Ġ": 1795,
      "ageĠ": 1796,
      "à¥ĩĠà¤Ĩà¤¹à¥ĩ.": 1797,
      "region": 1798,
      "à¤¿à¤Ĥà¤§": 1799,
      "Hinduism": 1800,
      "à°¿à°¸à±įà°¤à°¾à°¨": 1801,
      "à¥ĥà¤·à¥įà¤ł": 1802,
      "majorityĠ": 1803,
      "culture": 1804,
      "classicalĠ": 1805,
      "ribut": 1806,
      "influenc": 1807,
      "owever,Ġ": 1808,
      "8Ġ": 1809,
      "Plat": 1810,
      "dayĠ": 1811,
      "nedĠ": 1812,
      "tur": 1813,
      "à°¾à°ĸ": 1814,
      "yĠofĠ": 1815,
      "à¥ĩĠà¤¶": 1816,
      "à¥ĩĠà¤¹à¥Ī": 1817,
      "à°°à°¿à°¹": 1818,
      "à¥Ģà¤µ": 1819,
      "à°¾à°²à°¤": 1820,
      "à°¦à°¾à°°": 1821,
      ",Ġà°¸": 1822,
      "Ġà¤®à¤¾à¤¨": 1823,
      "à°®à±ģĠà°": 1824,
      "amongĠ": 1825,
      "righ": 1826,
      "à°°à±įà°²": 1827,
      "chang": 1828,
      "Ġà°µà±įà°¯à°µà°¸à±įà°¥": 1829,
      "à¤¾à¤®à¤¾à¤¨": 1830,
      "à°Ĥà°Ĺà±įà°²": 1831,
      "à¥ĭà¤¬": 1832,
      "Ġà¤ªà¥įà¤°à¤¾à¤ļà¥Ģà¤¨": 1833,
      "mathem": 1834,
      "Ġà¤¶à¤¿à¤ķà¥įà¤·à¤£": 1835,
      "cook": 1836,
      "īà°¨à±įà°¨à°¾à°¯à°¿.": 1837,
      "Ġà¤µà¤¿à¤µà¤¿à¤§": 1838,
      "trans": 1839,
      "scri": 1840,
      "Ġà°¦à±įà°µ": 1841,
      "à°¤à±įà°¤à°°": 1842,
      "à±ģà°ķà±ģà°Ĥà°Ł": 1843,
      "à±ĩà°Ĥà°¦à±įà°°": 1844,
      "à°°à°¿à°¹à°¦à±įà°¦": 1845,
      "mathemat": 1846,
      "40": 1847,
      "BJ": 1848,
      "Del": 1849,
      "En": 1850,
      "GangesĠ": 1851,
      "bas": 1852,
      "cru": 1853,
      "eth": 1854,
      "loc": 1855,
      "mad": 1856,
      "¬à±įà°°": 1857,
      "°à°¾à°·à±įà°Łà±įà°°": 1858,
      "µà°ļà±įà°ļ": 1859,
      "à°¥": 1860,
      "Ġà¤ĸ": 1861,
      "Ġà°¸à±įà°¥à°¾à°¨": 1862,
      "à°¾à°¸à±įà°¤": 1863,
      "inv": 1864,
      "à±ģà°®": 1865,
      "à°Ĥ:": 1866,
      "à¤¾Ġà¤¬": 1867,
      "alsĠ": 1868,
      "orig": 1869,
      "edĠwithĠ": 1870,
      ".ĠIndiaĠ": 1871,
      "à¥ĩà¤¸": 1872,
      "à°²à°¿à°Ĺ": 1873,
      "à°°à±ģà°µà°¾à°¤": 1874,
      "à±ĭà°°à±įà°": 1875,
      "à°ķà±Ģà°¯": 1876,
      "à°ķà±įà°°à°®": 1877,
      "à¥ģà¤¦à¥įà¤°": 1878,
      "à±Ģ;": 1879,
      "ureĠ": 1880,
      "à°¿Ġà°®": 1881,
      "à±įà°¯à°§à°¿à°ķ": 1882,
      "à°µà°¾à°£": 1883,
      "à±Ĩà°¨": 1884,
      "198": 1885,
      "à°ĤĠà°ļ": 1886,
      "à°Łà°¿à°ķ": 1887,
      "à°¿à°¨à°¿à°®": 1888,
      "à°°à±įà°§": 1889,
      "ago": 1890,
      "Ġà°µà°ļà±įà°ļ": 1891,
      "Ġà°ķà°¾à°²": 1892,
      "à°Ĥà°Ĺà°¾": 1893,
      "à°Ĥà°Ĺà°¾à°²": 1894,
      "à°Ĥà°Ĺà±Ģà°¤": 1895,
      "à¤¾à¤¸à¤¨": 1896,
      "export": 1897,
      "Ġà¤ªà¥įà¤°à¤ķà¤¾à¤°": 1898,
      "Ńà°¾à°°à°¤à°¦à±ĩà°¶à°Ĥà°²à±ĭĠà°": 1899,
      "Ġà°®à°§à±įà°¯": 1900,
      "Ġà¤ĩà¤Ĥà¤¡": 1901,
      "à¥įà¤¥à¤¾à¤¨": 1902,
      "coast": 1903,
      "à°¾à°ľà°ķà±Ģà°¯": 1904,
      "à¤¾Ġà¤¸à¤®": 1905,
      "à¤¦à¥įà¤¦": 1906,
      "languageĠ": 1907,
      "à°¾à°¬à±įà°¦": 1908,
      "à±Įà°ķ": 1909,
      "İà°¨à±įà°¨à±ĭĠà°": 1910,
      "yearsĠago": 1911,
      "oughtĠ": 1912,
      "à¥ĩà¤Ĥà¤¦à¥įà¤°": 1913,
      "riverĠ": 1914,
      "BJP": 1915,
      "à°¾à°¸à±įà°¤à±įà°°": 1916,
      "EastĠ": 1917,
      "car": 1918,
      "e.Ġ": 1919,
      "pen": 1920,
      "ruralĠ": 1921,
      "sett": 1922,
      "ta": 1923,
      "wom": 1924,
      "ĵà¤Ĥ": 1925,
      "thir": 1926,
      "à¤¾Ġà¤°": 1927,
      "à¤¾Ġà¤¶": 1928,
      "à¤¾Ġà¤ĩ": 1929,
      "atesĠ": 1930,
      "à¤¸à¤Ń": 1931,
      "à¤¸à¥ĩà¤ļ": 1932,
      "outĠ": 1933,
      "Ġà¤ªà¥ĥà¤·à¥įà¤ł": 1934,
      "thĠandĠ": 1935,
      "emoc": 1936,
      "amm": 1937,
      "à¥Īà¤²": 1938,
      "à¥įà¤¤à¤¾à¤¨": 1939,
      "Ġà¤¯à¤¹": 1940,
      "ritor": 1941,
      "term": 1942,
      "terĠtheĠ": 1943,
      "Ġbec": 1944,
      "à¤¿à¤¨à¥įà¤¦": 1945,
      "government": 1946,
      ".ĠItsĠ": 1947,
      "soci": 1948,
      "Ġà¤¸à¥įà¤¥à¤¾à¤ª": 1949,
      "Constitut": 1950,
      "depend": 1951,
      "direct": 1952,
      "%)": 1953,
      "-largestĠ": 1954,
      ".7": 1955,
      "Mo": 1956,
      "dam": 1957,
      "hig": 1958,
      "hru": 1959,
      "longĠ": 1960,
      "taĠ": 1961,
      "Ġ\"": 1962,
      "Ġà¤Ī": 1963,
      "à¥įà¤§": 1964,
      "à¥įà¤¸": 1965,
      "erc": 1966,
      ".ĠByĠ": 1967,
      "à¥ĩà¤ľ": 1968,
      "ofĠIndiaĠ": 1969,
      "à¥ģà¤®": 1970,
      "à¥ģà¤ª": 1971,
      "ingĠaĠ": 1972,
      "à¤¦à¤¾à¤°": 1973,
      "Ġà¤¹à¤¿à¤®à¤¾à¤²à¤¯": 1974,
      "Ġà¤¹à¤¿à¤Ĥà¤¦": 1975,
      "à¤µà¤¾à¤®à¤¾à¤¨": 1976,
      "India,ĠtheĠ": 1977,
      "00ĠBCE": 1978,
      "ident": 1979,
      "partĠ": 1980,
      "anceĠ": 1981,
      "à¤Ĥà¤Ĺà¤¾à¤²": 1982,
      "aint": 1983,
      ".ĠAf": 1984,
      "partyĠ": 1985,
      "à¥ģà¤¸à¤¾à¤°": 1986,
      "underĠ": 1987,
      "Ġà¤Łà¤ķà¥įà¤ķ": 1988,
      "occup": 1989,
      "parliamentaryĠ": 1990,
      "IndusĠ": 1991,
      "CentralĠ": 1992,
      "Nehru": 1993,
      "EuropeanĠ": 1994,
      "),": 1995,
      "62": 1996,
      "West": 1997,
      "cur": 1998,
      "y.": 1999,
      "¬à°¹": 2000,
      "Ĺà°²": 2001,
      "à¤¾à¤ĸ": 2002,
      "sĠwereĠ": 2003,
      "ensu": 2004,
      "à¤¸à¤®": 2005,
      "à¤¸à¥įà¤µ": 2006,
      "Ġà¤¸à¥įà¤µ": 2007,
      "Ġà¤¸à¤°à¤ķà¤¾à¤°": 2008,
      "Ġà¤®à¥ĭ": 2009,
      "Ġà¤®à¥įà¤¹à¤£": 2010,
      "à¤¾à¤Ĥà¤§": 2011,
      "raph": 2012,
      "à°°à±įà°¥": 2013,
      "sum": 2014,
      "whoĠ": 2015,
      "Ġà¤ľà¤¨": 2016,
      "Ġ(à¤": 2017,
      "contribut": 2018,
      "centralĠ": 2019,
      "à¥ĩà¤ķà¤¡": 2020,
      "2011Ġ": 2021,
      "à¥Įà¤¦à¥įà¤§": 2022,
      "ketĠ": 2023,
      "à¤¾à¤¹à¤¿à¤¤à¥įà¤¯": 2024,
      "),Ġ": 2025,
      "Jain": 2026,
      "dsĠ": 2027,
      "dra": 2028,
      "eyĠ": 2029,
      "eig": 2030,
      "ryĠ": 2031,
      "secon": 2032,
      "®à°¤": 2033,
      "ħà¤¨": 2034,
      "à°«": 2035,
      "Ġà°¸à±įà°µ": 2036,
      "à°¾à°³": 2037,
      "à°¿à°Ĥà°§": 2038,
      "à±ģ.Ġà°": 2039,
      "à°¿à°ľ": 2040,
      "div": 2041,
      "à¥ĩĠà¤ī": 2042,
      "edĠandĠ": 2043,
      ".ĠIndiaĠhasĠ": 2044,
      "à°²à±įà°²": 2045,
      "aĠm": 2046,
      "à°°à°¿à°ķ": 2047,
      "ions,Ġ": 2048,
      "ic,Ġ": 2049,
      "à°¾à°²à°¨": 2050,
      "à±Ģà°°": 2051,
      "à±Ģà°ª": 2052,
      "à±įà°¯à°ĤĠà°": 2053,
      "à¥Īà¤ķ": 2054,
      "à°Łà±įà°²": 2055,
      "ess": 2056,
      "à°¹à°¦à°¾à°°": 2057,
      "Ġà¤īà¤¤à¥įà¤¤à¤°": 2058,
      "µà°¿à°§": 2059,
      "economyĠ": 2060,
      "à¤¬à¤¸": 2061,
      "à¤¿à¤¸à¥įà¤¤à¤¾à¤¨": 2062,
      "decad": 2063,
      "Ġà°Ńà°¾à°Ĺ": 2064,
      "thĠcenturyĠ": 2065,
      "Ĵà°ķà°Ł": 2066,
      "diversityĠ": 2067,
      "grewĠ": 2068,
      "Engl": 2069,
      "%,Ġ": 2070,
      ")ĠandĠ": 2071,
      "1,": 2072,
      "AĠ": 2073,
      "ach": 2074,
      "can": 2075,
      "e.ĠTheĠ": 2076,
      "king": 2077,
      "oin": 2078,
      "t,Ġ": 2079,
      "¢à°¿à°²à±įà°²": 2080,
      "¨à±ģ": 2081,
      "¨à°¡": 2082,
      "°à±Ī": 2083,
      "µà°²": 2084,
      "Â°": 2085,
      "Ġ7": 2086,
      "ħà°§à°¿à°ķà°¾à°°": 2087,
      "ĩà°µ": 2088,
      "ķà±Ĭ": 2089,
      "Ńà°¿à°¨à±įà°¨": 2090,
      "à¥®": 2091,
      "Ġà°²à±ĭĠà°": 2092,
      "à¤¾à¤ĵà¤Ĥ": 2093,
      "à°¾à°¡": 2094,
      "ins": 2095,
      "à±ģà°°": 2096,
      "à±ģà°Ł": 2097,
      "à¤¤à¤¿à¤¶": 2098,
      "à°¿à°·": 2099,
      "à°¿à°¸": 2100,
      "endĠ": 2101,
      "al,Ġ": 2102,
      "à¥ĩĠà¤ĸ": 2103,
      "à¥ĢĠà¤Ĺ": 2104,
      "à°¤à°Ĥà°¤à±įà°°": 2105,
      "à°²à±įà°µ": 2106,
      "à°°à±į": 2107,
      "à±ĩà°¨": 2108,
      "à±ĭà°¡": 2109,
      "à¥Ģà¤¸": 2110,
      "Ġà¤ķà¥ĢĠà¤¸": 2111,
      "à°ķà°¾à°°": 2112,
      "à°ķà°¾à°²": 2113,
      "à¤¨à¥ĩĠà¤ķ": 2114,
      "à°¦à°²": 2115,
      "à±ĢĠà°¸": 2116,
      "inĠIndiaĠ": 2117,
      "inĠIndia": 2118,
      "à°®à±ģà°": 2119,
      "à°¿Ġà°ļà±Ĩà°Ĥà°¦": 2120,
      "à¤°à¥įà¤ľ": 2121,
      "à°µà°°": 2122,
      "¸à±įà°ķà±ĥà°¤": 2123,
      "à°¾Ġà°µ": 2124,
      "ild": 2125,
      "emp": 2126,
      "à±Ĩà°Ł": 2127,
      "à±Ĩà°²à±ģ": 2128,
      "IndiaĠComp": 2129,
      "Ġà°ªà±įà°°à°¸à±įà°¤à±ģà°¤": 2130,
      "river": 2131,
      "forest": 2132,
      "à±Ĥà°ª": 2133,
      "à±Īà°Ł": 2134,
      "ernĠandĠ": 2135,
      "Ġà°ķà±įà°°à±Ģà°¡": 2136,
      "à¥Ĥà¤°à¥įà¤£": 2137,
      "Ġà°°à°µà°¾à°£": 2138,
      "¦à±ĩà°¶à°Ĥà°²à±ĭ": 2139,
      "à°Ĥà°¡à°¿Ġà°": 2140,
      "ancientĠ": 2141,
      "territor": 2142,
      "ound": 2143,
      "endem": 2144,
      "à°²à±ģĠà°¸": 2145,
      "Ġà°ľà°¨": 2146,
      "à¥ģà¤°à¥Ĥ": 2147,
      "à±įâĢĮà°¸": 2148,
      "à°¿à°ªà°¿à°Ĥà°ļ": 2149,
      "ourĠ": 2150,
      "Ġà°ħà°§à°¿à°ķà°¾à°°": 2151,
      "à°Ĥ,Ġà°ķ": 2152,
      "à°Łà±įà°Łà°£": 2153,
      "includeĠtheĠ": 2154,
      "à°¾à°¬à°¾à°¦": 2155,
      "à¥ĢĠà¤Ĩà¤¹à¥ĩ.": 2156,
      "theyĠ": 2157,
      "populationĠ": 2158,
      "à¥ĩĠà¤Ńà¤¾à¤°à¤¤à¥Ģà¤¯": 2159,
      "produc": 2160,
      "eciallyĠ": 2161,
      "ħà°¤à±įà°¯à°§à°¿à°ķ": 2162,
      "UnitedĠ": 2163,
      "à¤¾à¤ķà¤¿à¤¸à¥įà¤¤à¤¾à¤¨": 2164,
      "easternĠ": 2165,
      "à°ªà±įà°ªà°Łà°¿à°ķ": 2166,
      "generalĠelection": 2167,
      "à±ģà°ķà±ĭà°µ": 2168,
      "ıà°°à±įà°ªà°¡": 2169,
      "especiallyĠ": 2170,
      "à¤¿à¤Ĥà¤§à¥Ĥ": 2171,
      "¬à±įà°°à°¿à°Ł": 2172,
      "origin": 2173,
      "à±ĭà°°à±įà°Ł": 2174,
      "EastĠIndiaĠComp": 2175,
      "penins": 2176,
      "womenĠ": 2177,
      "à°®à±ģà°ĸ": 2178,
      "..": 2179,
      "15": 2180,
      "Ara": 2181,
      "NationalĠ": 2182,
      "St": 2183,
      "cu": 2184,
      "fig": 2185,
      "hat": 2186,
      "hea": 2187,
      "iedĠ": 2188,
      "ledĠ": 2189,
      "lam": 2190,
      "oy": 2191,
      "paint": 2192,
      "raĠ": 2193,
      "sultan": 2194,
      "tu": 2195,
      "ani": 2196,
      "ers,Ġ": 2197,
      "à¤¿à¤ª": 2198,
      "à¤¾Ġà¤¤": 2199,
      "edĠforĠ": 2200,
      "itt": 2201,
      "icsĠ": 2202,
      "Ġà¤®à¥ĭà¤ł": 2203,
      "à¤µà¤³": 2204,
      "old": 2205,
      "à¤¾à¤Ĥà¤¸": 2206,
      "plain": 2207,
      "Ġà¥«": 2208,
      "à¤¡à¤²": 2209,
      "ĠbillionĠ": 2210,
      "regionalĠ": 2211,
      "sequ": 2212,
      "à¤Ńà¤¾à¤°à¤¤à¥Ģà¤¯": 2213,
      "lifeĠ": 2214,
      "thisĠtim": 2215,
      "viol": 2216,
      ".ĠDur": 2217,
      "beganĠtoĠ": 2218,
      "literac": 2219,
      "Andam": 2220,
      "Islam": 2221,
      "MuslimĠ": 2222,
      "createdĠ": 2223,
      "religiousĠ": 2224,
      "technolog": 2225,
      "partĠofĠtheĠ": 2226,
      "CentralĠAsi": 2227,
      "13": 2228,
      "Al": 2229,
      "Hindi": 2230,
      "South": 2231,
      "as,Ġ": 2232,
      "bre": 2233,
      "censu": 2234,
      "ew": 2235,
      "fect": 2236,
      "if": 2237,
      "lĠ": 2238,
      "mus": 2239,
      "so": 2240,
      "well": 2241,
      "als,Ġ": 2242,
      "artĠ": 2243,
      "stri": 2244,
      "à¥ĩà¤®": 2245,
      "Ġà¤ķà¥įà¤·à¥ĩà¤¤à¥įà¤°": 2246,
      "Ġà¤ªà¤¦": 2247,
      "Ġà¤®à¤¿à¤³": 2248,
      "à¤Ĥà¤¸": 2249,
      "à¤Ĥà¤ĸ": 2250,
      "ameĠtheĠ": 2251,
      "ulpt": 2252,
      "administ": 2253,
      "hasĠbeenĠ": 2254,
      "à¥ĢĠà¤¸à¤®": 2255,
      "Ġà¤Ĺà¤£": 2256,
      "marri": 2257,
      "à¥ĩà¤ķà¥įà¤·": 2258,
      "à¥ĩĠà¤Ĩà¤¹à¥ĩà¤¤.": 2259,
      "lowĠ": 2260,
      "Ġà¤µà¤¿à¤¦à¥įà¤¯": 2261,
      "Ġà¤¹à¥Īà¤Ĥà¥¤": 2262,
      "Ġà¤ķà¤°à¤£": 2263,
      "sculpt": 2264,
      "à°®à±ģà°¦à±įà°°": 2265,
      "à¥ĩĠà¤ħà¤¸": 2266,
      "à¥ĩĠà¤ľà¤¾à¤¤": 2267,
      "compos": 2268,
      "growthĠ": 2269,
      "support": 2270,
      "à¤¾à¤§à¤¿à¤ķ": 2271,
      "à¤¾Ġà¤ľà¤¾à¤¤à¥ĭ.": 2272,
      "noĠlong": 2273,
      "IndianĠsubcontinentĠ": 2274,
      "highĠ": 2275,
      "16": 2276,
      "Per": 2277,
      "Tam": 2278,
      "bi": 2279,
      "dedĠ": 2280,
      "e,ĠandĠ": 2281,
      "educ": 2282,
      "hel": 2283,
      "man": 2284,
      "ļà±Īà°¨": 2285,
      "à¤¾à¤±": 2286,
      "thereĠ": 2287,
      "antsĠ": 2288,
      "inn": 2289,
      "à¥Ģà¥¤": 2290,
      "à¤¿à¤ı": 2291,
      "stateĠ": 2292,
      "à¥įà¤¯à¤¾à¤Ĥà¤ļ": 2293,
      "à¥ĢĠà¤ªà¥įà¤°": 2294,
      "off": 2295,
      "à°¾à°²à±ĭĠà°": 2296,
      "out": 2297,
      "Ġà¤ªà¤¾à¤°": 2298,
      "à°®à±ģà°²": 2299,
      "à¤µà¤¸à¥įà¤¥": 2300,
      "Ġà¤µà¥įà¤¯": 2301,
      "à¥įà¤¯à¤¾Ġà¤¸": 2302,
      "à¥Ĥà¤¹": 2303,
      "à¥įà¤¤à¤°": 2304,
      "Ġà°¸à°¾à°®": 2305,
      "isticĠ": 2306,
      "ossĠ": 2307,
      ".ĠAĠ": 2308,
      "à¥ĢĠà¤µà¤°à¥įà¤·": 2309,
      "à¤¾à¤¤à¥Ģà¤²Ġà¤¸à¤°à¥įà¤µ": 2310,
      "eftĠ": 2311,
      "à¥įà¤²à¤¾à¤®": 2312,
      "ograph": 2313,
      "becomeĠ": 2314,
      "press": 2315,
      "defin": 2316,
      "Sikh": 2317,
      "EnglishĠ": 2318,
      "Persi": 2319,
      "2,": 2320,
      "ai": 2321,
      "ath": 2322,
      "cap": 2323,
      "edi": 2324,
      "great": 2325,
      "kh": 2326,
      "o,Ġ": 2327,
      "prom": 2328,
      "ustĠ": 2329,
      "Ġ8": 2330,
      "ħà°¨à±ĩ": 2331,
      "īà°Ĥà°¡": 2332,
      "īà°¤à±įà°¤à°°": 2333,
      "à°ĸ": 2334,
      "Ġà°¹à°¿à°Ĥà°¦à±Ĥ": 2335,
      "à¥įà¤ŀ": 2336,
      "à±įà°ķ": 2337,
      "à¤¤à¤¿à¤¹à¤¾à¤¸": 2338,
      "à¤¾Ġà¤ļ": 2339,
      ".Ġà¥§à¥¯à¥": 2340,
      "aĠre": 2341,
      "IndiansĠ": 2342,
      "Ġà°ªà°¾à°ķ": 2343,
      "à¤ķà¤°": 2344,
      "à¤ķà¥įà¤°à¤®": 2345,
      "à±Ģà°Ł": 2346,
      "à±Ģà°°à±įà°£": 2347,
      "oup": 2348,
      "ouldĠ": 2349,
      ",Ġà°®": 2350,
      "urtherĠ": 2351,
      "esĠareĠ": 2352,
      "à¤®à¥ģà¤ĸ": 2353,
      "Ġà¤¹à¤¿à¤¨à¥įà¤¦": 2354,
      "Ġà¤ħà¤°": 2355,
      "Ġà¤ħà¤Ń": 2356,
      "liv": 2357,
      "à¤ªà¤¨": 2358,
      "âĢį": 2359,
      "opp": 2360,
      "ivedĠ": 2361,
      "ivesĠ": 2362,
      "ivil": 2363,
      "Ġà¤¤à¤°": 2364,
      "à¥ĭà¤ļ": 2365,
      "earli": 2366,
      "adv": 2367,
      "Ġà¤¯à¥ĩà¤¤": 2368,
      "Ńà°¾à°°à°¤à°¦à±ĩà°¶à°ĤĠà°": 2369,
      "compl": 2370,
      "à¤¾à¤ªà¥įà¤¤": 2371,
      "formĠofĠ": 2372,
      ".ĠAl": 2373,
      "µà°¿à°µà°¿à°§": 2374,
      "Ġà°¦à±ĩà°¶à°Ĥ": 2375,
      "à¤¾à¤³à¤¾à¤¤": 2376,
      "HinduĠ": 2377,
      "¸à±įà°µà°¾à°®": 2378,
      "nific": 2379,
      ",ĠwhichĠisĠ": 2380,
      "suchĠasĠtheĠ": 2381,
      "à¥ĩĠà¤¨à¤¾à¤µ": 2382,
      "à¤¾à¤¸à¥įà¤¤à¥įà¤°": 2383,
      "surv": 2384,
      "à¥ĩà¤¥à¥Ģà¤²": 2385,
      "à°¾à°¨à±įà°¨à°¿Ġà°": 2386,
      "%ĠandĠ": 2387,
      ".Ġà°ª": 2388,
      "3,": 2389,
      "airĠ": 2390,
      "bor": 2391,
      "ee": 2392,
      "gar": 2393,
      "pon": 2394,
      "tern": 2395,
      "ven": 2396,
      "¤à°¨": 2397,
      "ħà°¯à°¿à°¨": 2398,
      "ľà°¾à°¤à±Ģà°¯": 2399,
      "à¤ĺ": 2400,
      "à¥§": 2401,
      "à±įà°§": 2402,
      "à°¾à°¶": 2403,
      "à±ģ.": 2404,
      "à±ģà°¦": 2405,
      "à±ģà°Ĥà°¦à°¿.": 2406,
      "onlyĠ": 2407,
      "à°¿à°¸à±įà°": 2408,
      "à¤¾Ġà¤µà¤¿à¤": 2409,
      "à°¤à±įà°¸": 2410,
      "à°¤à°¾à°¬à±įà°¦": 2411,
      "à°²à°¤": 2412,
      "à°²à±įà°ª": 2413,
      "Ġà¤ķà¤²": 2414,
      "Ġà¤ķà¥ĩà¤Ĥà¤¦à¥įà¤°": 2415,
      "à°¾à°²à±įà°²à±ĭĠà°": 2416,
      "anĠandĠ": 2417,
      "inĠ202": 2418,
      "à°®à°Ĥà°¤à±įà°°": 2419,
      "à°®à°¿à°³": 2420,
      "à±įà°¯à°¾à°¯": 2421,
      "toĠaĠ": 2422,
      "à°Ĥà°¦à°¿à°¨": 2423,
      "à±Ĩà°¬": 2424,
      "à±Ĩà°Ĥà°Ĺà°¾à°²": 2425,
      "à¤¾à¤²à¥Ģà¤¨": 2426,
      "à¤¾à¤Ĥà¤¶": 2427,
      "Ġà°ªà±įà°°à°®à±ģà°ĸ": 2428,
      "à°ĤĠà°¸": 2429,
      "Ġà¤Ĩà¤£à¤¿": 2430,
      "essĠ": 2431,
      "elit": 2432,
      "à°°à±įà°·": 2433,
      "à°°à±įà°Ĺ": 2434,
      "00ĠCE": 2435,
      "eau": 2436,
      "Ġà°µà°Ĥà°Ł": 2437,
      "Ġà°µĠà°¶": 2438,
      "Ġà¤¤à¤®": 2439,
      "unionĠ": 2440,
      "à°¾à°¤à°Ĥà°¤à±įà°°": 2441,
      "Ġà¤ķà¥ĩĠà¤¬": 2442,
      "à±įà°²à°¨à±ģĠà°": 2443,
      "à±įà°µà°¹": 2444,
      "à°¾à°Ĥà°¡": 2445,
      "ederalĠ": 2446,
      "endang": 2447,
      "coalit": 2448,
      "mark": 2449,
      "formedĠaĠ": 2450,
      "worldĠ": 2451,
      "à±ģà°²à±ģĠ(": 2452,
      "à°ķà±įà°·à°°": 2453,
      "µà°¿à°¸à±įà°¤": 2454,
      "à±ģà°·": 2455,
      "Ġà°ľà°¾à°¬": 2456,
      "à¤¾à¤ļà¥įà¤¯à¤¾Ġà¤¸": 2457,
      "regionĠ": 2458,
      "bod": 2459,
      "à°Ńà°¾à°°à°¤à°¦à±ĩà°¶à°ĤĠà°": 2460,
      "®à±Ĭà°¤à±įà°¤": 2461,
      "à¤¾Ġà¤¹à¥ĭà¤¤": 2462,
      "overĠtheĠ": 2463,
      "commerc": 2464,
      "traditionalĠ": 2465,
      "à°¦à±įà°§à°¤": 2466,
      "à°·à±įà°Ł": 2467,
      "Ġà°°à±Īà°²à±įà°µ": 2468,
      "landsĠ": 2469,
      "à°¾à°§à°¿à°Ĥà°ļ": 2470,
      "à¥ĢĠà¤Ńà¤¾à¤°à¤¤à¥Ģà¤¯": 2471,
      "à¤¾Ġà¤Ĺà¤¯": 2472,
      "à±ĭĠà°ķà±Ĥà°¡à°¿à°¨": 2473,
      ",000ĠyearsĠago": 2474,
      "styl": 2475,
      "¨à°¿à°°à±įà°µà°¹": 2476,
      "Ġà°ªà±įà°°à°¤à°¿à°ª": 2477,
      "ľà°°à°¿à°Ĺà°¿à°¨": 2478,
      "species,Ġ": 2479,
      "Ġà¤ĩà¤¤à¤°": 2480,
      "numberĠofĠ": 2481,
      "GandhiĠ": 2482,
      "à°¿à°¦à±įà°§": 2483,
      "famil": 2484,
      "controlĠ": 2485,
      "kingdom": 2486,
      "¨à°¡à°¿à°ªà°¿à°Ĥà°ļ": 2487,
      "peninsularĠ": 2488,
      "Ġà°µĠà°¶à°¤à°¾à°¬à±įà°¦": 2489,
      "Ġà°ľà°¾à°¬à°¿à°¤": 2490,
      ",Ġà¤¸": 2491,
      "DP": 2492,
      "GDP": 2493,
      "Nor": 2494,
      "bel": 2495,
      "far": 2496,
      "hous": 2497,
      "kil": 2498,
      "okĠ": 2499,
      "pedĠ": 2500,
      "sit": 2501,
      "vastĠ": 2502,
      "yan": 2503,
      "yaĠ": 2504,
      "·à¤Ń": 2505,
      "á¹": 2506,
      "à¥įà¤Ľ": 2507,
      "anim": 2508,
      "ineĠ": 2509,
      "independ": 2510,
      "à¥įà¤¯à¤¾à¤¸": 2511,
      "à¥ĢĠà¤ĩ": 2512,
      "à¥ĢĠà¤ī": 2513,
      "aĠandĠtheĠ": 2514,
      "à¤¾à¤°à¤¾à¤·à¥įà¤Łà¥įà¤°": 2515,
      "ity,Ġ": 2516,
      "ict": 2517,
      "ingsĠofĠ": 2518,
      "à¤²à¤¾Ġà¤ľà¤¾à¤¤à¥ĭ.": 2519,
      "ecut": 2520,
      "entlyĠ": 2521,
      "emper": 2522,
      "à¤¾à¤Ĥà¤Ĺ": 2523,
      "à¤ªà¤²": 2524,
      "execut": 2525,
      "à¥ĭà¤Ł": 2526,
      "Ġà¤¬à¤Ĥà¤Ĺà¤¾à¤²": 2527,
      "establ": 2528,
      "proc": 2529,
      "à¤ķà¥įà¤·à¤£": 2530,
      "Ġà¤µà¤¿à¤¶": 2531,
      "otect": 2532,
      "à¥Ģà¤ļà¥įà¤¯à¤¾Ġà¤": 2533,
      "mentĠofĠ": 2534,
      "subsequ": 2535,
      "Ġà¤ļà¤¿à¤¤à¥įà¤°à¤ªà¤Ł": 2536,
      "Ġ199": 2537,
      "Ġà¤ĩà¤¸à¥įà¤²à¤¾à¤®": 2538,
      "Empire": 2539,
      "à¤°à¥įà¤¥à¤¿à¤ķ": 2540,
      "eastĠAsi": 2541,
      "Buddhism": 2542,
      "à¤Ĥà¤Ĺà¥įà¤°à¤ľ": 2543,
      "mid-": 2544,
      "BengalĠ": 2545,
      "nowĠ": 2546,
      "à¤°à¥įà¤¯à¤Ĥà¤¤": 2547,
      "officialĠ": 2548,
      "Ġà¤ĩà¤Ĥà¤¡à¤¿à¤¯": 2549,
      "SoutheastĠAsi": 2550,
      "Ġà¤µà¤¿à¤¦à¥įà¤¯à¤¾à¤°à¥įà¤¥": 2551,
      "noĠlongerĠ": 2552,
      "kilomet": 2553,
      "establish": 2554,
      "46": 2555,
      "Gre": 2556,
      "Raj": 2557,
      "cĠ": 2558,
      "feat": 2559,
      "ge": 2560,
      "ip": 2561,
      "iallyĠ": 2562,
      "ost": 2563,
      "pay": 2564,
      "redĠ": 2565,
      "sol": 2566,
      "s;Ġ": 2567,
      "var": 2568,
      "vari": 2569,
      "wonĠ": 2570,
      "ĵà¤³": 2571,
      "Ġà¤¡": 2572,
      "à¤¾à¤Ń": 2573,
      "ann": 2574,
      "an,Ġ": 2575,
      "sĠofĠtheĠ": 2576,
      "inter": 2577,
      "eringĠ": 2578,
      "à¤¿à¤§": 2579,
      "ar,Ġ": 2580,
      "à¥ĢĠà¤ĺ": 2581,
      ".ĠF": 2582,
      ".ĠIndia'sĠ": 2583,
      "InĠtheĠ": 2584,
      "à¥ĩà¤¹": 2585,
      "remain": 2586,
      "iteĠ": 2587,
      "à¥ĭà¤°": 2588,
      "ofĠwhichĠ": 2589,
      "à¤ķà¤²": 2590,
      "Ġà¤¸à¤¾à¤¹à¤¿à¤¤à¥įà¤¯": 2591,
      "à¤¦à¤¾à¤¹": 2592,
      "toĠitsĠ": 2593,
      "ionĠandĠ": 2594,
      "à¤¾à¤¨à¤Ĥà¤¤à¤°": 2595,
      "Ġà¤Ĩà¤ľ": 2596,
      "rah": 2597,
      "ownĠ": 2598,
      "elf": 2599,
      "Ġà¤Ńà¤¾à¤°à¤¤Ġà¤ķ": 2600,
      "Ġà¤Ńà¤¾à¤°à¤¤Ġà¤®à¥ĩà¤Ĥ": 2601,
      "oper": 2602,
      "ivelyĠ": 2603,
      "eak": 2604,
      "Ġà¤¤à¤¸à¥ĩà¤ļ": 2605,
      "à¥ĭà¤·": 2606,
      "Ġà¤¬à¤¦à¤²": 2607,
      "Ġà¤¬à¥Įà¤¦à¥įà¤§": 2608,
      "Ġà¤ľà¤¾à¤¤": 2609,
      "à¥įà¤µà¤¾à¤°": 2610,
      "à¤¶à¤ķ": 2611,
      "à¤Ĥà¤¤à¥ģ": 2612,
      "mak": 2613,
      "and,Ġ": 2614,
      "ainsĠ": 2615,
      "lowingĠ": 2616,
      "Ġà¤ķà¤°à¤¤": 2617,
      "à¥Ĥà¤°à¥įà¤µà¥Ģà¤ļ": 2618,
      "thĠcentury,Ġ": 2619,
      "à¥ģà¤¤à¥įà¤°": 2620,
      "ight": 2621,
      "moreĠthanĠ": 2622,
      ",000": 2623,
      "causedĠ": 2624,
      "à¤łà¤¾à¤°": 2625,
      "leadingĠ": 2626,
      "à¤§à¤¿à¤ķà¤¾à¤°": 2627,
      "middleĠ": 2628,
      "employ": 2629,
      "countryĠ": 2630,
      "DelhiĠ": 2631,
      "WesternĠ": 2632,
      "curr": 2633,
      "Jainism": 2634,
      "à¤ķà¥įà¤°à¤®à¤£": 2635,
      "ĵà¤³à¤ĸ": 2636,
      "à¤¦à¤¾à¤¹à¤°à¤£": 2637,
      "10": 2638,
      "2Ġ": 2639,
      "35": 2640,
      "3Ġ": 2641,
      "4%": 2642,
      "Bh": 2643,
      "Kash": 2644,
      "Sh": 2645,
      "a,ĠandĠ": 2646,
      "aver": 2647,
      "call": 2648,
      "de": 2649,
      "des": 2650,
      "e;Ġ": 2651,
      "ganis": 2652,
      "high": 2653,
      "however,Ġ": 2654,
      "i-": 2655,
      "iansĠ": 2656,
      "know": 2657,
      "leftĠ": 2658,
      "pur": 2659,
      "ren": 2660,
      "sm": 2661,
      "sing": 2662,
      "uj": 2663,
      "usĠ": 2664,
      "uaryĠ": 2665,
      "ľà°¨à°¾à°Ń": 2666,
      "à¤±": 2667,
      "à¤°à¥Ĥà¤ª": 2668,
      "aleĠ": 2669,
      "aroundĠ": 2670,
      "disp": 2671,
      "organis": 2672,
      "à¥ĢĠà¤ļ": 2673,
      "à¥ĢĠà¤Ŀà¤¾à¤²": 2674,
      ".ĠP": 2675,
      "alĠandĠ": 2676,
      "asĠtheĠ": 2677,
      "ingĠinĠ": 2678,
      "à¤Ĥà¤Ł": 2679,
      "à±įà°¯à°ĤĠà°ķ": 2680,
      "iss": 2681,
      "ilityĠ": 2682,
      "à¤µà¤°": 2683,
      "à¤¾à¤Ĥà¤µ": 2684,
      "1947": 2685,
      "Ġà¤ħà¤®": 2686,
      "à±Īà°Ĺà°¾Ġà°": 2687,
      "lief": 2688,
      "liber": 2689,
      "es.ĠTheĠ": 2690,
      "conduct": 2691,
      "à¥ģà¤Ĺ": 2692,
      "à¤¾à¤®à¤§à¥įà¤¯": 2693,
      "unt": 2694,
      "unit": 2695,
      "Ġà¤¬à¥įà¤°à¤¿à¤Łà¤¿à¤¶": 2696,
      "inct": 2697,
      "à¤¾à¤µà¤²": 2698,
      "play": 2699,
      "Ġ(à¤ª": 2700,
      "ally,Ġ": 2701,
      "à¥ĭà¤ĤĠà¤ķ": 2702,
      "à¥ĭà¤ĤĠà¤ķà¥ĭ": 2703,
      "s.ĠTh": 2704,
      "spre": 2705,
      "iesĠandĠ": 2706,
      "maryĠ": 2707,
      "Ġà¤²à¤¾à¤Ĺ": 2708,
      "īà°¨à±įà°¨Ġà°": 2709,
      "group": 2710,
      "2011": 2711,
      "a,ĠorĠ": 2712,
      "centuriesĠ": 2713,
      "Ġà°¦à±ĩà°¶à°¾à°²à°²à±ĭĠà°": 2714,
      "continu": 2715,
      ".ĠTheseĠ": 2716,
      "Ġà¤Ŀà¤¾à¤²à¥ĩà¤²": 2717,
      "à¤¤à¥įà¤¯à¥ĩà¤ķ": 2718,
      "à¥ĢĠà¤ħà¤¸": 2719,
      "polic": 2720,
      "butĠalsoĠ": 2721,
      "toĠbeĠtheĠ": 2722,
      "consid": 2723,
      "ĩà°¦à°¿Ġà°": 2724,
      "1991": 2725,
      "styleĠ": 2726,
      "Bengal": 2727,
      "à°ķà±ģĠà°ªà±Īà°Ĺà°¾Ġà°": 2728,
      "legis": 2729,
      "à¤¢à¤¼": 2730,
      "differ": 2731,
      "widelyĠ": 2732,
      "signific": 2733,
      "Ġà¤ķà¥ĩĠà¤¸à¤¾à¤¥": 2734,
      "JanuaryĠ": 2735,
      "à¥ģà¤ªà¥įà¤¤": 2736,
      "heldĠ": 2737,
      "earliestĠ": 2738,
      "Kashm": 2739,
      "disput": 2740,
      "36": 2741,
      "4ĠbillionĠ": 2742,
      "80": 2743,
      "Des": 2744,
      "Govern": 2745,
      "beĠ": 2746,
      "equ": 2747,
      "furtherĠ": 2748,
      "sec": 2749,
      "sid": 2750,
      "tri": 2751,
      "uct": 2752,
      "vill": 2753,
      "wa": 2754,
      "y.ĠTheĠ": 2755,
      "¸à¥įà¤¤": 2756,
      "ħà°§à°¿à°ķ": 2757,
      "ľà°¨": 2758,
      "Ńà±Ĥ": 2759,
      "Ńà¤¾à¤Ĺ": 2760,
      "Ġà¤Ľ": 2761,
      "à¥įà¤ĸ": 2762,
      "à±įà°Ĺ": 2763,
      "à°¾à°¦à±ĩà°¶": 2764,
      "à°¾à°¸à±įà°µà°¾à°®": 2765,
      "à±ģà°Łà±įà°Ł": 2766,
      "à°ĤĠ1": 2767,
      "eri": 2768,
      "à¤¤à¥įà¤°": 2769,
      "à¥ĢĠà¤Ķà¤°": 2770,
      "oftenĠ": 2771,
      "à°¨à±ģĠà°ª": 2772,
      "à°²Ġà°ķ": 2773,
      "à°°à±Ģ": 2774,
      "à±ĭà°¨": 2775,
      "à¥ĭà¤ª": 2776,
      "Ġà¤ķà¤¾à¤¹": 2777,
      "à°¾à°²à°¯": 2778,
      "à±Ģà°µ": 2779,
      "à¤¸à¥įà¤Ł": 2780,
      "Ġà¤¸à¤¿à¤Ĥà¤§à¥Ĥ": 2781,
      "à¤¾à¤¤.": 2782,
      "à¤¾à¤¤à¤Ĥà¤¤à¥įà¤°": 2783,
      ",Ġà°¬": 2784,
      "asĠaĠ": 2785,
      "Ġà¤ªà¤¹": 2786,
      "à¤Ĥà¤ķ": 2787,
      "esĠwereĠ": 2788,
      "à°®à±Ĩ": 2789,
      "à°¿Ġà°īà°Ĥà°¦à°¿.Ġà°": 2790,
      "entsĠ": 2791,
      "à¤µà¤¾à¤¦": 2792,
      "emberĠ": 2793,
      "IndiaĠfromĠ": 2794,
      "à°ªà°¾à°²": 2795,
      "à¤§à¤¾à¤°": 2796,
      "Ġà°ķà±ĭ": 2797,
      "Ġà°°à°¹à°¦à°¾à°°": 2798,
      "Ġà¥ª": 2799,
      "à°ķà±įà°¤": 2800,
      "Ńà°¾à°°à°¤à°¦à±ĩà°¶à°Ĥ": 2801,
      "à¤ļà¥įà¤Ľ": 2802,
      "·à¥įà¤£": 2803,
      "à¤Ĺà¥įà¤¨": 2804,
      "à°¾à°²à±ģ.Ġà°": 2805,
      "s.ĠIn": 2806,
      "à°Ĥà°¤à±ĭĠà°": 2807,
      "à°ķà±įà°·à°£": 2808,
      "à¤Łà¤¨": 2809,
      "Ġà¤¹à¥Īà¤Ĥ": 2810,
      "à±įà°ļà°¿à°®": 2811,
      "à±ģà°³": 2812,
      "industr": 2813,
      "struct": 2814,
      "à¥ĩĠà¤ªà¤°": 2815,
      "inĠ199": 2816,
      "à±į,Ġà°¬": 2817,
      "®à±Ĭà°¦à°Ł": 2818,
      "Ġà°īà°ª": 2819,
      "à¤¾à¤Łà¤ķ": 2820,
      "à°¶à±įà°ļà°¿à°®": 2821,
      "1965,Ġ": 2822,
      "Ġà°ªà±įà°°à°¾à°Ĥà°¤à°¾à°²à±ģĠà°": 2823,
      "à°¿à°¤à±įà°°à°ķ": 2824,
      "¦à°ķà±įà°·à°¿à°£à°¾à°¨": 2825,
      "à±ģà°ĸà±įà°¯à°®à±Īà°¨": 2826,
      "à¥ĥà¤·à¥įà¤Łà¥įà¤¯à¤¾Ġà¤": 2827,
      "à¥ĭà¤¡à¤¼": 2828,
      "Ġà°¦à±įà°µà±Ģà°ª": 2829,
      "literacyĠ": 2830,
      "Ġà°ªà°¾à°ķà°¿à°¸à±įà°¤à°¾à°¨": 2831,
      "à°¾à°¸à±įà°µà°¾à°®à±įà°¯": 2832,
      "-à°": 2833,
      ".âĢ": 2834,
      "4%Ġ": 2835,
      "7,": 2836,
      "Dra": 2837,
      "Ghat": 2838,
      "Pr": 2839,
      "bleĠ": 2840,
      "bianĠ": 2841,
      "creat": 2842,
      "c.âĢ": 2843,
      "d-largestĠ": 2844,
      "ly": 2845,
      "lad": 2846,
      "lastĠ": 2847,
      "not": 2848,
      "ool": 2849,
      "southĠ": 2850,
      "westĠ": 2851,
      "wild": 2852,
      "¤à°°à±ģà°µà°¾à°¤": 2853,
      "®à°¨": 2854,
      "°à°¾à°ľà±įà°¯": 2855,
      "°à±ĭà°¡": 2856,
      "²à°¾à°®": 2857,
      "µà°¤à±įà°¸": 2858,
      "ħà°µ": 2859,
      "Ĩà°§": 2860,
      "ĪĠà°ªà±ĩà°°": 2861,
      "Ĺà°¾à°Ĥ": 2862,
      "Ĺà°Ĥà°Ĺà°¾Ġà°": 2863,
      "ļà°¿à°¨à±įà°¨": 2864,
      "à¤ħ": 2865,
      "Ġà°ĸ": 2866,
      "Ġà°¸à±įà°¥": 2867,
      "Ġà°İà°¨à±įà°¨": 2868,
      "à±įĠà°ª": 2869,
      "à°¾Ġ": 2870,
      "à°¾Ġà°ªà°°": 2871,
      "à±įà°£": 2872,
      "à°¿:": 2873,
      "à°¿Ġ": 2874,
      "thre": 2875,
      "à±ģà°Ĥà°¦à°¿.Ġà°": 2876,
      "à±ģà°°à±įà°¤": 2877,
      "à°ĤĠà°ª": 2878,
      "ertĠ": 2879,
      ",ĠanĠ": 2880,
      "à¤¤à¤Ĥà¤¤à¥įà¤°": 2881,
      "ond": 2882,
      "à°¿à°¡": 2883,
      "à°¿à°¸à±įà°¥à°¾à°¨": 2884,
      "à¤¿à¤·à¥įà¤Ł": 2885,
      "area": 2886,
      "dianĠ": 2887,
      "aticĠ": 2888,
      "à°¤à±įà°°": 2889,
      "à°¤à°ķ": 2890,
      "à°²à°²à±ĭĠà°": 2891,
      "reform": 2892,
      "à°°à°¤": 2893,
      "à°°à°¾à°·à±įà°Łà±įà°°": 2894,
      "à°°à°¿à°¤à±įà°°": 2895,
      "à±ĩà°¤": 2896,
      "à±ĩ.Ġà°": 2897,
      "à±ĭà°²": 2898,
      "à±ĭà°¦": 2899,
      "à±ĭ,Ġà°": 2900,
      "à±ĭà°¯": 2901,
      "à±įà°°à°¾à°ľà±įà°¯": 2902,
      "à±įà°°à°¦à°¾à°¯": 2903,
      "Ġà°ªà±Ĩà°¦à±įà°¦": 2904,
      "Ġà°ªà°¦à±įà°§à°¤": 2905,
      "itect": 2906,
      "à°¾à°°à±įà°¯": 2907,
      "à°¾à°°à°¸": 2908,
      "à°¾à°°à°£": 2909,
      "à°¾à°²à°ķà±ģĠà°": 2910,
      "à°¾à°²Ġà°ľà°¾à°¬à°¿à°¤": 2911,
      "à°¦à°°": 2912,
      "à±Ģà°¸": 2913,
      "à±Ģà°·": 2914,
      "Ġà¤¸à¥ĩĠà¤": 2915,
      "à¤¹à¥ģà¤¤": 2916,
      "à±ģĠà°ķ": 2917,
      "eciesĠ": 2918,
      "à±ĩà°Ĺà°Ĥà°Ĺà°¾Ġà°": 2919,
      "Ġà¤®à¥ģà¤ĸà¥įà¤¯": 2920,
      "à¤Ĥà¤ľ": 2921,
      "à°®à±Ī": 2922,
      "à°®à±įà°®": 2923,
      "à±įà°¯à°¤": 2924,
      "à¤®à¥ĩà¤Ĥ": 2925,
      "ent,Ġ": 2926,
      "à¤µà¤²": 2927,
      "emb": 2928,
      "Ġà¤µà¥Īà¤¦": 2929,
      "olid": 2930,
      "à±Ĩà°¹": 2931,
      "à¥įà¤¯à¤¾Ġà¤¶": 2932,
      "à°ªà±Ĥ": 2933,
      "195": 2934,
      "Ġà¤ħà¤ľ": 2935,
      "fort": 2936,
      "forestĠ": 2937,
      "à±ĤĠà°ķ": 2938,
      "à±Ĥà°ļ": 2939,
      "à¤¾à¤ļà¥ĩĠà¤¸": 2940,
      "âĢ²": 2941,
      "à°¯à±ĭ": 2942,
      "à°°à±įà°ķà±Ĭ": 2943,
      "à°Ĺà°°": 2944,
      "Ġà°¸à°¾à°Ĥ": 2945,
      "Ġà°¸à°°à°¿à°¹à°¦à±įà°¦": 2946,
      "Ġà°¸à°Ĥà°Ĺà±Ģà°¤": 2947,
      "opicalĠ": 2948,
      "duallyĠ": 2949,
      "à°¾à°¯à°ķ": 2950,
      "Ġà°µà°¾à°¤": 2951,
      "Ġà°µà°¿à°§": 2952,
      "Ġà°ķà±Ĭ": 2953,
      "à¥Ģà¤¯Ġà¤¸": 2954,
      "à¥ĭà¤¯": 2955,
      "import": 2956,
      "Ġà¤¦à¥įà¤µà¥Ģà¤ª": 2957,
      "Ġà¤ªà¥įà¤°à¤ľà¤¾à¤¤": 2958,
      "Ġà¤ķà¥ĩĠà¤¦": 2959,
      "result": 2960,
      "estim": 2961,
      "Ńà°¾à°°à°¤à°¦à±ĩà°¶à°¾à°¨à°¿à°ķà°¿Ġà°": 2962,
      "à°¿à°Ĥà°ļà±ĩ": 2963,
      "à°¿à°Ĥà°ļà°¿à°Ĥà°¦à°¿.Ġ": 2964,
      "¦à±ĩà°¶à°¾à°²": 2965,
      "à°¹à°¾à°°": 2966,
      "Ġà°®à±Ĭ": 2967,
      "à°¾à°²à±ģà°Ĺ": 2968,
      "à°¾à°²à±ģà°Ĺà°¾Ġà°": 2969,
      "à¥įà¤¥à¤¾à¤ª": 2970,
      "Ġà¤Ĺà¤Ĥà¤Ĺ": 2971,
      "à°Ĥà°Łà±ĩ": 2972,
      "speciesĠ": 2973,
      "à±įĠà°¬": 2974,
      "à±įĠà°ħ": 2975,
      "à±įĠà°Ł": 2976,
      "à±įĠà°ĩà°Ĥà°¡": 2977,
      "à±ģà°¤à±ģà°¨à±įà°¨": 2978,
      "à°Ńà°¿à°µ": 2979,
      "marketĠ": 2980,
      "²à±ĭà°ķ": 2981,
      "wornĠ": 2982,
      "à±ģà°²à±ģ,Ġà°ª": 2983,
      "µà°¿à°¶": 2984,
      "tropicalĠ": 2985,
      "Ġà°ľà°¾à°¤à±Ģà°¯": 2986,
      "Ġà°ľà°¨à°¾à°Ń": 2987,
      "Ġà¤ħà¤¸à¤²à¥ĩà¤²": 2988,
      "Ġà°ħà°¯à°¿à°¨": 2989,
      "à¥ĢĠà¤ķà¥ĩà¤²": 2990,
      "à°Ĥ,Ġà°Ńà°¾à°°à°¤à±Ģà°¯": 2991,
      "à°¾à°¦à°¨": 2992,
      "à±ĥà°¦à±įà°§": 2993,
      "Ġà°¶à°¾à°¸à±įà°¤à±įà°°": 2994,
      "âĢĶĠ": 2995,
      "extens": 2996,
      "populationĠofĠ": 2997,
      "à¥ĢĠà¤®à¥ĩà¤Ĥ": 2998,
      ",Ġà°ªà°¾à°ķ": 2999,
      "Ġà°¸à°Ĥà°ĸà±įà°¯": 3000,
      "Ġà°¸à°Ĥà°¸à±įà°ķà±ĥà°¤": 3001,
      "raticĠ": 3002,
      "Ġà°ļà°°à°¿à°¤à±įà°°": 3003,
      "à°¾à°¸à±įà°¯à°¤": 3004,
      "®à±Ĭà°¦à°²": 3005,
      "south-": 3006,
      "southernĠ": 3007,
      "danceĠ": 3008,
      "Ġà¤ĩà¤¸à¤ķ": 3009,
      "µà¤¿à¤§à¤¾à¤¨": 3010,
      "à°·à±įà°£": 3011,
      "à¥ĩĠà¤¤à¤°": 3012,
      "185": 3013,
      "vidianĠ": 3014,
      "à¤°à¥įà¤¥à¤µà¥įà¤¯": 3015,
      "glob": 3016,
      "à°¾à°µà°°à°£": 3017,
      "Ġà°ªà±įà°°à°§à°¾à°¨à°®à°Ĥà°¤à±įà°°": 3018,
      "à°°à±įà°µà±Ģà°¸": 3019,
      "consolid": 3020,
      "à°ªà±įà°°à°¦à°¾à°¯": 3021,
      "à°¾Ġà°¸à±Įà°ķ": 3022,
      "Ġà°ªà±įà°°à°ľà°²": 3023,
      "à°¸à±įà°Ł": 3024,
      "à°¿à°¶à±įà°°à°®": 3025,
      "court": 3026,
      "à¤¾Ġà¤Ńà¤¾à¤Ĺ": 3027,
      "İà°ķà±įà°ķà±ģà°µà°Ĺà°¾Ġà°": 3028,
      "à°¾à°ļà±Ģà°¨": 3029,
      "architect": 3030,
      "à¤¦à¥įà¤¯à¥ĭà¤Ĺ": 3031,
      "olvedĠ": 3032,
      "Plateau": 3033,
      "tax": 3034,
      "emocraticĠ": 3035,
      "ĠbecameĠ": 3036,
      "societ": 3037,
      "Ġà¤¸à¥įà¤¥à¤¾à¤ªà¤¤à¥įà¤¯": 3038,
      "¢à°¿à°²à±įà°²à±Ģ": 3039,
      "à±ģà°°à±ģà°·": 3040,
      "à±ģà°Łà±ģà°Ĥà°¬": 3041,
      "à°²à±ģĠà°¸à°°à±įà°µà±Ģà°¸": 3042,
      "à°¾à°¬à°¾à°¦à±į": 3043,
      "à±ģà°ķà±ĭà°µà°¡": 3044,
      "¬à±įà°°à°¿à°Łà°¿à°·": 3045,
      "EastĠIndiaĠCompanyĠ": 3046,
      "createdĠaĠ": 3047,
      "endangeredĠ": 3048,
      "à°ķà±įà°·à°°à°¾à°¸à±įà°¯à°¤": 3049,
      "Ġà°µĠà°¶à°¤à°¾à°¬à±įà°¦à°ĤĠà°": 3050,
      "executiveĠ": 3051,
      "DravidianĠ": 3052,
      "c.âĢī": 3053,
      "à°¾à°°à°¸à°¤à±įà°µ": 3054,
      "Ġà°µà°¾à°¤à°¾à°µà°°à°£": 3055,
      "à°Ńà°¿à°µà±ĥà°¦à±įà°§": 3056,
      "à¤°à¥įà¤¥à¤µà¥įà¤¯à¤µà¤¸à¥įà¤¥": 3057,
      "à°¾Ġà°¸à±Įà°ķà°°à±įà°¯": 3058,
      ".9": 3059,
      "1200": 3060,
      "400ĠBCE": 3061,
      "700": 3062,
      "Bhar": 3063,
      "Brah": 3064,
      "Dec": 3065,
      "Gup": 3066,
      "a.": 3067,
      "adi": 3068,
      "e'sĠ": 3069,
      "e.ĠInĠ": 3070,
      "fact": 3071,
      "hy": 3072,
      "hisĠ": 3073,
      "hab": 3074,
      "put": 3075,
      "richĠ": 3076,
      "sil": 3077,
      "ub": 3078,
      "uch": 3079,
      "yanĠ": 3080,
      "¬à¤Ĥà¤§": 3081,
      "Ĺà¤³": 3082,
      "à¥ħ": 3083,
      "à¤¾à¤ĩ": 3084,
      "à¤¾à¤ı": 3085,
      "intr": 3086,
      ",ĠisĠ": 3087,
      "à¤¤à¥įà¤ķ": 3088,
      "enact": 3089,
      "à¤¿à¤ĸ": 3090,
      "à¤¾Ġà¤¥": 3091,
      "alongĠtheĠ": 3092,
      "edĠintoĠ": 3093,
      ".ĠC": 3094,
      ".ĠT": 3095,
      "à¥ĩà¤ª": 3096,
      "relat": 3097,
      "recor": 3098,
      "aĠnewĠ": 3099,
      "touch": 3100,
      "à¤¸à¤¾à¤¯": 3101,
      "Ġà¤¸à¤¾à¤²": 3102,
      "Ġà¤ªà¤¶à¥įà¤ļà¤¿à¤®": 3103,
      "à¤Ĥà¤¶": 3104,
      "à¤Ĥà¤ļ": 3105,
      "à¤¦à¥ĩà¤µ": 3106,
      "s,ĠorĠ": 3107,
      "IndiaĠintoĠ": 3108,
      "IndiaĠisĠtheĠ": 3109,
      "Ġà¤ħà¤¶": 3110,
      "lianceĠ": 3111,
      "à¥Ĥà¤²": 3112,
      "à¤ªà¤¤": 3113,
      "ernalĠ": 3114,
      "rac": 3115,
      "char": 3116,
      "à¤¾à¤®à¥ģà¤ĸ": 3117,
      "à¤¾à¤®à¥įà¤°à¤¾à¤ľà¥įà¤¯": 3118,
      "Ġà¤¨à¤¿à¤°à¥įà¤®": 3119,
      "Ġà¤ķà¥ĩĠà¤ª": 3120,
      "Ġà¤ķà¥ĩĠà¤²": 3121,
      "Ġà¤°à¤¹": 3122,
      "à¤¿à¤¤à¥įà¤¤": 3123,
      "usedĠinĠ": 3124,
      "withĠitsĠ": 3125,
      "à¤Ĺà¤¤": 3126,
      "protect": 3127,
      "à¤°à¥įà¤µà¤¤": 3128,
      "es,ĠandĠ": 3129,
      "enceĠofĠ": 3130,
      "clear": 3131,
      "ed,Ġ": 3132,
      "iveĠp": 3133,
      "Ġmi": 3134,
      "northĠ": 3135,
      "Ġà¤ħà¤¸à¤²": 3136,
      "externalĠ": 3137,
      "partit": 3138,
      "Ġà¤¹à¥ĭà¤¤à¥ĩ.": 3139,
      "antedĠ": 3140,
      "art,Ġ": 3141,
      "servedĠasĠ": 3142,
      "à¤¾Ġà¤®à¥ĩà¤Ĥ": 3143,
      "growingĠ": 3144,
      "Maur": 3145,
      "à¤Ĥà¤¦à¤¿à¤°": 3146,
      "indigen": 3147,
      "here": 3148,
      ";ĠandĠtheĠ": 3149,
      "Afric": 3150,
      "à¥ĢĠà¤¹à¥Īà¥¤": 3151,
      "millenniumĠ": 3152,
      "à¥Ģà¤Ĥà¤ļ": 3153,
      "rock": 3154,
      "movementĠ": 3155,
      "à¥ĩĠà¤¹à¥Īà¤Ĥà¥¤": 3156,
      ".ĠAfterĠtheĠ": 3157,
      "NehruĠ": 3158,
      "secondĠ": 3159,
      "à¤¤à¤¿à¤¶à¤¯": 3160,
      "sultanateĠ": 3161,
      "oldestĠ": 3162,
      ".ĠDuringĠ": 3163,
      "technologyĠ": 3164,
      "greaterĠ": 3165,
      "animalĠ": 3166,
      "Gree": 3167,
      "featuresĠ": 3168,
      "intro": 3169,
      "100": 3170,
      "50Ġ": 3171,
      "70": 3172,
      ":ĠtheĠ": 3173,
      "Guj": 3174,
      "ManyĠ": 3175,
      "Vall": 3176,
      "ah": 3177,
      "bar": 3178,
      "ceĠ": 3179,
      "centĠ": 3180,
      "cep": 3181,
      "eirĠ": 3182,
      "hen": 3183,
      "hi,Ġ": 3184,
      "ly,Ġ": 3185,
      "nom": 3186,
      "nationalĠ": 3187,
      "oodĠ": 3188,
      "rang": 3189,
      "rossĠ": 3190,
      "sev": 3191,
      "saf": 3192,
      "trib": 3193,
      "wan": 3194,
      "writ": 3195,
      "xim": 3196,
      "y'sĠ": 3197,
      "¦à¥įà¤§": 3198,
      "ķà°²à°¿à°Ĺ": 3199,
      "ĺà¤²": 3200,
      "Ġà¤ĳ": 3201,
      "thoughtĠ": 3202,
      "inf": 3203,
      "er,Ġ": 3204,
      "theĠlargestĠ": 3205,
      "à¤¾Ġà¤ıà¤ķ": 3206,
      "att": 3207,
      "atingĠ": 3208,
      "ativeĠ": 3209,
      "à¥įà¤¯à¤¤": 3210,
      "à¥ĢĠà¤²": 3211,
      "à¥ĢĠà¤ıà¤ķ": 3212,
      "à¥ĩà¤¯": 3213,
      "reduc": 3214,
      "aĠd": 3215,
      "ion.": 3216,
      "ich": 3217,
      "à¤¨à¤¾à¤¡": 3218,
      "à¤¾à¤¤à¥Ĥà¤¨": 3219,
      "à¤¹à¥Ģà¤Ĥ": 3220,
      "asĠwell": 3221,
      "s,ĠandĠtheĠ": 3222,
      "ileĠ": 3223,
      "à¥įà¤¯à¤¾Ġà¤ªà¥įà¤°": 3224,
      "à¥Ĥà¤¦": 3225,
      "à¥Ĥà¤ļ": 3226,
      "ra,Ġ": 3227,
      "es.": 3228,
      "TheĠIndianĠ": 3229,
      "ofĠtheĠIndianĠ": 3230,
      "à¥ģà¤ľ": 3231,
      "à¥ģà¤ĺà¤²": 3232,
      "Ġà¤ªà¥įà¤°à¤¤à¥įà¤¯à¥ĩà¤ķ": 3233,
      "ablyĠ": 3234,
      "à¤¾à¤µà¤¾à¤ļ": 3235,
      "partĠofĠ": 3236,
      "prop": 3237,
      "speak": 3238,
      "Ġà¤¶à¤¹à¤°": 3239,
      "iesĠinĠtheĠ": 3240,
      "shar": 3241,
      "Ġà¤Ńà¤¾à¤Ĺ": 3242,
      "à¥ĩà¤¤à¥Ģà¤²": 3243,
      ".ĠAm": 3244,
      "à¥ĥà¤¤à¥įà¤¯": 3245,
      "à¥ģà¤°à¥ģà¤µ": 3246,
      "aksh": 3247,
      "appro": 3248,
      "Hindust": 3249,
      "becameĠtheĠ": 3250,
      "extantĠ": 3251,
      "inĠ1947": 3252,
      "systemĠofĠ": 3253,
      "mostĠpopul": 3254,
      "à¤¿à¤µà¤¸": 3255,
      ".ĠThisĠ": 3256,
      "à¥ĩĠà¤¹à¥ĭà¤¤": 3257,
      "religionsĠ": 3258,
      "poll": 3259,
      "à¥įà¤¯à¤¾à¤¤Ġà¤Ĩà¤²": 3260,
      "consist": 3261,
      "millenniumĠBCE": 3262,
      "provid": 3263,
      "ActĠ": 3264,
      "underĠtheĠ": 3265,
      "cordingĠtoĠtheĠ": 3266,
      "agriculturalĠ": 3267,
      "Ġà¤¹à¥ģà¤Ĩ": 3268,
      "thirdĠ": 3269,
      "IndusĠVall": 3270,
      "Ġà¤®à¥ĭà¤¹": 3271,
      "decadesĠ": 3272,
      "endĠofĠtheĠ": 3273,
      "TamilĠ": 3274,
      "offĠ": 3275,
      "capit": 3276,
      "ivilis": 3277,
      "Ġà¤µà¤¿à¤¶à¥įà¤µ": 3278,
      "operationĠ": 3279,
      "knownĠ": 3280,
      "renew": 3281,
      "singleĠ": 3282,
      "Ġ(à¤ªà¥Ĥà¤°à¥įà¤µà¥Ģà¤ļ": 3283,
      "significantĠ": 3284,
      "à¥įà¤ĸà¤¨": 3285,
      "ximatelyĠ": 3286,
      "approximatelyĠ": 3287,
      "IndusĠValleyĠ": 3288,
      ",Ġà¤ķ": 3289,
      "1%Ġ": 3290,
      "1ĠmillionĠ": 3291,
      "4.": 3292,
      "bac": 3293,
      "e,ĠtheĠ": 3294,
      "fiveĠ": 3295,
      "found": 3296,
      "hi": 3297,
      "justĠ": 3298,
      "mer": 3299,
      "na": 3300,
      "pass": 3301,
      "utĠ": 3302,
      "uĠandĠ": 3303,
      "wentĠ": 3304,
      "wea": 3305,
      "yp": 3306,
      "ĠbyĠ": 3307,
      "ĩà¤¸": 3308,
      "à¤ģ": 3309,
      "eĠre": 3310,
      "annu": 3311,
      "à¤¤à¤ķ": 3312,
      "à¤°à¤¾à¤ľà¥įà¤¯": 3313,
      "à¤°à¤¾à¤ł": 3314,
      "à¤¿à¤¦à¥įà¤§": 3315,
      "à¤¾Ġà¤Ńà¤¾à¤°à¤¤": 3316,
      "dist": 3317,
      "ati": 3318,
      "à¥įà¤¯à¤¾à¤¯": 3319,
      "à¥įà¤¯à¤¾à¤Ĥà¤¨": 3320,
      "andĠf": 3321,
      "aĠb": 3322,
      "à¥ĭà¤§": 3323,
      "à¤¨à¤ķ": 3324,
      "à¤²à¥ĩ.": 3325,
      "Ġà¤®à¤¿à¤²": 3326,
      "à¤®à¥įà¤": 3327,
      "à¤®à¤Ĥà¤¤à¥įà¤°": 3328,
      "toĠw": 3329,
      "toĠhaveĠ": 3330,
      "à¤µà¤Ĥà¤Ł": 3331,
      "amp": 3332,
      "IndiaĠwasĠ": 3333,
      "Ġà¤ħà¤²": 3334,
      "à¥Ĥà¤³": 3335,
      "ract": 3336,
      "owĠ": 3337,
      "entĠA": 3338,
      "India.": 3339,
      "agesĠ": 3340,
      "à¤¾à¤¸à¤¿à¤¤": 3341,
      "exchang": 3342,
      "express": 3343,
      "Ġà¤¨à¤¦": 3344,
      "Ġà¤¦à¤ĸ": 3345,
      "Ġà¤¦à¤¿à¤²à¥įà¤²": 3346,
      "Ġà¤ķà¥ĩĠà¤ħà¤¨": 3347,
      "oci": 3348,
      "aboutĠ": 3349,
      "abilityĠ": 3350,
      "à¤¯à¤¾à¤°": 3351,
      "est-": 3352,
      "Ġà¥Ń": 3353,
      "2026": 3354,
      "ereĠareĠ": 3355,
      "withĠanĠ": 3356,
      "es,ĠincludingĠ": 3357,
      "Ġà¤Ĺà¥įà¤°": 3358,
      "ism,Ġ": 3359,
      "lowerĠ": 3360,
      ".ĠAc": 3361,
      "associ": 3362,
      "Ġà¤ªà¤°à¤Ĥà¤¤à¥ģ": 3363,
      "à¥ĢĠà¤¹à¥ĭà¤¤": 3364,
      "à¥ĢĠà¤®à¤¹": 3365,
      "mentsĠ": 3366,
      "Ġà¤Ŀà¤¾à¤²à¤¾.": 3367,
      "Ġ1947": 3368,
      "à¥ĩĠà¤¹à¤µà¤¾à¤®à¤¾à¤¨": 3369,
      "servedĠ": 3370,
      "themĠ": 3371,
      "Ġà¤¸à¤Ĥà¤¸à¤¦": 3372,
      "number": 3373,
      "à¥īà¤²": 3374,
      "à¥ĢĠà¤Ńà¤¾à¤Ĺ": 3375,
      "BuddhistĠ": 3376,
      "timesĠ": 3377,
      "à¤¾à¤µà¤°à¥Ĥà¤¨": 3378,
      "1971": 3379,
      "there": 3380,
      "constitutionĠ": 3381,
      "followingĠ": 3382,
      "traditionallyĠ": 3383,
      "cordingĠtoĠ": 3384,
      "à¥ģà¤ķà¥įà¤¤": 3385,
      "majorityĠofĠ": 3386,
      "transm": 3387,
      "localĠ": 3388,
      "madeĠ": 3389,
      "ConstitutionĠofĠ": 3390,
      "directlyĠ": 3391,
      "soonĠ": 3392,
      "à¥ĩĠà¤ľà¤¾à¤¤à¥ĩ.": 3393,
      "educationĠ": 3394,
      "Ġà¤¤à¤®à¤¿à¤³": 3395,
      "unionĠterritor": 3396,
      "à¤¾Ġà¤¹à¥ĭà¤¤à¤¾.": 3397,
      "à¤¦à¤¾à¤¹à¤°à¤£Ġà¤Ĩà¤¹à¥ĩ.": 3398,
      "calledĠ": 3399,
      "legislat": 3400,
      "à¤¹à¥ģà¤¤à¤¾à¤Ĥà¤¶": 3401,
      "à¥įà¤¯à¤¾Ġà¤¶à¤¤à¤ķ": 3402,
      "backĠ": 3403,
      "ractic": 3404,
      "%.ĠInĠ": 3405,
      ").": 3406,
      "5Ġ": 3407,
      "Nu": 3408,
      "br": 3409,
      "cri": 3410,
      "eut": 3411,
      "fast": 3412,
      "herĠ": 3413,
      "nation": 3414,
      "pli": 3415,
      "ss": 3416,
      "ªà°¾à°²": 3417,
      "µà±Ī": 3418,
      "¶à±įà°°à±Ģ": 3419,
      "¸à°°à°¿à°¹à°¦à±įà°¦": 3420,
      "¹à°¿à°®": 3421,
      "ĠL": 3422,
      "Ĩà°«": 3423,
      "īà¤ª": 3424,
      "ĭà¤": 3425,
      "à¥¯": 3426,
      "à¥įâĢį": 3427,
      "à±įà°ĺ": 3428,
      "à°¾à°ĸà±įà°¯": 3429,
      "th.": 3430,
      "sĠtoĠ": 3431,
      "ere": 3432,
      "oneĠofĠtheĠ": 3433,
      "à¤¾Ġà¤²": 3434,
      "dish": 3435,
      "à¥įà¤¯à¤¾à¤ª": 3436,
      "à¥įà¤¯à¤¾à¤¦": 3437,
      "à¥ĩà¤¦": 3438,
      "à±ĭĠà°ªà±įà°°à°ªà°Ĥà°ļ": 3439,
      "à¥Ģà¤¡": 3440,
      "à¥Ģà¤£": 3441,
      "à°¾à°°à±įà°²": 3442,
      "à°¾à°°à°¿à°¤à±įà°°à°ķ": 3443,
      "à¤ķà¥įà¤¤": 3444,
      "à¤¨à¥įà¤¯": 3445,
      "à¤¸à¤¾à¤²": 3446,
      "Ġà¤¸à¤°": 3447,
      "Ġà¤¸à¥ģà¤°à¥Ĥ": 3448,
      "à±ĩà°ªà°¾à°²": 3449,
      "Ġà¤®à¥ģà¤ĺà¤²": 3450,
      "à¤®à¤¹": 3451,
      "à¤®à¤¾à¤°à¤¤": 3452,
      "à¤°à¥įà¤Ĺ": 3453,
      "à°µà°¿à°§": 3454,
      "Ġà¤¹à¤µà¤¾à¤®à¤¾à¤¨": 3455,
      "amasĠ": 3456,
      "ampl": 3457,
      "à¥Īà¤µ": 3458,
      "à¥Īà¤¶": 3459,
      "à¥įà¤¯à¤¾Ġà¤®": 3460,
      "à¥įà¤¯à¤¾Ġà¤¹": 3461,
      "à¤¿à¤ķĠà¤¸": 3462,
      "foreig": 3463,
      "Ġà¤Ńà¤¾à¤°à¤¤à¤¾à¤ļ": 3464,
      "Ġà¤Ńà¤¾à¤°à¤¤Ġà¤¨": 3465,
      "à°Ĺà±įà°Ĺ": 3466,
      "IndianĠmathemat": 3467,
      "Ġà°ķà±ĩà°Ĥà°¦à±įà°°": 3468,
      "wasĠtheĠ": 3469,
      "aceut": 3470,
      "Ġà¤ľà¥ĭ": 3471,
      "Ġà¤ľà¤¿à¤¸": 3472,
      "Ġà¤ķà¥ĩĠà¤¨": 3473,
      "resident": 3474,
      "Ġà¤¯à¤¾Ġà¤¨": 3475,
      "Ġà¤°à¥Ĥà¤ª": 3476,
      "à¤¯à¥ĭà¤Ĺ": 3477,
      "à¤¶à¤¾à¤¸à¤¿à¤¤": 3478,
      "Ġà°®à°¹": 3479,
      "à¥ĩà¤¶à¤¿à¤¯": 3480,
      "à¤Ĺà¤°": 3481,
      "mainĠ": 3482,
      "befor": 3483,
      "à¥ĢĠà¤¸à¥įà¤µ": 3484,
      "à±įĠà°²à±ĭĠà°": 3485,
      "à¤³à¤µà¤³": 3486,
      "edul": 3487,
      "à±ģà°ķà±Ĭ": 3488,
      "Ġmus": 3489,
      "Ġà°ľà°¾à°¤": 3490,
      "Ġà¤ķà¤°à¥Ĥà¤¨": 3491,
      "2010": 3492,
      "à°¿à°¯à°¾à°²à±ĭĠà°": 3493,
      ".ĠInĠ200": 3494,
      "à°Ĥ,Ġà°¤": 3495,
      "Ġà°¨à°¾à°Ĺ": 3496,
      "à¤¥à¤µ": 3497,
      "à¥ĢĠà¤Ĩà¤¹à¥ĩà¤¤.": 3498,
      "à±į,Ġà°¨": 3499,
      "à°¿Ġà°ªà±Ĩà°¦à±įà°¦": 3500,
      "pharm": 3501,
      "à°¸à±įà°¥à°¾à°¨": 3502,
      "à¤¤à¥įà¤¯à¤¾à¤¦": 3503,
      "ergyĠ": 3504,
      "commonlyĠ": 3505,
      "dance-": 3506,
      "à°¾à°£à°¿à°ľ": 3507,
      "Ġà¤¸à¤¾à¤®à¤¾à¤ľ": 3508,
      "undament": 3509,
      "Ġà¤®à¤¹à¤¾à¤°à¤¾à¤·à¥įà¤Łà¥įà¤°": 3510,
      "Ġà°ªà±įà°°à°ľà°¾à°¸à±įà°µà°¾à°®à±įà°¯": 3511,
      ".ĠItĠisĠ": 3512,
      "à¤¾à¤Ĥà¤ªà¥Īà¤ķ": 3513,
      "à¥Īà¤¦à¤¾à¤¨": 3514,
      "urbanĠare": 3515,
      "dramasĠ": 3516,
      "Ġà¤Ĩà¤¹à¤¾à¤°": 3517,
      "school": 3518,
      "à°Ĥà°Ĺà±įà°²à°¾à°¦à±ĩà°¶": 3519,
      "cookingĠ": 3520,
      "Ġà¤µà¤¿à¤µà¤¿à¤§Ġà¤ªà¥įà¤°à¤ķà¤¾à¤°": 3521,
      "Ġà¤ĸà¤¾à¤¸": 3522,
      "third-largestĠ": 3523,
      "Ġà¤®à¥įà¤¹à¤£à¥Ĥà¤¨": 3524,
      "Ġ(à¤ĩ": 3525,
      "à¥ĩà¤ķà¤¡à¥Ģà¤²": 3526,
      "2011Ġcensu": 3527,
      "à°°à°¿à°ķà°¤": 3528,
      "UnitedĠSt": 3529,
      "musicĠ": 3530,
      "growthĠrateĠ": 3531,
      "ħà°¨à±ĩà°ķ": 3532,
      "à°ĸà°Ĥà°¡": 3533,
      "Ġà¤ħà¤°à¤¬": 3534,
      "ternationalĠ": 3535,
      "Ġà¤ķà¥ĩĠà¤¬à¤¾à¤¦": 3536,
      "officialĠlanguag": 3537,
      "Ġà°¦à±ĩà°¶à°¾à°²à°²à±ĭĠà°Ĵà°ķà°Ł": 3538,
      "à°ªà°¾à°²à°¿à°¤": 3539,
      "à±į,Ġà°¬à°Ĥà°Ĺà±įà°²à°¾à°¦à±ĩà°¶": 3540,
      "Ġà°īà°ªà°ĸà°Ĥà°¡": 3541,
      "threeĠ": 3542,
      "estimatedĠ": 3543,
      "globalĠ": 3544,
      "¹à°¿à°®à°¾à°²à°¯": 3545,
      "Ĩà°«à±įà°ĺ": 3546,
      "foreignĠ": 3547,
      "aceuticalĠ": 3548,
      "Ġà°¨à°¾à°Ĺà°°à°¿à°ķà°¤": 3549,
      "pharmaceuticalĠ": 3550,
      "dance-dramasĠ": 3551,
      "à°¾à°£à°¿à°ľà±įà°¯": 3552,
      "undamentalĠ": 3553,
      "%;": 3554,
      "),Ġà°": 3555,
      ".6": 3556,
      "1-": 3557,
      "Am": 3558,
      "Ash": 3559,
      "BN": 3560,
      "Bang": 3561,
      "BayĠ": 3562,
      "Fron": 3563,
      "However,Ġ": 3564,
      "IS": 3565,
      "Myan": 3566,
      "ND": 3567,
      "Nic": 3568,
      "Pl": 3569,
      "Rep": 3570,
      "Sri": 3571,
      "Sha": 3572,
      "UP": 3573,
      "Vi": 3574,
      "bell": 3575,
      "cialĠ": 3576,
      "clim": 3577,
      "deĠ": 3578,
      "dens": 3579,
      "eet": 3580,
      "gin": 3581,
      "gav": 3582,
      "hub": 3583,
      "iz": 3584,
      "lo": 3585,
      "los": 3586,
      "ledĠbyĠ": 3587,
      "last": 3588,
      "mig": 3589,
      "nt": 3590,
      "ner": 3591,
      "nameĠ": 3592,
      "sli": 3593,
      "sover": 3594,
      "sever": 3595,
      "uar": 3596,
      "uchĠ": 3597,
      "vall": 3598,
      "vict": 3599,
      "win": 3600,
      "wayĠ": 3601,
      "y-": 3602,
      "«à°²": 3603,
      "®à±Ģ": 3604,
      "®à°¹": 3605,
      "®à±Ĥà°¡": 3606,
      "®à°§à±įà°¯": 3607,
      "®à°¾à°¤à±įà°°": 3608,
      "®à±ģà°ĸà±įà°¯": 3609,
      "°à°¾à°ľà°ķà±Ģà°¯": 3610,
      "°à±Ĥà°ª": 3611,
      "¶à°¾à°¸à±įà°¤à±įà°°": 3612,
      "¸à°¾à°Ĥ": 3613,
      "¸à°¿à°¨à°¿à°®": 3614,
      "¸à±Ĥà°ļ": 3615,
      "ħà°¨": 3616,
      "Ĩà°°à±įà°§": 3617,
      "ĩà°¸à±įà°": 3618,
      "ĩà°Ĥà°Ĺà±įà°²": 3619,
      "ĪĠà°°": 3620,
      "īà°ª": 3621,
      "Ĵà°²": 3622,
      "ķà±ĩà°": 3623,
      "ķà°¾à°Ĥà°Ĺà±įà°°à±Ĩà°¸": 3624,
      "ķà±ĩà°Ĥà°¦à±įà°°": 3625,
      "Ńà°¾à°": 3626,
      "Ńà°¾à°Ĺ": 3627,
      "à¤ı": 3628,
      "à°¸à±įà°µ": 3629,
      "Ġà°¯": 3630,
      "Ġà°ĺ": 3631,
      "Ġà°Ĵà°ķ": 3632,
      "à¤¾à¤¢": 3633,
      "à¤¾à¤Ĭ": 3634,
      "à±įĠà°¸": 3635,
      "à±įĠà°°": 3636,
      "à±įà°³": 3637,
      "à°¿à°Ĥà°ª": 3638,
      "sĠinĠ": 3639,
      "à±ģĠ(": 3640,
      "à°ĤĠ2": 3641,
      ",ĠbutĠ": 3642,
      "à°Ĥà°Ń": 3643,
      "à¤¿à¤¦à¥įà¤¯": 3644,
      "stand": 3645,
      "ataĠ": 3646,
      "à¥ĩĠà¤Ŀà¤¾à¤²": 3647,
      "oralĠ": 3648,
      "à°¤à°¿Ġà°": 3649,
      "à°¤à±įà°¯": 3650,
      "ĠtheĠIndianĠ": 3651,
      "à°¨à°¦": 3652,
      "à°¨à°¾à°²à±ģĠà°": 3653,
      "à°²à°ķ": 3654,
      "à°²à°¸": 3655,
      "à°²à°¨à±ģĠà°": 3656,
      "à°²à°²à±ĭ": 3657,
      "à°²à±įà°²à±ĭĠà°": 3658,
      "à°²à°¿à°¸": 3659,
      "resĠ(": 3660,
      "à°°à±ĭ": 3661,
      "à°°à±ĭĠà°": 3662,
      "à°°à°µ": 3663,
      "à±ĩà°°à±įà°²": 3664,
      "à±ĩà°°à±įà°ķà±Ĭ": 3665,
      "à±ĭĠà°ª": 3666,
      "à±ĭà°ķ": 3667,
      "à±ĭà°§": 3668,
      "à±ĭà°³": 3669,
      "IndiraĠ": 3670,
      "Ġà°ªà°Ĥà°¡": 3671,
      "Ġà°ªà°Łà±įà°Łà°£": 3672,
      "itud": 3673,
      "Ġà¤ķà¤®": 3674,
      "à°¾à°°à±ģĠà°ª": 3675,
      "à°¾à°°à°Ĥà°Ń": 3676,
      "inghĠ": 3677,
      "à°ķà±ģ": 3678,
      "à°ķà°°": 3679,
      "à°ķà±Ĭ": 3680,
      "à°¾à°²Ġà°ķ": 3681,
      "à°¾à°²à°¿à°Ĥà°ļ": 3682,
      "à°¾à°²à°¨à±ĩ": 3683,
      "à°¾à°²à±Ĩà°Ĥà°¡": 3684,
      "à°¦à°¿.": 3685,
      "anĠS": 3686,
      "anĠPlateau": 3687,
      "à¤¸à¤¾à¤Ĺà¤°": 3688,
      "Ġà¤¸à¥Īà¤¨": 3689,
      "à¤¾à¤¤à¥įà¤®": 3690,
      "à±ģĠà°¤": 3691,
      "à±ģĠà°®à°¾à°°à±įà°Ĺ": 3692,
      ",Ġà°Ī": 3693,
      ",Ġà°ķ": 3694,
      ",Ġà°Ĺ": 3695,
      "Ġà¤ªà¤¾à¤ķà¤¿à¤¸à¥įà¤¤à¤¾à¤¨": 3696,
      "inĠintoĠtheĠ": 3697,
      "ingĠofĠ": 3698,
      "ingĠofĠtheĠ": 3699,
      "à±ĩà°·": 3700,
      "à±ĩà°ľ": 3701,
      "ureĠandĠ": 3702,
      "à°®à°¨": 3703,
      "à°®à°²": 3704,
      "à°®à°¿à°Ĥà°ļ": 3705,
      "à°®à±Ĭ": 3706,
      "à°®à±ĩà°¨": 3707,
      "à°¿Ġà°ĩ": 3708,
      "à±įà°¯à°®à±Īà°¨": 3709,
      "à±įà°¯à°¾à°ª": 3710,
      "à±įà°¯à°¾à°²à±Ĩà°Ĥà°¡": 3711,
      "à°µà°¿.Ġà°": 3712,
      "à°µà°ļà±įà°ļ": 3713,
      "à°µà±Ĩà°¨": 3714,
      "à°¾Ġà°°": 3715,
      "à°¾Ġà°Ĺà°¾à°Ĥ": 3716,
      "à¤µà¤¨": 3717,
      "TharĠ": 3718,
      "à±Ĩà°¨à±įà°¨": 3719,
      "à°¿à°ķ,Ġà°": 3720,
      "à°¿à°ķĠà°¸à°Ĥà°": 3721,
      "à¥Īà¤¸": 3722,
      "IndiaĠfromĠtheĠ": 3723,
      "à°ªà°¡": 3724,
      "Ġà°ªà±įà°°à°¦à±ĩà°¶": 3725,
      "Ġà°ªà±įà°°à°ķà°¾à°°": 3726,
      "Ġà°ªà±įà°°à°¾à°°à°Ĥà°Ń": 3727,
      "à±Ĥà°°": 3728,
      "à±ĤĠà°µà°ļà±įà°ļ": 3729,
      "à±Īà°ª": 3730,
      "à¥Ĥà¤ķ": 3731,
      "à°¿à°¨Ġà°ķ": 3732,
      "à°¾à°¨à°¿à°ķ": 3733,
      "à°¯à°¿à°¤": 3734,
      "à±ģà°²à±ģĠà°ª": 3735,
      "à°Ĺà°£": 3736,
      "ireĠandĠ": 3737,
      "à°¨à±įà°¨à°¡": 3738,
      "à°¨à±įà°¨à°¾à°¯à°¿.Ġà°": 3739,
      "à°¨à±įà°¨à°¿Ġà°¸": 3740,
      "Ġà°¸à°¾à°°": 3741,
      "changesĠ": 3742,
      "opt": 3743,
      "eticĠ": 3744,
      "etwork": 3745,
      "Ġà°µà°¿à°": 3746,
      "à°¦à±ĩà°¶à°ĤĠà°": 3747,
      "Ġà°ķà°¾à°°à±įà°¯": 3748,
      "untouch": 3749,
      "à°¾à°¤à±įà°®": 3750,
      "à°Ĥà°Ĺà°¾,Ġà°": 3751,
      "à¤¾à¤¸à¤¾à¤ł": 3752,
      "à¥ĭà¤ľ": 3753,
      "inĠtheĠwesternĠ": 3754,
      "à°§à±Ģ": 3755,
      ",ĠtheĠBJP": 3756,
      "Ġà¤¨à¤¾à¤®": 3757,
      "Ġà¤¦à¤¿à¤¯": 3758,
      "Ġà¤ľà¤¾à¤¨": 3759,
      "Ġà°°à°¾à°ľà°ķà±Ģà°¯": 3760,
      "adopt": 3761,
      "Ġ(à°µà±Ĩà°¨": 3762,
      "Ńà°¾à°°à°¤à°¦à±ĩà°¶à°Ĥà°²à±ĭ": 3763,
      "ushĠ": 3764,
      "à°¸à°°": 3765,
      "à°¸à±įà°°": 3766,
      "à°¿à°Ĥà°ļà°¿,Ġà°": 3767,
      "à°¿à°Ĥà°ļà°¿à°Ĥà°¦à°¿.Ġà°": 3768,
      "¦à±ĩà°¶à°Ĥà°²à±ĭĠà°": 3769,
      "Ġà°®à°Ĥà°¦": 3770,
      "Ġà°®à±Ĥà°¡": 3771,
      "Ġà°®à°¾à°°à±įà°Ĺ": 3772,
      "à±Ĭà°Ĥà°¦à°¿à°¨": 3773,
      "à¤Ĺà¤¾à¤¤à¥Ģà¤²Ġà¤¸à¤°à¥įà¤µ": 3774,
      "à°¾à°²à±ģĠà°ª": 3775,
      "à°¾à°²à±ģ,Ġà°ª": 3776,
      "andingĠ": 3777,
      "à°ļà±ĩ": 3778,
      "à°¾à°²à±ģĠà°Ĺà°²": 3779,
      "à¥ĢĠà¤¸à¤Ĥà¤": 3780,
      "ency,Ġ": 3781,
      "à¤Ńà¤¾à¤µ": 3782,
      "à¤Ĥà¤Ĺà¥Ģà¤¤": 3783,
      "Ġà¤Ĺà¥ĩà¤²": 3784,
      "edlyĠ": 3785,
      "ed,ĠandĠ": 3786,
      "à±ģà°ķà°Ł": 3787,
      "à±ģà°ķà±ģà°¨à±įà°¨": 3788,
      "margin": 3789,
      "à¥ĩà¤¤à¥ĥà¤¤": 3790,
      "à¥ĩĠà¤Ĩà¤°à¥įà¤¥à¤¿à¤ķ": 3791,
      "à°²à±ģĠà°®à°¾à°°à±įà°Ĺ": 3792,
      "assertĠ": 3793,
      "à±įâĢĮà°²": 3794,
      "à¤¿à¤¨à¤¾à¤°": 3795,
      "grand": 3796,
      "separ": 3797,
      "à°²à±ģ.Ġà°": 3798,
      "epĠ": 3799,
      "Ġà°¦à±ĩà°¶à°Ĥà°Ĺà°¾Ġà°": 3800,
      "à°Ńà°¾à°°à°¤à°¦à±ĩà°¶à°Ĥà°²à±ĭĠà°": 3801,
      "à°Ńà°¾à°°à°¤à°¦à±ĩà°¶à°ªà±ģĠà°": 3802,
      "à°Ĥà°²à±ĭà°¨": 3803,
      "à°Ĥà°²à±ĭ,Ġà°": 3804,
      "à¤¾à¤³à¤µà¤Ĥà¤Ł": 3805,
      "à°¾à°¦à°¾à°ª": 3806,
      "Ġà°¨à°Ĺà°°": 3807,
      "à°Łà±įà°Łà°®à±Ĭ": 3808,
      "Ġà°¶à°¾à°ĸ": 3809,
      "à°¿à°¸à±įà°¤à±ģà°¨à±įà°¨": 3810,
      "à°¿à°¸à±įà°¤à°¾à°°à±ģ.": 3811,
      "partic": 3812,
      "à°¨à°¿Ġà°¨": 3813,
      "à±ĩà°°à±ģĠà°": 3814,
      "à±įà°®à±Ģà°°": 3815,
      "itĠtoĠ": 3816,
      "à¤¦à¥įà¤§à¤¤": 3817,
      "Ġà°Ĩà°°à±įà°§": 3818,
      "Ġà°Ĩà°°à±įà°¥": 3819,
      "thĠcenturies,Ġ": 3820,
      "Ġà¤¹à¥ĭà¤¤à¤¾.": 3821,
      "Ġà°ļà°¿à°¨à±įà°¨": 3822,
      "onĠtheĠsouth": 3823,
      "à°¾à°¸à°¿à°¯à°¾Ġà°": 3824,
      "predomin": 3825,
      "®à±Ĭà°Łà±įà°Łà°®à±Ĭ": 3826,
      "à°¾à°Łà±ģĠà°": 3827,
      "Ġà°¤à°°à±ģà°µà°¾à°¤": 3828,
      "à°¾à°°à±įà°ķ": 3829,
      "Ġà°ªà°°à°¿à°ª": 3830,
      "devot": 3831,
      "à¤¾à¤Ĥà¤®à¥ģà¤³": 3832,
      "okaĠ": 3833,
      "à°³à±įà°²à°¨à±ģĠà°": 3834,
      "à°Ĥà°¬à±Ĥ": 3835,
      "à¥ģà¤¨à¤¾à¤µ": 3836,
      "Ġà°°à±Īà°²à±ģĠà°¸à°°à±įà°µà±Ģà°¸": 3837,
      "armiesĠ": 3838,
      "diverseĠ": 3839,
      "à¥įà¤¯à¤¾à¤¨à¤Ĥà¤¤à¤°": 3840,
      "à°Ĥà°ªà±Ĩà°¨": 3841,
      "à°Ĥà°ªà±įà°°à°¦à°¾à°¯": 3842,
      "à°¿Ġà°ħà°¨à±ĩ": 3843,
      "suppl": 3844,
      "à¤ļà¥įà¤¯à¤¾Ġà¤īà¤ª": 3845,
      "ľà°°à±ģà°ª": 3846,
      "à°¾à°µà°°": 3847,
      "à°¨à±ģà°®": 3848,
      "à±Ĩà°²à±įà°²": 3849,
      "à°¬à°¡à°¿à°¨": 3850,
      "à°¬à°¡à±įà°¡": 3851,
      "ByĠtheĠ": 3852,
      "leader": 3853,
      "à°¸à±įà°ķà±ĥà°¤": 3854,
      "à°¿à°ķĠà°µà±įà°¯à°µà°¸à±įà°¥": 3855,
      "à°¿à°ķĠà°µà±Ĩà°¬": 3856,
      "à°ľà°¾à°¤à±Ģà°¯Ġà°ª": 3857,
      "à¤¾à¤Ĥà¤ªà¥Ĥà¤°à¥įà¤µ": 3858,
      "à¤Ĥà¤Ĺà¥įà¤°à¥ĩà¤ľ": 3859,
      "¦à°ķà±įà°·à°¿à°£à°¾à°¸à°¿à°¯à°¾Ġà°": 3860,
      "AfterĠ": 3861,
      "à¥ĢĠà¤¶à¤¿à¤ķà¥įà¤·à¤£": 3862,
      "à¤Ĥà¤ªà¤°": 3863,
      "riseĠ": 3864,
      "à¥ĢĠà¤°à¤¾à¤ľà¥įà¤¯": 3865,
      ",Ġà¤ľà¤¿à¤¸": 3866,
      "SanskritĠ": 3867,
      "à°¿à°¯à°¾Ġà°ķ": 3868,
      "Indo-Ar": 3869,
      "¨à°¿à°°à±įà°®": 3870,
      "Ġà°¸à°Ńà±įà°¯": 3871,
      "4ĠgeneralĠelection": 3872,
      "ductionĠ": 3873,
      "graduallyĠ": 3874,
      "°à±Ĩà°Ĥà°¡à±ģ": 3875,
      "SouthĠAsia": 3876,
      "mediatelyĠ": 3877,
      "JanataĠ": 3878,
      "birth": 3879,
      "à°¾à°²à°¤à±ĭĠà°ķà±Ĥà°¡à°¿à°¨": 3880,
      "right": 3881,
      "script": 3882,
      "à±ģà°ķà±ģà°Ĥà°Łà°¾à°°à±ģ.Ġà°": 3883,
      "crust": 3884,
      "crucialĠ": 3885,
      "°à°¾à°·à±įà°Łà±įà°°à°ªà°¤": 3886,
      "µà°ļà±įà°ļà°¿à°Ĥà°¦à°¿.Ġà°": 3887,
      "à°ĤĠà°ļà±ĩà°¯": 3888,
      "à¤¦à¥įà¤¦à¤²": 3889,
      "e.ĠE": 3890,
      "settl": 3891,
      "Ġà¤¹à¤¿à¤Ĥà¤¦à¥Ĥ": 3892,
      "drainĠintoĠtheĠ": 3893,
      "eignt": 3894,
      "Ġà°¸à±įà°µà°¾à°¤à°Ĥà°¤à±įà°°": 3895,
      "¨à±ģà°Ĥà°¡à°¿Ġà°": 3896,
      "à°¤à°Ĥà°¤à±įà°°Ġà°°à°¾à°ľà±įà°¯": 3897,
      "empireĠ": 3898,
      "à±Ĩà°²à±ģà°Ĺ": 3899,
      "à±Īà°Łà±ģ": 3900,
      "Ġà°°à°µà°¾à°£à°¾Ġà°¸à±Įà°ķà°°à±įà°¯": 3901,
      "¦à±ĩà°¶à°Ĥà°²à±ĭà°¨": 3902,
      "à±įâĢĮà°¸à±Īà°Łà±ģ": 3903,
      "easternĠIndia": 3904,
      "ıà°°à±įà°ªà°¡à±įà°¡": 3905,
      "ArabianĠ": 3906,
      "NationalĠCongressĠ": 3907,
      "thisĠtime,Ġ": 3908,
      "violenc": 3909,
      "IslamicĠ": 3910,
      "CentralĠAsianĠ": 3911,
      "ifiedĠ": 3912,
      "Ġà°¸à°¾à°®à±įà°°à°¾à°ľà±įà°¯": 3913,
      "à±Ģà°Łà°¿à°²à±ĭĠà°": 3914,
      "à°¾à°¶à±įà°®à±Ģà°°": 3915,
      "à°²à°¤à±ĭ,Ġà°": 3916,
      "coalitionĠ": 3917,
      "commercialĠ": 3918,
      "Ġà°°à±Īà°²à±įà°µà±ĩ": 3919,
      "¨à°¿à°°à±įà°µà°¹à°£": 3920,
      "Ġà°ªà±įà°°à°¤à°¿à°ªà°¾à°¦à°¨": 3921,
      "à°¿à°¦à±įà°§à°¿Ġà°ļà±Ĩà°Ĥà°¦": 3922,
      "independenceĠ": 3923,
      "subsequentĠ": 3924,
      "kilometresĠ(": 3925,
      "WesternĠGhat": 3926,
      "Ġà¤¸à¤¿à¤Ĥà¤§à¥ĤĠà¤¸à¤Ĥà¤¸à¥įà¤ķà¥ĥà¤¤": 3927,
      "Ġà°°à°¹à°¦à°¾à°°à±ģà°²à±ģ,Ġà°": 3928,
      "lades": 3929,
      "°à±ĭà°¡à±įà°¡": 3930,
      "²à°¾à°®à°¾à°¬à°¾à°¦à±į": 3931,
      "µà°¤à±įà°¸à°°": 3932,
      "ĪĠà°ªà±ĩà°°à±ģĠà°": 3933,
      "Ġà°İà°¨à±įà°¨à°¿à°ķ": 3934,
      "à°¤à°ķà°¾à°²à±ģĠà°": 3935,
      "à°¾à°²Ġà°ľà°¾à°¬à°¿à°¤à°¾": 3936,
      "resultingĠ": 3937,
      "à°ªà±įà°°à°¦à°¾à°¯à°¿à°ķ": 3938,
      "architecture": 3939,
      "à°Ńà°¿à°µà±ĥà°¦à±įà°§à°¿Ġà°ļà±Ĩà°Ĥà°¦": 3940,
      "habit": 3941,
      "protectedĠ": 3942,
      "AfricaĠ": 3943,
      "national": 3944,
      "ĠLank": 3945,
      "à¤¶à¤¾à¤¸à¤¿à¤¤Ġà¤ªà¥įà¤°à¤¦à¥ĩà¤¶": 3946,
      "AshokaĠ": 3947,
      "Banglades": 3948,
      "BayĠofĠ": 3949,
      "ISBN": 3950,
      "Myanmar": 3951,
      "Nicob": 3952,
      "SriĠLank": 3953,
      "gaveĠ": 3954,
      "loos": 3955,
      "sovereignt": 3956,
      "uardĠ": 3957,
      "victor": 3958,
      "¶à°¾à°¸à±įà°¤à±įà°°à±Ģà°¯": 3959,
      "ĩà°¸à±įà°²à°¾à°®à°¾à°¬à°¾à°¦à±į": 3960,
      "ķà±ĩà°µà°²": 3961,
      "Ńà°¾à°µà°¿à°¸à±įà°¤": 3962,
      "IndiraĠGandhiĠ": 3963,
      "à±įà°¯à°¾à°ªà°¾à°°": 3964,
      "à±įà°¯à°¾à°²à±Ĩà°Ĥà°¡à°°à±į": 3965,
      "à°¾Ġà°Ĺà°¾à°Ĥà°§à±Ģ": 3966,
      "TharĠDes": 3967,
      "Ġà°ķà°¾à°°à±įà°¯à°ķà±įà°°à°®": 3968,
      "Ġ(à°µà±Ĩà°¨à±ģà°ķà°Ł": 3969,
      "thĠcenturies,ĠtheĠ": 3970,
      "®à±Ĭà°Łà±įà°Łà°®à±Ĭà°¦à°Ł": 3971,
      "à¤ļà¥įà¤¯à¤¾Ġà¤īà¤ªà¤¸à¤¾à¤Ĺà¤°": 3972,
      "à°¿à°ķĠà°µà±Ĩà°¬à±įâĢĮà°¸à±Īà°Łà±ģ": 3973,
      "ArabianĠS": 3974,
      ".à¤¸": 3975,
      "1stĠ": 3976,
      "23": 3977,
      "8%Ġ": 3978,
      "9%ĠofĠ": 3979,
      "Bi": 3980,
      "Coun": 3981,
      "Civilis": 3982,
      "Fact": 3983,
      "Mal": 3984,
      "Mid": 3985,
      "Pall": 3986,
      "WestĠ": 3987,
      "ail": 3988,
      "aicĠ": 3989,
      "crit": 3990,
      "cameĠ": 3991,
      "cientĠ": 3992,
      "dar": 3993,
      "derĠ": 3994,
      "eight": 3995,
      "fin": 3996,
      "foundĠ": 3997,
      "ga": 3998,
      "gn": 3999,
      "good": 4000,
      "ject": 4001,
      "jo-": 4002,
      "lay": 4003,
      "merĠ": 4004,
      "mult": 4005,
      "othĠ": 4006,
      "oast": 4007,
      "pat": 4008,
      "past": 4009,
      "pover": 4010,
      "rationĠ": 4011,
      "seĠ": 4012,
      "self": 4013,
      "tre": 4014,
      "text": 4015,
      "vis": 4016,
      "vent": 4017,
      "wn": 4018,
      "Ġre": 4019,
      "that": 4020,
      "thos": 4021,
      "threat": 4022,
      "an-": 4023,
      "anag": 4024,
      "ans.Ġ": 4025,
      "animal": 4026,
      "in,Ġ": 4027,
      "inat": 4028,
      "init": 4029,
      "ines,Ġ": 4030,
      "indh": 4031,
      "eraĠ": 4032,
      ",ĠP": 4033,
      ",ĠbetweenĠ": 4034,
      "ones": 4035,
      "onialĠ": 4036,
      "en,Ġ": 4037,
      "araĠ": 4038,
      "stea": 4039,
      "à¥ĩĠà¤µà¤¿à¤": 4040,
      ".ĠE": 4041,
      ".ĠIndianĠ": 4042,
      "à¥ĩà¤¡": 4043,
      "à¥ĩà¤·": 4044,
      "republicĠ": 4045,
      "retur": 4046,
      "à¤¾à¤°à¤ķ": 4047,
      "ion.ĠTheĠ": 4048,
      "à¥įà¤°à¤¾à¤Ł": 4049,
      "Ġà¤ķà¤¿": 4050,
      "inglyĠ": 4051,
      "à¤ķà¤¿": 4052,
      "todayĠ": 4053,
      "town": 4054,
      "à¤¸à¤¿à¤¤": 4055,
      "à¤¸à¤Ĥà¤ĸ": 4056,
      "Ġà¤¸à¥ĩà¤¨": 4057,
      "à¤¾à¤¤Ġà¤®": 4058,
      "inĠwhichĠ": 4059,
      "ectĠ": 4060,
      "ingĠtoĠ": 4061,
      "isedĠ": 4062,
      "isol": 4063,
      "stĠofĠ": 4064,
      "Ġà¤¹à¥ĭ": 4065,
      "ildĠ": 4066,
      "à¤µà¤°à¥įà¤·": 4067,
      "à¤£à¥įà¤": 4068,
      "ular,Ġ": 4069,
      "à¥įà¤¯à¤¾Ġà¤¬": 4070,
      "à¥įà¤¯à¤¾Ġà¤Ĩ": 4071,
      "IndiaĠisĠ": 4072,
      "Ġà¤ħà¤¶à¤¿à¤¯": 4073,
      "Ġà¤ħà¤ªà¤¨": 4074,
      "asedĠonĠ": 4075,
      "à¥Ĥà¤£": 4076,
      "rail": 4077,
      "es:Ġ": 4078,
      "Ġà¤Ńà¤¾à¤°à¤¤à¤¾à¤¨": 4079,
      "ivityĠ": 4080,
      "ivilĠ": 4081,
      "dueĠ": 4082,
      "à¤¾à¤®à¤§à¥Ģà¤²": 4083,
      "whoseĠ": 4084,
      "which": 4085,
      "acter": 4086,
      "acrossĠ": 4087,
      "Ġà¤¦à¥ĭà¤¨": 4088,
      "Ġà¤ªà¥įà¤°à¤¾à¤£": 4089,
      "Ġà¤¯à¥ĩà¤¥à¥Ģà¤²": 4090,
      "à¤¯à¤¾à¤¸": 4091,
      "Ġà¥©": 4092,
      "Ġà¥¬": 4093,
      "à¤ļà¥ĩĠà¤ª": 4094,
      "à¤ļà¥ĩĠà¤µ": 4095,
      "princ": 4096,
      "illĠ": 4097,
      "à¥ĭà¤ĤĠà¤ªà¤°": 4098,
      "à¥ĭà¤ĤĠà¤ķà¥ĢĠà¤": 4099,
      "containsĠ": 4100,
      "es,ĠtheĠ": 4101,
      "à¤Ńà¤°": 4102,
      "à¤Ĥà¤Ĺà¤²": 4103,
      "à¤Ĥà¤Ĺà¥įà¤²": 4104,
      "Ġà¤¶à¤¾à¤¸à¤¨": 4105,
      "iesĠofĠtheĠ": 4106,
      "centr": 4107,
      "shor": 4108,
      "clas": 4109,
      "endingĠ": 4110,
      "co-": 4111,
      "cogn": 4112,
      "six": 4113,
      "ainedĠ": 4114,
      "ism,ĠandĠ": 4115,
      "e,ĠwhichĠ": 4116,
      "tryĠ": 4117,
      "Ġbi": 4118,
      "regionsĠ": 4119,
      "Ġà¤ķà¤°à¥ĭà¤¡à¤¼": 4120,
      "Ġà¤ħà¤¸à¤¤": 4121,
      "Ġà¤ħà¤¸à¤¤à¥ĩ.": 4122,
      "2004": 4123,
      "tsĠandĠ": 4124,
      "bodi": 4125,
      "Ġà¥§à¥¨": 4126,
      "AsiaĠ": 4127,
      "northwest": 4128,
      "havingĠ": 4129,
      "declin": 4130,
      "qualit": 4131,
      "streng": 4132,
      "Ġà¤ħà¤¨à¥įà¤¯": 4133,
      ".ĠTheirĠ": 4134,
      "IndiaĠhasĠbeenĠ": 4135,
      "prev": 4136,
      "increasinglyĠ": 4137,
      "SouthĠIndianĠ": 4138,
      "withinĠ": 4139,
      "statu": 4140,
      "okĠtheĠ": 4141,
      "compan": 4142,
      "British": 4143,
      "Indones": 4144,
      "urbanis": 4145,
      "PakistanĠ": 4146,
      "Ġà¤¸à¥įà¤¥à¤¿à¤¤": 4147,
      "à¥ĩĠà¤¬à¤¡à¤¼": 4148,
      "Euras": 4149,
      "à¤¾à¤Ĥà¤ļà¥įà¤¯à¤¾Ġà¤¸": 4150,
      "inequalit": 4151,
      ".ĠSh": 4152,
      "à¥ĩà¤°à¤¿à¤ķ": 4153,
      "à¥ĭà¤ĤĠà¤ķà¥ĩĠà¤¸": 4154,
      "influenceĠ": 4155,
      "AncientĠ": 4156,
      "à¥ĢĠà¤¹à¥Īà¤Ĥà¥¤": 4157,
      "expans": 4158,
      "MughalĠEmpireĠ": 4159,
      "PunjabĠ": 4160,
      "Punjab,Ġ": 4161,
      "citiesĠ": 4162,
      "à¤¢à¤³": 4163,
      "colonialĠ": 4164,
      "Ġà¤¬à¤¹à¥ģà¤¤": 4165,
      "Ġà¤¬à¤¹à¥ģà¤®": 4166,
      "AccordingĠtoĠtheĠ": 4167,
      "regions.Ġ": 4168,
      "à¥ĭà¤¬à¤°": 4169,
      "emocrac": 4170,
      "termĠ": 4171,
      "Mohen": 4172,
      ".ĠByĠtheĠ": 4173,
      ".ĠAfterĠ": 4174,
      "parliamentaryĠsystem": 4175,
      "Ġà¤®à¥įà¤¹à¤£à¤ľ": 4176,
      "summerĠ": 4177,
      "à¤Ĥà¤¸à¥įà¤ķà¥ĥà¤¤": 4178,
      "ographicĠ": 4179,
      "PersianĠ": 4180,
      "à¥įà¤ŀà¤¾à¤¨": 4181,
      "à¥ĭà¤ļà¥įà¤ļ": 4182,
      "NorthĠ": 4183,
      "proces": 4184,
      "BuddhismĠandĠ": 4185,
      "remainingĠ": 4186,
      "Ġà¤¬à¥Įà¤¦à¥įà¤§Ġà¤§à¤°à¥įà¤®": 4187,
      "ission": 4188,
      "disputesĠ": 4189,
      "¸à¥įà¤¤à¤¾à¤°": 4190,
      "à¤¿à¤·à¥įà¤Łà¥įà¤¯": 4191,
      "Ġà¤µà¥Īà¤¦à¤¿à¤ķĠà¤ķ": 4192,
      "Decc": 4193,
      "GuptaĠ": 4194,
      "character": 4195,
      "à¤¾à¤®à¥ģà¤ĸà¥įà¤¯à¤¾à¤¨": 4196,
      "indigenousĠ": 4197,
      "heredit": 4198,
      "GreekĠ": 4199,
      "introduc": 4200,
      "à¥ģà¤ľà¤°": 4201,
      ".ĠAmongĠtheĠ": 4202,
      "mostĠpopulousĠ": 4203,
      "IndusĠValleyĠCivilis": 4204,
      "Ġà¤¦à¤ĸà¥įà¤ĸà¤¨": 4205,
      "à¥Īà¤¶à¤¿à¤·à¥įà¤Łà¥įà¤¯": 4206,
      "Factbo": 4207,
      "MiddleĠ": 4208,
      "Pallav": 4209,
      "jo-dar": 4210,
      "povert": 4211,
      "Indonesi": 4212,
      "Mohenjo-dar": 4213,
      ",Ġà¤¹": 4214,
      ".5": 4215,
      "43": 4216,
      "49": 4217,
      "4,Ġ": 4218,
      "55": 4219,
      "8âĢĵ": 4220,
      "Ak": 4221,
      "At": 4222,
      "East": 4223,
      "Kal": 4224,
      "Mar": 4225,
      "Re": 4226,
      "Va": 4227,
      "aut": 4228,
      "cesĠ": 4229,
      "cos": 4230,
      "cav": 4231,
      "couldĠ": 4232,
      "del": 4233,
      "etĠ": 4234,
      "fourĠ": 4235,
      "genc": 4236,
      "gend": 4237,
      "ifer": 4238,
      "jur": 4239,
      "lab": 4240,
      "lev": 4241,
      "law": 4242,
      "oet": 4243,
      "por": 4244,
      "row": 4245,
      "sim": 4246,
      "sav": 4247,
      "somet": 4248,
      "ti": 4249,
      "tak": 4250,
      "templ": 4251,
      "uesĠ": 4252,
      "wouldĠ": 4253,
      "¦à¥ĩà¤¶": 4254,
      "Ġ,": 4255,
      "Ġ-": 4256,
      "Ġ4": 4257,
      "ĠisĠ": 4258,
      "łà¤¿à¤ķ": 4259,
      "à¤¾à¤ĺ": 4260,
      "th-largestĠ": 4261,
      "anotherĠ": 4262,
      "sĠaĠ": 4263,
      "sĠorĠ": 4264,
      "sĠforĠ": 4265,
      "sĠfollow": 4266,
      "institut": 4267,
      "ers": 4268,
      ",ĠIndiaĠ": 4269,
      ",ĠwithĠ": 4270,
      "oneĠ": 4271,
      "on,Ġ": 4272,
      "à¤°à¤ķà¥įà¤·à¤£": 4273,
      "ste": 4274,
      "yĠandĠtheĠ": 4275,
      "à¥įà¤¯à¤¾": 4276,
      "à¥įà¤¯à¤¾.": 4277,
      "edĠitsĠ": 4278,
      ".ĠM": 4279,
      ".Ġà¥§à¥": 4280,
      "reven": 4281,
      "recentĠ": 4282,
      "à¤¾à¤°à¥įà¤¯": 4283,
      "à¤¾à¤°à¥įà¤®": 4284,
      "à¥įà¤°à¤¿à¤ķ": 4285,
      "à¥ĭà¤¸": 4286,
      "icl": 4287,
      "Ġà¤ķà¤¾Ġà¤¸": 4288,
      "à¤ķà¤¾à¤²": 4289,
      "à¤¸à¥įà¤ķ": 4290,
      "à¤²à¥ĩĠà¤ľà¤¾à¤¤à¥ĩ.": 4291,
      "asĠofĠ": 4292,
      "ingĠitsĠ": 4293,
      "Ġà¤®à¥Į": 4294,
      "Ġà¤®à¤Ĥà¤¤à¥įà¤°": 4295,
      "Ġà¤®à¤Ĥà¤¦à¤¿à¤°": 4296,
      "à¤®à¥ģà¤¨": 4297,
      "à¤°à¥įà¤¶": 4298,
      "toĠUS$": 4299,
      "isingĠ": 4300,
      "lyĠinfluenc": 4301,
      "à¤¿à¤ķà¤¸à¤¿à¤¤": 4302,
      "rig": 4303,
      "Ġà¤Ĩà¤¹à¥ĩ": 4304,
      "Ġà¤Ĩà¤ªà¤²": 4305,
      "rap": 4306,
      "ratherĠ": 4307,
      "chos": 4308,
      "consum": 4309,
      "à¥ģà¤·": 4310,
      "à¥ĭà¤³": 4311,
      "imesĠ": 4312,
      "acc": 4313,
      "Ġà¤¨à¤¿à¤µ": 4314,
      "Ġà¤¨à¥įà¤¯à¤¾à¤¯": 4315,
      "orĠ\"": 4316,
      "Ġà¤ľà¤®": 4317,
      "Ġà¤ľà¤µ": 4318,
      "Ġà¤ªà¥įà¤°à¤®à¥ģà¤ĸ": 4319,
      "à¤¿à¤¯à¤¾à¤ģ": 4320,
      "reserv": 4321,
      "respon": 4322,
      "Ġà¤¯à¤¾Ġà¤ķ": 4323,
      "à¤ľà¤¹": 4324,
      "à¤Ĺà¤¡": 4325,
      "allyĠandĠ": 4326,
      "à¥ĭà¤ĤĠà¤¨": 4327,
      "belief": 4328,
      "à¥ĢĠà¤¸à¥įà¤¥à¤¾à¤ª": 4329,
      "icalĠandĠ": 4330,
      "atĠisĠ": 4331,
      "India'sĠpopulationĠ": 4332,
      "shareĠ": 4333,
      "showĠ": 4334,
      "à¤¾à¤ªà¤°": 4335,
      "à¤¾Ġà¤¸à¤°à¥įà¤µ": 4336,
      "Ġà¤īà¤ª": 4337,
      "uresĠandĠ": 4338,
      "ityĠofĠ": 4339,
      "pers": 4340,
      "regul": 4341,
      "upperĠ": 4342,
      "Ġà¤¸à¤Ĥà¤ĺ": 4343,
      "Ġà¤ħà¤¸à¥Ĥà¤¨": 4344,
      "2009": 4345,
      "à¤¿à¤Ĥà¤¸": 4346,
      "Ġà¤ļà¤²": 4347,
      "Ġà¥§à¥¦": 4348,
      "Ġà¥§à¥«": 4349,
      "primaryĠ": 4350,
      "weal": 4351,
      "partsĠofĠ": 4352,
      "à¤¤à¥įà¤¤à¥įà¤µ": 4353,
      "declar": 4354,
      "electedĠ": 4355,
      "popularĠ": 4356,
      "ment.": 4357,
      "itĠisĠ": 4358,
      "hadĠbeenĠ": 4359,
      ".ĠThereĠareĠ": 4360,
      "SouthĠIndiaĠ": 4361,
      "every": 4362,
      "à¤¾à¤Ĥà¤¤Ġà¤®à¥ĭà¤ł": 4363,
      "numer": 4364,
      "culturalĠ": 4365,
      "ightĠ": 4366,
      "aĠfederalĠ": 4367,
      "presentĠ": 4368,
      "à¤ªà¥įà¤°à¤§à¤¾à¤¨": 4369,
      "à¥ĢĠà¤Ńà¥Ĥà¤®": 4370,
      "à¥ĢĠà¤¨à¤¦": 4371,
      "à¥ĢĠà¤¬à¥įà¤°à¤¿à¤Łà¤¿à¤¶": 4372,
      "à¤¾à¤Ĥà¤ļà¥įà¤¯à¤¾Ġà¤®": 4373,
      "maint": 4374,
      "greatĠ": 4375,
      "peopl": 4376,
      "perĠcapit": 4377,
      "Ġà¤ķà¤¿à¤¯à¤¾à¥¤": 4378,
      "Ġà¤²à¥ĭà¤ķà¤¸à¤Ń": 4379,
      "casteĠsystem": 4380,
      "humanĠfig": 4381,
      ",ĠwhoseĠ": 4382,
      "Ġà¤¤à¥įà¤¯à¤¾à¤®à¥ģà¤³": 4383,
      "Ġà¤°à¤¾à¤·à¥įà¤Łà¥įà¤°à¥Ģà¤¯": 4384,
      "olvingĠ": 4385,
      "Ġà¤ıà¤¶à¤¿à¤¯": 4386,
      "à¥ĩĠà¤¹à¥Īà¤Ĥ": 4387,
      "languageĠfamil": 4388,
      "à¤¾Ġà¤°à¤¾à¤ľà¥įà¤¯": 4389,
      "governmentsĠfollow": 4390,
      "Ġà¤¸à¥įà¤µà¤¾à¤¤à¤Ĥà¤¤à¥įà¤°": 4391,
      "aĠmemberĠ": 4392,
      ")ĠandĠtheĠ": 4393,
      "oint": 4394,
      "à¥ĢĠà¤Ĺà¥ĩà¤²": 4395,
      "theyĠwereĠ": 4396,
      "originallyĠ": 4397,
      "headĠ": 4398,
      "painting,Ġ": 4399,
      "oppos": 4400,
      "advanc": 4401,
      ".ĠAllĠ": 4402,
      "inĠ2023": 4403,
      "·à¤Ńà¤¦à¥ĩà¤µ": 4404,
      "makesĠ": 4405,
      "aroundĠtheĠ": 4406,
      "organisationĠ": 4407,
      "à¤¾à¤Ĥà¤µà¤°": 4408,
      "Ġà¤ħà¤®à¥ĩà¤°à¤¿à¤ķ": 4409,
      "liberalis": 4410,
      "untilĠ": 4411,
      "spreadĠ": 4412,
      "consider": 4413,
      "Kashmir": 4414,
      "literacyĠrateĠ": 4415,
      "à¤Ĥà¤ľà¤¾à¤¬": 4416,
      "Ġà¤ķà¥ĩĠà¤¦à¤¶à¤ķ": 4417,
      "Gujar": 4418,
      "tribalĠ": 4419,
      "writtenĠ": 4420,
      "Ġà¤Ńà¤¾à¤Ĺà¤¾à¤¤": 4421,
      "pollut": 4422,
      "merch": 4423,
      ".ĠAccordingĠtoĠ": 4424,
      "Ġà¤¤à¤®à¤¿à¤³à¤¨à¤¾à¤¡": 4425,
      "à¥ĩà¤¤à¥ĥà¤¤à¥įà¤µ": 4426,
      "level": 4427,
      "sometimesĠ": 4428,
      "łà¤¿à¤ķà¤¾à¤£": 4429,
      "revenuesĠ": 4430,
      "chosenĠ": 4431,
      "perĠcapitaĠ": 4432,
      "aĠmemberĠofĠ": 4433,
      "60": 4434,
      "65": 4435,
      "7,Ġ": 4436,
      "Dev": 4437,
      "HO": 4438,
      "Non-": 4439,
      "Treat": 4440,
      "WarĠ": 4441,
      "WHO": 4442,
      "ai,Ġ": 4443,
      "cal": 4444,
      "cul": 4445,
      "eas": 4446,
      "e\"Ġ": 4447,
      "ff": 4448,
      "fem": 4449,
      "federalĠ": 4450,
      "fundamentalĠ": 4451,
      "gasĠ": 4452,
      "ii": 4453,
      "kam": 4454,
      "nationĠ": 4455,
      "oth": 4456,
      "other": 4457,
      "ptĠ": 4458,
      "practic": 4459,
      "sar": 4460,
      "sect": 4461,
      "tal": 4462,
      "uentĠA": 4463,
      "val": 4464,
      "veg": 4465,
      "wear": 4466,
      "Ġ'": 4467,
      "Ġ200": 4468,
      "ıà°¡": 4469,
      "à¤Ĩ": 4470,
      "à¤·à¥įà¤£": 4471,
      "Ġà¤ĵà¤³à¤ĸ": 4472,
      "anch": 4473,
      "sĠareĠ": 4474,
      ",Ġà¥§à¥": 4475,
      ",Ġà¥§à¥¯à¥": 4476,
      ",Ġ1965,Ġ": 4477,
      "à¤¤à¤¿": 4478,
      "à¤°à¤²": 4479,
      "energyĠ": 4480,
      "à¤¿à¤Ń": 4481,
      "à¤¿à¤·à¥įà¤ł": 4482,
      "arnat": 4483,
      "discri": 4484,
      "ati,Ġ": 4485,
      "ateri": 4486,
      "à¥ĩĠà¤¥": 4487,
      "à¥ĩĠà¤ļ": 4488,
      "à¥įà¤¯à¤®": 4489,
      "à¥įà¤¯à¤¾à¤²": 4490,
      "à¥ĩà¤Ĺà¤³": 4491,
      "report": 4492,
      "aĠC": 4493,
      "aĠofĠ": 4494,
      "à¤¾à¤°à¤ļà¥ĩĠà¤µ": 4495,
      "à¥Ģà¤¬": 4496,
      "iceĠ": 4497,
      "icid": 4498,
      "iciansĠ": 4499,
      "Ġà¤ķà¤¾à¤®": 4500,
      "à¥ģà¤¤à¥įà¤¤à¤°": 4501,
      "à¤ķà¥įà¤°": 4502,
      "à¤¨à¤¤": 4503,
      "à¤¨à¤¾Ġà¤ķ": 4504,
      "à¤¸à¤¿à¤¦à¥įà¤§": 4505,
      "Ġà¤¸à¥ĩ": 4506,
      "Ġà¤¸à¥ģà¤°à¥ģà¤µ": 4507,
      "oul": 4508,
      "Ġà¤®à¤¨": 4509,
      "urid": 4510,
      "à¤Ĥà¤¦à¥įà¤°": 4511,
      "à¤°à¥įà¤¨": 4512,
      "lyĠofĠIndiaĠ": 4513,
      "Ġà¤¹à¤³": 4514,
      "Ġà¤¹à¥ĩĠà¤¨à¤¾à¤µ": 4515,
      "à¤¾à¤¨à¤µ": 4516,
      "amongĠtheĠ": 4517,
      "à¤£à¥ĩ": 4518,
      "à¤¾à¤²à¥ĩà¤¯": 4519,
      "Ġà¤Ĩà¤ķ": 4520,
      "Ġà¤Ĩà¤¹à¥ĩà¤¤": 4521,
      "à¥Ĥà¤Ł": 4522,
      "à¤ªà¥Ĥà¤°": 4523,
      "churid": 4524,
      "à¤§à¥ģà¤¨": 4525,
      "IndianĠf": 4526,
      "à¥ģà¤¡": 4527,
      "à¥ģà¤Ī": 4528,
      "à¥ģà¤Ł": 4529,
      "eter": 4530,
      "à¥Ĥà¤¤": 4531,
      "à¤¾à¤¸à¤¾à¤Ĺà¤°": 4532,
      "exampl": 4533,
      "inĠtheĠworld": 4534,
      "improv": 4535,
      "Ġà¤¨à¤¹à¥Ģà¤Ĥ": 4536,
      "Ġà¤¨à¤¾à¤µà¤¾à¤ļ": 4537,
      "Ġà¤¬à¤¢à¤¼": 4538,
      "Ġà¤ķà¥ĩĠà¤®": 4539,
      "Ġà¤ķà¥ĩĠà¤°": 4540,
      "Ġà¤ķà¥ĩĠà¤µ": 4541,
      "addit": 4542,
      "adher": 4543,
      "Ġà¤¯à¥ģà¤¦à¥įà¤§": 4544,
      "romis": 4545,
      "à¤¯à¤Ĥà¤¤": 4546,
      "uscri": 4547,
      "·à¥įà¤ķ": 4548,
      "à¤Ĥà¤¤à¤ªà¥įà¤°à¤§à¤¾à¤¨": 4549,
      "à¤Ĺà¥įà¤°": 4550,
      "à¥Ĥà¤¨à¤¹": 4551,
      "anceĠofĠ": 4552,
      "à¤¾à¤¹à¥ĢĠà¤µà¤°à¥įà¤·": 4553,
      "es,ĠorĠ": 4554,
      "itsĠeconom": 4555,
      "spic": 4556,
      "sport": 4557,
      "Ġà¤¶à¤¾à¤²à¥ĩà¤¯": 4558,
      "à¤³à¥Ĥ": 4559,
      "shal": 4560,
      "formalĠ": 4561,
      "Ġà¤²à¥ĩà¤£": 4562,
      "Ġà¤īà¤¤": 4563,
      "Ġà¤īà¤¦à¤¾à¤¹à¤°à¤£Ġà¤Ĩà¤¹à¥ĩ.": 4564,
      "areĠdirectlyĠ": 4565,
      "largest": 4566,
      "Ġà¤µà¤¿à¤·": 4567,
      "veryĠ": 4568,
      "à¥ĩĠà¤¸à¤®": 4569,
      "eĠofĠIndia'sĠ": 4570,
      "à¤¾à¤ļà¥įà¤¯à¤¾Ġà¤ª": 4571,
      "upĠtoĠ": 4572,
      "2001": 4573,
      "iĠisĠ": 4574,
      "Ġà°¦à±ĩà°¶à°Ĥ.Ġà°": 4575,
      "à¤¿à¤Ĥà¤¹": 4576,
      "trad": 4577,
      "stituentĠA": 4578,
      "à¥ĩĠà¤®à¥ĩà¤Ĥ": 4579,
      "à¤¾Ġà¤ľà¤¾à¤¸à¥įà¤¤": 4580,
      "à¥ĩĠà¤Ńà¤¾à¤°à¤¤à¤¾à¤ļà¥įà¤¯à¤¾Ġà¤": 4581,
      "ratesĠ": 4582,
      "Ġà¤°à¤¾à¤ľà¥įà¤¯à¤¸à¤Ń": 4583,
      "ricketĠ": 4584,
      "commonĠ": 4585,
      "compromis": 4586,
      "president": 4587,
      "suppli": 4588,
      "à¥īà¤Ĥà¤Ĺà¥įà¤°": 4589,
      "Ġà¤¸à¥įà¤¥à¤¾à¤¨": 4590,
      "Ġà¤ĺà¥ĩà¤£": 4591,
      "classic": 4592,
      "ConstituentĠA": 4593,
      "à¤¸à¥įà¤¤à¥įà¤°": 4594,
      "ine.ĠTheĠ": 4595,
      "à¥ĢĠà¤Ńà¤¾à¤°à¤¤à¤¾à¤¤": 4596,
      "world'sĠsecon": 4597,
      "constitution": 4598,
      "constitutionalĠ": 4599,
      "courtĠ": 4600,
      "à¤¸à¥įà¤¥à¤¾à¤¨": 4601,
      "Ġà¤°à¤¾à¤ľà¤µ": 4602,
      "ChinaĠ": 4603,
      "perĠ1": 4604,
      "Ġà¤ĩà¤¤à¤¿à¤¹à¤¾à¤¸": 4605,
      "Ġà¤Ńà¤¾à¤·à¤¾à¤ĵà¤Ĥ": 4606,
      "wideĠ": 4607,
      "à¤µà¥įà¤¯à¥ģà¤¤à¥įà¤¤à¤°": 4608,
      "à¥įà¤¯à¤¾Ġà¤ķà¤¾à¤¹à¥ĢĠà¤µà¤°à¥įà¤·": 4609,
      "nuclearĠwea": 4610,
      "signedĠ": 4611,
      "natalĠ": 4612,
      "schedul": 4613,
      "Hinduism,Ġ": 4614,
      "à¥ĭà¤¬à¤¤": 4615,
      "cookedĠ": 4616,
      "mathematicalĠ": 4617,
      "basedĠonĠtheĠ": 4618,
      "à¥įà¤¥à¤¾à¤¨à¤¿à¤ķ": 4619,
      "ruralĠare": 4620,
      "à¤¸à¤®à¥Ĥà¤¹": 4621,
      "à°°à±įà°¥à±įà°¯à°ĤĠà°ķ": 4622,
      "contributionsĠ": 4623,
      "grewĠbyĠ": 4624,
      "head": 4625,
      "ittedĠ": 4626,
      "AlthoughĠ": 4627,
      "HindiĠ": 4628,
      "breath": 4629,
      "Ġà¤ªà¤¦à¤µ": 4630,
      "Ġà¤®à¤¿à¤³à¤¾à¤²": 4631,
      "hasĠbeenĠanĠ": 4632,
      "thereĠwereĠ": 4633,
      "à¥Ĥà¤¹à¤³à¥Ĥ": 4634,
      "Ġà°¸à°¾à°®à°°à±įà°¥à±įà°¯à°ĤĠà°ķ": 4635,
      "definit": 4636,
      "eez": 4637,
      "à¤ĺà¤¾à¤¤": 4638,
      "GDPĠ": 4639,
      "below": 4640,
      "differentĠ": 4641,
      "à¥ĭà¤ªà¥Ģà¤¯": 4642,
      "s.ĠInĠ": 4643,
      "industryĠ": 4644,
      "emblyĠofĠIndiaĠ": 4645,
      "importantĠ": 4646,
      "Ġà¤¦à¥įà¤µà¥Ģà¤ªà¤¸à¤®à¥Ĥà¤¹": 4647,
      "Ġà¤Ĺà¤Ĥà¤Ĺà¥ĩà¤ļ": 4648,
      "distinct": 4649,
      "transmittedĠ": 4650,
      "NuclearĠ": 4651,
      "ssemblyĠofĠIndiaĠ": 4652,
      "à¥įà¤¯à¤¾Ġà¤¹à¥ĭà¤¤": 4653,
      "Ġà¤ĸà¤¾à¤¸à¤¦à¤¾à¤°": 4654,
      "UnitedĠStat": 4655,
      "à¤£à¥įà¤¡": 4656,
      "à¤ļà¥ĩĠà¤ªà¤łà¤¾à¤°": 4657,
      "kameez": 4658,
      "sectorĠ": 4659,
      "veget": 4660,
      ",Ġ1965,Ġ1971": 4661,
      "discrimin": 4662,
      "à¤¾à¤°à¤ļà¥ĩĠà¤µà¤¾à¤³à¤µà¤Ĥà¤Ł": 4663,
      "churidar": 4664,
      "à¥īà¤Ĥà¤Ĺà¥įà¤°à¥ĩà¤¸": 4665,
      "ConstituentĠAssemblyĠofĠIndiaĠ": 4666,
      "à¤µà¥įà¤¯à¥ģà¤¤à¥įà¤¤à¤°Ġà¤¶à¤¿à¤ķà¥įà¤·à¤£": 4667,
      "à¥įà¤¯à¤¾Ġà¤ķà¤¾à¤¹à¥ĢĠà¤µà¤°à¥įà¤·à¤¾à¤¤": 4668,
      "nuclearĠweapon": 4669,
      "scheduledĠ": 4670,
      "Ġà°¸à°¾à°®à°°à±įà°¥à±įà°¯à°ĤĠà°ķà°²à°¿à°Ĺ": 4671,
      ",Ġà¤ª": 4672,
      "-0": 4673,
      "48": 4674,
      "500": 4675,
      "8Ġà°ķà±ĩà°Ĥà°¦à±įà°°": 4676,
      "9Ġà°°à°¾à°·à±įà°Łà±įà°°": 4677,
      "Au": 4678,
      "mand": 4679,
      "¦à°¾à°Ł": 4680,
      "Ġ%": 4681,
      "Ġ30": 4682,
      "Ġ40": 4683,
      "īà¤¤à¥įà¤¤à¤°": 4684,
      "ıà°ªà±įà°°": 4685,
      "ĵà¤°": 4686,
      "ľà±Īà°¨": 4687,
      "à¤ĥ": 4688,
      "à¤¾)": 4689,
      "à¥įà¤¦à¥įà¤°": 4690,
      "à°¿,Ġà°ª": 4691,
      ",Ġ8Ġà°ķà±ĩà°Ĥà°¦à±įà°°": 4692,
      "à¤¤à¥ĩĠà¤¹à¥Īà¤Ĥà¥¤": 4693,
      "à°¿à°²à±ĭ": 4694,
      "à¤°à¤¾à¤£": 4695,
      "à¤°à¥ĭà¤¬à¤°": 4696,
      "à°Ĥà°ĺ": 4697,
      "à¤¿à¤ļ": 4698,
      "à°¤à±Ģà°°": 4699,
      "à¥ĩà¤¬": 4700,
      "à°²à°Ĥà°ķ": 4701,
      "à¤¾à¤°à¤¿à¤ķ": 4702,
      "à±ĩà°²Ġà°ķ": 4703,
      "à±ĭà°Ĥà°¦à°¿.Ġà°": 4704,
      "à¥įà¤°à¤¾à¤®": 4705,
      "à¥Ģà¤ľ": 4706,
      "à¥Ģà¤ł": 4707,
      "Ġà¤ķà¥ĭà¤Ł": 4708,
      "à¤¨à¥įà¤¤": 4709,
      "à¤¨à¥ĩà¤ķ": 4710,
      "à±ĢĠà°µ": 4711,
      "à¤¸à¥įà¤¯": 4712,
      "Ġà¤¸à¤Ń": 4713,
      "à¤¹à¥įà¤¯à¤¾à¤¦": 4714,
      "à±ģĠà°µ": 4715,
      "à±ģĠà°²à±ĭ": 4716,
      ",Ġà°ľà±Īà°¨": 4717,
      "Ġà¤ªà¥ģ": 4718,
      "Ġà¤ªà¤¡": 4719,
      "Ġà¤ªà¤¾à¤µà¤²": 4720,
      "à±ĩà°ļ": 4721,
      "Ġà¤®à¥ģ": 4722,
      "à°®à±Ģà°Ł": 4723,
      "Ġà¤¹à¥ĩĠà¤Ńà¤¾à¤°à¤¤": 4724,
      "à¤µà¥ĥà¤¤": 4725,
      "à¤¾à¤¨à¥ĩĠà¤ķ": 4726,
      "à°¿à°ķà±įà°ķ": 4727,
      "à¥įà¤¯à¤¾Ġà¤ª": 4728,
      "à¥įà¤¯à¤¾Ġà¤Ĺ": 4729,
      "Ġà¤Ĩà¤§à¤¾à¤°": 4730,
      "à°Łà°¾à°¨": 4731,
      "à±Ĥà°°à±įà°ª": 4732,
      "à¤ªà¥ĩà¤ķà¥įà¤·": 4733,
      "à°¾à°¨à±ģĠà°": 4734,
      "Ġà°¸à±Īà°¨": 4735,
      "à¥ģà¤·à¥įà¤ķ": 4736,
      "à°¾à°¯à±ģà°¤": 4737,
      "Ġà°µà°¨": 4738,
      "Ġà¤¤à¥įà¤¯à¤¾à¤ļ": 4739,
      "à°¾à°¤à°ĤĠà°": 4740,
      "Ġà¤¨à¤µ": 4741,
      "Ġà¤¦à¥ĭ": 4742,
      "Ġà¤ľà¥Īà¤¨": 4743,
      "Ġà¤ªà¥įà¤°à¤¶": 4744,
      "Ġà¤ªà¥įà¤°à¤¾à¤Ĥà¤¤": 4745,
      "Ġà¤ªà¥įà¤°à¤¾à¤ªà¥įà¤¤": 4746,
      "à¤¿à¤¯à¤¨": 4747,
      "Ġà¤ķà¥ĩĠà¤ļ": 4748,
      "Ġà¤¯à¤¾": 4749,
      "Ġà¤¯à¤¾Ġà¤¸": 4750,
      "à¤¾à¤µà¤¾à¤¨": 4751,
      "à¤¾à¤µà¤¸à¤¾à¤¯": 4752,
      "Ġà°®à±ģà°ĸà±įà°¯à°®à±Īà°¨": 4753,
      "à¤Ńà¤¾à¤°": 4754,
      "à°Ĥà°²à±ĭĠà°īà°¨à±įà°¨": 4755,
      "à±įĠà°¦à±ĩà°¶": 4756,
      "à¤¾à¤Ĥà¤ļà¤¾Ġà¤ª": 4757,
      "à°Ńà°¾à°·": 4758,
      "à¤¾à¤¦à¥ĩà¤¶": 4759,
      "à¥ĩĠà¤Ĩà¤¹à¥ĩà¤¤": 4760,
      "à¥ĩĠà¤Ĩà¤£à¤¿": 4761,
      "à¤¾à¤ļà¥įà¤¯à¤¾Ġà¤ĵ": 4762,
      "Ġà¤¸à¤Ĥà¤µà¤¿à¤§à¤¾à¤¨": 4763,
      "Ġà°ħà°¤": 4764,
      "à¤¾à¤¯à¤¦": 4765,
      "Ġà¤ªà¤°à¥įà¤¯": 4766,
      "à¤¾à¤³à¤¾à¤¤à¥Ģà¤²": 4767,
      "Ġà°¶à°ķà±įà°¤": 4768,
      "à°¿à°¸à±įà°¤à±Ģà°°à±įà°£": 4769,
      "à¤Ńà¤¾à¤°à¤¤à¤¾à¤¤": 4770,
      "à¥ĩĠà¤®à¤¹": 4771,
      "à¥Ģ.Ġà¤¤": 4772,
      "à¥ĩĠà¤ªà¤¦": 4773,
      "à±į,Ġà°Ńà±Ĥ": 4774,
      ",Ġà°ªà°¶à±įà°ļà°¿à°®": 4775,
      "Ġ10": 4776,
      "Ġà°ļà°¾à°°à°¿à°¤à±įà°°à°ķ": 4777,
      "à°¾à°¸à°®à±ģà°¦à±įà°°": 4778,
      "à±Įà°¦à±įà°§": 4779,
      "à°¿Ġà°¸à°¿à°Ĥà°§": 4780,
      "à¥ĩĠà¤¬à¤¾à¤¦": 4781,
      "à¥ĩĠà¤ªà¥įà¤°à¤¾à¤ļà¥Ģà¤¨": 4782,
      "Ġà°ªà±įà°°à°¾à°Ĥà°¤à±Ģà°¯": 4783,
      "à¤ļà¥įà¤¯à¤¾Ġà¤ª": 4784,
      "à¥ĢĠà¤¬à¤¨": 4785,
      "à¥Ĥà¤ªĠà¤®à¥ĩà¤Ĥ": 4786,
      "à¤¾à¤Ĥà¤ªà¥ĩà¤ķà¥įà¤·": 4787,
      "ĩà°¦à°¿Ġà°¸à°¿à°Ĥà°§": 4788,
      "Ġà°¸à°®à°¾à°ĸà±įà°¯": 4789,
      "ianĠPlat": 4790,
      "à¥ĩĠà¤°à¤¾à¤ľà¥įà¤¯": 4791,
      "à¥ĢĠà¤¤à¤°": 4792,
      "à¤®à¤¾à¤£à¥ģ": 4793,
      "à°ķà±ģĠà°ªà±ģà°Łà±įà°Ł": 4794,
      "à¤ľà¤¾à¤¤à¤¿": 4795,
      "à±ĩà°¸à°¿à°Ĥà°¦à°¿.": 4796,
      "à°¿à°ļà±įà°ļ": 4797,
      "Ġà¤°à¤¾à¤·à¥įà¤Łà¥įà¤°à¤ªà¤¤": 4798,
      ",Ġà°¸à°¿à°ķà±įà°ķ": 4799,
      "Ġà¤®à¤¾à¤¨à¤µ": 4800,
      "à°°à±įà°²à°ķà±ģĠà°ªà±Īà°Ĺà°¾Ġà°": 4801,
      "à¤¾Ġà¤ĩà¤¤à¤¿à¤¹à¤¾à¤¸": 4802,
      "¬à°¹à±ģà°³": 4803,
      "à°Łà±įà°²à°ķà±ģĠà°ªà±Īà°Ĺà°¾Ġà°": 4804,
      "à¤¬à¤¸à¥ĩĠà¤¬à¤¡à¤¼": 4805,
      "Ġà°Ńà°¾à°Ĺà°¾à°¨à±įà°¨à°¿Ġà°": 4806,
      "à°®à±ģà°¦à±įà°°à°¤à±Ģà°°": 4807,
      "ļà±Īà°¨à°¾,Ġà°": 4808,
      "ļà±Īà°¨à°¾à°¨à±ģĠà°": 4809,
      "à°®à±ģà°²à±ĭĠà°": 4810,
      "īà°¤à±įà°¤à°°à°¾à°¨": 4811,
      "à¤Ĥà¤Ĺà¥įà¤°à¤ľà¥Ģ": 4812,
      "à¤ķà¤²à¥įà¤ª": 4813,
      "à¥ĭà¤·à¤£": 4814,
      "ľà°¨à°¾à°Ńà°¾à°¤": 4815,
      "ľà°¨à±įà°®": 4816,
      ",Ġà°¬à±Įà°¦à±įà°§": 4817,
      "à°®à±Ĩà°Ĥà°Ł": 4818,
      "à°Ĥà°¤à±ĭĠà°µà±Ī": 4819,
      "à¥ĥà¤·à¥įà¤Łà¥įà¤¯à¤¾Ġà¤Ńà¤¾à¤°à¤¤": 4820,
      "à¤¤à¥įà¤ķà¤¾à¤²à¥Ģà¤¨": 4821,
      "à¤¿à¤¤à¥įà¤¤à¥įà¤µ": 4822,
      "Ġà¤¹à¥ģà¤Ĩà¥¤": 4823,
      "à±ĭĠà°ªà±įà°°à°ªà°Ĥà°ļà°Ĥà°²à±ĭĠà°": 4824,
      "à°¾à°°à±įà°²à°®à±Ĩà°Ĥà°Ł": 4825,
      "à±ĩà°ªà°¾à°²à±į,Ġà°Ńà±Ĥ": 4826,
      "Ġà¤¯à¤¾Ġà¤¨à¤¾à¤µà¤¾à¤¨": 4827,
      "Ġà¤¸à¤¾à¤®à¤¾à¤ľà¤¿à¤ķ": 4828,
      "Ġ(à¤ĩà¤Ĥà¤Ĺà¥įà¤°à¤ľà¥Ģ": 4829,
      "à°ªà°¾à°²à°¿à°¤Ġà°ªà±įà°°à°¾à°Ĥà°¤à°¾à°²à±ģĠà°": 4830,
      "Ġà¤ħà¤¶à¤¿à¤¯à¤¾à¤Ī": 4831,
      "à¥ĭà¤ĤĠà¤ķà¥ĩĠà¤¸à¤¾à¤¥": 4832,
      "à¤¾à¤°à¥įà¤®à¤¿à¤ķ": 4833,
      "ıà°ªà±įà°°à°¿à°²": 4834,
      "à°¿à°²à±ĭà°®à±Ģà°Ł": 4835,
      "à±ĩà°²Ġà°ķà°¿à°²à±ĭà°®à±Ģà°Ł": 4836,
      "Ġà¤ķà¥ĭà¤Łà¥ĢĠà¤µà¤°à¥įà¤·": 4837,
      "à¤¹à¥įà¤¯à¤¾à¤¦à¥įà¤°": 4838,
      "Ġà¤Ĩà¤§à¤¾à¤°à¤¿à¤¤": 4839,
      "Ġà°¸à±Īà°¨à°¿à°ķ": 4840,
      "à¤¾à¤µà¤¸à¤¾à¤¯à¤¿à¤ķ": 4841,
      "Ġà°¸à°®à°¾à°ĸà±įà°¯.Ġà°": 4842,
      "à°Łà±įà°²à°ķà±ģĠà°ªà±Īà°Ĺà°¾Ġà°ľà°¨à°¾à°Ńà°¾à°¤": 4843,
      "à±ĩà°ªà°¾à°²à±į,Ġà°Ńà±Ĥà°Łà°¾à°¨": 4844,
      "à±ĩà°²Ġà°ķà°¿à°²à±ĭà°®à±Ģà°Łà°°à±įà°²à°ķà±ģĠà°ªà±Īà°Ĺà°¾Ġà°": 4845,
      "%Ġà°Ĩ": 4846,
      ").Ġà°": 4847,
      ");Ġ": 4848,
      ")Ġb": 4849,
      ")Ġà°²": 4850,
      ",Ġà°ªà±įà°°": 4851,
      "-7": 4852,
      "-à°²": 4853,
      "-majorityĠ": 4854,
      "-dayĠ": 4855,
      "-styleĠ": 4856,
      "-ga": 4857,
      ".3": 4858,
      ".à°": 4859,
      ".à°ªà±Ĥ": 4860,
      "04%": 4861,
      "12.": 4862,
      "24": 4863,
      "300": 4864,
      "5,": 4865,
      "517": 4866,
      "5-0": 4867,
      "7à°²à±ĭĠà°": 4868,
      "9-": 4869,
      "900": 4870,
      ":Ġà°": 4871,
      ";Ġà°": 4872,
      ";Ġà°ķ": 4873,
      ";Ġà°®": 4874,
      "=Ġ1": 4875,
      "Ach": 4876,
      "CI": 4877,
      "Ear": 4878,
      "EĠ7": 4879,
      "Gang": 4880,
      "Gond": 4881,
      "Jaw": 4882,
      "Kos": 4883,
      "Kaver": 4884,
      "Laksh": 4885,
      "Nar": 4886,
      "Network": 4887,
      "Oc": 4888,
      "Oce": 4889,
      "Part": 4890,
      "Sultan": 4891,
      "Ti": 4892,
      "Vaj": 4893,
      "aem": 4894,
      "aim": 4895,
      "ahar": 4896,
      "as,ĠtheĠ": 4897,
      "adiverseĠ": 4898,
      "bul": 4899,
      "bet": 4900,
      "back": 4901,
      "catt": 4902,
      "civilĠ": 4903,
      "d,Ġ": 4904,
      "dre": 4905,
      "driv": 4906,
      "ey": 4907,
      "eaĠ": 4908,
      "eous": 4909,
      "fac": 4910,
      "fus": 4911,
      "foun": 4912,
      "four": 4913,
      "flowĠ": 4914,
      "gainedĠ": 4915,
      "hor": 4916,
      "hun": 4917,
      "hot": 4918,
      "hÄģ": 4919,
      "iaĠ": 4920,
      "idu": 4921,
      "i.ĠTheĠ": 4922,
      "jorĠ": 4923,
      "jay": 4924,
      "jectĠ": 4925,
      "kn": 4926,
      "lalĠ": 4927,
      "lass": 4928,
      "ledĠtoĠ": 4929,
      "ledĠtheĠ": 4930,
      "laim": 4931,
      "mn": 4932,
      "meg": 4933,
      "mamm": 4934,
      "muchĠ": 4935,
      "neĠ": 4936,
      "non": 4937,
      "nex": 4938,
      "na,Ġ": 4939,
      "nedĠtoĠ": 4940,
      "nearĠ": 4941,
      "oĠtheĠ": 4942,
      "och": 4943,
      "odiversityĠ": 4944,
      "pushĠ": 4945,
      "ranĠ": 4946,
      "run": 4947,
      "rangesĠ": 4948,
      "s'": 4949,
      "sea": 4950,
      "set": 4951,
      "sha": 4952,
      "tea": 4953,
      "treat": 4954,
      "temper": 4955,
      "uallyĠ": 4956,
      "vol": 4957,
      "vot": 4958,
      "wlyĠ": 4959,
      "wet": 4960,
      "yingĠtheĠ": 4961,
      "yâĢĶ": 4962,
      "zon": 4963,
      "¢à°¾à°ķ": 4964,
      "¤à°°à±įà°µ": 4965,
      "¤à°®à°¿à°³": 4966,
      "¥à°¨": 4967,
      "¦à±įà°µ": 4968,
      "¦à°¾à°¦à°¾à°ª": 4969,
      "§à°°": 4970,
      "¨à°¿à°²": 4971,
      "¨à±ĩà°°": 4972,
      "¨à±Ĩà°²": 4973,
      "¨à±Ĩà°¹": 4974,
      "«à¥¦": 4975,
      "¬à°Ĥà°Ĺ": 4976,
      "¬à°¾à°Ł": 4977,
      "®à±Ī": 4978,
      "®à°¾à°¨": 4979,
      "®à°¾à°¤": 4980,
      "¯à±ģ": 4981,
      "°à°¿à°Ł": 4982,
      "°à°ķà°¾à°²": 4983,
      "²à°¿": 4984,
      "²à±Ĩ": 4985,
      "²à±ĩà°¦": 4986,
      "µà±ĩà°Ĺà°Ĥà°Ĺà°¾Ġà°": 4987,
      "µà±Ģà°Łà°¿à°²à±ĭĠà°": 4988,
      "¶à°¾à°¸": 4989,
      "¸Î": 4990,
      "¸à°¾à°®": 4991,
      "¸à°¾à°§": 4992,
      "¸à°¿à°Ĥà°§": 4993,
      "¸à°Ĥà°ªà±įà°°à°¦à°¾à°¯": 4994,
      "¹à±Ī": 4995,
      "¹à°¾à°ķ": 4996,
      "¼¸Î": 4997,
      "½Î": 4998,
      "á¼¸Î": 4999,
      "ĠV": 5000,
      "ĠtoĠtheĠ": 5001,
      "ĠforĠ": 5002,
      "Ġ201": 5003,
      "Ġterm": 5004,
      "ħà°¹": 5005,
      "ħà°Ĥà°Ł": 5006,
      "ħà°ªà±įà°ª": 5007,
      "ħà°Ńà°¿à°µà±ĥà°¦à±įà°§à°¿Ġà°ļà±Ĩà°Ĥà°¦": 5008,
      "Ĩà°¨": 5009,
      "Ĩà°µ": 5010,
      "Ĩà°ķà±įà°°à°®": 5011,
      "ĩà°Ł": 5012,
      "ĩà°ķà±įà°ķ": 5013,
      "ĪĠà°°à°¾à°·à±įà°Łà±įà°°": 5014,
      "Īà°¸à±įà°Ł": 5015,
      "īà°Ĥà°¦à°¿.": 5016,
      "İà°¡": 5017,
      "İà°Ĺ": 5018,
      "İà°²à°ķ": 5019,
      "ıà°ķ": 5020,
      "Ĳà°ķ": 5021,
      "Ĳà°°à±ĭ": 5022,
      "ķà±įà°°": 5023,
      "ķà°°à°£": 5024,
      "ķà±ģà°¡": 5025,
      "ķà°¥": 5026,
      "ķà°²à±įà°ª": 5027,
      "Ĺà°¤": 5028,
      "Ĺà±įà°°": 5029,
      "Ĺà±Ĩà°²à±ģ": 5030,
      "Ĺà±ģà°°à±įà°¤": 5031,
      "ļà°¾à°²": 5032,
      "ļà°¿à°°": 5033,
      "ľà°¾à°¤": 5034,
      "ľà°Ĥà°¬à±Ĥ": 5035,
      "łà°Ń": 5036,
      "Ńà°µ": 5037,
      "Ńà°¾à°·": 5038,
      "Ńà°ķà±įà°¤": 5039,
      "à°Ĩ": 5040,
      "à°ĺ": 5041,
      "à°ĩà°¦": 5042,
      "à°¢à°¾à°ķ": 5043,
      "à°łà°Ń": 5044,
      "Ġà°ĩ": 5045,
      "Ġà°²à±ĭ": 5046,
      "Ġà°īà°¨à±įà°¨": 5047,
      "Ġà°Ńà°¾à°°à°¤à±Ģà°¯": 5048,
      "Ġà°ĩà°¤à°°": 5049,
      "Ġà°İà°¨à±įà°¨à±ĭĠà°": 5050,
      "eĠforest": 5051,
      "à±įĠà°¸à°Ń": 5052,
      "à±įĠà°ªà°¾à°°à±įà°Łà±Ģ": 5053,
      "à±įĠà°µà°Ĥà°Ł": 5054,
      "à±į,Ġà°ªà°¾à°ķ": 5055,
      "à±įĠà°°à±Īà°²à±įà°µà±ĩ": 5056,
      "à°¾Ġà°ªà±įà°°à°§à°¾à°¨": 5057,
      "à°¾Ġà°ªà°¾à°°à±įà°Łà±Ģ": 5058,
      "à°¾Ġ\"": 5059,
      "à°¾-à°": 5060,
      "à°¾à°«": 5061,
      "à°¿à°Ĥà°": 5062,
      "à°¿à°Ĥà°Ĺ": 5063,
      "thor": 5064,
      "thĠtheĠ": 5065,
      "thenĠ": 5066,
      "theastĠ": 5067,
      "theseĠ": 5068,
      "à¥ĩà¥¤": 5069,
      "sĠasĠ": 5070,
      "à±ģ\"": 5071,
      "à±ģà°Ĥà°¦": 5072,
      "à±ģĠà°ªà±įà°°": 5073,
      "à±ģà°£": 5074,
      "à±ģà°¨à±ģĠà°": 5075,
      "à±ģĠ\"": 5076,
      "à°Ĥ\"": 5077,
      "à°Ĥ.": 5078,
      ",ĠTh": 5079,
      ",ĠnowĠ": 5080,
      "à¤¤à¤¾à¤¬": 5081,
      "à¤¿Ġà¤®à¥ĩà¤Ĥ": 5082,
      "à°¿à°µà°¿à°": 5083,
      "à°Ĥà°ľ": 5084,
      "à°Ĥà°¸à±įà°ķà±ĥà°¤": 5085,
      "enedĠ": 5086,
      "enabl": 5087,
      "eningĠofĠtheĠ": 5088,
      "à¤¿à¤¬à¤Ĥà¤§": 5089,
      "alt": 5090,
      "aris": 5091,
      "ardis": 5092,
      "ariesĠandĠ": 5093,
      "stre": 5094,
      "stant": 5095,
      "yĠshor": 5096,
      "diedĠinĠ": 5097,
      "dimentĠ": 5098,
      "attra": 5099,
      "atedlyĠ": 5100,
      "à¥ĩĠà¤§": 5101,
      "à¥ĩĠà¤ĳ": 5102,
      "edĠthroughĠ": 5103,
      "à°¤à°¿à°¨": 5104,
      "à°¤à°¾à°ķ": 5105,
      "à°¤à°Ĥà°Ĺà°¾Ġà°": 5106,
      "à°¤Ġà°¨": 5107,
      "à°¤à°¾à°°à±ģ.": 5108,
      "à°¤à±ĭĠà°ķà±Ĥà°¡à°¿à°¨": 5109,
      "à°¤à°¾Ġà°ªà°¾à°°à±įà°Łà±Ģ": 5110,
      ".Ġ26": 5111,
      "andĠaĠ": 5112,
      "à°¨à±ģà°ķ": 5113,
      "à°¨à±įâĢĮ": 5114,
      "à°¨à°¿à°¸à±įà°¤à°¾à°¨": 5115,
      "à°¨Ġà°µà±įà°¯à°µà°¸à±įà°¥": 5116,
      "à°¨à°¿à°ľ": 5117,
      "à°²à±Ĩ": 5118,
      "à°²à°¯": 5119,
      "à°²à±ģĠà°ª": 5120,
      "à°²à±ĩà°¦": 5121,
      "à°²à±įĠà°ķ": 5122,
      "repe": 5123,
      "rept": 5124,
      "refer": 5125,
      "rebell": 5126,
      "aĠwasĠ": 5127,
      "aĠpartĠofĠtheĠ": 5128,
      "à°°à°Ĥ": 5129,
      "à°°à±Ĩà°Ĥà°¡": 5130,
      "à±ĩĠà°ª": 5131,
      "à±ĩà°ķ": 5132,
      "à±ĩ,Ġà°": 5133,
      "à±ĩĠà°ķ": 5134,
      "à±ĩĠà°¨": 5135,
      "à±ĩ.Ġà°ª": 5136,
      "à±ĭà°¤": 5137,
      "à±įà°°à±Ī": 5138,
      "à±įà°°à°¾à°¨": 5139,
      "Ġà°ªà°Ł": 5140,
      "Ġà°ªà°Łà±įà°Ł": 5141,
      "Ġà°ªà°¾à°¤à±įà°°": 5142,
      "ity.Ġ": 5143,
      "à¥ĭà¤¹": 5144,
      "à¥ĭà¤µ": 5145,
      "Ġà¤ķà¤Ł": 5146,
      "Ġà¤ķà¤¿à¤²à¥įà¤²": 5147,
      "à°¾à°°à°¾Ġà°": 5148,
      "à°¾à°°à°¿à°Ĺà°¾Ġà°": 5149,
      "à°¾à°°à°ªà°¡": 5150,
      "ofĠeasternĠIndia": 5151,
      "à°ķà±Ĥ": 5152,
      "à°ķà°¾à°¤": 5153,
      "à°ķà±ģà°²à±ģĠà°": 5154,
      "à°ķà°³": 5155,
      "à°ķà°°à°£": 5156,
      "à°ķà±ģ,Ġà°": 5157,
      "à°ķà±ĩà°¤": 5158,
      "à¤ķà¤¾à¤²à¥Ģà¤¨": 5159,
      "à¤¨à¤¸": 5160,
      "à¤¨Ġà¤ªà¥įà¤°à¤¾à¤£": 5161,
      "à°¾à°²à±įĠà°": 5162,
      "à°¾à°²à±ĩà°ľ": 5163,
      "à°¦à±ģ": 5164,
      "à°¦à°¿à°¨": 5165,
      "à°¦à°Ĺà°¾Ġà°": 5166,
      "à±ĢĠà°ª": 5167,
      "à±ĢĠà°ķ": 5168,
      "à±Ģà°²à±ĭĠà°": 5169,
      "à±Ģà°łà°Ń": 5170,
      "à±Ģà°ķà°°à°£": 5171,
      "tookĠ": 5172,
      "Ġà¤¸à¤£": 5173,
      "Ġà¤¸à¥ĩĠà¤ħ": 5174,
      "Ġà¤¸à¤¾à¤§": 5175,
      "Ġà¤¸à¤¿à¤Ĥà¤¹": 5176,
      "à¤¹à¤²": 5177,
      ",Ġà°ĩà°¤à°°": 5178,
      "à¤²à¤¾Ġà¤µ": 5179,
      "à¤²à¤¦à¤²": 5180,
      "asĠandĠtheĠ": 5181,
      "asĠhun": 5182,
      "Ġà¤ªà¤ķà¥įà¤·": 5183,
      "Ġà¤ªà¤°à¥įà¤µà¤¤": 5184,
      "inĠ18": 5185,
      "inĠart,Ġ": 5186,
      "inĠSouthĠAsia": 5187,
      "ingĠandĠ": 5188,
      "à±ĩà°¡": 5189,
      "à±ĩà°Ł": 5190,
      "Ġà¤®à¤¤": 5191,
      "Ġà¤®à¤¾à¤°": 5192,
      "Ġà¤®à¤¸à¤¾à¤²": 5193,
      "ureĠinĠtheĠ": 5194,
      "esĠtheĠ": 5195,
      "esĠofĠtheĠ": 5196,
      "à°®à±ĩ": 5197,
      "à°®à±Ĥ": 5198,
      "à°®à°¹": 5199,
      "à°®à°¿à°¤": 5200,
      "à°¿Ġà°¨": 5201,
      "à°¿Ġà°ĩà°Ĥà°¡": 5202,
      "à°¿Ġà°īà°Ĥà°Ł": 5203,
      "à±įà°¯à±ģà°¤": 5204,
      "à±įà°¯Ġà°¸à°®": 5205,
      "à¤®à¤°": 5206,
      "à¤®à¤¨": 5207,
      "à¤®à¤§à¥Ģà¤²": 5208,
      "toĠent": 5209,
      "à°µà°¿à°": 5210,
      "à°µà°¾à°°": 5211,
      "à°µĠà°¸": 5212,
      "à°µà±ģà°¤": 5213,
      "à°µà±įà°¯à°µà°¸à±įà°¥": 5214,
      "à°µà°¿à°¤à±įà°°": 5215,
      "à°µà°¿à°¦": 5216,
      "à°µà±ģà°¦": 5217,
      "s,ĠaĠ": 5218,
      "ionĠwithĠ": 5219,
      "isansĠ": 5220,
      "¸à±įà°²à°¿": 5221,
      "¸à±įà°ķà°°à°£": 5222,
      "lyĠinĠtheĠ": 5223,
      "entuallyĠ": 5224,
      "à°¾Ġà°¤": 5225,
      "à°¾Ġà°¹à°¿à°Ĥà°¦à±Ĥ": 5226,
      "à°¾Ġà°®à°¾à°°à±įà°Ĺ": 5227,
      ".Ġà°ķ": 5228,
      "à±ĩà°¶à°¾à°ĸ": 5229,
      "Ġà¤µĠà¤ª": 5230,
      "Ġà¤µà¤¾à¤ªà¤°": 5231,
      "amĠ": 5232,
      "amph": 5233,
      "à¤£à¥įà¤¯à¤¾à¤¤": 5234,
      "ollowingĠ": 5235,
      "à±Ĩà°¡": 5236,
      "à±Ĩà°Łà±įà°Ł": 5237,
      "à°¿à°ķà±įâĢĮ": 5238,
      "à°¿à°ķĠà°ħ": 5239,
      "à°¿à°ķĠà°¤": 5240,
      "à°¿à°ķ,Ġà°¸": 5241,
      "à°¿à°ķĠà°İà°¨à±įà°¨à°¿à°ķ": 5242,
      "à°¡à°¿à°¸à±įà°": 5243,
      "IndiaĠisĠaĠ": 5244,
      "à°ªà°°": 5245,
      "à°ªà±Ī": 5246,
      "à°ªà±ģà°¤": 5247,
      "à°ªà±ģĠà°ª": 5248,
      "Ńà°¾à°°à°¤Ġà°°à°¾à°ľà±įà°¯": 5249,
      "Ńà°¾à°°à°¤Ġà°°à±Īà°²à±įà°µ": 5250,
      "19thĠcenturyĠ": 5251,
      "Ġà°ªà±įà°°à°¸": 5252,
      "Ġà°ªà±įà°°à°¯à±ĭ": 5253,
      "à¤¿à¤ķà¤¾à¤°": 5254,
      "à¤¿à¤ķà¤¾à¤¸": 5255,
      "Ġà¤ħà¤§à¤¿à¤ķ": 5256,
      "Ġà¤ħà¤Ĥà¤Ĺà¥įà¤°à¥ĩà¤ľ": 5257,
      "rief": 5258,
      "à°ĤĠà°īà°Ĥà°¦à°¿.Ġà°": 5259,
      "à°ĤĠà°ħà°§à°¿à°ķà°¾à°°": 5260,
      "Ġà¤Ĩà¤°à¥įà¤": 5261,
      "Ġà¤Ĩà¤£": 5262,
      "Ġà¤Ĩà¤¢à¤³": 5263,
      "asiveĠ": 5264,
      "à°Łà°¾Ġà°": 5265,
      "à±Ĥà°°à±įà°µ": 5266,
      "à±Ĥà°°à±įà°¤": 5267,
      "à±Ĥà°¨à°¦": 5268,
      "à±ĪĠ(à°µà±Ĩà°¨à±ģà°ķà°Ł": 5269,
      "à¥Ĥà¤·": 5270,
      "à¥Ĥà¤¸": 5271,
      "à¥Ĥà¤Ńà¤¾à¤Ĺ": 5272,
      "à°¿à°¨Ġà°¸": 5273,
      "à°¿à°¨à°¾à°²à±ģĠà°": 5274,
      "à°¿à°¨à°¦à°¿.Ġà°": 5275,
      "raid": 5276,
      "es;Ġ": 5277,
      "à°¾à°¨à±įà°¯": 5278,
      "India.ĠIndiaĠhasĠ": 5279,
      "à°°à±įà°¶": 5280,
      "à°°à±įà°ľ": 5281,
      "à°°à±įà°ľà°¾à°¤à±Ģà°¯": 5282,
      "à±ģà°²à°ķà±ģĠà°": 5283,
      "à±ģà°²à°¨à±ģ": 5284,
      "à±ģà°²à°¤à±ĭĠà°ķà±Ĥà°¡à°¿à°¨": 5285,
      "à°Ĺà°¿à°¸à±įà°¤": 5286,
      "à°Ĺà°¾,Ġà°": 5287,
      "à°Ĺà±ĭà°³": 5288,
      "ofĠtheĠHimalay": 5289,
      "ofĠtheĠWesternĠGhat": 5290,
      "chivedĠ": 5291,
      "cheet": 5292,
      "IndianĠpl": 5293,
      "IndianĠNationalĠCongressĠ": 5294,
      "IndianĠOce": 5295,
      "super": 5296,
      "à¥ģà¤ļ": 5297,
      "again": 5298,
      "againĠ": 5299,
      "ivĠ": 5300,
      "ive-": 5301,
      "ea.": 5302,
      "eaceĠ": 5303,
      "Ġà°µà°¹": 5304,
      "Ġà°µà°¿à°®": 5305,
      "Ġà°µà°°à±įà°Ĺ": 5306,
      "Ġà°µĠà°ªà±Ĩà°¦à±įà°¦": 5307,
      "istingĠ": 5308,
      "à°¦à±ĩà°¶à°Ĥà°²à±ĭĠà°": 5309,
      "Ġà¤¤à¤¿à¤¸": 5310,
      "Ġà¤¤à¤¯à¤¾à¤°": 5311,
      ".ĠTheĠCongressĠ": 5312,
      ".ĠTheĠsettl": 5313,
      "Ġà°ķà±įà°¯à°¾à°²à±Ĩà°Ĥà°¡à°°à±į": 5314,
      "à¥Ĥà¤°à¥įà¤¤": 5315,
      "ung": 5316,
      "unres": 5317,
      "à°¾à°¤à°¿Ġà°": 5318,
      "à°Ĥà°Ĺà°Ĥà°²à±ĭĠà°": 5319,
      "existingĠ": 5320,
      "wasĠtoĠ": 5321,
      "wasĠsh": 5322,
      "wasĠass": 5323,
      "wasĠmark": 5324,
      "wasĠvot": 5325,
      "à°§à°¾à°°à°ªà°¡": 5326,
      "imper": 5327,
      "imultan": 5328,
      "immediatelyĠ": 5329,
      ",ĠtheĠCongres": 5330,
      ",ĠtheĠsouthernĠ": 5331,
      ",ĠtheĠEastĠIndiaĠCompanyĠ": 5332,
      "enĠbyĠ": 5333,
      "Ġà¤¨à¤¾à¤Łà¤ķ": 5334,
      "Ġà¤¨à¥ĥà¤¤à¥įà¤¯": 5335,
      "orĠinĠ": 5336,
      "Ġà¤¦à¥įà¤µà¤¾à¤°": 5337,
      "Ġà¤ªà¥įà¤°à¤Ĺà¤¤": 5338,
      "à±įà°Łà±ĭà°°": 5339,
      "Ġà¤ķà¥ĩĠà¤ķ": 5340,
      "à°¿à°Ĥà°¦à°ķà±ģĠà°": 5341,
      "Ġà°°à°ķ": 5342,
      "Ġà°°à°ļ": 5343,
      "Ġà°°à°¾à°ľ": 5344,
      "Ġà°°à°ķà°¾à°²": 5345,
      "ress": 5346,
      "igerĠ": 5347,
      "adwe": 5348,
      "advers": 5349,
      "ide": 5350,
      "idenceĠ": 5351,
      "plat": 5352,
      "Ġ(à¤ķ": 5353,
      "à±įà°²à±ģĠà°": 5354,
      "à±įà°²à°¾à°¡": 5355,
      "Ńà°¾à°°à°¤à°¦à±ĩà°¶à°ĤĠà°µ": 5356,
      "ationĠasĠhun": 5357,
      "à°¿à°Ĥà°ļà°¿à°Ĥà°¦à°¿.": 5358,
      "¸à±įà°¤à±įà°°à±Ģ": 5359,
      "à±įà°µà°¤à±įà°°": 5360,
      "à°¹à°¾à°¯": 5361,
      "à°¹à°¸à±įà°°": 5362,
      "Ġà°®à°°": 5363,
      "Ġà°®à±ģà°": 5364,
      "Ġà°®à°Ĥà°¤à±įà°°": 5365,
      "osph": 5366,
      "evalĠ": 5367,
      "eventuallyĠ": 5368,
      "à°¾à°²à±ģ:": 5369,
      "à°¾à°Ĥà°¬": 5370,
      "à°¾à°Ĥà°¤à°°": 5371,
      "hasĠmad": 5372,
      "maput": 5373,
      "à°£à°¤à°Ĥà°¤à±įà°°Ġà°°à°¾à°ľà±įà°¯": 5374,
      "Ġà¤ĩà¤®à¤¾à¤°à¤¤": 5375,
      "Ġà¤ĩà¤¤à¥įà¤¯à¤¾à¤¦": 5376,
      "à°ļà°¨": 5377,
      "à°ļà±ģà°ķà±ĭà°µà°¡": 5378,
      "ally": 5379,
      "moistĠ": 5380,
      "whichĠwasĠ": 5381,
      "whichĠbecameĠ": 5382,
      "sĠofĠlif": 5383,
      "sĠofĠwomenĠ": 5384,
      "à°¾à°²à±ģĠà°īà°¨à±įà°¨à°¾à°¯à°¿.": 5385,
      "à°¾à°²à±ģĠà°Ńà°¾à°°à°¤à°¦à±ĩà°¶à°Ĥà°²à±ĭĠà°": 5386,
      "à°¾à°²à±ģĠà°īà°Ĥà°¡": 5387,
      "à°¾à°²à±ģĠà°¨à°¿à°°à±įà°®": 5388,
      "comfort": 5389,
      "à°¿à°¤à±įà°µ": 5390,
      "atĠinĠtheĠ": 5391,
      "à°Ĥà°Łà±ģà°¨à±įà°¨": 5392,
      "à°Ĥà°Łà±ģà°Ĥà°¦à°¿.": 5393,
      "onĠIndia": 5394,
      "à±Īà°¨Ġà°¸": 5395,
      "spot": 5396,
      "Ġà¤¶à¤ķ": 5397,
      "à±įĠà°Ĩà°§": 5398,
      "ter-ga": 5399,
      "à¤¾Ġà¤ķà¤°": 5400,
      "à°²à±ĭĠà°¸": 5401,
      "à°²à±ĭĠà°ħà°¤à±įà°¯à°§à°¿à°ķ": 5402,
      "à±ģĠà°ªà°¾à°°à±įà°Łà±Ģ": 5403,
      "à±ģĠà°ªà°°à±Ģ": 5404,
      "à±ģĠà°ªà±Ĥà°°à±įà°¤": 5405,
      "à°Ńà°¾à°Ĺ": 5406,
      "à°Ńà°°à°¤": 5407,
      "wereĠintroduc": 5408,
      "fromĠAfricaĠ": 5409,
      "à±ģà°ķà±ģĠà°": 5410,
      "coal": 5411,
      "costĠofĠ": 5412,
      "siz": 5413,
      "à°¾à°ľà±ģĠà°ª": 5414,
      "à°¾à°ľà°¿à°ķ,Ġà°": 5415,
      "marsh": 5416,
      "à°ľà°¨": 5417,
      "à°ľà°¿à°¤": 5418,
      "à°ľà°¨à°¾à°Ń": 5419,
      "formĠ": 5420,
      "latterĠ": 5421,
      "later,Ġ": 5422,
      "latitud": 5423,
      "Ġà¤²à¤Ĺ": 5424,
      "à°Ĥà°¤à±ĭĠà°ķà±Ĥà°¡": 5425,
      "à°Ĥà°¤à°°à±įà°ľà°¾à°¤à±Ģà°¯": 5426,
      "īà°¨à±įà°¨à°¾à°°à±ģ.Ġà°": 5427,
      "largerĠ": 5428,
      "large-": 5429,
      "ismĠ": 5430,
      "à°ķà±įà°·à°ĤĠà°ķ": 5431,
      "loweringĠ": 5432,
      "ctsĠ": 5433,
      "µà°¿à°¡": 5434,
      "µà°¿à°Ńà°¿à°¨à±įà°¨": 5435,
      "edĠinĠ198": 5436,
      "à±ģà°µĠà°¸à°Ń": 5437,
      "à°²à±ģĠà°ħ": 5438,
      "à°²à±ģĠà°īà°¨à±įà°¨à°¾à°¯à°¿.": 5439,
      "arĠIs": 5440,
      "à±ģà°¸à±įà°¤": 5441,
      "à±ģà°¬à°¾à°Ł": 5442,
      "assinat": 5443,
      "à°¾à°®à°¾à°ľà°¿à°ķ,Ġà°": 5444,
      "eĠtheĠregionĠ": 5445,
      "à±įâĢĮà°ķà°¾à°¤": 5446,
      "à°¿à°ªà±Ĩà°¦à±įà°¦": 5447,
      "à°¿à°ªà±ĭà°¯": 5448,
      "à°¿à°ªà±ģà°£": 5449,
      "regist": 5450,
      "andĠtheĠBrah": 5451,
      "ourish": 5452,
      "Ġà¤ķà¤°à¤¨à¥ĩĠà¤ķ": 5453,
      "à°¾à°°à±ģĠ(": 5454,
      "setĠ": 5455,
      "sedimentĠ": 5456,
      "CEEĠ7": 5457,
      "Ġà°ħà°ķà±įà°·à°°à°¾à°¸à±įà°¯à°¤": 5458,
      "affect": 5459,
      "à°¿à°¯à°¾Ġ": 5460,
      "à°¿à°¯à°®à°¿à°Ĥà°ļ": 5461,
      "à°²à±ģ,Ġà°": 5462,
      "à°²à±ģĠâĢĵ": 5463,
      "iĠriverĠ": 5464,
      "substant": 5465,
      ".ĠInĠ197": 5466,
      "dersĠ": 5467,
      "effect": 5468,
      "à°¾à°ķà±įĠà°°à±Īà°²à±įà°µà±ĩ": 5469,
      "à°¿,Ġà°¦": 5470,
      "à°¿,Ġà°¸": 5471,
      "Ġà°¦à±ĩà°¶à°¾à°¨à°¿à°ķà°¿Ġà°": 5472,
      "bothĠtheĠ": 5473,
      "à°Ńà°¾à°°à°¤à°¦à±ĩà°¶Ġà°ļà°°à°¿à°¤à±įà°°": 5474,
      "à°Ĥà°²à±ĭà°¨à°¿Ġà°": 5475,
      "à°¿à°Ĥà°¦à°¿.Ġà°ħ": 5476,
      "à°¿à°Ĥà°¦à°¿.Ġà°¦à°ķà±įà°·à°¿à°£à°¾à°¸à°¿à°¯à°¾Ġà°": 5477,
      "à°¾à°¦à°¾à°¯": 5478,
      "à°¾à°¦à°°à°£": 5479,
      "nĠforest": 5480,
      "Ġà°¨à±ģ": 5481,
      "Ġà°¨à°¾à°¯à°ķ": 5482,
      "Ġà¤ļà¤³à¤µà¤³": 5483,
      "years;Ġ": 5484,
      "yearĠterm": 5485,
      "language,Ġ": 5486,
      "Ġà°¶à±Ĩà°²": 5487,
      "includingĠtheĠ": 5488,
      "buc": 5489,
      "north-": 5490,
      "northernĠandĠ": 5491,
      "flank": 5492,
      "flood": 5493,
      "flourish": 5494,
      "extend": 5495,
      "extinct": 5496,
      "à°¾à°Ĺà°¾Ġà°": 5497,
      "à¥ĩĠà¤®à¥įà¤¹à¤£": 5498,
      "¸à±įà°µà°¾à°¤à°Ĥà°¤à±įà°°": 5499,
      "à°¨à°¿Ġà°ħà°¤": 5500,
      "à°¨à°¿Ġà°īà°Ĥà°¦à°¿.Ġà°": 5501,
      "à°ķà±įà°ķà°¨": 5502,
      "decidu": 5503,
      "kĠofĠtheĠ": 5504,
      "west,ĠandĠtheĠ": 5505,
      "à°¿à°°à±ģà°Ĺ": 5506,
      ".ĠIm": 5507,
      "à±įà°°à±Ģà°ĤĠà°ķ": 5508,
      "à±įà°°à±Ģ.à°ªà±Ĥ": 5509,
      "inĠ195": 5510,
      "à±į,Ġà°ĩà°¤à°°": 5511,
      "eguardĠ": 5512,
      "Ġà¤ķà¥ĭà¤°": 5513,
      "à¥ĩĠà¤µĠà¤¤": 5514,
      "mentalĠ": 5515,
      "sci": 5516,
      "scaleĠ": 5517,
      "à°¿Ġà°ªà°¦": 5518,
      "à°¿Ġà°ªà°²à±ģĠà°": 5519,
      "à°¿Ġà°ªà°Łà±įà°Łà°£": 5520,
      "à°¿Ġà°ªà±ĩà°°à±ģĠà°": 5521,
      "à°®à±Īà°¨à°¦": 5522,
      "à°®à±Īà°¨à°¦à°¿.Ġà°": 5523,
      "Ġà°Ĩà°¹à°¾à°°": 5524,
      "Ġà°Ĩà°§à°¾à°°à°ªà°¡": 5525,
      "Ġà°¸à°Ĥà°ĺ": 5526,
      "continentĠ": 5527,
      "à¤¾à¤Ĥà¤¤à¤¾à¤¤": 5528,
      "thĠcentury": 5529,
      "thĠcentury,ĠtheĠ": 5530,
      "Emerg": 5531,
      "black": 5532,
      "à°¤à°°à±ģà°µà°¾à°¤": 5533,
      "à¤¿à¤µà¤¾à¤ľ": 5534,
      "artisansĠ": 5535,
      "hadĠemerg": 5536,
      "hadĠaris": 5537,
      "à¤¾à¤·à¥įà¤Łà¥įà¤°à¥Ģà¤¯": 5538,
      "rule": 5539,
      "ruleĠ": 5540,
      "rulingĠ": 5541,
      "ruleĠofĠtheĠ": 5542,
      "à±Įà°°à±įà°¯": 5543,
      "à°¾à°Łà°ķ": 5544,
      "à°¾à°Łà±įà°²à°¾à°¡": 5545,
      "southernĠandĠ": 5546,
      "Ġà°¤à°ķà±įà°ķà±ģà°µ": 5547,
      "Ġà°¤à°®à°¿à°³": 5548,
      "Ġà°¤à±Ĩà°²à±ģà°Ĺ": 5549,
      "edĠtheĠcar": 5550,
      "overranĠ": 5551,
      "à¥įà¤®à¥Ģà¤°": 5552,
      "à¥įà¤®à¤¾à¤°à¤ķ": 5553,
      "SouthĠIndia,ĠtheĠ": 5554,
      "servingĠ": 5555,
      "à°¸à±įà°¤à°¾à°¨": 5556,
      "Ġà°¦à°ķà±įà°·à°¿à°£": 5557,
      "à¥ĢĠà¤ħà¤°à¥įà¤¥à¤µà¥įà¤¯à¤µà¤¸à¥įà¤¥": 5558,
      "İà°¨à±įà°¨à±ģà°ķà±ĭ": 5559,
      "à°²à±ĭà°¨à±ģĠà°": 5560,
      "CongressĠemerg": 5561,
      "devast": 5562,
      "twoĠyears;Ġ": 5563,
      "EmpireĠandĠ": 5564,
      "26à°¨": 5565,
      "e-kn": 5566,
      "à°ķà±ģĠà°¦à±ĩà°¶": 5567,
      "beginn": 5568,
      "governmentĠlast": 5569,
      "culturesĠ": 5570,
      "à°³à°¿,Ġà°": 5571,
      "à°Ĥà°¬à°Ĥà°§": 5572,
      "companyĠ": 5573,
      "s.ĠTheĠresultingĠ": 5574,
      "Ġà°īà°Ĥà°¦à°¿.": 5575,
      "Ġà°īà°¤à±įà°¤à°°": 5576,
      "ĠBCE,ĠanĠ": 5577,
      "Indo": 5578,
      "à°¿Ġà°ķà°¾à°²": 5579,
      "Ġà°°à±Īà°²à±ģĠà°": 5580,
      "Ġà°°à±Īà°³à±įà°²à°¨à±ģĠà°": 5581,
      "ĠmillionĠyearsĠago": 5582,
      "causedĠbyĠ": 5583,
      "MajorĠ": 5584,
      "à°¶à°¾à°¨à±įà°¯": 5585,
      "thatĠbecameĠ": 5586,
      "diversity.Ġ": 5587,
      "à°¾à°²à±ģ,Ġà°¨": 5588,
      "PakistanĠandĠ": 5589,
      "ļà±Ĩà°ªà±įà°ª": 5590,
      "à±Ģ,Ġà°ķ": 5591,
      "ouslyĠ": 5592,
      "ologicalĠ": 5593,
      "ologicallyĠ": 5594,
      "humansĠ": 5595,
      "Ġà°ªà±įà°°à°¾à°Ĥà°¤à°¾à°²à±įà°²à±ĭĠà°": 5596,
      "Ġà°ªà±įà°°à°ªà°Ĥà°ļà°®à±ģà°²": 5597,
      "economicĠexpans": 5598,
      "westernĠcoast": 5599,
      "ķà±ĥà°·à±įà°£": 5600,
      "à°¾à°°à±įà°Łà±Ģ,Ġà°": 5601,
      "east,Ġ": 5602,
      "à°¬à°¡à°¿à°Ĥà°¦à°¿.Ġà°": 5603,
      "à°¬à°¡à°¤à°¾à°°à±ģ.": 5604,
      "bothĠofĠwhichĠ": 5605,
      "ķà±Ĥà°¡à°¾Ġà°īà°¨à±įà°¨à°¾à°¯à°¿.Ġà°": 5606,
      "2022": 5607,
      "ublicĠ": 5608,
      "à¤¸à¥įà¤¤à¤¨Ġà¤ªà¥įà¤°à¤¾à¤£": 5609,
      "à¤¾à¤µà¤°à¥Ģà¤²": 5610,
      "subcontinent,Ġ": 5611,
      "à¥ĢĠà¤ľà¤¾à¤¤": 5612,
      "Ġà°ªà±įà°°à°ľà°¾à°¦à°°à°£": 5613,
      "ĩà°¤à°°à°¦à±ĩà°¶": 5614,
      "à¥įà¤ªà¤¤": 5615,
      "à¤¾Ġà¤Ĺà¥ĩà¤Ł": 5616,
      "à°¤à±įà°µà°Ĥà°²à±ĭĠà°": 5617,
      ".ĠSinghĠ": 5618,
      ".ĠSimultan": 5619,
      "à±ĭĠà°ķà±Ĥà°¡à±ģà°ķà±ģ": 5620,
      "à°¿à°ķĠà°µà°¾à°°à°¸à°¤à±įà°µ": 5621,
      "à°ĤĠà°µà°¹": 5622,
      "à°¿à°Ĥà°ļà°¿à°¨à°Łà±įà°²": 5623,
      "à°ľà°¾à°¤à±Ģà°¯Ġà°Ĺ": 5624,
      ".ĠItĠisĠaĠ": 5625,
      "historicalĠ": 5626,
      "historiansĠ": 5627,
      "sinceĠtheĠ": 5628,
      "generalĠelection,Ġ": 5629,
      "ArchivedĠ": 5630,
      "long-": 5631,
      "à¥ĩĠà¤¦à¤ķà¥įà¤·à¤¿à¤£": 5632,
      "allĠf": 5633,
      "northernĠIndiaĠ": 5634,
      "literat": 5635,
      "therers,Ġ": 5636,
      "icallyĠendangeredĠ": 5637,
      "Ġà°¸à°®à°¾à°ľ": 5638,
      ",000Ġ=Ġ1": 5639,
      "non-CongressĠ": 5640,
      "non-violenc": 5641,
      "non-co-": 5642,
      "Ġà°²à°ķà±įà°·": 5643,
      "Ġà°²à±Įà°ķ": 5644,
      "Ġà°²à°ķà±įà°·à°£": 5645,
      "Ġà°Ĺà°Ĥà°Ĺ": 5646,
      "à°¿à°¶à±įà°°": 5647,
      "Ġà¥§à¥¯à¥Ń": 5648,
      "Ġà°ªà±įà°°à°Ńà±ģà°¤à±įà°µà°¾à°¨à±įà°¨à°¿Ġà°": 5649,
      "AfterĠtheĠ": 5650,
      "à¥ĢĠà¤¤à¤¥": 5651,
      "à¤¾Ġà¤ľà¤¾à¤¤à¤¾Ġà¤¹à¥Ī": 5652,
      "duringĠMughalĠ": 5653,
      "public": 5654,
      "à¥ĢĠà¤¦à¥ĩà¤¶": 5655,
      "IndiaĠandĠPakistan": 5656,
      "China,Ġ": 5657,
      "toĠbeĠparliamentaryĠ": 5658,
      "Ġà¤¸à¤°à¥įà¤µà¤¾à¤§à¤¿à¤ķ": 5659,
      "Ġà¤ªà¥įà¤°à¤¦à¥ĩà¤¶à¤¾à¤¤": 5660,
      "Sanskrit,ĠanĠ": 5661,
      "Ġ25": 5662,
      "Ġà°¬à°¡": 5663,
      "Ġà°¬à°¹": 5664,
      "à°Ĥà°ķà±Ģà°°à±įà°£": 5665,
      "expandingĠ": 5666,
      "Ġà°°à°¾à°·à±įà°Łà±įà°°à°ªà°¤": 5667,
      "country,Ġ": 5668,
      "Indo-EuropeanĠ": 5669,
      "Indo-Gang": 5670,
      "powerĠinĠ19": 5671,
      "landĠarea": 5672,
      "à°Ńà°¾à°°à°¤Ġà°ľà°¾à°¤à±Ģà°¯": 5673,
      "à°¾à°ªà°¾à°¡": 5674,
      "à°¾à°¹à°¾à°°": 5675,
      "à°¾à°¹à±ĭà°°": 5676,
      "à°¿à°³à±įà°³": 5677,
      "Ġà°ªà±įà°°à°¤à±įà°¯": 5678,
      "ľà°°à°¿à°Ĺà±ĩ": 5679,
      "HimalayanĠ": 5680,
      "Äģy": 5681,
      "ĠinĠJ": 5682,
      "provinc": 5683,
      "species.Ġ": 5684,
      "WorldĠWarĠ": 5685,
      "intoĠtheĠIndusĠValleyĠCivilis": 5686,
      "socialĠreform": 5687,
      "cities,Ġ": 5688,
      "citiz": 5689,
      "difiedĠ": 5690,
      "diffus": 5691,
      "edĠasĠtheĠlargestĠ": 5692,
      "ing,ĠpublicĠ": 5693,
      "primeĠministerĠofĠtheĠ": 5694,
      "SikhĠ": 5695,
      ",ĠwhenĠ": 5696,
      "5.8%Ġ": 5697,
      "gradi": 5698,
      "īà°Ĥà°Łà±ģà°Ĥà°¦à°¿.Ġà°": 5699,
      "à±ģà°ªà±įà°°à±Ģà°ĤĠà°ķ": 5700,
      "Ġà°ªà±ĩà°°à±ģ,Ġà°": 5701,
      "à°¾à°²à°¨à±ģĠà°ķà±Ĥà°¡à°¾Ġà°": 5702,
      "à°¾à°²à°¨à±ģĠà°Ĺà±Ĩà°²à±ģ": 5703,
      "à¤§à¤¾à¤¨à¤®à¤Ĥà¤¤à¥įà¤°": 5704,
      "Ġà°°à°¾à°ľà±įà°¯à°¾à°²à±ģà°Ĺà°¾Ġà°": 5705,
      "archaicĠ": 5706,
      "SouthĠAsiaĠ": 5707,
      "periodĠwasĠ": 5708,
      "lineĠ": 5709,
      "à¤¿à¤°à¥įà¤®à¤¾à¤£": 5710,
      "alisedĠ": 5711,
      "medievalĠ": 5712,
      "dominionĠofĠ": 5713,
      "agricultureĠandĠ": 5714,
      "Ġà¤¹à¥ģà¤Ī": 5715,
      "majorityĠinĠtheĠ": 5716,
      "turnedĠ": 5717,
      "à¥Ģà¤µà¤°": 5718,
      "Ġà°¦à±įà°µà°¾à°°à°¾Ġà°": 5719,
      "GangesĠriverĠ": 5720,
      "GangesĠandĠtheĠBrah": 5721,
      "ethn": 5722,
      "°à°¾à°·à±įà°Łà±įà°°à°¾à°²": 5723,
      "µà°ļà±įà°ļà°¿à°¨": 5724,
      "Ġà°¸à±įà°¥à°¾à°¨à°¾à°²à°¨à±ģĠà°Ĺà±Ĩà°²à±ģ": 5725,
      "à±ģà°®à°¾à°°à±ģ": 5726,
      "à°ĤĠà°ļà±ĩà°¸": 5727,
      "Ġà°µà°ļà±įà°ļà°¿à°¨": 5728,
      "Ġà°ķà°¾à°²à°Ĥà°²à±ĭĠà°": 5729,
      "Ġà°ķà°¾à°²à°Ĥà°²à±ĭ": 5730,
      "à°Ĥà°Ĺà°¾Ġ19": 5731,
      "à°Ĥà°Ĺà°¾Ġà°ªà±įà°°à°ªà°Ĥà°ļà°®à±ģà°²": 5732,
      "coastalĠ": 5733,
      "coastlineĠ": 5734,
      "riverĠbas": 5735,
      "ĠbecameĠtheĠ": 5736,
      "dependentĠ": 5737,
      "Modi": 5738,
      "longĠoccup": 5739,
      "Ġà¤Īà¤¸": 5740,
      "à¥ģà¤®à¤¾à¤°": 5741,
      "IndusĠriverĠbas": 5742,
      "¨à±ģà°Ĥà°ļ": 5743,
      "°à±Īà°²à±ģĠà°®à°¾à°°à±įà°Ĺ": 5744,
      "µà°²à°¨": 5745,
      "ħà°§à°¿à°ķà°¾à°°à°¿à°ķ": 5746,
      "ĩà°µà°¿Ġà°": 5747,
      "Ġà°²à±ĭĠà°®": 5748,
      "à¥ĩĠà¤ĸà¤¾à¤¸": 5749,
      "à±ĢĠà°¸à°¿à°¨à°¿à°®": 5750,
      "à°µà°°à°¿Ġ": 5751,
      "à±Ĩà°Łà±įà°°": 5752,
      "Ġà°ªà±įà°°à°¸à±įà°¤à±ģà°¤à°Ĥ": 5753,
      "Ġà°ªà±įà°°à°¸à±įà°¤à±ģà°¤à°ĤĠà°": 5754,
      "rivers,Ġ": 5755,
      "Ġà°ķà±įà°°à±Ģà°¡à°²à±ģĠà°": 5756,
      "Ġà°°à°µà°¾à°£à°¾Ġà°®à°¾à°°à±įà°Ĺ": 5757,
      "Ġà°ľà°¨à°Ĺà°£": 5758,
      "Ġà°ľà°¨à°µà°°à°¿Ġ": 5759,
      "à±įâĢĮà°¸à°Ń": 5760,
      "à°¾à°¬à°¾à°¦à±ģ": 5761,
      "à°ªà±įà°ªà°Łà°¿à°ķà±Ģ": 5762,
      "à°ªà±įà°ªà°Łà°¿à°ķà°¿à°¨": 5763,
      "à°ªà±įà°ªà°Łà°¿à°ķà±Ģ,Ġà°": 5764,
      "à±ģà°ķà±ĭà°µà°ļà±įà°ļ": 5765,
      "¬à±įà°°à°¿à°Łà±Ģà°·": 5766,
      "à±ĭà°°à±įà°Łà±ģà°²à±ģĠà°": 5767,
      "EastĠIndiaĠCompan": 5768,
      "sultanat": 5769,
      "plains,Ġ": 5770,
      "regionalĠkingdom": 5771,
      "violentĠ": 5772,
      ".ĠDuringĠtheĠ": 5773,
      "AndamanĠandĠ": 5774,
      "AllianceĠ": 5775,
      "well-": 5776,
      "striĠ": 5777,
      "Ġà¤Ĺà¤£à¤°à¤¾à¤ľà¥įà¤¯": 5778,
      "composedĠinĠ": 5779,
      "outĠtheĠ": 5780,
      "edictsĠ": 5781,
      "à¤¾Ġà¤ļà¤¿à¤¤à¥įà¤°à¤ªà¤Ł": 5782,
      "Ġà¤¯à¥ĩà¤¤à¤¾à¤¤.": 5783,
      "formĠofĠSanskrit,ĠanĠ": 5784,
      "borneĠ": 5785,
      "ħà°¯à°¿à°¨à°¾,Ġà°": 5786,
      "à±įà°¯à°¾à°¯à°µà±įà°¯à°µà°¸à±įà°¥": 5787,
      "à±Ĩà°Ĥà°Ĺà°¾à°²à±Ģ": 5788,
      "Ġà°ªà±įà°°à°®à±ģà°ĸà°®à±Īà°¨à°¦": 5789,
      "elitesĠ": 5790,
      "à°°à±įà°·à°£": 5791,
      "market": 5792,
      "formedĠaĠcoalitionĠ": 5793,
      "à±ģà°²à±ģĠ(0": 5794,
      "®à±Ĭà°¤à±įà°¤à°ĤĠà°": 5795,
      "®à±Ĭà°¤à±įà°¤à°ĤĠ1": 5796,
      "à¤¾Ġà¤Ĺà¤¯à¤¾à¥¤": 5797,
      ",000ĠyearsĠago.ĠTheirĠ": 5798,
      "¨à°¿à°°à±įà°µà°¹à°¿à°Ĥà°ļà°¿à°Ĥà°¦à°¿.Ġ": 5799,
      "¨à°¡à°¿à°ªà°¿à°Ĥà°ļà°Ł": 5800,
      "NortheastĠ": 5801,
      "far-": 5802,
      "á¹ĩ": 5803,
      "à¤¾à¤Ĥà¤Ĺà¤²": 5804,
      "Ġ1996": 5805,
      "SoutheastĠAsia.": 5806,
      "RajivĠ": 5807,
      "paye": 5808,
      "sĠofĠtheĠIndusĠriverĠbas": 5809,
      "makeĠ": 5810,
      "middleĠclas": 5811,
      "DelhiĠSultan": 5812,
      "highlyĠ": 5813,
      "à¥ĢĠà¤Ŀà¤¾à¤²à¥Ģ.": 5814,
      "centuriesĠofĠ": 5815,
      "à±Ģà°µà°²": 5816,
      "à°®à±Ĩà°°à°¿à°ķ": 5817,
      "7,517": 5818,
      "Prof": 5819,
      "creatingĠaĠ": 5820,
      "creativityĠ": 5821,
      "notableĠ": 5822,
      "notablyĠ": 5823,
      "wildlif": 5824,
      "°à°¾à°ľà±įà°¯Ġà°¸à°Ń": 5825,
      "ļà°¿à°¨à±įà°¨Ġà°ļà°¿à°¨à±įà°¨": 5826,
      "Ġà°ĸà°¨à°¿à°ľ": 5827,
      "à°¾Ġà°ªà°°à°¿à°¶à±įà°°à°®": 5828,
      "à°ĤĠà°ªà°¾à°¤à±įà°°": 5829,
      "à°°à°¾à°·à±įà°Łà±įà°°à°ªà°¤": 5830,
      "à±ĭà°²à±įâĢĮà°ķà°¾à°¤": 5831,
      "à±ĭà°¯Ġà°¨à°¾à°Ĺà°°à°¿à°ķà°¤": 5832,
      "à±ĩà°Ĺà°Ĥà°Ĺà°¾Ġà°ħà°Ńà°¿à°µà±ĥà°¦à±įà°§à°¿Ġà°ļà±Ĩà°Ĥà°¦": 5833,
      "à°®à±įà°®à±ĤĠà°ķ": 5834,
      "fortifiedĠ": 5835,
      "âĢ²Ġ": 5836,
      "âĢ²ĠandĠ": 5837,
      "à°¯à±ĭà°Ĺà°¿à°¸à±įà°¤": 5838,
      "Ġà°¸à°¾à°Ĥà°¸à±įà°ķà±ĥà°¤": 5839,
      "Ġà°¸à°Ĥà°Ĺà±Ģà°¤à°ĤĠà°": 5840,
      "¦à±ĩà°¶à°¾à°²Ġà°®à°§à±įà°¯": 5841,
      "Ġà°®à±Ĭà°¦à°²": 5842,
      "à±įĠà°ĩà°Ĥà°¡à°¿à°¯à°¾Ġà°ķ": 5843,
      "à±įĠà°ĩà°Ĥà°¡à°¿à°¯à°¾Ġ": 5844,
      "²à±ĭà°ķà±įĠà°¸à°Ń": 5845,
      "²à±ĭà°ķà±įâĢĮà°¸à°Ń": 5846,
      "µà°¿à°¶à±įà°µ": 5847,
      "Ġà°ľà°¨à°¾à°Ńà°¾Ġà°": 5848,
      "extensivelyĠ": 5849,
      "®à±Ĭà°¦à°²à°Ĺ": 5850,
      "®à±Ĭà°¦à°²à±Īà°¨": 5851,
      "à°·à±įà°£Ġà°µà°¾à°¤à°¾à°µà°°à°£": 5852,
      "1858": 5853,
      "à°¿à°¶à±įà°°à°®à°²à±ģĠà°": 5854,
      "¢à°¿à°²à±įà°²à±Ģ-à°²": 5855,
      "à±ģà°°à±ģà°·à±ģà°²": 5856,
      "¬à±įà°°à°¿à°Łà°¿à°·à±ģĠà°": 5857,
      "Ġà°µĠà°¶à°¤à°¾à°¬à±įà°¦à°ĤĠà°®à°§à±įà°¯": 5858,
      "DravidianĠlanguag": 5859,
      "Ġà°µà°¾à°¤à°¾à°µà°°à°£à°Ĥ": 5860,
      "1200ĠBCE,ĠanĠ": 5861,
      "400ĠBCE,Ġ": 5862,
      "hymn": 5863,
      "edĠintoĠIndiaĠfromĠtheĠ": 5864,
      ".ĠToĠtheĠ": 5865,
      "relativeĠp": 5866,
      "recordedĠ": 5867,
      "Ġà¤ķà¥ĩĠà¤²à¤¿à¤ı": 5868,
      "Ġmi)Ġ": 5869,
      "externalĠsupport": 5870,
      "antedĠinĠtheĠ": 5871,
      "servedĠasĠprimeĠminister": 5872,
      "MauryaĠ": 5873,
      ".ĠDuringĠthisĠtime,Ġ": 5874,
      "safeguardĠ": 5875,
      "speakingĠ": 5876,
      "HindustanĠ": 5877,
      "becameĠtheĠfirstĠ": 5878,
      "à¥ĩĠà¤¹à¥ĭà¤¤à¥ĩ.": 5879,
      "Ġà¤ķà¥ĩĠà¤ħà¤¨à¥ģà¤¸à¤¾à¤°": 5880,
      "ĭà¤·à¤Ńà¤¦à¥ĩà¤µ": 5881,
      "à°µà°¿à°§à±įà°¯à°®à±Īà°¨": 5882,
      "à±ģà°ķà±Ĭà°¨": 5883,
      "à¥ĩà¤ķà¤¡à¥Ģà¤²Ġà¤°à¤¾à¤ľà¥įà¤¯": 5884,
      "Ĩà°«à±įà°ĺà°¨à°¿à°¸à±įà°¤à°¾à°¨": 5885,
      "FrontĠ": 5886,
      "NDAĠ": 5887,
      "Plain": 5888,
      "RepublicĠ": 5889,
      "ShastriĠ": 5890,
      "UPAĠ": 5891,
      "Vijay": 5892,
      "climaticĠ": 5893,
      "denseĠforest": 5894,
      "lossĠofĠlif": 5895,
      "nameĠforĠ": 5896,
      "severelyĠ": 5897,
      "windsĠ": 5898,
      "wayĠforĠtheĠ": 5899,
      "®à±Ģà°¦à°Ĺà°¾Ġà°": 5900,
      "®à±ģà°ĸà±įà°¯à°Ĥà°Ĺà°¾Ġà°": 5901,
      "°à±Ĥà°ªà°¾à°Ĥà°¤à°°": 5902,
      "¸à°¾à°Ĥà°ªà±įà°°à°¦à°¾à°¯à°¿à°ķ": 5903,
      "¸à°¿à°¨à°¿à°®à°¾à°²à±ģĠà°¨à°¿à°°à±įà°®": 5904,
      "¸à±Ĥà°ļà°¿à°Ĥà°ļà°¿à°¨à°Łà±įà°²": 5905,
      "ĩà°Ĥà°Ĺà±įà°²à±Ģà°·": 5906,
      "īà°ªà°¯à±ĭà°Ĺà°¿à°¸à±įà°¤": 5907,
      "Ĵà°²à°Ĥà°ª": 5908,
      "ķà±ĩà°Ĥà°¦à±įà°°Ġà°ªà±įà°°à°Ńà±ģà°¤à±įà°µ": 5909,
      "à°¸à±įà°µà°¤": 5910,
      "Ġà°Ĵà°ķà±ĩà°": 5911,
      "standardis": 5912,
      "à±ĩà°°à±įà°²à±ģĠà°": 5913,
      "Ġà°ªà°Ĥà°¡à±ģà°Ĺ": 5914,
      "à°¾à°°à±ģĠà°ªà°¤à°ķà°¾à°²à±ģĠà°": 5915,
      "à°¾à°²à°¿à°Ĥà°ļà°¾à°°à±ģ.Ġà°": 5916,
      ",Ġà°Īà°¶à°¾à°¨à±įà°¯": 5917,
      "à°¿à°ķĠà°¸à°Ĥà°¸à±įà°ķà°°à°£": 5918,
      "Ġà°ªà±įà°°à°¾à°°à°Ĥà°Ńà°¿à°Ĥà°ļ": 5919,
      "à±ĤĠà°µà°ļà±įà°ļà°¿à°Ĥà°¦à°¿.Ġà°": 5920,
      "Ġà°¸à°¾à°°à±įà°µà°¤à±įà°°": 5921,
      "à°¦à±ĩà°¶à°ĤĠà°°à±Ĥà°ªà°¾à°Ĥà°¤à°°": 5922,
      "à°¾à°¤à±įà°®à°¾Ġà°Ĺà°¾à°Ĥà°§à±Ģ": 5923,
      "inĠtheĠwesternĠmargin": 5924,
      ",ĠtheĠBJPĠ": 5925,
      "Ġà°°à°¾à°ľà°ķà±Ģà°¯Ġà°ª": 5926,
      "Ġà°®à±Ĥà°¡à±ģĠà°": 5927,
      "Ġà°®à°¾à°°à±įà°Ĺà°¾à°²à±ģĠà°": 5928,
      "à±įâĢĮà°²Ġà°®à°§à±įà°¯": 5929,
      "separat": 5930,
      "à°Ĥà°²à±ĭà°¨à°¿Ġà°ªà±įà°°": 5931,
      "à°¨à°¿Ġà°¨à°¿à°ªà±ģà°£": 5932,
      "Ġà°Ĩà°°à±įà°§à°¿à°ķĠà°µà±įà°¯à°µà°¸à±įà°¥": 5933,
      "Ġà°ªà°°à°¿à°ªà°¾à°²à°¨": 5934,
      "à°¿Ġà°ħà°¨à±ĩà°ķ": 5935,
      "supplantedĠinĠtheĠ": 5936,
      "ľà°°à±ģà°ªà±ģà°ķà±ģà°Ĥà°Łà°¾à°°à±ģ.Ġà°": 5937,
      "Indo-AryanĠ": 5938,
      "4ĠgeneralĠelection,ĠtheĠBJPĠ": 5939,
      "JanataĠPart": 5940,
      "crust,Ġ": 5941,
      "drainĠintoĠtheĠBayĠofĠ": 5942,
      "Ġà°¸à±įà°µà°¾à°¤à°Ĥà°¤à±įà°°à±įà°¯Ġà°¸à°®": 5943,
      "¦à±ĩà°¶à°Ĥà°²à±ĭà°¨à°¿": 5944,
      "ıà°°à±įà°ªà°¡à±įà°¡à°¾à°¯à°¿.Ġà°": 5945,
      "Ġà°ªà±įà°°à°¤à°¿à°ªà°¾à°¦à°¨à°ķà±ģĠà°ª": 5946,
      "independenceĠinĠ1947": 5947,
      "°à±ĭà°¡à±įà°¡à±ģĠà°®à°¾à°°à±įà°Ĺ": 5948,
      "habitatĠ": 5949,
      "nationalistĠ": 5950,
      "BangladeshĠ": 5951,
      "Myanmar,ĠTh": 5952,
      "NicobarĠIs": 5953,
      "SriĠLankanĠ": 5954,
      "gaveĠriseĠ": 5955,
      "loose-kn": 5956,
      "ķà±ĩà°µà°²à°ĤĠà°": 5957,
      "TharĠDeser": 5958,
      "Ġà°ķà°¾à°°à±įà°¯à°ķà±įà°°à°®à°¾à°²à±ģĠà°": 5959,
      "ArabianĠSeaĠ": 5960,
      "CountryĠ": 5961,
      "WestĠandĠ": 5962,
      "cameĠtoĠ": 5963,
      "layerĠ": 5964,
      "patron": 5965,
      "pastoralĠ": 5966,
      "that,ĠbetweenĠ": 5967,
      "threatenedĠ": 5968,
      "anagaraĠ": 5969,
      "returnedĠtoĠ": 5970,
      "isolationĠasĠhun": 5971,
      "ĠbiodiversityĠ": 5972,
      "northwest.ĠItsĠ": 5973,
      "preventĠ": 5974,
      "companies": 5975,
      "British-styleĠ": 5976,
      "processĠofĠ": 5977,
      "BuddhismĠandĠJainism": 5978,
      "DeccanĠPlateau": 5979,
      "characteristicĠ": 5980,
      "FactbookĠ": 5981,
      "55,000ĠyearsĠago.ĠTheirĠ": 5982,
      "Ġà¤¸à¥įà¤µà¤¾à¤¤à¤Ĥà¤¤à¥įà¤°à¥įà¤¯": 5983,
      "Ġà¤ķà¥ĩĠà¤ļà¥ģà¤¨à¤¾à¤µ": 5984,
      "%Ġà°Ĩà°ķà±įà°°à°®": 5985,
      "-majorityĠdominionĠofĠ": 5986,
      "Achaem": 5987,
      "Gondwan": 5988,
      "Jawahar": 5989,
      "Lakshadwe": 5990,
      "Octo": 5991,
      "Tibet": 5992,
      "Vajpaye": 5993,
      "bulkĠofĠtheĠ": 5994,
      "cattl": 5995,
      "drewĠ": 5996,
      "hotspot": 5997,
      "lassicalĠ": 5998,
      "megadiverseĠ": 5999,
      "nonviolentĠ": 6000,
      "nextĠ": 6001,
      "volcan": 6002,
      "¨à±Ĩà°²à°ķà±Ĭ": 6003,
      "¬à°Ĥà°Ĺà°¾à°°à±ģĠà°ªà°¤à°ķà°¾à°²à±ģĠà°": 6004,
      "¯à±ģà°¦à±įà°§": 6005,
      "¶à°¾à°¸à°¨Ġà°µà±įà°¯à°µà°¸à±įà°¥": 6006,
      "½Î´": 6007,
      "á¼¸Î½Î´": 6008,
      "ĩà°Łà±Ģà°µà°²": 6009,
      "ĩà°ķà±įà°ķà°¡": 6010,
      "Īà°¸à±įà°Łà±įĠà°ĩà°Ĥà°¡à°¿à°¯à°¾Ġà°ķ": 6011,
      "İà°²à°ķà±įà°Łà±ĭà°°": 6012,
      "Ĳà°ķà±įà°¯": 6013,
      "Ĳà°°à±ĭà°ª": 6014,
      "à°¢à°¾à°ķà°¾-à°": 6015,
      "thornĠforest": 6016,
      "à±ģĠà°ªà±įà°°à°¾à°ļà±Ģà°¨": 6017,
      "à¤¤à¤¾à¤¬à¥įà¤¦": 6018,
      "attract": 6019,
      "à°²à°¯à°¾à°³": 6020,
      "à°²à±įĠà°ķà°¾à°²à±ĩà°ľ": 6021,
      "repeatedlyĠ": 6022,
      "referr": 6023,
      "rebellionĠ": 6024,
      "à±ĩĠà°¨à°¿à°¯à°®à°¿à°Ĥà°ļ": 6025,
      "Ġà°ªà°¾à°¤à±įà°°Ġà°µà°¹": 6026,
      "à¤¨à¤¸à¥įà¤ªà¤¤": 6027,
      "à±Ģà°łà°Ńà±Ĥ": 6028,
      "inĠart,Ġarchitecture": 6029,
      "toĠenterĠ": 6030,
      "à°µĠà°¸à°¹à°¸à±įà°°": 6031,
      "à°µà±ģà°¤à±ģà°Ĥà°¦à°¿.": 6032,
      "à°µà°¿à°¦à±įà°¯à±ģà°¤": 6033,
      "à°µà±ģà°¦à°¿à°¨à°¾à°²à±ģĠà°": 6034,
      "¸à±įà°²à°¿à°ĤĠà°": 6035,
      "amphi": 6036,
      "à°¿à°ķ,Ġà°¸à°¾à°Ĥ": 6037,
      "Ńà°¾à°°à°¤Ġà°°à°¾à°ľà±įà°¯à°¾à°Ĥà°Ĺ": 6038,
      "Ńà°¾à°°à°¤Ġà°°à±Īà°²à±įà°µà±ĩà°¶à°¾à°ĸ": 6039,
      "Ġà°ªà±įà°°à°¸à°¿à°¦à±įà°§à°¿Ġà°ļà±Ĩà°Ĥà°¦": 6040,
      "rieflyĠ": 6041,
      "supercontinentĠ": 6042,
      "againstĠ": 6043,
      "ive-yearĠterm": 6044,
      "Ġà°µà°¿à°®à°¾à°¨": 6045,
      "Ġà¤¤à¤¯à¤¾à¤°Ġà¤Ŀà¤¾à¤²": 6046,
      "unresolvedĠ": 6047,
      "wasĠassassinat": 6048,
      "wasĠmarkedĠbyĠ": 6049,
      "wasĠvotedĠ": 6050,
      "imperialĠ": 6051,
      "Ġà°°à°ļà°¯à°¿à°¤": 6052,
      "¸à±įà°¤à±įà°°à±Ģà°²à±ģĠà°": 6053,
      "Ġà°®à±ģà°¸à±įà°²à°¿à°ĤĠà°": 6054,
      "osphereĠ": 6055,
      "hasĠmadeĠtheĠregionĠ": 6056,
      "à°ļà±ģà°ķà±ĭà°µà°¡à°ĤĠà°": 6057,
      "comfortableĠ": 6058,
      "ter-gatherers,Ġ": 6059,
      "à±ģĠà°ªà°°à±Ģà°ķà±įà°·": 6060,
      "à±ģĠà°ªà±Ĥà°°à±įà°¤à°¿à°Ĺà°¾Ġà°": 6061,
      "à°ľà°¨à°¾à°Ńà°¾Ġà°ªà°°": 6062,
      "large-scaleĠ": 6063,
      "à±ģà°µĠà°¸à°Ńà°¨à±ģĠà°": 6064,
      "CEEĠ7/": 6065,
      "iĠriverĠvall": 6066,
      "à°¿à°Ĥà°¦à°¿.Ġà°¦à°ķà±įà°·à°¿à°£à°¾à°¸à°¿à°¯à°¾Ġà°°à±Ī": 6067,
      "Ġà°¶à±Ĩà°²à°µà±ģà°¦à°¿à°¨à°¾à°²à±ģĠà°": 6068,
      "deciduousĠ": 6069,
      "à°¿à°°à±ģà°Ĺà±ģà°¬à°¾à°Ł": 6070,
      "blackbuc": 6071,
      "à±Įà°°à±įà°¯Ġà°¸à°¾à°®à±įà°°à°¾à°ľà±įà°¯": 6072,
      "à°¾à°Łà±įà°²à°¾à°¡à±ĩ": 6073,
      "İà°¨à±įà°¨à±ģà°ķà±ĭà°¬à°¡à°¤à°¾à°°à±ģ.": 6074,
      "CongressĠemergedĠasĠtheĠlargestĠ": 6075,
      "beginningsĠofĠ": 6076,
      "governmentĠlastedĠ": 6077,
      ".ĠSimultaneous": 6078,
      "Ġà°ªà±įà°°à°Ńà±ģà°¤à±įà°µà°¾à°¨à±įà°¨à°¿Ġà°ıà°°à±įà°ª": 6079,
      "toĠbeĠparliamentaryĠleader": 6080,
      "Indo-EuropeanĠlanguage,Ġ": 6081,
      "Indo-GangeticĠ": 6082,
      "à°¾à°ªà°¾à°¡à±ģà°ķà±ģà°Ĥà°Ł": 6083,
      "WorldĠWarĠI": 6084,
      "citizen": 6085,
      "diffusedĠintoĠIndiaĠfromĠtheĠ": 6086,
      "5.8%ĠamongĠ": 6087,
      "à±ģà°ªà±įà°°à±Ģà°ĤĠà°ķà±ĭà°°à±įà°Ł": 6088,
      "archaicĠformĠofĠSanskrit,ĠanĠ": 6089,
      "GangesĠandĠtheĠBrahmaput": 6090,
      "Ġà°¸à±įà°¥à°¾à°¨à°¾à°²à°¨à±ģĠà°Ĺà±Ĩà°²à±ģà°ļà±ģà°ķà±ĭà°µà°¡à°ĤĠà°": 6091,
      "à°Ĥà°Ĺà°¾Ġà°ªà±įà°°à°ªà°Ĥà°ļà°®à±ģà°²à±ĭ": 6092,
      "longĠoccupation,Ġ": 6093,
      "Ġà°ľà°¨à°µà°°à°¿Ġ26à°¨": 6094,
      "AndamanĠandĠNicobarĠIs": 6095,
      "AllianceĠ(": 6096,
      "formedĠaĠcoalitionĠgovernmentĠ": 6097,
      "DelhiĠSultanateĠ": 6098,
      "creativityĠinĠart,Ġarchitecture": 6099,
      "Ġà°ĸà°¨à°¿à°ľà°¾à°²à±ģĠà°": 6100,
      "à±ĭà°²à±įâĢĮà°ķà°¾à°¤à°¾": 6101,
      "à±ĩà°Ĺà°Ĥà°Ĺà°¾Ġà°ħà°Ńà°¿à°µà±ĥà°¦à±įà°§à°¿Ġà°ļà±Ĩà°Ĥà°¦à±ģà°¤à±ģà°¨à±įà°¨": 6102,
      "à°®à±įà°®à±ĤĠà°ķà°¾à°¶à±įà°®à±Ģà°°": 6103,
      "Ġà°¸à°¾à°Ĥà°¸à±įà°ķà±ĥà°¤à°¿à°ķĠà°µà°¾à°°à°¸à°¤à±įà°µ": 6104,
      "à°·à±įà°£Ġà°µà°¾à°¤à°¾à°µà°°à°£à°ĤĠà°": 6105,
      "¢à°¿à°²à±įà°²à±Ģ-à°²à°¾à°¹à±ĭà°°": 6106,
      "1200ĠBCE,ĠanĠarchaicĠformĠofĠSanskrit,ĠanĠ": 6107,
      "VijayanagaraĠ": 6108,
      "standardisedĠ": 6109,
      "Ġà°¸à°¾à°°à±įà°µà°¤à±įà°°à°¿à°ķĠà°İà°¨à±įà°¨à°¿à°ķ": 6110,
      "à°¾à°¤à±įà°®à°¾Ġà°Ĺà°¾à°Ĥà°§à±ĢĠà°¨à°¾à°¯à°ķ": 6111,
      "inĠtheĠwesternĠmarginsĠofĠtheĠIndusĠriverĠbas": 6112,
      "à°¨à°¿Ġà°¨à°¿à°ªà±ģà°£à±ģà°²à±ģĠà°": 6113,
      "drainĠintoĠtheĠBayĠofĠBengal": 6114,
      "Myanmar,ĠThail": 6115,
      "loose-knitĠ": 6116,
      "CountryĠProf": 6117,
      "isolationĠasĠhunter-gatherers,Ġ": 6118,
      "ĠbiodiversityĠhotspot": 6119,
      "55,000ĠyearsĠago.ĠTheirĠlongĠoccupation,Ġ": 6120,
      "Achaemen": 6121,
      "JawaharlalĠ": 6122,
      "LakshadweepĠ": 6123,
      "Īà°¸à±įà°Łà±įĠà°ĩà°Ĥà°¡à°¿à°¯à°¾Ġà°ķà°Ĥà°ªà±Ĩà°¨": 6124,
      "İà°²à°ķà±įà°Łà±ĭà°°à°²à±įĠà°ķà°¾à°²à±ĩà°ľ": 6125,
      "à°¢à°¾à°ķà°¾-à°¢à°¿à°²à±įà°²à±Ģ-à°²à°¾à°¹à±ĭà°°": 6126,
      "à°µĠà°¸à°¹à°¸à±įà°°à°¾à°¬à±įà°¦": 6127,
      "wasĠassassinatedĠbyĠ": 6128,
      "hasĠmadeĠtheĠregionĠhighlyĠ": 6129,
      "CongressĠemergedĠasĠtheĠlargestĠsingleĠ": 6130,
      "diffusedĠintoĠIndiaĠfromĠtheĠnorthwest.ĠItsĠ": 6131,
      "1200ĠBCE,ĠanĠarchaicĠformĠofĠSanskrit,ĠanĠIndo-EuropeanĠlanguage,Ġ": 6132,
      "isolationĠasĠhunter-gatherers,ĠhasĠmadeĠtheĠregionĠhighlyĠ": 6133,
      ",\"": 6134,
      ",Ġà¤¶": 6135,
      "-des": 6136,
      ".à¥«": 6137,
      "0.7": 6138,
      "21.": 6139,
      "28Ġ": 6140,
      "3.": 6141,
      "30Ġ": 6142,
      "3ĠmillionĠ": 6143,
      "300ĠCE": 6144,
      "6,Ġ": 6145,
      "6%ĠofĠ": 6146,
      "7ĠandĠ": 6147,
      "85": 6148,
      "8.7": 6149,
      "BC": 6150,
      "BetweenĠ": 6151,
      "Bah": 6152,
      "For": 6153,
      "Gen": 6154,
      "Jun": 6155,
      "Li": 6156,
      "Lat": 6157,
      "Languag": 6158,
      "Mod": 6159,
      "Na": 6160,
      "Nep": 6161,
      "OldĠ": 6162,
      "Ram": 6163,
      "Sang": 6164,
      "Sindh": 6165,
      "Way": 6166,
      "Zor": 6167,
      "air": 6168,
      "aâĢĶ": 6169,
      "bit": 6170,
      "balĠ": 6171,
      "bour": 6172,
      "cris": 6173,
      "dat": 6174,
      "dem": 6175,
      "dest": 6176,
      "datesĠ": 6177,
      "democrac": 6178,
      "e.": 6179,
      "eh": 6180,
      "ean": 6181,
      "eographicĠ": 6182,
      "ft": 6183,
      "farĠ": 6184,
      "fav": 6185,
      "fash": 6186,
      "fair": 6187,
      "god": 6188,
      "hal": 6189,
      "ham": 6190,
      "hol": 6191,
      "ix": 6192,
      "ith": 6193,
      "ian": 6194,
      "iantĠ": 6195,
      "join": 6196,
      "kat": 6197,
      "kill": 6198,
      "lateĠ": 6199,
      "leng": 6200,
      "ly,ĠtheĠ": 6201,
      "msĠ": 6202,
      "maĠ": 6203,
      "melyĠ": 6204,
      "nam": 6205,
      "nas": 6206,
      "odi": 6207,
      "oorĠ": 6208,
      "pil": 6209,
      "pul": 6210,
      "pect": 6211,
      "post": 6212,
      "rup": 6213,
      "rationĠofĠ": 6214,
      "rough": 6215,
      "s\"": 6216,
      "slowĠ": 6217,
      "ten": 6218,
      "tel": 6219,
      "tex": 6220,
      "u,Ġ": 6221,
      "ufact": 6222,
      "way": 6223,
      "welf": 6224,
      "yingĠ": 6225,
      "y;Ġ": 6226,
      "ªà¥Ń": 6227,
      "¯à¥ģà¤¦à¥įà¤§": 6228,
      "°à¤¾à¤ľà¥įà¤¯": 6229,
      "²à¤Ĺà¥įà¤¨": 6230,
      "·à¤¯": 6231,
      "Ġ5": 6232,
      "ĠD": 6233,
      "Ġà¥¤": 6234,
      "Ġkilomet": 6235,
      "Ġà¤ĵ": 6236,
      "Ġà¤Ŀ": 6237,
      "eĠorĠ": 6238,
      "than": 6239,
      "anat": 6240,
      "anism": 6241,
      "sĠtheĠ": 6242,
      "sĠatĠ": 6243,
      "inalĠ": 6244,
      "inform": 6245,
      "erlyĠ": 6246,
      "à¤¤à¤µà¤¾à¤¦": 6247,
      "à¤¤à¥įâĢį": 6248,
      "onicĠ": 6249,
      "onse": 6250,
      "enth-largestĠ": 6251,
      "à¤¿à¤ľ": 6252,
      "alsĠofĠ": 6253,
      "allianceĠ": 6254,
      "arb": 6255,
      "ard": 6256,
      "stic": 6257,
      "stom": 6258,
      "stif": 6259,
      "stian": 6260,
      "yĠandĠ": 6261,
      "didĠ": 6262,
      "à¥ĩĠà¤ĩ": 6263,
      "à¥ĩĠà¤Ń": 6264,
      "à¥ĩĠà¤ıà¤ķ": 6265,
      "à¥įà¤¯à¤¾à¤Ĥà¤®à¤§à¥įà¤¯": 6266,
      "ory": 6267,
      "orĠtheĠ": 6268,
      "orit": 6269,
      "edĠfromĠ": 6270,
      "edĠmanyĠ": 6271,
      "edĠduringĠ": 6272,
      "edĠIndiaĠintoĠ": 6273,
      "à¥ĢĠà¤§": 6274,
      ".ĠV": 6275,
      ".Ġ700": 6276,
      "à¥ĩà¤¢": 6277,
      "à¥ĩà¤Ĭ": 6278,
      "ĠtheĠfollowingĠ": 6279,
      "andĠandĠ": 6280,
      "refl": 6281,
      "reach": 6282,
      "relief": 6283,
      "recogn": 6284,
      "remelyĠ": 6285,
      "aĠmod": 6286,
      "aĠlargeĠ": 6287,
      "aĠtermĠ": 6288,
      "à¤¾à¤°à¤ĸ": 6289,
      "ions.ĠTheĠ": 6290,
      "à¥Ģà¤¦": 6291,
      "ick": 6292,
      "ically,Ġ": 6293,
      "Ġà¤ķà¤¾à¤²": 6294,
      "Ġà¤ķà¤¾Ġà¤¨": 6295,
      "Ġà¤ķà¤¾à¤¶": 6296,
      "Ġà¤ķà¤ļà¥įà¤Ľ": 6297,
      "ingu": 6298,
      "ingsĠ": 6299,
      "ing:Ġ": 6300,
      "à¤¨à¤²": 6301,
      "omicĠ": 6302,
      "tookĠtheĠ": 6303,
      "Ġà¤¸à¥įà¤¤à¤°": 6304,
      "à¤¾à¤¤Ġà¤¦": 6305,
      "à¤¾à¤¤Ġà¤ªà¥įà¤°": 6306,
      "à¤¾à¤¤Ġà¤µà¤¿à¤µà¤¿à¤§": 6307,
      "à¤¹à¤¾à¤°": 6308,
      "à¤¹à¤¶": 6309,
      "outĠofĠ": 6310,
      "à¤²à¥ĢĠà¤µ": 6311,
      "Ġà¤ªà¤¡à¤²": 6312,
      "inĠIndia,Ġ": 6313,
      "ingĠs": 6314,
      "ingĠBuddhistĠ": 6315,
      "Ġà¤®à¥Īà¤²": 6316,
      "Ġà¤®à¤°à¤¾à¤ł": 6317,
      "erĠofĠ": 6318,
      "ural": 6319,
      "ureĠofĠtheĠ": 6320,
      "urredĠ": 6321,
      "à¤Ĥà¤µà¤¿à¤§à¤¾à¤¨": 6322,
      "esĠIndiaĠ": 6323,
      "à¤®à¤¾à¤°": 6324,
      "à¤°à¥įà¤ļ": 6325,
      "à¤¦à¤¿": 6326,
      "à¤¦à¤¾à¤¯": 6327,
      "toĠanĠ": 6328,
      "toĠelect": 6329,
      "toĠsev": 6330,
      "toĠaboutĠ": 6331,
      "s,ĠbutĠalsoĠ": 6332,
      "ionĠtoĠtheĠ": 6333,
      "lyĠf": 6334,
      "entialĠ": 6335,
      "ilarĠ": 6336,
      "à¤µà¤¿à¤²": 6337,
      "à¤¾à¤¨à¥įà¤¯": 6338,
      "Ġà¤µà¤¾à¤¹": 6339,
      "Ġà¤µà¤¾à¤Ł": 6340,
      "amend": 6341,
      "à¤£à¤²à¤¾Ġà¤ľà¤¾à¤¤à¥ĭ.": 6342,
      "à¥įà¤¯à¤¾Ġà¤¯": 6343,
      "IndiaĠandĠtheĠ": 6344,
      "IndiaĠcontainsĠ": 6345,
      "IndiaĠArchivedĠ": 6346,
      "à¤¾à¤Ĥà¤¡": 6347,
      "à¤¾à¤Ĥà¤ķ": 6348,
      "1930": 6349,
      "Ġà¤ħà¤Ĺà¥įà¤¨": 6350,
      "Ġà¤ħà¤°à¥įà¤¥à¤µà¥įà¤¯à¤µà¤¸à¥įà¤¥": 6351,
      "Ġà¤ħà¤¥à¤µ": 6352,
      "rior": 6353,
      "rianism": 6354,
      "ristian": 6355,
      "Ġà¤Ĩà¤¶à¤¿à¤¯": 6356,
      "as.ĠTheĠ": 6357,
      "à¤ªà¤°": 6358,
      "à¤ªà¤¾à¤²": 6359,
      "à¤ªà¥Ĥà¤°à¥įà¤£": 6360,
      "à¤ªà¤¦à¥įà¤§à¤¤": 6361,
      "à¤ªà¤£à¥ĩ": 6362,
      "rag": 6363,
      "es)Ġ": 6364,
      "elin": 6365,
      "India,ĠandĠ": 6366,
      "India,ĠandĠtheĠ": 6367,
      "byĠIndianĠ": 6368,
      "Ġà¤Ńà¤¾à¤°à¤¤à¤¾à¤²": 6369,
      "Ġà¤Ńà¤¾à¤°à¤¤Ġà¤ķà¥ĭ": 6370,
      "Ġà¤Ńà¤¾à¤°à¤¤Ġà¤¹à¥ĩĠà¤¨à¤¾à¤µ": 6371,
      "ofĠtheĠworld'sĠ": 6372,
      "ofĠtheĠthirdĠ": 6373,
      "chap": 6374,
      "childĠ": 6375,
      "ovement": 6376,
      "suc": 6377,
      "openĠ": 6378,
      "à¥ģà¤¢": 6379,
      "à¥ģà¤Ĩ": 6380,
      "à¥ģà¤Ľ": 6381,
      "ageĠofĠ": 6382,
      "ivingĠ": 6383,
      "à¤¾à¤ľà¤ª": 6384,
      ".ĠTheĠIndianĠ": 6385,
      "ĠandĠtheĠ": 6386,
      "uni": 6387,
      "whereĠ": 6388,
      "exĠ": 6389,
      "à¥Ģà¤¯Ġà¤¬à¤¦à¤²": 6390,
      "à¥ĭà¤ĸ": 6391,
      "inĠtheĠ13": 6392,
      "wasĠus": 6393,
      "impl": 6394,
      "accoun": 6395,
      "Ġà¤¨à¤®": 6396,
      "Ġà¤¨à¤¾à¤Ĺà¤°": 6397,
      "Ġà¤¨à¤Ĺà¤°": 6398,
      "Ġà¤ľà¤Ĺ": 6399,
      "incomeĠ": 6400,
      "resour": 6401,
      "respect": 6402,
      "uteĠ": 6403,
      "adingĠ": 6404,
      "Ġà¤°à¥ĭà¤ľ": 6405,
      "abov": 6406,
      "plainĠ": 6407,
      "Ġà¥¯": 6408,
      "usedĠforĠ": 6409,
      "ationĠinĠ": 6410,
      "ationĠofĠtheĠthirdĠ": 6411,
      "à¤ļà¤¨": 6412,
      "à¤ļà¥ĢĠà¤¸": 6413,
      "à¤ļà¥ĩĠà¤¹à¤µà¤¾à¤®à¤¾à¤¨": 6414,
      "ereĠwasĠ": 6415,
      "mayĠ": 6416,
      "pris": 6417,
      "ation,ĠandĠ": 6418,
      "Ġà¤ĩà¤¨": 6419,
      "allow": 6420,
      "motherĠ": 6421,
      "anceĠinĠ": 6422,
      "contra": 6423,
      "containĠ": 6424,
      "s.ĠIndia'sĠ": 6425,
      "s.ĠIndiaĠhasĠ": 6426,
      "s.ĠManyĠ": 6427,
      "ulti-": 6428,
      "y,ĠorĠ": 6429,
      "à¤Ńà¤Ĺ": 6430,
      "Ġà¤Ĺà¤¯": 6431,
      "Ġà¤Ĺà¥ģà¤ªà¥įà¤¤": 6432,
      "estĠofĠ": 6433,
      "itsĠculture": 6434,
      "ªà¥įà¤°à¤®à¤¾à¤£": 6435,
      "à¤¾Ġà¤ķà¥ĭ": 6436,
      "fromĠ6": 6437,
      "fromĠUS$": 6438,
      "fromĠCentralĠAsi": 6439,
      "cot": 6440,
      "marit": 6441,
      "à¤¾à¤ªà¤¾à¤¸à¥Ĥà¤¨": 6442,
      "à¤¾à¤ªà¤°à¥įà¤¯à¤Ĥà¤¤": 6443,
      "à¤¾à¤ªà¥Ģà¤ł": 6444,
      "formsĠofĠ": 6445,
      "formedĠIndiaĠintoĠ": 6446,
      "à¤¾Ġà¤¸à¤°à¤ķà¤¾à¤°": 6447,
      "à¤¾Ġà¤¸à¤¾à¤®à¥įà¤°à¤¾à¤ľà¥įà¤¯": 6448,
      "à¤¾à¤¦à¤°": 6449,
      "Ġà¤īà¤¸": 6450,
      "Ġà¤īà¤¦à¥įà¤¯à¥ĭà¤Ĺ": 6451,
      "largelyĠ": 6452,
      "e,ĠorĠ": 6453,
      "Ġà¤µà¤¿à¤§": 6454,
      "Ġà¤µà¤¿à¤ľ": 6455,
      "edĠinĠIndia,ĠandĠtheĠ": 6456,
      "âĢĵ201": 6457,
      "à¥Ģà¤ļà¥ĢĠà¤¸": 6458,
      "mentĠofĠtheĠ": 6459,
      "ĠbutĠ": 6460,
      "ĠbasedĠonĠ": 6461,
      "Ġà¤ķà¤°à¤¨": 6462,
      "industri": 6463,
      "Ġà¤¸à¤Ĥà¤¬à¤Ĥà¤§": 6464,
      "Chol": 6465,
      "Christian": 6466,
      "à¥ĢĠà¤ķà¤¾à¤³": 6467,
      "after": 6468,
      "affair": 6469,
      "Ġà¤ªà¤°à¤Ĥà¤ªà¤°": 6470,
      "à¤¬à¤Ĥà¤§": 6471,
      "edĠbyĠtheĠCh": 6472,
      "%ĠtoĠ": 6473,
      "atedĠwithĠ": 6474,
      "Ġà¥§à¥Ń": 6475,
      "languages": 6476,
      "north,Ġ": 6477,
      "extremelyĠ": 6478,
      "à¥ĢĠà¤¹à¥ĩĠà¤¸": 6479,
      "à¥ĢĠà¤Ĩà¤¹": 6480,
      "à¥ĢĠà¤Ĩà¤ķà¥įà¤°à¤®à¤£": 6481,
      "i,ĠwhichĠ": 6482,
      "population": 6483,
      "strong": 6484,
      "inĠ1962": 6485,
      "scen": 6486,
      "rate,Ġ": 6487,
      "ants,Ġ": 6488,
      "mostĠofĠtheĠ": 6489,
      "modern": 6490,
      "eĠinĠaĠ": 6491,
      "artist": 6492,
      "mean": 6493,
      "meas": 6494,
      ".ĠTheyĠ": 6495,
      "Ġà¤Ŀà¤¾à¤²à¥Ģ.": 6496,
      "prec": 6497,
      "à¤¾Ġà¤¨à¤¦": 6498,
      "neigh": 6499,
      ":Ġ6": 6500,
      ",ĠwhichĠhasĠ": 6501,
      ",ĠwhichĠhadĠ": 6502,
      "religion": 6503,
      "caste-": 6504,
      "statesĠandĠ": 6505,
      "à¤¾Ġà¤®à¤¿à¤³": 6506,
      "project": 6507,
      "1ĠtoĠ": 6508,
      "countri": 6509,
      ")ĠorĠ": 6510,
      "à¤¾à¤¬à¤¦à¥įà¤¦à¤²": 6511,
      "limitedĠ": 6512,
      "aĠfe": 6513,
      "à¤¦à¥ĩà¤¶à¤¾à¤¤à¥Ģà¤²": 6514,
      "present": 6515,
      "ĠâĢĵĠ": 6516,
      "à¥ĢĠà¤ªà¤¤à¥įâĢį": 6517,
      "ersĠ(": 6518,
      "causedĠtheĠ": 6519,
      "Mach": 6520,
      "thatĠwereĠ": 6521,
      "à¤łà¤¾à¤µ": 6522,
      "à¥Ģà¤ªà¤¾à¤¸à¥Ĥà¤¨": 6523,
      "à¤ļà¥įà¤¯à¤¾Ġà¤®": 6524,
      "harkh": 6525,
      "esĠofĠIndiaĠ": 6526,
      "power": 6527,
      "à¤¸à¥įà¤¤à¤¿à¤¤à¥įà¤¤à¥įà¤µ": 6528,
      "period": 6529,
      "ward": 6530,
      "warrior": 6531,
      "à¥ĩà¤¨à¥įà¤¦à¥įà¤°": 6532,
      "ilitatedĠ": 6533,
      "obstruct": 6534,
      "à¥ĭà¤²à¤¨": 6535,
      "à¤¾à¤Ĥà¤®à¤§à¥įà¤¯à¥ĩĠà¤Ĺ": 6536,
      "ableĠtoĠ": 6537,
      "world'sĠmostĠpopulousĠ": 6538,
      "generalĠelectionsĠ": 6539,
      "à¥Ģà¤ķà¤°à¤£": 6540,
      "ceed": 6541,
      "à¤¾à¤§à¥įà¤¯à¤®": 6542,
      "northernĠIndia,Ġ": 6543,
      "literaryĠ": 6544,
      "appli": 6545,
      "appearĠ": 6546,
      "appoint": 6547,
      "occurredĠ": 6548,
      "Ġà¥§à¥¯à¥¯à¥": 6549,
      "eated": 6550,
      "à¥¨à¥¬": 6551,
      "eĠinĠtheĠnumberĠofĠ": 6552,
      "à¤Ĥà¤ªà¤¨": 6553,
      "à¤Ĥà¤ªà¤¾à¤°à¤¿à¤ķ": 6554,
      "à¤¾Ġà¤ľà¤¾à¤¤à¤¾Ġà¤¹à¥Īà¥¤": 6555,
      "atĠtheĠWay": 6556,
      "China": 6557,
      ",Ġà¤ľà¥ĭ": 6558,
      "à¥ĩĠà¤Ĺà¥ĩà¤²": 6559,
      "à¤Ĥà¤¬à¤Ī": 6560,
      "country'sĠ": 6561,
      "MughalĠEmpire": 6562,
      "defeated": 6563,
      ",ĠaĠc": 6564,
      "specific": 6565,
      "à¥ģà¤ĸà¥įà¤¯Ġà¤ī": 6566,
      "sinceĠ198": 6567,
      "officeĠ": 6568,
      "Ġà¤Ńà¤¾à¤°à¤¤à¤¾à¤ļà¥įà¤¯à¤¾Ġà¤®": 6569,
      "placeĠ": 6570,
      "socialĠwelf": 6571,
      "militaryĠandĠ": 6572,
      "Ġà¤¥à¤¾à¤°à¤ļà¥ĩĠà¤µà¤¾à¤³à¤µà¤Ĥà¤Ł": 6573,
      "Pakistan,Ġ": 6574,
      "roadĠ": 6575,
      ",ĠwhoĠ": 6576,
      "edĠonĠtheĠIndianĠsubcontinentĠ": 6577,
      "1950,Ġ": 6578,
      "à¥¬Ġà¤Łà¤ķà¥įà¤ķ": 6579,
      "à¤¾Ġà¤īà¤¤à¥įà¤¤à¤°": 6580,
      "Ġà¤Ĩà¤¹à¥ĩĠà¤¤à¤°": 6581,
      "generatedĠ": 6582,
      "CompanyĠ": 6583,
      "rockĠ": 6584,
      "medic": 6585,
      "birthĠ": 6586,
      "movement": 6587,
      "ĠtoĠ1200": 6588,
      "Ġà¤¹à¥ģà¤ı": 6589,
      "culture.": 6590,
      "8ĠunionĠterritor": 6591,
      "rightsĠ": 6592,
      "transformedĠIndiaĠintoĠ": 6593,
      ".ĠIndiaĠalsoĠ": 6594,
      "ureĠdevelop": 6595,
      "à¤¾Ġà¤¸à¤®à¥ģà¤¦à¥įà¤°": 6596,
      "e.ĠT": 6597,
      "ammuĠandĠ": 6598,
      "Ġà¤¸à¥įà¤¥à¤¾à¤ªà¤¨": 6599,
      "Ġà¤Īà¤¸à¥įà¤Ł": 6600,
      "Ġà¤¹à¤¿à¤Ĥà¤¦à¥ĢĠà¤®à¤¹": 6601,
      "à¤Ĥà¤Ĺà¤¾à¤²à¤ļà¥įà¤¯à¤¾Ġà¤īà¤ªà¤¸à¤¾à¤Ĺà¤°": 6602,
      "à¤¾à¤ĸà¤¾à¤²": 6603,
      "sĠwereĠf": 6604,
      "à¤¸à¥įà¤µà¤¤": 6605,
      "à¤¾à¤Ĥà¤§à¤²": 6606,
      "Ġà¤ľà¤¨à¤ľà¤¾à¤¤à¤¿": 6607,
      "ryĠandĠtheĠ": 6608,
      "divid": 6609,
      "essentialĠ": 6610,
      "grewĠfromĠ": 6611,
      "territorialĠ": 6612,
      "especiallyĠinĠtheĠ": 6613,
      "originalĠ": 6614,
      "custom": 6615,
      "à¤¾Ġà¤¤à¤¥": 6616,
      "thisĠtimeĠandĠ": 6617,
      "Islam,Ġ": 6618,
      "MuslimĠrul": 6619,
      "à¤Ĥà¤¸à¤¦": 6620,
      "administrat": 6621,
      "à¥ĢĠà¤¸à¤®à¥ģà¤¦à¥įà¤°": 6622,
      "composedĠbyĠ": 6623,
      "Tamil": 6624,
      "Ġà¤ªà¤¾à¤°à¤Ĥà¤ªà¤¾à¤°à¤¿à¤ķ": 6625,
      "promot": 6626,
      "adventĠ": 6627,
      "complet": 6628,
      ".ĠAlthoughĠ": 6629,
      "survivesĠ": 6630,
      "3,42": 6631,
      "airĠpollut": 6632,
      "à¤¾Ġà¤µà¤¿à¤µà¤¿à¤§": 6633,
      "Ġà¤ķà¤²à¤¾,": 6634,
      "styles,Ġ": 6635,
      "independentĠ": 6636,
      "emperorĠ": 6637,
      "subsequentlyĠ": 6638,
      "Ġ1991,Ġ": 6639,
      "Ġà¤µà¤¿à¤¦à¥įà¤¯à¤¾à¤°à¥įà¤¥à¥įà¤¯à¤¾à¤Ĥà¤ļ": 6640,
      "Rajput": 6641,
      "geograph": 6642,
      "variousĠ": 6643,
      "intervent": 6644,
      "à¤¿à¤§à¥įà¤°": 6645,
      "à¥ĩà¤¹à¤°": 6646,
      "middleĠandĠ": 6647,
      "currenc": 6648,
      "desc": 6649,
      "small": 6650,
      "libert": 6651,
      "conductedĠinĠ": 6652,
      "until": 6653,
      "unitaryĠ": 6654,
      "ally,Ġ\"": 6655,
      "s.ĠThereĠwasĠ": 6656,
      "spreadingĠ": 6657,
      "Ġà¤²à¤¾à¤Ĺà¤²à¥ĩ.": 6658,
      "earliestĠextantĠ": 6659,
      "361ĠmillionĠ": 6660,
      "secular,Ġ": 6661,
      "à¤¤à¤Ĥà¤¤à¥įà¤°à¤¤": 6662,
      "Bharat": 6663,
      "enactedĠ": 6664,
      "à¤¾Ġà¤¥à¤¾à¥¤": 6665,
      "record": 6666,
      "clear-": 6667,
      "partition.": 6668,
      "growingĠeconom": 6669,
      "rockĠandĠ": 6670,
      ".ĠDuringĠthisĠ": 6671,
      "nominalĠ": 6672,
      "rangeĠofĠ": 6673,
      "à¥įà¤¯à¤¾Ġà¤ªà¥įà¤°à¤®à¤¾à¤£": 6674,
      "consistsĠofĠtheĠ": 6675,
      "associatedĠwithĠ": 6676,
      "mentsĠad": 6677,
      "numbers,Ġ": 6678,
      "traditionallyĠbeenĠ": 6679,
      "à¥įà¤¯à¤¾Ġà¤¶à¤¤à¤ķà¤¾à¤¤": 6680,
      "backĠMach": 6681,
      "Ġà¤¸à¤°à¤¸à¥įà¤µà¤¤": 6682,
      "AmongĠ": 6683,
      "Ġà¤¸à¥Īà¤¨à¤¿à¤ķ": 6684,
      "untouchabilityĠ": 6685,
      "à¥ĢĠà¤¸à¤Ĥà¤²à¤Ĺà¥įà¤¨": 6686,
      "Ġà¤Ĺà¥ĩà¤²à¥įà¤¯à¤¾Ġà¤ķà¤¾à¤¹à¥ĢĠà¤µà¤°à¥įà¤·à¤¾à¤¤": 6687,
      "Bihar": 6688,
      "Malay": 6689,
      "foundĠinĠtheĠ": 6690,
      "oastrianism": 6691,
      "thoseĠofĠtheĠ": 6692,
      "initi": 6693,
      "railway": 6694,
      "dueĠtoĠtheĠ": 6695,
      "whichĠtheĠ": 6696,
      "strengthĠ": 6697,
      "urbanisationĠ": 6698,
      "inequality,Ġ": 6699,
      "Ġà¤¬à¤¹à¥ģà¤®à¤¤": 6700,
      "parliamentaryĠsystem,ĠtheĠ": 6701,
      "NorthĠIndiaĠandĠ": 6702,
      "hereditaryĠ": 6703,
      "povertyĠ": 6704,
      "Mohenjo-daro,Ġ": 6705,
      "Akbar": 6706,
      "EasternĠ": 6707,
      "Marath": 6708,
      "genderĠ": 6709,
      "lawsĠandĠ": 6710,
      "similarĠ": 6711,
      "templesĠ": 6712,
      "institution": 6713,
      "recentĠdecadesĠ": 6714,
      "à¤¸à¥įà¤ķà¤¾à¤°": 6715,
      "rapid": 6716,
      "consumpt": 6717,
      "accessĠ": 6718,
      "Ġà¤¯à¤¾Ġà¤ķà¤¾à¤³à¤¾à¤¤": 6719,
      "persist": 6720,
      "à¥ĢĠà¤Ńà¥Ĥà¤®à¤¿à¤ķ": 6721,
      "maintain": 6722,
      "liberalisationĠ": 6723,
      "revenuesĠfromĠ": 6724,
      "chosenĠbyĠtheĠ": 6725,
      "à¤°à¥įà¤¨à¤¾à¤Łà¤ķ": 6726,
      "Ġà¤¹à¤³à¥Ĥà¤¹à¤³à¥Ĥ": 6727,
      "Ġà¤¶à¤¾à¤²à¥ĩà¤¯Ġà¤¶à¤¿à¤ķà¥įà¤·à¤£": 6728,
      "Ġà¤ªà¤¦à¤µà¥ĢĠà¤¶à¤¿à¤ķà¥įà¤·à¤£": 6729,
      "à¤¾à¤Ĥà¤ļà¤¾Ġà¤ªà¥ģà¤¤à¥įà¤°": 6730,
      "à¤¾à¤ļà¥įà¤¯à¤¾Ġà¤ĵà¤ĺà¤¾à¤¤": 6731,
      "Ġ(à¤ĩà¤Ĥà¤Ĺà¥įà¤°à¤ľà¥Ģ:Ġ": 6732,
      "Ġà¤¸à¤¾à¤§à¤¾à¤°à¤£": 6733,
      "28ĠstatesĠandĠ": 6734,
      "GeneralĠ": 6735,
      "ModernĠ": 6736,
      "Zoroastrianism": 6737,
      "half": 6738,
      "ixedĠ": 6739,
      "puls": 6740,
      "textsĠ": 6741,
      "ufactur": 6742,
      "ĠkilometersĠ(": 6743,
      "thanĠtheĠ": 6744,
      "anatom": 6745,
      "onsetĠofĠ": 6746,
      "stiff": 6747,
      "reflect": 6748,
      "aĠmodel": 6749,
      "à¤¹à¤¶à¤¤à¤µà¤¾à¤¦": 6750,
      "Ġà¤ªà¤¡à¤²à¥ĩĠà¤ħà¤¸": 6751,
      "ingĠBuddhistĠandĠ": 6752,
      "Ġà¤®à¥Īà¤²)": 6753,
      "amendmentsĠad": 6754,
      "Ġà¤ħà¤Ĺà¥įà¤¨à¤¿à¤§à¥įà¤°": 6755,
      "implement": 6756,
      "ationĠofĠtheĠthirdĠmillenniumĠBCE": 6757,
      "à¤ļà¥ĢĠà¤¸à¥Ģà¤®": 6758,
      "motherĠofĠ": 6759,
      "industrialĠ": 6760,
      "Christianity,Ġ": 6761,
      "à¤¬à¤Ĥà¤§à¤¨": 6762,
      "neighbour": 6763,
      "à¥ĢĠà¤ªà¤¤à¥įâĢįà¤¨": 6764,
      "atĠtheĠWaybackĠMach": 6765,
      "ĠtoĠ1200ĠCE": 6766,
      "8ĠunionĠterritories": 6767,
      "ammuĠandĠKashmir": 6768,
      "Ġà¤¹à¤¿à¤Ĥà¤¦à¥ĢĠà¤®à¤¹à¤¾à¤¸à¤¾à¤Ĺà¤°": 6769,
      "à¤Ĥà¤Ĺà¤¾à¤²à¤ļà¥įà¤¯à¤¾Ġà¤īà¤ªà¤¸à¤¾à¤Ĺà¤°à¤¾à¤²": 6770,
      "railways,Ġ": 6771,
      "28ĠstatesĠandĠ8ĠunionĠterritories": 6772,
      "\"ĠofĠ": 6773,
      "%.": 6774,
      "(\"": 6775,
      "(2": 6776,
      "(Ar": 6777,
      "(c.âĢī": 6778,
      ").ĠTheĠ": 6779,
      ",Ġà¤®": 6780,
      ",Ġà¤Ķà¤°": 6781,
      ",à¥©": 6782,
      "-à¤ª": 6783,
      "-bod": 6784,
      ".Ġà¤¸": 6785,
      "1%": 6786,
      "1,ĠtheĠ": 6787,
      "10Ġ": 6788,
      "11Ġ": 6789,
      "14%Ġ": 6790,
      "27": 6791,
      "29": 6792,
      "2%.ĠInĠ": 6793,
      "31.": 6794,
      "3.9": 6795,
      "53": 6796,
      "7.5": 6797,
      "8ĠmillionĠ": 6798,
      ":ĠB": 6799,
      "Aj": 6800,
      "Agenc": 6801,
      "Col": 6802,
      "Cup": 6803,
      "Carnat": 6804,
      "CricketĠ": 6805,
      "El": 6806,
      "Ker": 6807,
      "Min": 6808,
      "Mum": 6809,
      "Ni": 6810,
      "Nat": 6811,
      "Or": 6812,
      "Out": 6813,
      "PP": 6814,
      "Par": 6815,
      "Prol": 6816,
      "Sar": 6817,
      "Sch": 6818,
      "Sov": 6819,
      "Sab": 6820,
      "Sant": 6821,
      "Ter": 6822,
      "Ur": 6823,
      "Vedi": 6824,
      "Yaksh": 6825,
      "a.Ġ": 6826,
      "bot": 6827,
      "bron": 6828,
      "bablyĠ": 6829,
      "bai,Ġ": 6830,
      "cra": 6831,
      "creas": 6832,
      "cover": 6833,
      "cere": 6834,
      "d-": 6835,
      "din": 6836,
      "dow": 6837,
      "doc": 6838,
      "doĠ": 6839,
      "downĠ": 6840,
      "ei": 6841,
      "eanĠ": 6842,
      "ework": 6843,
      "e\"ĠofĠ": 6844,
      "fr": 6845,
      "fall": 6846,
      "foet": 6847,
      "gig": 6848,
      "giveĠ": 6849,
      "gani": 6850,
      "hom": 6851,
      "ietĠ": 6852,
      "jack": 6853,
      "keĠ": 6854,
      "kur": 6855,
      "lationsĠ": 6856,
      "lic,Ġ": 6857,
      "lessĠ": 6858,
      "men": 6859,
      "menĠ": 6860,
      "med": 6861,
      "nin": 6862,
      "nar": 6863,
      "oom": 6864,
      "pĠ": 6865,
      "pet": 6866,
      "poin": 6867,
      "ricalĠ": 6868,
      "round": 6869,
      "sin": 6870,
      "ser": 6871,
      "te": 6872,
      "talĠ": 6873,
      "tom": 6874,
      "tun": 6875,
      "tand": 6876,
      "ta,Ġ": 6877,
      "typ": 6878,
      "uk": 6879,
      "usu": 6880,
      "ures": 6881,
      "warĠ": 6882,
      "wood": 6883,
      "ya,ĠorĠ": 6884,
      "zationĠ": 6885,
      "¢à¤¼": 6886,
      "®à¥«": 6887,
      "¯à¥ģà¤ķà¥įà¤¤": 6888,
      "µà¤¾à¤¦": 6889,
      "âĤ": 6890,
      "Ġ$": 6891,
      "ĠyearsĠ": 6892,
      "Ġgig": 6893,
      "à¤ĩ": 6894,
      "à¤Ŀ": 6895,
      "à¤·à¥įà¤Ł": 6896,
      "eĠbirth": 6897,
      "eĠgasĠ": 6898,
      "thm": 6899,
      "sĠatĠtheĠ": 6900,
      "infect": 6901,
      "internationalĠ": 6902,
      "à¥Ģ)": 6903,
      "ers.Ġ": 6904,
      ",Ġn": 6905,
      ",ĠwereĠ": 6906,
      ",ĠforĠ": 6907,
      ",ĠthoughĠ": 6908,
      "à¤¤à¥ĭ": 6909,
      "à¤¤à¤¨": 6910,
      "à¤¤à¥įà¤µ": 6911,
      "onomet": 6912,
      "à¤¿à¤°à¥įà¤": 6913,
      "à¤°Ġà¤¸": 6914,
      "à¤°à¤¿à¤ķ": 6915,
      "à¤°à¤¾à¤ļ": 6916,
      "à¤°à¤ľ": 6917,
      "enhous": 6918,
      "à¤¾Ġà¤§": 6919,
      "alaĠ": 6920,
      "alesĠ": 6921,
      "alityĠ": 6922,
      "ardsĠ": 6923,
      "stud": 6924,
      "yĠg": 6925,
      "yĠgar": 6926,
      "yĠdish": 6927,
      "dict": 6928,
      "dise": 6929,
      "ator": 6930,
      "atedĠinĠ": 6931,
      "ativesĠ": 6932,
      "à¥įà¤¯à¤¾à¤µà¤¸à¤¾à¤¯à¤¿à¤ķ": 6933,
      "orsĠ": 6934,
      "edĠup": 6935,
      "edĠbre": 6936,
      "à¥ĢĠà¤¥": 6937,
      "InternationalĠ": 6938,
      "redi": 6939,
      "rece": 6940,
      "relationsĠ": 6941,
      "aĠg": 6942,
      "aĠsingleĠ": 6943,
      "à¤¾à¤°à¤²à¥ĩà¤²": 6944,
      "à¤¾à¤°à¤Ńà¤¾à¤°": 6945,
      "ion-": 6946,
      "à¥ĭà¤¦": 6947,
      "à¥ĭà¤Ĥà¤¡": 6948,
      "ic,ĠandĠ": 6949,
      "ics.Ġ": 6950,
      "icleĠ": 6951,
      "Ġà¤ķà¤Ī": 6952,
      "Ġà¤ķà¥īà¤Ĥà¤Ĺà¥įà¤°à¥ĩà¤¸": 6953,
      "alĠisĠaĠ": 6954,
      "à¥ģà¤§": 6955,
      "à¤¨à¥įà¤¨": 6956,
      "à¤¨à¥įà¤¦": 6957,
      "top": 6958,
      "totalĠ": 6959,
      "à¤¾à¤¤à¤¨": 6960,
      "à¤²à¤µ": 6961,
      "à¤²à¥įà¤¤": 6962,
      "à¤²à¥Ģ.": 6963,
      "Ġà¤ªà¤¸": 6964,
      "Ġà¤ªà¥įà¤²": 6965,
      "Ġà¤ªà¥ģà¤¨": 6966,
      "inĠ200": 6967,
      "inĠ201": 6968,
      "inĠruralĠare": 6969,
      "echĠ": 6970,
      "ingĠart": 6971,
      "ingĠoverĠtheĠ": 6972,
      "urĠ": 6973,
      "uredĠbyĠ": 6974,
      "ureĠinĠ": 6975,
      "à¤Ĥà¤Ń": 6976,
      "esĠ3": 6977,
      "esĠsuchĠasĠ": 6978,
      "à¤¦à¤¸à¥įà¤¯": 6979,
      "toĠproduc": 6980,
      "ionĠofĠtheĠ": 6981,
      "isesĠ": 6982,
      "isdict": 6983,
      "thĠofĠ": 6984,
      "thĠlargestĠ": 6985,
      "Ġà¤¹à¤°": 6986,
      "Ġà¤¹à¥įà¤¯à¤¾Ġà¤": 6987,
      "Ġà¤¹à¤¾Ġà¤ľ": 6988,
      "à¤µà¥įà¤¹": 6989,
      "emph": 6990,
      "Ġà¤µĠà¤¸": 6991,
      "Ġà¤µĠà¤¬": 6992,
      "Ġà¤µà¥ĥ": 6993,
      "Ġà¤µĠà¤Ī": 6994,
      "Ġà¤µà¤¾à¤ĺ": 6995,
      "amework": 6996,
      "à¤£à¤¾à¤±": 6997,
      "à¤£à¥įà¤¯à¤¾à¤¸": 6998,
      "olut": 6999,
      "à¥Īà¤ķà¥įà¤·à¤£": 7000,
      "à¥įà¤¯à¤¾Ġà¤ĸ": 7001,
      "à¤¾à¤²à¤¾à¤ģ": 7002,
      "isĠandĠ": 7003,
      "isĠob": 7004,
      "isĠequ": 7005,
      "1935": 7006,
      "1949": 7007,
      "à¤¿à¤ķĠà¤¸à¤Ĥà¤¸à¥įà¤ķà¥ĥà¤¤": 7008,
      "Ġà¤ħà¤ªà¥įà¤°": 7009,
      "ri,Ġ": 7010,
      "Ġà¤Ĩà¤¯": 7011,
      "Ġà¤Ĩà¤°à¥įà¤¥à¤¿à¤ķ": 7012,
      "Ġà¤Ĩà¤ķà¥įà¤°à¤®à¤£": 7013,
      "asiĠ": 7014,
      "as.ĠInĠ": 7015,
      "à¤¾à¤ļà¤¾à¤°": 7016,
      "à¤¾à¤ļà¥ĩĠà¤¨à¤¾à¤µ": 7017,
      "à¥Ĥà¤¡": 7018,
      "à¤ªà¤¾à¤¤": 7019,
      "à¤ªà¤¾à¤¸": 7020,
      "à¤ªà¥ģà¤¤à¥įà¤°": 7021,
      "espre": 7022,
      "ofĠtheĠpopulationĠofĠ": 7023,
      "concep": 7024,
      "IndianĠc": 7025,
      "IndianĠclassicalĠ": 7026,
      "IndianĠgovernment": 7027,
      "supre": 7028,
      "agan": 7029,
      "agre": 7030,
      "à¤¾à¤ľà¤°": 7031,
      "à¤¾à¤ľà¤¨": 7032,
      "eaf": 7033,
      "Ġà¤¤à¥įà¤¯à¤¾à¤¤": 7034,
      "where": 7035,
      "exerc": 7036,
      "excav": 7037,
      "icĠisĠ": 7038,
      "inĠtheĠruralĠ": 7039,
      "Ġà¤¨à¥ĩà¤¹à¤°": 7040,
      "Ġà¤¦à¤¿à¤²": 7041,
      "Ġà¤¬à¤¾à¤°": 7042,
      "Ġà¤¬à¤¡à¤¼": 7043,
      "Ġà¤ªà¥įà¤°à¤¾à¤Ĥà¤¤à¤¾à¤¤": 7044,
      "à¤¿à¤¯à¤¾à¤°": 7045,
      "à¤¿à¤¯à¤¾Ġà¤Ĺà¥ĩà¤Ł": 7046,
      "adem": 7047,
      "Ġà¤¯à¤¾à¤Ĥà¤¨": 7048,
      "Ġà¤¯à¤¾Ġà¤®": 7049,
      "Ġà¤¯à¥ĩà¤£": 7050,
      "Ġà¤°à¤¾à¤®": 7051,
      "Ġà¤°à¤Ĥà¤Ĺ": 7052,
      "Ġà¤°à¤ķà¥įà¤·": 7053,
      "abad": 7054,
      "à¤¾à¤µà¥ĩà¤¶": 7055,
      "pleĠ": 7056,
      "esticĠ": 7057,
      "useĠofĠ": 7058,
      "ationĠTreat": 7059,
      "à¤¶à¤¸à¥įà¤µ": 7060,
      "à¤¶à¥ĩà¤·": 7061,
      "à¤¶à¤¾à¤¨à¥įà¤¯": 7062,
      "à¤¡à¤£": 7063,
      "à¥ĩà¤¶à¤¨": 7064,
      "à¤ľà¤¨": 7065,
      "à¤ľà¥įà¤ŀ": 7066,
      "osisĠ": 7067,
      "parentsĠ": 7068,
      "withĠaĠ": 7069,
      "everalĠ": 7070,
      "ha,ĠwhoseĠ": 7071,
      "à¤Ĺà¥ĭà¤²": 7072,
      "andh": 7073,
      "à¥Ĥà¤¨Ġà¤¸": 7074,
      "Ġà¤ĩ.à¤¸": 7075,
      "Ġà¤ĩà¤Ĥà¤Ĺà¥įà¤²": 7076,
      "umĠ": 7077,
      "sĠofĠ2026": 7078,
      "s.ĠIndiaĠ": 7079,
      "à¥ĢĠà¤¸à¤°à¤ķà¤¾à¤°": 7080,
      "à¥ĢĠà¤¸à¥įà¤¥à¤¾à¤¨à¤¿à¤ķ": 7081,
      "Ġà¤Ĺà¥ģà¤ľà¤°": 7082,
      "iesĠofĠ": 7083,
      "à¤¾Ġà¤ķà¤¿à¤²à¥įà¤²": 7084,
      "centageĠ": 7085,
      ".ĠIncreas": 7086,
      "India'sĠconstitution": 7087,
      "ship": 7088,
      "shoul": 7089,
      "closeĠ": 7090,
      "cloth": 7091,
      "fromĠSouthĠIndiaĠ": 7092,
      "ed.ĠTheĠ": 7093,
      "Ġà¤Ńà¤°à¤¤": 7094,
      "formallyĠ": 7095,
      "à¤¾Ġà¤¸à¥įà¤µ": 7096,
      "Ġà¤īà¤¨à¤ķ": 7097,
      "Ġà¤īà¤·à¥įà¤£": 7098,
      "à¥ĩĠà¤Ĩà¤ľ": 7099,
      ".ĠAnĠ": 7100,
      ".ĠAsĠofĠ2026": 7101,
      "Ġman": 7102,
      "Ġmal": 7103,
      "percentageĠ": 7104,
      "à¥ĩĠà¤¸à¤¾à¤®à¥įà¤°à¤¾à¤ľà¥įà¤¯": 7105,
      "otechĠ": 7106,
      "mentĠofĠIndiaĠ": 7107,
      "ouryĠdish": 7108,
      "Ġà¤ķà¤°à¤¤à¤¾à¤¤.": 7109,
      "groom": 7110,
      "seat": 7111,
      "Chha": 7112,
      "ChessĠ": 7113,
      "Champ": 7114,
      "2013Ġ": 7115,
      "à¥ĢĠà¤ķà¥ĭ": 7116,
      "à¥ĢĠà¤ķà¥įà¤·à¥ĩà¤¤à¥įà¤°": 7117,
      "affir": 7118,
      "centuryĠ": 7119,
      "derivedĠ": 7120,
      "à¥įà¤²à¤¿à¤®": 7121,
      "%ĠduringĠ": 7122,
      "ogam": 7123,
      "Ġà¤ļà¥Ģà¤¨": 7124,
      "includeĠ": 7125,
      "à¤¥à¤¿à¤¯à¤¾à¤°": 7126,
      "à¤¿à¤¶à¥įà¤ļ": 7127,
      "becom": 7128,
      "web": 7129,
      "ans.": 7130,
      "à¥ĢĠà¤¹à¥ģà¤Ī": 7131,
      "partiallyĠ": 7132,
      "theor": 7133,
      "decis": 7134,
      "decreas": 7135,
      "à¥Įà¤°": 7136,
      "à¤°à¥įà¤·à¤¿à¤¤": 7137,
      "popular": 7138,
      "inĠ1950": 7139,
      "egatesĠ": 7140,
      "à¥įà¤¹à¥ĩà¤Ĥ": 7141,
      "à¤¾Ġà¤ªà¤°": 7142,
      "à¤¾Ġà¤ªà¤¹": 7143,
      "à¤¾Ġà¤ªà¥Ĥà¤°à¥įà¤µ": 7144,
      "à¤Ĥà¤¡à¤¿à¤¯à¤¾Ġà¤Ĺà¥ĩà¤Ł": 7145,
      "Ġà¤ķà¥ĢĠà¤¦": 7146,
      "Ġà¤ķà¥ĢĠà¤ĵà¤°": 7147,
      "rati": 7148,
      "antaĠC": 7149,
      "à¤¿à¤µà¥Ĥà¤¡": 7150,
      "à¤¿à¤µà¤¡à¤£": 7151,
      "meat": 7152,
      "meet": 7153,
      "meatĠisĠ": 7154,
      "IndiaĠhasĠaĠ": 7155,
      "Ġ195": 7156,
      "à¤¾Ġà¤¨à¤¿à¤Ń": 7157,
      "edĠtheĠnationĠ": 7158,
      "haveĠbeenĠ": 7159,
      "niqu": 7160,
      "religionĠ": 7161,
      "committ": 7162,
      "castes,ĠorĠ": 7163,
      "serviceĠ": 7164,
      "à¥ĩà¤µà¤¾à¤°": 7165,
      "à¥ĩà¤µà¤£": 7166,
      "à¥ĩà¤µà¤³": 7167,
      "domesticĠ": 7168,
      "dancesĠ": 7169,
      "dancesĠofĠ": 7170,
      "à¥ģà¤¸à¥įà¤²à¤¿à¤®": 7171,
      "everyĠ": 7172,
      "probablyĠ": 7173,
      "butĠsh": 7174,
      "à¤¾à¤¬à¤°à¥ĭà¤¬à¤°": 7175,
      "aĠfeat": 7176,
      "Ġà¤Ńà¤¾à¤°à¤¤à¤¾à¤¤Ġà¤ħà¤¨à¥ĩà¤ķ": 7177,
      "à¥ĢĠà¤ªà¤°à¥įà¤µà¤¤": 7178,
      "actionĠ": 7179,
      "à¤¤à¤¾à¤¤.Ġà¤Ńà¤¾à¤°à¤¤": 7180,
      "%ĠofĠglobalĠ": 7181,
      "à¤¿à¤°à¤ªà¥ĩà¤ķà¥įà¤·": 7182,
      "à¤ªà¥įà¤°à¤¿à¤¯": 7183,
      "à¤ªà¥įà¤°à¤ķà¤¾à¤°": 7184,
      "theirĠnatalĠ": 7185,
      "à¤łà¤¬à¤Ĥà¤§à¤¨": 7186,
      "à¥įà¤¯à¤¾à¤¨à¤®à¤¾à¤°": 7187,
      "1960": 7188,
      "1965Ġ": 7189,
      "folk": 7190,
      "Union": 7191,
      "UnionĠ": 7192,
      "bothĠstyl": 7193,
      "Ġà¤¸à¤®à¥įà¤°à¤¾à¤Ł": 7194,
      "Buddhist": 7195,
      "timeĠandĠ": 7196,
      "bercul": 7197,
      "à¤¾Ġà¤Ĺà¤¾à¤Ĥà¤§": 7198,
      ".ĠSt": 7199,
      "history,Ġ": 7200,
      "historicallyĠ": 7201,
      "ables,Ġ": 7202,
      "à¥ĭà¤ĤĠà¤ķà¥ĩĠà¤¬": 7203,
      "world'sĠthird-largestĠ": 7204,
      "Common": 7205,
      "greenhous": 7206,
      "Ġà¤®à¤§à¥įà¤¯à¤ªà¥įà¤°": 7207,
      "Ġà¥¨à¥¦à¥¦": 7208,
      "thereaf": 7209,
      ",000Ġliv": 7210,
      "à¤¾à¤¡à¤¼": 7211,
      "à¥ĭà¤¨à¥ĩà¤¶à¤¿à¤¯": 7212,
      "occas": 7213,
      "ianĠnuclearĠ": 7214,
      "à¤«à¥įà¤°": 7215,
      "duringĠwhichĠ": 7216,
      "ementsĠ": 7217,
      "toĠbeĠanĠ": 7218,
      "à¥ĩĠà¤Ĺà¤°à¤ľ": 7219,
      "expect": 7220,
      "developedĠ": 7221,
      "à¥Ģà¤Ĥà¤¨": 7222,
      "Ġà¤«à¥įà¤°": 7223,
      "WorldĠCup": 7224,
      "à¥ģà¤²à¤¨": 7225,
      "colleg": 7226,
      "1950s,ĠandĠ": 7227,
      "à¤¿à¤ķĠà¤ķà¥įà¤°": 7228,
      "2.8ĠmillionĠ": 7229,
      "periodĠofĠ": 7230,
      "dominanceĠofĠ": 7231,
      "\"ĠorĠ\"": 7232,
      "techniqu": 7233,
      "Ġà¤ªà¥ģà¤°à¤¾à¤£": 7234,
      "Ġà¤ªà¥ģà¤°à¤¾à¤¤à¤¨": 7235,
      "Ġà¤µà¥ĩà¤³": 7236,
      "influencesĠ": 7237,
      "Delhi,Ġ": 7238,
      "involvingĠ": 7239,
      ".ĠIndiaĠisĠ": 7240,
      "exportsĠ": 7241,
      "carv": 7242,
      "Ġà¤ªà¥ĥà¤·à¥įà¤łà¤¾à¤ļ": 7243,
      "draw": 7244,
      "divor": 7245,
      "thĠcenturyĠCE": 7246,
      "diversityĠofĠ": 7247,
      "ancientĠIndianĠ": 7248,
      "cutĠ": 7249,
      "cuis": 7250,
      "figure": 7251,
      "figuresĠ": 7252,
      "tubercul": 7253,
      "aniĠandĠ": 7254,
      "music": 7255,
      "marriedĠ": 7256,
      "marriag": 7257,
      "marriagesĠ": 7258,
      "sculptureĠ": 7259,
      "sculptureĠinĠ": 7260,
      "à¥ĩĠà¤ħà¤¸à¤¤à¥ĩ.": 7261,
      "highĠcourt": 7262,
      "manuscri": 7263,
      "à¤¾à¤±à¥įà¤¯": 7264,
      "innov": 7265,
      "promin": 7266,
      "IndiansĠhaveĠ": 7267,
      "Ġà¤ħà¤Ńà¤¿à¤¯": 7268,
      "ivilianĠnuclearĠ": 7269,
      "garlic,Ġ": 7270,
      "Ġà¤ķà¥ĩà¤Ĥà¤¦à¥įà¤°à¤¶à¤¾à¤¸à¤¿à¤¤Ġà¤ªà¥įà¤°à¤¦à¥ĩà¤¶": 7271,
      "familiesĠ": 7272,
      "belongĠ": 7273,
      "·à¤Ńà¥Ĥà¤·": 7274,
      "Ġà¤ĩà¤Ĥà¤¡à¤¿à¤¯à¤¾Ġà¤ķ": 7275,
      "soleĠ": 7276,
      ".ĠForĠ": 7277,
      "employedĠ": 7278,
      "10,": 7279,
      "Bhang": 7280,
      "Shiv": 7281,
      "averageĠ": 7282,
      "highestĠ": 7283,
      "2011,ĠtheĠ": 7284,
      "policiesĠ": 7285,
      "disputedĠ": 7286,
      "4ĠbillionĠ(": 7287,
      "GovernmentĠofĠIndiaĠ": 7288,
      "secularĠ": 7289,
      "sideĠ": 7290,
      "villag": 7291,
      "villageĠ": 7292,
      "waist": 7293,
      "waistĠ": 7294,
      "bleĠtoĠtheĠ": 7295,
      "lastĠ50Ġ": 7296,
      "Ġà¤ħà¤ľà¥Ĥà¤¨à¤¹": 7297,
      "danceĠisĠ": 7298,
      "danceĠtradition": 7299,
      "à¤¤à¥įà¤ķà¥ĥà¤·à¥įà¤Ł": 7300,
      "Ġà¤¨à¤¿à¤°à¥įà¤®à¤¾à¤£": 7301,
      "Ġà¤ķà¥ĩĠà¤²à¤¿à¤¯": 7302,
      "100ĠbillionĠ": 7303,
      "Ġà¤ĳà¤«": 7304,
      "theĠlargestĠpopulationĠofĠ": 7305,
      "à¥ĢĠà¤ıà¤ķĠà¤Ĩà¤¹à¥ĩ.": 7306,
      "asĠwellĠ": 7307,
      "proport": 7308,
      "iesĠinĠtheĠworldĠ": 7309,
      "wentĠtoĠw": 7310,
      "eĠreach": 7311,
      "annualĠ": 7312,
      "à¤¾Ġà¤Ńà¤¾à¤°à¤¤à¥Ģà¤¯": 7313,
      "à¤®à¥įà¤Ń": 7314,
      "lowerĠhous": 7315,
      "associateĠ": 7316,
      "à¥īà¤²à¤¿à¤µà¥Ĥà¤¡": 7317,
      "therefor": 7318,
      "educationĠsystem": 7319,
      "calledĠ\"": 7320,
      "broughtĠ": 7321,
      "à¥ĩà¤¦à¤¾à¤°": 7322,
      "à¥Īà¤µà¤¿à¤§": 7323,
      "wasĠtheĠworld'sĠ": 7324,
      "beforeĠtheĠ": 7325,
      ".ĠInĠ2008": 7326,
      "commonlyĠwornĠ": 7327,
      "urbanĠareasĠ": 7328,
      "cookingĠtechniqu": 7329,
      "2011Ġcensus,Ġ": 7330,
      "musicĠhasĠ": 7331,
      "dance-dramasĠChha": 7332,
      "Ġà¤ľà¤¾à¤¨à¥ĩà¤µà¤¾à¤°": 7333,
      "Ġà¤¦à¤ĸà¥įà¤ĸà¤¨à¤ļà¥įà¤¯à¤¾Ġà¤ª": 7334,
      "à¥Īà¤¶à¤¿à¤·à¥įà¤Łà¥įà¤¯Ġà¤Ĩà¤¹à¥ĩ.": 7335,
      "delegatesĠ": 7336,
      "iferationĠTreat": 7337,
      "jurisdict": 7338,
      "portĠofĠ": 7339,
      "savouryĠdish": 7340,
      "steam": 7341,
      ".Ġà¥§à¥¬": 7342,
      "Ġà¤¨à¥įà¤¯à¤¾à¤¯à¤¾à¤²à¤¯": 7343,
      "shareĠofĠ": 7344,
      "everydayĠ": 7345,
      "headĠofĠ": 7346,
      "Ġà¤ķà¥ĩĠà¤¦à¤¶à¤ķĠà¤®à¥ĩà¤Ĥ": 7347,
      "Non-Prol": 7348,
      "calend": 7349,
      "others": 7350,
      "Ġà¤¸à¥ģà¤°à¥ģà¤µà¤¾à¤¤": 7351,
      "à¤§à¥ģà¤¨à¤¿à¤ķ": 7352,
      "IndianĠfil": 7353,
      "example,Ġ": 7354,
      "Ġà¤ķà¥ĩĠà¤°à¥Ĥà¤ªĠà¤®à¥ĩà¤Ĥ": 7355,
      "additionalĠ": 7356,
      "sportsĠ": 7357,
      "formalĠoccas": 7358,
      "upĠtoĠUS$": 7359,
      "president,ĠtheĠ": 7360,
      "classical,Ġ": 7361,
      "world'sĠsecond-": 7362,
      "perĠ1,000Ġliv": 7363,
      "hasĠbeenĠanĠimportantĠ": 7364,
      "GDPĠperĠcapitaĠ": 7365,
      "belowĠtheĠ": 7366,
      "NuclearĠNon-Prol": 7367,
      "UnitedĠStates,Ġ": 7368,
      "vegetari": 7369,
      "discriminator": 7370,
      "à¤µà¥ĥà¤¤à¥Ģà¤¯": 7371,
      "à¤£à¥įà¤¯à¤¾à¤¤Ġà¤¯à¥ĩà¤¤": 7372,
      "Ġà¤¤à¤¿à¤¸à¤±": 7373,
      "Ġà¤ķà¥ĩĠà¤ļà¥ģà¤¨à¤¾à¤µà¥ĭà¤ĤĠà¤®à¥ĩà¤Ĥ": 7374,
      "à¥¨à¥¬Ġà¤ľà¤¾à¤¨à¥ĩà¤µà¤¾à¤°": 7375,
      "Ġà¤Īà¤¸à¥įà¤ŁĠà¤ĩà¤Ĥà¤¡à¤¿à¤¯à¤¾Ġà¤ķ": 7376,
      "(Art": 7377,
      "-bodyĠgar": 7378,
      ".Ġà¤¸.Ġà¥§à¥¬": 7379,
      "KeralaĠ": 7380,
      "Mumbai,Ġ": 7381,
      "Organi": 7382,
      "Sarna": 7383,
      "SovietĠ": 7384,
      "Sabha,ĠwhoseĠ": 7385,
      "Urdu": 7386,
      "VedicĠ": 7387,
      "Yakshagan": 7388,
      "bottom": 7389,
      "bronz": 7390,
      "cerealĠ": 7391,
      "down": 7392,
      "doĠnotĠ": 7393,
      "eitherĠ": 7394,
      "framework": 7395,
      "foeticid": 7396,
      "jacket": 7397,
      "narrow": 7398,
      "pointsĠ": 7399,
      "usuallyĠ": 7400,
      "âĤ¹": 7401,
      "Ġgigaw": 7402,
      "eĠgasĠem": 7403,
      ",ĠforĠexample,Ġ": 7404,
      "diseas": 7405,
      "edĠupĠinĠ": 7406,
      "à¤²à¥įà¤¤à¤¨à¤¤": 7407,
      "Ġà¤ªà¥įà¤²à¥ĩà¤Ł": 7408,
      "toĠproduceĠ": 7409,
      "emphas": 7410,
      "à¤¾à¤²à¤¾à¤ģà¤ķà¤¿": 7411,
      "espreadĠ": 7412,
      "ofĠtheĠpopulationĠofĠIndiaĠ": 7413,
      "supremeĠ": 7414,
      "whereasĠ": 7415,
      "Ġà¤¯à¤¾Ġà¤®à¤¹": 7416,
      "Ġà¤ĩ.à¤¸.Ġà¥§à¥¯à¥": 7417,
      "shoulder": 7418,
      ".ĠAsĠofĠ2026,Ġ": 7419,
      "percentageĠpointsĠ": 7420,
      "affirm": 7421,
      "antaĠCav": 7422,
      "Commonweal": 7423,
      "greenhouseĠgasĠem": 7424,
      "à¥ĩĠà¤Ĺà¤°à¤ľà¥ĩà¤ļ": 7425,
      "tuberculosisĠ": 7426,
      "wentĠtoĠwarĠ": 7427,
      "Ġà¤¦à¤ĸà¥įà¤ĸà¤¨à¤ļà¥įà¤¯à¤¾Ġà¤ªà¤łà¤¾à¤°": 7428,
      "iferationĠTreaty,Ġ": 7429,
      "jurisdictionĠ": 7430,
      "perĠ1,000ĠliveĠbirth": 7431,
      "NuclearĠNon-ProliferationĠTreaty,Ġ": 7432,
      "OrganizationĠ": 7433,
      ".0": 7434,
      "CN": 7435,
      "IU": 7436,
      "materi": 7437,
      "¬à¤¹à¥ģà¤¤à¤¾à¤Ĥà¤¶": 7438,
      "®à¥ª": 7439,
      "µà¤°": 7440,
      "Ĭà¤ģ": 7441,
      "à¤ĩà¤¸": 7442,
      "à¤¾à¤ī": 7443,
      "à¥įà¤«": 7444,
      "à¤¤à¤®": 7445,
      "à¤¤à¤¿à¤ķ": 7446,
      "à¤¤à¥įà¤¨": 7447,
      "à¤°-": 7448,
      "à¤°à¤¿à¤¤": 7449,
      "à¤¿à¤¥": 7450,
      "à¥įà¤¯à¤¾à¤Ĥà¤ļà¥įà¤¯à¤¾Ġà¤": 7451,
      "à¥ĢĠà¤¡": 7452,
      ".ĠO": 7453,
      "à¤¾à¤°à¤®à¥įà¤Ń": 7454,
      "à¥įà¤°à¥Ģà¤²": 7455,
      "à¥įà¤°à¥ĩà¤²": 7456,
      "à¥Ģà¤Ĺ": 7457,
      "à¥ĭà¤£": 7458,
      "à¥ĭà¤°à¤£": 7459,
      "Ġà¤ķà¤¿à¤¨": 7460,
      "Ġà¤ķà¤¾à¤°à¥įà¤¯": 7461,
      "à¥ģà¤£": 7462,
      "à¤ķà¥Ģà¤¯": 7463,
      "à¤ķà¤¥": 7464,
      "à¤¨à¤¾à¤¥": 7465,
      "à¤¨à¤¿à¤·à¥įà¤ł": 7466,
      "Ġà¤¸à¤¹": 7467,
      "Ġà¤¸à¤¿à¤ķ": 7468,
      "Ġà¤¸à¥ĩĠà¤¬": 7469,
      "Ġà¤¸à¤¬à¤¸": 7470,
      "à¤¾à¤¤Ġà¤¸": 7471,
      "à¤¾à¤¤Ġà¤®à¥ĭà¤ł": 7472,
      "à¤²à¤¾à¤µ": 7473,
      "à¤²à¤¾.": 7474,
      "Ġà¤ªà¤¾à¤¨": 7475,
      "Ġà¤ªà¥Ĥà¤°": 7476,
      "à¤°à¥įà¤«": 7477,
      "à¤¦à¤¾à¤¨": 7478,
      "à¤µà¤¤à¤¾à¤¤.": 7479,
      "à¤¾à¤¨à¥ĩĠà¤ľ": 7480,
      "Ġà¤µà¤°": 7481,
      "Ġà¤µà¤¾à¤°": 7482,
      "à¥įà¤¯à¤¾Ġà¤µ": 7483,
      "à¥įà¤¯à¤¾Ġà¤Ńà¤¾à¤°à¤¤": 7484,
      "à¤¾à¤Ĥà¤¦": 7485,
      "Ġà¤Ĩà¤²à¥ĩà¤²": 7486,
      "à¤ªà¥įà¤ª": 7487,
      "à¤ªà¤¯à¥ĭà¤Ĺ": 7488,
      "à¥įà¤¤à¥ģ": 7489,
      "Ġà¤Ńà¤¾à¤°à¤¤Ġà¤ķà¥ĩĠà¤": 7490,
      "Ġà¤Ńà¤¾à¤°à¤¤Ġà¤Ķà¤°": 7491,
      "Ġà¤Ńà¤¾à¤°à¤¤Ġà¤ķà¥ĢĠà¤": 7492,
      "à¥ģà¤ı": 7493,
      "à¤¾à¤ľà¤®à¤¹": 7494,
      "Ġà¤¨à¥Į": 7495,
      "Ġà¤¦à¥ģà¤¸": 7496,
      "Ġà¤ľà¤¿à¤¨": 7497,
      "Ġà¤ľà¥įà¤ŀà¤¾à¤¨": 7498,
      "Ġà¤ªà¥įà¤°à¤£": 7499,
      "Ġà¤®à¥ĩà¤ĤĠà¤ª": 7500,
      "Ġà¤®à¥ĩà¤ĤĠà¤ªà¥įà¤°": 7501,
      "Ġà¤®à¥ĩà¤ĤĠà¤ıà¤ķ": 7502,
      "Ġà¤¯à¤¾Ġà¤ªà¥įà¤°": 7503,
      "Ġà¤¯à¥Ĥà¤°": 7504,
      "Ġà¤¯à¥ĩà¤¥": 7505,
      "Ġà¤¯à¤¾Ġà¤µà¤¿à¤µà¤¿à¤§": 7506,
      "2020": 7507,
      "à¤ļà¤²": 7508,
      "à¥ĥà¤¹": 7509,
      "à¤°à¥įà¤µĠà¤°à¤¾à¤ľà¥įà¤¯": 7510,
      "Ġà¤ĩà¤Ĥà¤Ĺà¥įà¤°à¤ľ": 7511,
      "à¥ĢĠà¤¸à¤Ĥà¤ĸ": 7512,
      "à¤Ńà¥Ĥà¤®": 7513,
      "Ġà¤Ĺà¤Ī": 7514,
      "Ġà¤Ĺà¤łà¤¬à¤Ĥà¤§à¤¨": 7515,
      "spe": 7516,
      "Ġà¤¶à¥Īà¤²": 7517,
      "Ġà¤¶à¤¤à¤¾à¤¬à¥įà¤¦": 7518,
      "Ġà¤Ńà¥Ģà¤®": 7519,
      "Ġà¤²à¤¾à¤²": 7520,
      "Ġà¤²à¤¿à¤¹": 7521,
      "Ġà¤²à¥Ĥà¤Ł": 7522,
      "à¤¾à¤¦à¥įà¤µà¥Ģà¤ª": 7523,
      "Ġà¤īà¤°à¥įà¤µ": 7524,
      "à¥Ģà¤¨à¤Ĥà¤¤à¤°": 7525,
      "à¥Ģà¤ļà¥įà¤¯à¤¾Ġà¤ķ": 7526,
      "à¤°à¥įà¤®à¤¨": 7527,
      "Ġà¤ķà¤°Ġà¤¦à¤¿à¤¯": 7528,
      "Ġà¤ħà¤¸à¥ĩĠà¤®à¥įà¤¹à¤£": 7529,
      "Ġà¤ªà¤°à¤®à¤¾à¤£à¥ģ": 7530,
      "à¥ĩĠà¤ķà¤®": 7531,
      "à¥ĩĠà¤ķà¤¾à¤°à¤£": 7532,
      "Ġà¤ļà¤¾à¤°": 7533,
      "chĠofĠ": 7534,
      "à¤¿à¤¶à¥įà¤°": 7535,
      "à¥Įà¤Ĺà¥ĭà¤²": 7536,
      "Ġ100": 7537,
      "à¥ĥà¤·": 7538,
      "à¤¾Ġà¤Ĩà¤¹à¥ĩ": 7539,
      "Ġà¤°à¤¾à¤ľà¥įà¤¯à¤¾à¤¤à¥Ģà¤²": 7540,
      "à¥ĢĠà¤ħà¤¥à¤µ": 7541,
      "à¥ĢĠà¤ħà¤¨à¥ĩà¤ķ": 7542,
      "à¥ĩà¤µà¤²": 7543,
      "à¥įà¤ķà¥ĥà¤¤à¤¿à¤ķ": 7544,
      "à¤¾à¤¬à¤¾à¤¦": 7545,
      "à¥Ģà¤¤à¥Ģà¤²": 7546,
      "à¥ĩĠà¤¤à¤¯à¤¾à¤°": 7547,
      "à¤¿à¤°à¥ģà¤¦à¥įà¤§": 7548,
      "à¤¾à¤ķà¥įà¤·": 7549,
      "à¤¾Ġà¤ħà¤¸": 7550,
      "Ġà¤®à¤¹à¤¤à¥įà¤¤à¥įà¤µ": 7551,
      "Ġà¤¸à¤®à¤¾à¤ľ": 7552,
      "Ġà¤¸à¤®à¤¯": 7553,
      "à¤¾à¤Īà¥¤": 7554,
      "à¥ĩà¤Ĥà¤ľ": 7555,
      "à¥Ģà¤®à¤§à¥Ģà¤²": 7556,
      "à¥ĭà¤ĤĠà¤ķà¥ĩĠà¤²": 7557,
      "à¥ĢĠà¤¯à¤¾à¤ļ": 7558,
      "Ġà¤ķà¥ĩà¤²à¥ĩĠà¤µĠà¤¤": 7559,
      "à¥ĩĠà¤°à¤¾à¤ľ": 7560,
      "Ġà¤°à¤¾à¤ľà¤¨": 7561,
      "à¥ĢĠà¤¦à¤¿à¤²à¥įà¤²": 7562,
      "à¥ĢĠà¤¦à¥ĩà¤ĸ": 7563,
      "à¤Ĥà¤¬à¥Ĥà¤¦": 7564,
      "à¤°à¥įà¤¯Ġà¤¸à¤¾à¤®à¥įà¤°à¤¾à¤ľà¥įà¤¯": 7565,
      "à¥Īà¤¨à¥įà¤¯": 7566,
      "Ġà¤Ńà¤¾à¤°à¤¤à¤¾à¤ļà¥įà¤¯à¤¾Ġà¤¸": 7567,
      "placeĠofĠ": 7568,
      "Ġà¤Ńà¤¾à¤·à¤¾,": 7569,
      "Ġà¤Ńà¤¾à¤·à¤¾à¤ı": 7570,
      "Ġà¤¥à¥Ģà¥¤": 7571,
      "à¥¦à¥¦à¥¦": 7572,
      "à¤¿à¤ķĠà¤ķà¤¾à¤³à¤¾à¤¤": 7573,
      "à¥ĩà¤ĸà¤ķ": 7574,
      "à¥Ģà¤ĤĠà¤¶à¤¤à¤¾à¤¬à¥įà¤¦": 7575,
      "à¤¿à¤°à¥įà¤®à¤¿à¤¤": 7576,
      "Ġà¤ıà¤µ": 7577,
      "Ġà¤µà¥ĩà¤¦": 7578,
      "Ġà¤µà¥ĩà¤Ĺà¤³": 7579,
      "à¥ĩĠà¤¶à¤¾à¤¸à¥įà¤¤à¥įà¤°": 7580,
      "alsĠinĠtheĠ": 7581,
      "Ġà¤ĩà¤Ĥà¤¡à¥ĭà¤¨à¥ĩà¤¶à¤¿à¤¯": 7582,
      "à¤¦à¥įà¤¦à¥ĩà¤¶": 7583,
      "à¤¾Ġà¤°à¤¹": 7584,
      "Ġà¤ľà¤¨à¤¤": 7585,
      "Ġà¤ľà¤¨à¤¸à¤Ĥà¤ĸ": 7586,
      "Ġ(à¤Ĩ": 7587,
      "ħà¤¨à¥ĩà¤ķ": 7588,
      "Ġà¤ķà¥ĢĠà¤¸à¤¬à¤¸": 7589,
      "à¤¾à¤Ĥà¤¸à¥įà¤ķà¥ĥà¤¤à¤¿à¤ķ": 7590,
      "Ġà¤ªà¤¾à¤°à¥įà¤Ł": 7591,
      "Ġà¤µà¥įà¤¯à¤¾à¤ª": 7592,
      "à¤¾à¤¸à¥įà¤¤à¥įà¤°,": 7593,
      "à¥ĭà¤·à¤¿à¤¤": 7594,
      "à¤§à¤¿à¤ķà¤¾à¤°à¤¿à¤ķ": 7595,
      "Ġà¤ħà¤®à¤°": 7596,
      "Ġà¤²à¤¾à¤Ĺà¥Ĥ": 7597,
      "à¥ĢĠà¤ħà¤¸à¤¤à¥ĩ.": 7598,
      "¸à¥įà¤¤à¥ĥà¤¤": 7599,
      "à¤¸à¥įà¤Łà¥įà¤°à¥ĩà¤²": 7600,
      "Ġà¤ªà¤¹à¤²": 7601,
      "Ġà¤ħà¤¶à¥ĭà¤ķ": 7602,
      "à¤®à¥įà¤¬": 7603,
      "à¥ĢĠà¤¹à¥ĭà¤¤à¥Ģ.": 7604,
      "à¥īà¤²à¤°": 7605,
      "à¤ķà¥įà¤¤à¤¿": 7606,
      "à¥įà¤¯à¤¾Ġà¤®à¥ĭà¤ł": 7607,
      "Ġà¤ľà¤¿à¤¸à¤ķ": 7608,
      "Ġà¤°à¥Ĥà¤ªĠà¤¸": 7609,
      "Ġà¤®à¤¹à¤¾à¤°à¤¾à¤·à¥įà¤Łà¥įà¤°à¤¾à¤¤à¥Ģà¤²": 7610,
      "birthplaceĠofĠ": 7611,
      "Ġà¤Ĩà¤¹à¥ĩ.Ġ": 7612,
      "valu": 7613,
      "Ġ2003": 7614,
      "Ġà¤īà¤¤à¥įà¤ª": 7615,
      "Ġà¤ĺà¥ĩà¤£à¥įà¤¯à¤¾à¤¸": 7616,
      "Ġà¤Īà¤¸à¤¾Ġà¤ªà¥Ĥà¤°à¥įà¤µ": 7617,
      "à¤ªà¤¾à¤²à¤¿à¤ķ": 7618,
      "à¥ĢĠà¤Ńà¥Ĥà¤®à¤¿à¤ķà¤¾Ġà¤¨à¤¿à¤Ń": 7619,
      "Ġà¤Īà¤¸à¥įà¤ŁĠà¤ĩà¤Ĥà¤¡à¤¿à¤¯à¤¾Ġà¤ķà¤Ĥà¤ªà¤¨": 7620,
      "IUCN": 7621,
      "Ĭà¤ģà¤ļ": 7622,
      "à¥įà¤°à¥Ģà¤²à¤Ĥà¤ķ": 7623,
      "Ġà¤ħà¤¸à¥ĩĠà¤®à¥įà¤¹à¤£à¤¤à¤¾à¤¤.": 7624,
      "à¥Įà¤Ĺà¥ĭà¤²à¤¿à¤ķ": 7625,
      "à¤Ĥà¤¬à¥Ĥà¤¦à¥įà¤µà¥Ģà¤ª": 7626,
      "'Ġà¤®à¥įà¤¹à¤£à¤ľ": 7627,
      ",Ġà¤¯": 7628,
      ",Ġà¤°": 7629,
      ",Ġà¤ħà¤¨à¥ĩà¤ķ": 7630,
      ",Ġà¤Ĺà¤£": 7631,
      ",Ġà¤¡": 7632,
      "-à°¦à±ĩà°¶": 7633,
      ".à°ķ": 7634,
      ".à¤®": 7635,
      ".Ġà¤ªà¥Ĥà¤°à¥įà¤µ": 7636,
      ".à¥¬Ġà¤Łà¤ķà¥įà¤ķ": 7637,
      "2%)": 7638,
      "21,": 7639,
      "3Ġà°": 7640,
      "3Ġà°ļ": 7641,
      "32,": 7642,
      "4,": 7643,
      "68": 7644,
      "7.9": 7645,
      "87,": 7646,
      "PI": 7647,
      "SI": 7648,
      "¦à°ķà±įà°·à°£": 7649,
      "¦à°Ĺà±įà°Ĺ": 7650,
      "¬à°¿à°¯": 7651,
      "¬à¤¦à¥įà¤¦à¤²": 7652,
      "®à¤¤": 7653,
      "®à°¯": 7654,
      "®Ġà¤®à¤§à¥įà¤¯": 7655,
      "¸à°®à±ģà°¦à±įà°°à°¤à±Ģà°°": 7656,
      "Ġ9": 7657,
      "Ġ202": 7658,
      "ħà°£": 7659,
      "ħà¤¤à¤¿à¤¶à¤¯": 7660,
      "ĪĠà°¦à±ĩà°¶à°Ĥ": 7661,
      "ĭà¤¤": 7662,
      "ĭà¤¤à¥įà¤¯": 7663,
      "İà°²à±įà°²": 7664,
      "Ľà°¾à°¯à±ģà°¤": 7665,
      "ľà¤¨": 7666,
      "à¤ī": 7667,
      "à¤ĭà¤¤à¥įà¤¯": 7668,
      "Ġà¤ł": 7669,
      "Ġà¤łà¤¿à¤ķà¤¾à¤£": 7670,
      "Ġà¤ĭà¤·à¤Ńà¤¦à¥ĩà¤µ": 7671,
      "Ġà°īà°¨à±įà°¨Ġà°": 7672,
      "Ġà°¹à°¿à°®à°¾à°²à°¯": 7673,
      "à¤¾à¤«": 7674,
      "à¥įà¤Ĺ": 7675,
      "à±įà°Ľà°¾à°¯à±ģà°¤": 7676,
      "à¥ĩ)": 7677,
      "à¥ĩ-": 7678,
      "à¥ĩĠà¥«": 7679,
      "à±ģà°Ńà°¾à°·": 7680,
      "à¥Ģ.Ġà¥§à¥¯à¥": 7681,
      "à°Ĥ,Ġà°ªà°¶à±įà°ļà°¿à°®": 7682,
      ",Ġ32,": 7683,
      "à¤¤à¤°": 7684,
      "à¤¤Ġà¤Ĩà¤¹à¥ĩ.": 7685,
      "à¤¤à¥Ģà¤¤": 7686,
      "à¤¤à¥ĩĠà¤¤": 7687,
      "à¤¤à¤ļà¥įà¤¯à¤¾Ġà¤": 7688,
      "à¤¤Ġà¤¹à¥ĭà¤¤à¥ĩ.": 7689,
      "à¤¤à¤ĥ": 7690,
      "à¤¤à¤ľà¥įà¤ŀ": 7691,
      "à¤¿à¤°à¥įà¤µ": 7692,
      "à¤°à¤ķ": 7693,
      "à¤°à¤¨": 7694,
      "à¤°à¤¾à¤·à¥įà¤Łà¥įà¤°": 7695,
      "à¤°à¥Ģà¤¬": 7696,
      "à¤¿à¤·": 7697,
      "à¤¿à¤Ĺ": 7698,
      "à¤¾Ġà¤Ł": 7699,
      "à¤¾Ġà¤Ŀà¤¾à¤²": 7700,
      "alianĠPlat": 7701,
      "à¥ĩĠà¤Ł": 7702,
      "à¥įà¤¯à¤¾à¤ļà¥įà¤¯à¤¾Ġà¤": 7703,
      "à¥įà¤¯à¤¾à¤Ĥà¤®": 7704,
      "à¥ĢĠà¤ĵà¤³à¤ĸ": 7705,
      "à¥ĩà¤·à¥įà¤ł": 7706,
      "à°¨à±įà°®": 7707,
      "à°¨à°¿à°ļà±įà°ļ": 7708,
      "re-": 7709,
      "à°°à±ĩà°": 7710,
      "à°°à°²à±ĭĠà°": 7711,
      "à¤¾à¤°à¤¸": 7712,
      "à¤¾à¤°à¤¾à¤ľ": 7713,
      "à¤¾à¤°à¥įà¤Ł": 7714,
      "à¤¾à¤°à¥įà¤Ĺ": 7715,
      "à¥įà¤°à¤¤": 7716,
      "à¥įà¤°à¤¿à¤¯": 7717,
      "à±įà°°Ġà°¸à°¾à°®à°°à±įà°¥à±įà°¯à°ĤĠà°ķà°²à°¿à°Ĺ": 7718,
      "Ġà°ªà°¾à°²à°¨": 7719,
      "à¥Ģà¤Ł": 7720,
      "à¥ĭà¤µà¤²": 7721,
      "Ġà¤ķà¤¹": 7722,
      "Ġà¤ķà¤¾à¤³": 7723,
      "Ġà¤ķà¤¥": 7724,
      "Ġà¤ķà¤¾Ġà¤ªà¥įà¤°": 7725,
      "Ġà¤ķà¥ģà¤Ľ": 7726,
      "à°¾à°°à±į,Ġà°¬à°Ĥà°Ĺà±įà°²à°¾à°¦à±ĩà°¶": 7727,
      "à¤ķà¤¾à¤³": 7728,
      "à¤ķà¥įà¤Ł": 7729,
      "à¤ķà¤°à¥įà¤¤": 7730,
      "à¤ķà¤¾Ġà¤¯": 7731,
      "à¤ķà¤¾à¤Ĥà¤ļà¥įà¤¯à¤¾Ġà¤®": 7732,
      "à¤¨Ġà¤ªà¥Ĥà¤°à¥įà¤µ": 7733,
      "à¤¨Ġà¤®à¤¿à¤³": 7734,
      "à°¾à°²à±įà°¯": 7735,
      "à°¾à°²à±įà°¦": 7736,
      "à¤¸à¤°": 7737,
      "à¤¸à¤¾à¤®": 7738,
      "à¤¸à¥ĥà¤·à¥įà¤Ł": 7739,
      "à¤¸Ġà¤ªà¤¡": 7740,
      "Ġà¤¸à¤¾à¤¤": 7741,
      "à¤¾à¤¤à¤¾à¤³": 7742,
      "à¤¹à¤¾à¤ģ": 7743,
      "à¤¹à¤¿à¤Ĥà¤¸": 7744,
      "à±ģĠà°®à°¤": 7745,
      "à¤²à¥ĭà¤": 7746,
      "à¤²à¥ĩĠà¤ľ": 7747,
      "à¤²à¤¾Ġà¤Ĩà¤¹à¥ĩ.": 7748,
      "à¤²à¥įà¤¯à¤¾Ġà¤¹à¥ĭà¤¤": 7749,
      "Ġà¤ªà¤¾à¤¸à¥Ĥà¤¨": 7750,
      "Ġà¤ªà¤Ĥà¤ľà¤¾à¤¬": 7751,
      "Ġà¤ªà¥ģà¤¢": 7752,
      "Ġà¤®à¤²": 7753,
      "Ġà¤®à¤§": 7754,
      "Ġà¤®à¥Īà¤¦à¤¾à¤¨": 7755,
      "Ġà¤®à¥įà¤¯à¤¾à¤¨à¤®à¤¾à¤°": 7756,
      "à¤Ĥà¤¥": 7757,
      "à°®à±ĢĠà°µ": 7758,
      "à°¿Ġà°īà°¨à±įà°¨": 7759,
      "à°¿Ġà°¸à±įà°¥à°¾à°¨": 7760,
      "à°¿Ġà°īà°Ĥà°¡": 7761,
      "à±įà°¯à°ªà±įà°°": 7762,
      "à¤®à¥įà¤®": 7763,
      "à¤®à¤®à¤¾à¤£": 7764,
      "à¤®à¥ģà¤¦à¥įà¤°": 7765,
      "à¤®à¤¦à¤¾à¤°": 7766,
      "à¤®à¤Ĥà¤ļ": 7767,
      "à¤¦à¥ĢĠà¤ķ": 7768,
      "à¤¦à¤¯à¤¾à¤¸": 7769,
      "à¤¦à¤°à¥įà¤¶": 7770,
      "à¤¦à¥ĥà¤·à¥įà¤Łà¥įà¤¯à¤¾Ġà¤Ńà¤¾à¤°à¤¤": 7771,
      "à±ĭĠà°¸à°°à°¿à°¹à°¦à±įà°¦": 7772,
      "à°µà°¸à±įà°¥à°¾à°¨": 7773,
      ".Ġà°ĩà°¦à°¿Ġà°": 7774,
      "Ġà¤¹à¥ĩĠà¤¸": 7775,
      "Ġà¤¹à¥ĩĠà¤¦": 7776,
      "Ġà¤¹à¥ĭà¤¨": 7777,
      "Ġà¤¹à¤¾Ġà¤¦à¥ĩà¤¶": 7778,
      "à¤µà¤¿à¤ķ": 7779,
      "à¤µà¥ĩà¤¶": 7780,
      "à¤µà¤¾à¤¹": 7781,
      "à¤µà¥ĢĠà¤ª": 7782,
      "à¤µà¥ĩà¤°": 7783,
      "à¤µà¤°à¥įà¤¤": 7784,
      "à¤µà¤¸à¤¾à¤¯": 7785,
      "à¤¾à¤¨à¥ĩĠà¤µ": 7786,
      "à¤¾à¤¨à¥įà¤¯à¤¤": 7787,
      "Ġà¤µĠà¤ķ": 7788,
      "Ġà¤µà¥ĩà¤°": 7789,
      "Ġà¤µĠà¤²à¥ĭà¤ķ": 7790,
      "Ġà¤µĠà¤¬à¤Ĥà¤Ĺà¤¾à¤²": 7791,
      "Ġà¤µà¤¾à¤¢": 7792,
      "Ġà¤µà¤¿à¤ķà¤¸à¤¿à¤¤": 7793,
      "à¤£à¥ģà¤¸": 7794,
      "à¥Īà¤ĭà¤¤à¥įà¤¯": 7795,
      "à¥įà¤¯à¤¾Ġà¤²": 7796,
      "à¥įà¤¯à¤¾Ġà¤ľ": 7797,
      "à¤¾à¤²Ġà¤¨à¥ĩà¤¹à¤°": 7798,
      "Ńà°¾à°°à°¤Ġà°īà°ªà°ĸà°Ĥà°¡": 7799,
      "Ġà¤ħà¤Ĺ": 7800,
      "Ġà¤ħà¤¬": 7801,
      "Ġà¤ħà¤§à¤¿à¤ķà¤¾à¤°": 7802,
      "à±Īà°µà°¿à°§": 7803,
      "à¤¾à¤ļà¥ĩĠà¤¨": 7804,
      "à¤¾à¤ļà¥ĢĠà¤¨": 7805,
      "à¤¾à¤ļà¥ĢĠà¤ħà¤°à¥įà¤¥à¤µà¥įà¤¯à¤µà¤¸à¥įà¤¥": 7806,
      "à¤ªà¤¾à¤Ł": 7807,
      "à¤ªà¤¾à¤¸à¥Ĥà¤¨": 7808,
      "à¤ªà¥ģà¤¡": 7809,
      "à°¿à°¨Ġà°¦à±ĩà°¶à°¾à°²à°²à±ĭĠà°": 7810,
      "à°¾à°¨Ġà°ħ": 7811,
      "à°¾à°¨à°¿à°¸à±įà°¤à°¾à°¨": 7812,
      "à°¯Ġà°¨à°¾à°Ĺà°°à°¿à°ķà°¤": 7813,
      "Ġà¤Ńà¤¾à¤°à¤¤à¤Ńà¤°": 7814,
      "à±ģà°²Ġà°µ": 7815,
      "à±ģà°²à°¨à±ģĠà°": 7816,
      "à±ģà°²à°¨à±ģĠà°ª": 7817,
      "à¤¾à¤ľà¤µ": 7818,
      "Ġà°µà°¾à°£à°¿à°ľà±įà°¯": 7819,
      "à°Ĥà°ļà±ģà°ķà±ģà°Ĥà°Ł": 7820,
      "Ġà¤¤à¥Ģà¤¸": 7821,
      "à¥ĤĠà¤Ĩà¤£à¤¿": 7822,
      "à¤¾à¤®Ġà¤¸": 7823,
      "à°Ĥà°Ĺà°¾à°³": 7824,
      "à¤¾à¤¸à¤¾à¤¹": 7825,
      "à¥ĭà¤±": 7826,
      "à¥ĭà¤Ĭ": 7827,
      "Ġà¤¨à¤¿à¤®": 7828,
      "Ġà¤¨à¤Ĥà¤¤à¤°": 7829,
      "Ġà¤¦à¥ĩà¤¤": 7830,
      "Ġà¤¦à¤¿à¤µà¤¸": 7831,
      "Ġà¤¬à¥Ī": 7832,
      "Ġà¤¬à¥īà¤²à¤¿à¤µà¥Ĥà¤¡": 7833,
      "Ġà¤ľà¥Ĥà¤¨": 7834,
      "Ġà¤ľà¤¾à¤Ĺ": 7835,
      "Ġà¤ľà¥Ģà¤¤": 7836,
      "Ġà¤ľà¥ģà¤¨": 7837,
      "Ġà¤ªà¥įà¤°à¤¤à¤¿à¤¶": 7838,
      "à¤¿à¤¯à¥ģà¤ķà¥įà¤¤": 7839,
      "Ġà¤ķà¥ĩĠà¤ªà¥įà¤°": 7840,
      "Ġà¤®à¥ĩà¤ĤĠà¤Ń": 7841,
      "Ġà¤®à¥ĩà¤ĤĠà¤Ńà¤¾à¤°à¤¤à¥Ģà¤¯": 7842,
      "ign": 7843,
      "Ġà¤¯à¤¾à¤¤à¥Ģà¤²": 7844,
      "Ġà¤¯à¤¾Ġà¤¦": 7845,
      "Ġà¤¯à¤¾à¤Ĥà¤ļà¥įà¤¯à¤¾Ġà¤": 7846,
      "Ġà¤¯à¤¾à¤¨à¤Ĥà¤¤à¤°": 7847,
      "Ġà¤¯à¤¾Ġà¤°à¤¾à¤ľà¥įà¤¯": 7848,
      "Ġà¤°à¤ĸ": 7849,
      "à¤¾à¤µà¥įà¤¯à¤¾Ġà¤¶à¤¤à¤ķ": 7850,
      "à¤¾à¤µà¤¿à¤¦à¥įà¤¯": 7851,
      "à¤¯à¤¨": 7852,
      "à¤¯à¥ģà¤Ĺ": 7853,
      "2019": 7854,
      "Ńà°¾à°°à°¤à°¦à±ĩà°¶à°Ĥ,Ġà°": 7855,
      "à¤ļà¥įà¤ļ": 7856,
      "à¤¶à¤¾à¤¹": 7857,
      "à±įà°µà°¸à±įà°¤": 7858,
      "à¤ľà¤¾à¤°": 7859,
      "à¤Ĺà¤®à¤¨": 7860,
      "à°¾à°²à±ģ,Ġ8Ġà°ķà±ĩà°Ĥà°¦à±įà°°": 7861,
      "à¥Ĥà¤¨Ġà¤§": 7862,
      "à¤¾à¤¹à¤¾à¤°": 7863,
      "à¤¾à¤¹à¤ľà¤¹": 7864,
      "à¤¾à¤¹à¤°à¤²": 7865,
      "à¥ĢĠà¤¸à¤²à¥įà¤¤à¤¨à¤¤": 7866,
      "à¤Ńà¤¾à¤·": 7867,
      "à°Ĥà°²à±ĭĠà°ıà°¡": 7868,
      "Ġà¤¶à¤¾à¤Ĥà¤¤": 7869,
      "Ġà¤¶à¤¿à¤ĸ": 7870,
      "Ġà¤¶à¥įà¤°à¥Ģà¤²à¤Ĥà¤ķ": 7871,
      "Ġà¤¶à¤¾à¤¹à¤ľà¤¹": 7872,
      "à°¿.à°®à±ĢĠà°µ": 7873,
      "à¤¾Ġà¤ķà¤¾à¤³": 7874,
      "à¤¾à¤Ĥà¤ļà¤²": 7875,
      "à¤¾à¤Ĥà¤ļà¥įà¤¯à¤¾à¤¤": 7876,
      "à¤¾à¤Ĺà¤¤": 7877,
      "à¤¾à¤Ĺà¤ªà¥Ĥà¤°": 7878,
      "Ġà¤Ńà¤¾à¤µ": 7879,
      "Ġà¤Ńà¤µà¤¨": 7880,
      "à¥ĩà¤ķà¤°": 7881,
      "Ġà¤²à¤¾à¤ĸ": 7882,
      "Ġà¤²à¤¿à¤ĸ": 7883,
      "Ġà¤īà¤®": 7884,
      "Ġà¤īà¤¦": 7885,
      "à¥įà¤ķà¥Ģà¤®": 7886,
      "à°¿à°Ĺà°¾,Ġà°": 7887,
      "à¤ķà¥įà¤·à¤¾à¤¸": 7888,
      "Ġà¤µà¤¿à¤¦à¥ĩà¤¶": 7889,
      "Ġà¤µà¤¿à¤¸à¥įà¤¤à¥ĥà¤¤": 7890,
      "à¥ĢĠà¤µà¤¿à¤¶": 7891,
      "à¥ĢĠà¤µà¥Īà¤¦": 7892,
      "à¥ĢĠà¤µà¤¿à¤¦à¥įà¤¯": 7893,
      "à¥ĢĠà¤µĠà¤µà¥Īà¤¦à¤¿à¤ķĠà¤ķ": 7894,
      "Ġà¤¹à¥ĪĠà¤Ķà¤°": 7895,
      "Ġà¤¹à¥ĪĠà¤ľà¥ĭ": 7896,
      "à¥ĩĠà¤¸à¥įà¤µ": 7897,
      "à¥ģà¤°à¥Ĥà¤ķ": 7898,
      "à¥ģà¤°à¥ĭà¤ªà¥Ģà¤¯": 7899,
      "à¤¾à¤ļà¥įà¤¯à¤¾Ġà¤¨": 7900,
      "à¤¾à¤¤à¥Ģà¤²Ġà¤ªà¥įà¤°à¤¾à¤ļà¥Ģà¤¨": 7901,
      "à¤¾à¤¤à¥Ģà¤²Ġà¤µà¤¿à¤¦à¥įà¤¯à¤¾à¤°à¥įà¤¥": 7902,
      "à¤¾à¤¤à¥Ģà¤²Ġà¥Ń": 7903,
      "à¤¿à¤¨à¥įà¤¨": 7904,
      "Ġà¤¸à¤Ĥà¤¬": 7905,
      "à°Ĺà°¾Ġà°īà°¨à±įà°¨à°¾à°¯à°¿.": 7906,
      "à°²à±ģà°Ĺà°¾Ġà°īà°¨à±įà°¨à°¾à°¯à°¿.": 7907,
      "à¤¬à¥įà¤§": 7908,
      "à¤¬à¤ķà¤¿": 7909,
      "à°¿,Ġà°Ńà°¾à°°à°¤Ġà°īà°ªà°ĸà°Ĥà°¡": 7910,
      "à¤¿à¤Ĥà¤Ĺ": 7911,
      "à¤¿à¤Ĥà¤ł": 7912,
      "ķà±Ĥà°¡à±ģà°ķà±Ĭ": 7913,
      "à°Ńà°¾à°°à°¤à°¦à±ĩà°¶à°ĤĠ1": 7914,
      "à°Ĥà°²à±ĭ,Ġ32,": 7915,
      "à°¿à°Ĥà°¦à°¿.Ġà°ĩà°¦à°¿Ġà°": 7916,
      "Ġà¤ļà¤¾à¤²": 7917,
      "Ġà¤ļà¥įà¤¯à¤¾Ġà¤¸": 7918,
      "à¤Ńà¤¾à¤°à¤¤à¤¾à¤ļà¥įà¤¯à¤¾Ġà¤": 7919,
      "Ġà¤§à¤¾à¤°à¥įà¤®à¤¿à¤ķ": 7920,
      "à¥ĩĠà¤®à¥ĭà¤ł": 7921,
      "à¥ĢĠà¤Ĩà¤£": 7922,
      "à¥ĢĠà¤Ĩà¤£à¤¿": 7923,
      "à°¨à°¿Ġà°īà°¨à±įà°¨Ġà°": 7924,
      "à¥Ģ.Ġà¤ĩà¤¤": 7925,
      "à¥Ģ.Ġà¤¯à¤¾à¤¤à¥Ģà¤²": 7926,
      "stralianĠPlat": 7927,
      "à±į,Ġà°Ĩà°«à±įà°ĺ": 7928,
      "à±į,Ġà°ļà±Īà°¨à°¾,Ġà°": 7929,
      "à¤¾Ġà¤¦à¤¿à¤¯": 7930,
      "à¤¾Ġà¤¦à¤ķà¥įà¤·à¤¿à¤£": 7931,
      "Ġà¤ħà¤¨à¥ģà¤": 7932,
      "Ġ15": 7933,
      "à¤Ĥà¤¡Ġà¤µà¤¾à¤°": 7934,
[...]
