{
  "version": "1.0",
  "truncation": null,
  "padding": null,
  "added_tokens": [
    {
      "id": 0,
      "content": "<unk>",
      "single_word": false,
      "lstrip": false,
      "rstrip": false,
      "normalized": false,
      "special": true
    }
  ],
  "normalizer": {
    "type": "NFC"
  },
  "pre_tokenizer": {
    "type": "ByteLevel",
    "add_prefix_space": false,
    "trim_offsets": true,
    "use_regex": false
  },
  "post_processor": null,
  "decoder": {
    "type": "ByteLevel",
    "add_prefix_space": true,
    "trim_offsets": true,
    "use_regex": true
  },
  "model": {
    "type": "BPE",
    "dropout": null,
    "unk_token": "<unk>",
    "continuing_subword_prefix": null,
    "end_of_word_suffix": null,
    "fuse_unk": false,
    "byte_fallback": false,
    "ignore_merges": false,
    "vocab": {
      "<unk>": 0,
      "\"": 1,
      "$": 2,
      "%": 3,
      "&": 4,
      "'": 5,
      "(": 6,
      ")": 7,
      "+": 8,
      ",": 9,
      "-": 10,
      ".": 11,
      "/": 12,
      "0": 13,
      "1": 14,
      "2": 15,
      "3": 16,
      "4": 17,
      "5": 18,
      "6": 19,
      "7": 20,
      "8": 21,
      "9": 22,
      ":": 23,
      ";": 24,
      "=": 25,
      "A": 26,
      "B": 27,
      "C": 28,
      "D": 29,
      "E": 30,
      "F": 31,
      "G": 32,
      "H": 33,
      "I": 34,
      "J": 35,
      "K": 36,
      "L": 37,
      "M": 38,
      "N": 39,
      "O": 40,
      "P": 41,
      "R": 42,
      "S": 43,
      "T": 44,
      "U": 45,
      "V": 46,
      "W": 47,
      "Y": 48,
      "Z": 49,
      "^": 50,
      "a": 51,
      "b": 52,
      "c": 53,
      "d": 54,
      "e": 55,
      "f": 56,
      "g": 57,
      "h": 58,
      "i": 59,
      "j": 60,
      "k": 61,
      "l": 62,
      "m": 63,
      "n": 64,
      "o": 65,
      "p": 66,
      "q": 67,
      "r": 68,
      "s": 69,
      "t": 70,
      "u": 71,
      "v": 72,
      "w": 73,
      "x": 74,
      "y": 75,
      "z": 76,
      "|": 77,
      "¡": 78,
      "¢": 79,
      "£": 80,
      "¤": 81,
      "¥": 82,
      "¦": 83,
      "§": 84,
      "¨": 85,
      "©": 86,
      "ª": 87,
      "«": 88,
      "¬": 89,
      "®": 90,
      "¯": 91,
      "°": 92,
      "±": 93,
      "²": 94,
      "³": 95,
      "´": 96,
      "µ": 97,
      "¶": 98,
      "·": 99,
      "¸": 100,
      "¹": 101,
      "¼": 102,
      "½": 103,
      "¾": 104,
      "¿": 105,
      "Â": 106,
      "Ã": 107,
      "Ä": 108,
      "Å": 109,
      "Î": 110,
      "Ï": 111,
      "à": 112,
      "á": 113,
      "â": 114,
      "Ġ": 115,
      "Ģ": 116,
      "ģ": 117,
      "Ĥ": 118,
      "ĥ": 119,
      "ħ": 120,
      "Ĩ": 121,
      "ĩ": 122,
      "Ī": 123,
      "ī": 124,
      "Ĭ": 125,
      "ĭ": 126,
      "Į": 127,
      "į": 128,
      "İ": 129,
      "ı": 130,
      "Ĳ": 131,
      "ĳ": 132,
      "Ĵ": 133,
      "ĵ": 134,
      "Ķ": 135,
      "ķ": 136,
      "ĸ": 137,
      "Ĺ": 138,
      "ĺ": 139,
      "Ļ": 140,
      "ļ": 141,
      "Ľ": 142,
      "ľ": 143,
      "Ŀ": 144,
      "ŀ": 145,
      "Ł": 146,
      "ł": 147,
      "Ń": 148,
      "à¤": 149,
      "à°": 150,
      "à¥": 151,
      "Ġà¤": 152,
      "à±": 153,
      "à¤¾": 154,
      "Ġà°": 155,
      "à¤¾à¤": 156,
      "eĠ": 157,
      "à¥į": 158,
      "à¥įà¤": 159,
      "à±į": 160,
      "à°¾": 161,
      "à±įà°": 162,
      "à°¾à°": 163,
      "à°¿": 164,
      "th": 165,
      "an": 166,
      "à¥ĩ": 167,
      "sĠ": 168,
      "in": 169,
      "dĠ": 170,
      "à±ģ": 171,
      "er": 172,
      "à¥Ģ": 173,
      "à°Ĥ": 174,
      ",Ġ": 175,
      "à¤¤": 176,
      "on": 177,
      "theĠ": 178,
      "à¤¿": 179,
      "à°¿à°": 180,
      "à¤°": 181,
      "à°Ĥà°": 182,
      "en": 183,
      "ar": 184,
      "al": 185,
      "st": 186,
      "à¤¿à¤": 187,
      "à¤¾Ġà¤": 188,
      "yĠ": 189,
      "di": 190,
      "at": 191,
      "Ĥà¤": 192,
      "or": 193,
      "à¥įà¤¯": 194,
      "à¥ĩĠà¤": 195,
      "edĠ": 196,
      ".Ġ": 197,
      "In": 198,
      "ĠtheĠ": 199,
      "of": 200,
      "à¥ĢĠà¤": 201,
      "andĠ": 202,
      "à°¤": 203,
      "aĠ": 204,
      "re": 205,
      "à¥ĩà¤": 206,
      "à°¨": 207,
      "à°²": 208,
      "à°°": 209,
      "à¤¾à¤°": 210,
      "ion": 211,
      "Indi": 212,
      "it": 213,
      "à¥įà¤°": 214,
      "à±ĩ": 215,
      "à±ĭ": 216,
      "ic": 217,
      "à±įà°°": 218,
      "Ġà°ª": 219,
      "à¥Ģà¤": 220,
      "ofĠ": 221,
      "à¥ĭ": 222,
      "ing": 223,
      "alĠ": 224,
      "à°¾à°°": 225,
      "tĠ": 226,
      "Ġà¤ķ": 227,
      "à°ķ": 228,
      "à¥ģ": 229,
      "à¤ķ": 230,
      "om": 231,
      "anĠ": 232,
      "to": 233,
      "à°¾à°²": 234,
      "à°¦": 235,
      "à¤¾à¤¤": 236,
      "à±Ģ": 237,
      "à¤¨": 238,
      "à¤¸": 239,
      "ou": 240,
      "à¤¹": 241,
      "Ġà¤¸": 242,
      "à±ģĠà°": 243,
      "asĠ": 244,
      ",Ġà°": 245,
      "ec": 246,
      "inĠ": 247,
      "à¤²": 248,
      "ingĠ": 249,
      "erĠ": 250,
      "Ġà¤ª": 251,
      "ur": 252,
      "esĠ": 253,
      "à±ĩà°": 254,
      "à¤Ĥà¤": 255,
      "Ġà¤®": 256,
      "à°®": 257,
      "à°¿Ġà°": 258,
      "toĠ": 259,
      "ionĠ": 260,
      "à±įà°¯": 261,
      "à¤¾à¤°à¤¤": 262,
      "s,Ġ": 263,
      "à¤®": 264,
      "is": 265,
      "à¤°à¥įà¤": 266,
      "à¤¦": 267,
      "Ńà¤¾à¤°à¤¤": 268,
      "à°µ": 269,
      "à±ĭĠà°": 270,
      "stĠ": 271,
      "ent": 272,
      "lyĠ": 273,
      "thĠ": 274,
      "¸à±įà°": 275,
      "il": 276,
      "Th": 277,
      "em": 278,
      "hĠ": 279,
      "à°¿à°Ĥà°": 280,
      "à¤µ": 281,
      "à°¾Ġà°": 282,
      ".Ġà°": 283,
      "à±ĩà°¶": 284,
      "am": 285,
      "à¥įà¤¯à¤¾Ġà¤": 286,
      "Ġà¤¹": 287,
      "à¤¾à¤¨": 288,
      "ol": 289,
      "IndiaĠ": 290,
      "Ġà¤µ": 291,
      "à¤¾à¤Ĥà¤": 292,
      "à¤£": 293,
      "ul": 294,
      "à¤Ĥ": 295,
      "isĠ": 296,
      "à°¡": 297,
      "à±Ĩ": 298,
      "19": 299,
      "à°¿à°ķ": 300,
      "à¤¾à¤²": 301,
      "ri": 302,
      "à°ª": 303,
      "as": 304,
      "à±įà°¨": 305,
      "Ġà¤Ĩ": 306,
      "Ńà°¾à°°": 307,
      "à¤¾à¤ļ": 308,
      "for": 309,
      "Ġà°ªà±įà°°": 310,
      "Ńà°¾à°°à°¤": 311,
      "à¤¿à¤ķ": 312,
      "li": 313,
      "Ġà¤ħ": 314,
      "à°ĤĠà°": 315,
      "à¥Ĥà¤": 316,
      "à¥Ī": 317,
      "ver": 318,
      "es": 319,
      "ra": 320,
      "TheĠ": 321,
      "à±Ĥ": 322,
      "à°Ł": 323,
      "à±Ī": 324,
      "ow": 325,
      "à¤ª": 326,
      "à°¿à°¨": 327,
      "entĠ": 328,
      "el": 329,
      "âĢ": 330,
      "India": 331,
      ".Ġà¤": 332,
      "byĠ": 333,
      "à°¾à°¨": 334,
      "à°¯": 335,
      "00": 336,
      "à°°à±įà°": 337,
      "ir": 338,
      "nĠ": 339,
      "ofĠtheĠ": 340,
      "à¤¹à¥ĩ": 341,
      "ch": 342,
      "con": 343,
      "à¥įà¤¤": 344,
      "à±ģà°²": 345,
      "à°Ĺ": 346,
      "IndianĠ": 347,
      "à°¨à±įà°¨": 348,
      "Ġà°¸": 349,
      "su": 350,
      "op": 351,
      "à¤§": 352,
      "si": 353,
      "ag": 354,
      "du": 355,
      "wi": 356,
      "ea": 357,
      "à°¿.Ġà°": 358,
      "et": 359,
      ".ĠTheĠ": 360,
      "à¤¾à¤ľ": 361,
      "à°¾à°¯": 362,
      "à¥ģà¤": 363,
      "ex": 364,
      "'sĠ": 365,
      "un": 366,
      "icĠ": 367,
      "wh": 368,
      "Ġà°µ": 369,
      "Ġà°ķ": 370,
      "à¤¾à¤®": 371,
      "à°¦à±ĩà°¶": 372,
      "ist": 373,
      "à¤¾à¤¸": 374,
      "iv": 375,
      "à°¾à°¤": 376,
      "à¥Ĥ": 377,
      ",Ġà¤": 378,
      "inĠtheĠ": 379,
      "wasĠ": 380,
      "ĠandĠ": 381,
      "à¥Ģà¤²": 382,
      ",ĠtheĠ": 383,
      "à°Ĥà°Ĺ": 384,
      "enĠ": 385,
      ",ĠandĠ": 386,
      "ac": 387,
      "à¥ĩà¤Ĥ": 388,
      "inc": 389,
      "à°Ĥà°¦": 390,
      "ut": 391,
      "orĠ": 392,
      "à¥ĭà¤": 393,
      "²à±ĭĠà°": 394,
      "ear": 395,
      "ro": 396,
      "im": 397,
      "à¥Ģà¤¯": 398,
      "Ġà¤ªà¥įà¤°": 399,
      "à¤°Ġà¤": 400,
      "à°§": 401,
      "ong": 402,
      "à¥¤": 403,
      "ad": 404,
      "ab": 405,
      "à±įà°Ł": 406,
      "à°¿à°Ĥà°¦": 407,
      "Ġà°°": 408,
      "ang": 409,
      "rom": 410,
      "à¤¿à¤¤": 411,
      "est": 412,
      "ernĠ": 413,
      "20": 414,
      "à¤¾à¤µ": 415,
      "pl": 416,
      "à¥įà¤·": 417,
      "oĠ": 418,
      "ationĠ": 419,
      "à¤¿à¤¯": 420,
      "à¥ĩà¤²": 421,
      "Ġ(": 422,
      "à¤¯": 423,
      "à°ķà±įà°": 424,
      "res": 425,
      "us": 426,
      "ig": 427,
      "Ġà¤¨": 428,
      "à±įà°²": 429,
      "à¤ļ": 430,
      "de": 431,
      "Ġà¥": 432,
      "à¥ĥ": 433,
      "à±Ģà°¯": 434,
      "Ńà°¾à°°à°¤à°¦à±ĩà°¶": 435,
      "mo": 436,
      "à¤ľ": 437,
      "ereĠ": 438,
      "par": 439,
      "à¥įà¤µ": 440,
      "à°¿à°Ĥà°ļ": 441,
      "Ġà¤Ńà¤¾à¤°à¤¤": 442,
      "withĠ": 443,
      "ha": 444,
      "Ġà¤ķà¥ĩĠà¤": 445,
      "à¤Ĥà¤¤": 446,
      "à¤¡": 447,
      "à°¸": 448,
      "à±įà°µ": 449,
      "Ġà¤®à¥ĩà¤Ĥ": 450,
      "¸à±įà°¤": 451,
      "·à¥įà¤": 452,
      "from": 453,
      "¦à±ĩà°¶": 454,
      "hasĠ": 455,
      "à¤¶": 456,
      "Ġà°®": 457,
      "à°Ĥà°¡": 458,
      "edĠbyĠ": 459,
      "à°¹": 460,
      "à¥ĩà¤¶": 461,
      "à±Ĭ": 462,
      "oc": 463,
      "ter": 464,
      "Ġà¤¤": 465,
      "ill": 466,
      "ect": 467,
      "ma": 468,
      "à¥Ĥà¤¨": 469,
      "à¤Ĺ": 470,
      "over": 471,
      "ichĠ": 472,
      "ation": 473,
      "à°¾à°Ĥ": 474,
      "à°¾à°²à±ģ": 475,
      "os": 476,
      "and": 477,
      "all": 478,
      "Ġà¤¬": 479,
      "Ġà¤Ĩà¤¹à¥ĩ": 480,
      "Ġà¤°": 481,
      "allyĠ": 482,
      "um": 483,
      "Ġà¤¦": 484,
      "à¥įà¤¥": 485,
      "à°£": 486,
      "à¤¾à¤¹": 487,
      "anc": 488,
      "à°ļ": 489,
      "à¤°à¥įà¤µ": 490,
      "com": 491,
      "ĠofĠ": 492,
      ".ĠIn": 493,
      "cont": 494,
      "ast": 495,
      "be": 496,
      "whichĠ": 497,
      "leĠ": 498,
      "rit": 499,
      "sĠofĠ": 500,
      "es,Ġ": 501,
      "ud": 502,
      "Ġà¤ľ": 503,
      "Ġà¤¯": 504,
      "icalĠ": 505,
      "à¤¾à¤ľà¥įà¤¯": 506,
      "cl": 507,
      "enc": 508,
      "à°¾à°²à±ģĠà°": 509,
      "sp": 510,
      "atĠ": 511,
      "y,Ġ": 512,
      "ult": 513,
      "der": 514,
      "itsĠ": 515,
      "§à¥": 516,
      "à¤Ń": 517,
      "à¤¾à¤Ĥà¤ļ": 518,
      "Ĩà¤¹à¥ĩ": 519,
      "onĠ": 520,
      "toĠtheĠ": 521,
      "ateĠ": 522,
      "iesĠ": 523,
      "à¤Ĥà¤Ĺ": 524,
      "lar": 525,
      ".ĠA": 526,
      "India'sĠ": 527,
      "ªà¥įà¤°": 528,
      "à¥ĢĠà¤¸": 529,
      "cent": 530,
      "à¤³": 531,
      "à°Ĥà°²à±ĭĠà°": 532,
      "à°¿à°¤": 533,
      "estĠ": 534,
      "¸à±įà°¥": 535,
      "oun": 536,
      "sh": 537,
      "à°¿.": 538,
      "à°Ĥà°Ł": 539,
      "à¥ĭà¤¤": 540,
      "à±Īà°¨": 541,
      "wereĠ": 542,
      "fromĠ": 543,
      "id": 544,
      "wor": 545,
      "à±ģà°¤": 546,
      "se": 547,
      ";Ġ": 548,
      "co": 549,
      "à°²à±ĭĠà°": 550,
      "econ": 551,
      "à±įĠà°": 552,
      "à¥ĭà¤Ĥ": 553,
      "à±ģà°²à±ģ": 554,
      "à¤¾Ġà¤ķ": 555,
      "mar": 556,
      "à°Ń": 557,
      "form": 558,
      "larg": 559,
      "à°¾à°ľ": 560,
      "à±ģà°ķ": 561,
      "areĠ": 562,
      "à¥ĩà¤ķ": 563,
      "end": 564,
      "lat": 565,
      "pro": 566,
      "à¤¾à¤ª": 567,
      "ort": 568,
      "ain": 569,
      "à°ľ": 570,
      "à¤¾à¤Ĺ": 571,
      "à°¦à±įà°": 572,
      "à¥įà¤ķ": 573,
      "forĠ": 574,
      "ct": 575,
      "gh": 576,
      "low": 577,
      "à¤Ł": 578,
      "à±ģĠà°ª": 579,
      "à¤¾Ġà¤¸": 580,
      "à±Ĥà°¡": 581,
      "·à¥įà¤Ł": 582,
      "²à±ĭ": 583,
      "à¥ĩà¤¤": 584,
      "ialĠ": 585,
      "s.Ġ": 586,
      "à¤¾Ġà¤¹": 587,
      "ure": 588,
      "min": 589,
      "à°Ĥà°¤": 590,
      "ingĠtheĠ": 591,
      "ism": 592,
      "veĠ": 593,
      "arĠ": 594,
      "à¥ĢĠà¤µ": 595,
      "ityĠ": 596,
      "à¤§à¥įà¤¯": 597,
      "à¤¿à¤µ": 598,
      "à°¾à°·": 599,
      "à¤ķà¥įà¤·": 600,
      "īà°¨à±įà°¨": 601,
      "à°¿à°Ĺ": 602,
      "à¥ĩĠà¤¸": 603,
      "edĠinĠ": 604,
      "à¥Ģà¤ļ": 605,
      "à°ķà±įà°·": 606,
      ".ĠInĠ": 607,
      "ay": 608,
      "mentĠ": 609,
      "per": 610,
      "à¤¾à¤¦": 611,
      "ass": 612,
      "Ġm": 613,
      "eĠofĠ": 614,
      "à¥ĢĠà¤¹": 615,
      "à¥ĥà¤¤": 616,
      "Ġb": 617,
      "Ġà¤ĩ": 618,
      "à±ģà°µ": 619,
      "à°²à±ģĠà°": 620,
      "µà°¿à°": 621,
      "à¤¾à¤ļà¥įà¤¯à¤¾Ġà¤": 622,
      "econom": 623,
      "ed": 624,
      "up": 625,
      "à¥Ģà¤¨": 626,
      "our": 627,
      "iveĠ": 628,
      "andĠtheĠ": 629,
      "à¥ģà¤°": 630,
      "à¤¾à¤¤à¥Ģà¤²": 631,
      "âĢĵ": 632,
      "overn": 633,
      "aryĠ": 634,
      "à±įà°ļ": 635,
      "reg": 636,
      "Ġà¤ħà¤¸": 637,
      "ak": 638,
      "à¤¾à¤£": 639,
      "indu": 640,
      "à±ģà°": 641,
      "âĢĮ": 642,
      "ap": 643,
      "à¥¦": 644,
      "201": 645,
      "Ch": 646,
      "à¤¿à¤²": 647,
      "Ġà¤¶": 648,
      "Ġà°ľ": 649,
      "200": 650,
      "à°¨à±ģĠà°": 651,
      "nor": 652,
      "à°¾à°®": 653,
      "à°¿à°ª": 654,
      "e,Ġ": 655,
      "Ġà¤Ń": 656,
      "à¤¿à¤¶": 657,
      "à¤ķà¤¾à¤°": 658,
      "af": 659,
      "à±įâĢĮ": 660,
      "à°¾à°°à±ģ": 661,
      "CE": 662,
      "Ŀà¤¾à¤²": 663,
      "eĠtheĠ": 664,
      "a,Ġ": 665,
      "port": 666,
      "Ġà¤¸à¤Ĥà¤": 667,
      "gr": 668,
      "bo": 669,
      "iĠ": 670,
      "Ġà¤Ĺ": 671,
      "à¤°à¥įà¤®": 672,
      "centur": 673,
      "tr": 674,
      "Ġà¤²": 675,
      "gen": 676,
      "tion": 677,
      "terĠ": 678,
      "à¥įà¤²": 679,
      "à°Ĺà°¾Ġà°": 680,
      "tsĠ": 681,
      "Ġà°ħ": 682,
      "à¤¦à¥įà¤": 683,
      "edĠbyĠtheĠ": 684,
      "à°¬": 685,
      "à¤¾à¤¯": 686,
      "anyĠ": 687,
      "sub": 688,
      "%Ġ": 689,
      "stit": 690,
      "à¤¿à¤¨": 691,
      "govern": 692,
      "à¤¼": 693,
      "à°²à±ģ": 694,
      "à¥Īà¥¤": 695,
      "à°¿à°¯": 696,
      "à¥ĢĠà¤ķ": 697,
      "Ńà¤¾à¤°à¤¤à¥Ģà¤¯": 698,
      "elyĠ": 699,
      "à¤¿à¤Ĥà¤": 700,
      "le": 701,
      "tra": 702,
      "à¤¾à¤³": 703,
      "à°¿,Ġà°": 704,
      "ans": 705,
      "à°Ĥ,Ġà°": 706,
      "ıà¤ķ": 707,
      "à°¿à°²": 708,
      "à°¾à°ķ": 709,
      "atedĠ": 710,
      "à¤¿à¤®": 711,
      "Ġà¤ķà¤°": 712,
      "uag": 713,
      "à°§à°¿à°ķ": 714,
      "anguag": 715,
      "ķà±Ĥà°¡": 716,
      "Ġà°¦à±ĩà°¶": 717,
      "à¤¿à¤¸": 718,
      "à°¾à°¯à°¿.Ġà°": 719,
      "à°Ĥà°Ĺà°¾Ġà°": 720,
      "à°¿à°Ĥà°¦à°¿.Ġà°": 721,
      "minist": 722,
      "à°¾à°¦": 723,
      "incl": 724,
      "year": 725,
      "à°Ĥà°²à±ĭ": 726,
      "irĠ": 727,
      "illionĠ": 728,
      "we": 729,
      "à°Ńà°¾à°°à°¤à°¦à±ĩà°¶": 730,
      "à¥ĩĠà¤¹": 731,
      "fir": 732,
      "pri": 733,
      "à±ĥ": 734,
      "Ġà°¨": 735,
      "à¥ĩĠà¤µ": 736,
      "og": 737,
      "à¤¿à¤§": 738,
      "worl": 739,
      "Hindu": 740,
      "chĠ": 741,
      "languag": 742,
      "pop": 743,
      "outh": 744,
      "à°Łà±įà°Ł": 745,
      "stitut": 746,
      "Asi": 747,
      "bec": 748,
      "0Ġ": 749,
      "bu": 750,
      "str": 751,
      "Ńà°¾à°°à°¤à±Ģà°¯": 752,
      "dec": 753,
      "Ġà¤ī": 754,
      "ongĠ": 755,
      "part": 756,
      "north": 757,
      "qu": 758,
      "à¤¬": 759,
      "inĠ19": 760,
      "Ġà¥§à¥": 761,
      "à°ļà±įà°ļ": 762,
      "i,Ġ": 763,
      "sy": 764,
      "à±įà°¤": 765,
      "the": 766,
      "à¥ĩĠà¤ķ": 767,
      "ionsĠ": 768,
      "includ": 769,
      "therĠ": 770,
      "à¥ĩĠà¤®": 771,
      "fl": 772,
      "Ġà¤Ķ": 773,
      "Ġà°¶": 774,
      "à°¾à°¬": 775,
      "reas": 776,
      "elect": 777,
      "west": 778,
      "edĠtoĠ": 779,
      ".ĠI": 780,
      "firstĠ": 781,
      "av": 782,
      "pre": 783,
      "¯à¥": 784,
      "à¤¾Ġà¤µ": 785,
      "ameĠ": 786,
      "âĢĶ": 787,
      "kĠ": 788,
      "eĠandĠ": 789,
      "à¥įà¤¹": 790,
      "à°Ĥà°ļ": 791,
      "à±ĩà°°": 792,
      "¸à±įà°µ": 793,
      "à°ķà±įà°ķ": 794,
      "popul": 795,
      "ot": 796,
      "à°¨à°¿Ġà°": 797,
      "ment": 798,
      "à°¿à°°": 799,
      "à°¿à°¸à±įà°¤": 800,
      "stem": 801,
      "itĠ": 802,
      "lig": 803,
      "me": 804,
      "à°¾à°Ĺ": 805,
      "outhĠ": 806,
      "dur": 807,
      "à¤¥": 808,
      "à¥ĩà¤ļ": 809,
      "ousĠ": 810,
      "sc": 811,
      "wĠ": 812,
      "à¤¤à¥įà¤¤": 813,
      "à°¿à°®": 814,
      "system": 815,
      "à¤¤à¤¾à¤¤": 816,
      "à¥ĢĠà¤®": 817,
      "à±įà°°à±Ģ": 818,
      "à°¾à°¤à±Ģà°¯": 819,
      "à°Ĥà°¦à°¿.Ġà°": 820,
      ":Ġ": 821,
      "fe": 822,
      "ghĠ": 823,
      "ph": 824,
      "ľà¤¾à¤¤": 825,
      "à¥Į": 826,
      "Ġà¤ļ": 827,
      "à±įà°®": 828,
      "erv": 829,
      "à¤¾Ġà¤ª": 830,
      "à¥ĩĠà¤ª": 831,
      "oughĠ": 832,
      "à¤Ĥà¤¡": 833,
      "Ġà¤ħà¤¨": 834,
      "duc": 835,
      "rat": 836,
      "sĠandĠ": 837,
      "dh": 838,
      "à¤¾Ġà¤¦": 839,
      "à¤°à¥įà¤·": 840,
      "gener": 841,
      "ionĠofĠ": 842,
      "ishĠ": 843,
      "Ġà¤¹à¥ĭà¤¤": 844,
      "à±įà°Łà±įà°°": 845,
      "contin": 846,
      "à°¾à°·à±įà°Łà±įà°°": 847,
      "à¤¦à¥įà¤§": 848,
      "Cong": 849,
      "meĠ": 850,
      "à¤¾à¤Ĥ": 851,
      "eĠofĠtheĠ": 852,
      "à±į,Ġà°": 853,
      "à°¿Ġà°ª": 854,
      "intoĠ": 855,
      "à¥ĢĠà¤ħ": 856,
      "thĠcentur": 857,
      "à¥Ĥà¤°à¥įà¤µ": 858,
      "à°Ĥà°¤à±įà°°": 859,
      "Congres": 860,
      ",Ġà°ª": 861,
      "astĠ": 862,
      "à±įà°ª": 863,
      "ant": 864,
      "à°®à±Īà°¨": 865,
      "IndiaĠhasĠ": 866,
      "à°¿à°ķà°¿Ġà°": 867,
      "à¥ĥà¤": 868,
      "mostĠ": 869,
      "Em": 870,
      "verĠ": 871,
      "Ġà°Ĩ": 872,
      "Ġà°Ń": 873,
      "à¥ģà¤ĸ": 874,
      "à°¦à±įà°¦": 875,
      "eĠinĠ": 876,
      ".ĠTh": 877,
      "Ġà°¸à°Ĥà°": 878,
      "ub": 879,
      "à¥§à¥": 880,
      "onĠtheĠ": 881,
      "ext": 882,
      "mor": 883,
      "ne": 884,
      "ni": 885,
      "art": 886,
      "hadĠ": 887,
      "haveĠ": 888,
      "ĠB": 889,
      "à¤¾à¤·à¥įà¤Ł": 890,
      "à°¤à°°": 891,
      "omeĠ": 892,
      "à°®à±ģ": 893,
      "à¤¾à¤·à¥įà¤Łà¥įà¤°": 894,
      "fic": 895,
      "rul": 896,
      "soĠ": 897,
      "Ĵà°ķ": 898,
      "Ġà¤Ŀà¤¾à¤²": 899,
      "Ġ1": 900,
      "ĸà±įà°¯": 901,
      "Ġà¤§": 902,
      "erg": 903,
      "à¤¤à¥įà¤¯": 904,
      "à¥ĩĠà¤ħ": 905,
      "edĠtheĠ": 906,
      "à¥ĭà¤ķ": 907,
      "Ġà¤ªà¤°": 908,
      "à¤¾à¤Ĥà¤¨": 909,
      "comm": 910,
      "reat": 911,
      "à±įà°¯à°µ": 912,
      "increas": 913,
      "earĠ": 914,
      "ayĠ": 915,
      "ansĠ": 916,
      "stat": 917,
      "à¥ĩĠà¤Ĩà¤¹à¥ĩ": 918,
      "world": 919,
      "tw": 920,
      "Ġà°ļ": 921,
      ",ĠwhichĠ": 922,
      "eng": 923,
      "with": 924,
      "maj": 925,
      "comp": 926,
      "beenĠ": 927,
      "ric": 928,
      "south": 929,
      "®à±Ĭ": 930,
      "à±Į": 931,
      "à°¾à°¸": 932,
      "alsoĠ": 933,
      "à¤¿à¤£": 934,
      "dition": 935,
      "à¥įà¤¯à¤¾à¤¤": 936,
      "relig": 937,
      "à¥ĩà¤µ": 938,
      "à°¾à°°à±įà°": 939,
      "Ġà¤ķà¥ĭ": 940,
      "196": 941,
      "à¥Īà¤Ĥ": 942,
      "¸à±įà°¥à°¾à°¨": 943,
      "primeĠ": 944,
      "primeĠminist": 945,
      "cast": 946,
      "dingĠ": 947,
      "serv": 948,
      "Ġà°¤": 949,
      "them": 950,
      "s,ĠandĠ": 951,
      "à°¾à°ľà±įà°¯": 952,
      "dom": 953,
      "danc": 954,
      "à¥įà¤®": 955,
      "à¥ĩ.Ġà¤": 956,
      "Ġà°ªà°°": 957,
      "mod": 958,
      "à¤Ĥà¤¤à¥įà¤°": 959,
      "1Ġ": 960,
      "cor": 961,
      "pol": 962,
      "ru": 963,
      "à°¾à°Ł": 964,
      "à¥ĩ.": 965,
      "rep": 966,
      "suchĠ": 967,
      "202": 968,
      "SouthĠ": 969,
      "ep": 970,
      "vi": 971,
      "à¥ĩĠà¤Ĩ": 972,
      "dev": 973,
      "largestĠ": 974,
      "governmentĠ": 975,
      "twoĠ": 976,
      "ldĠ": 977,
      "num": 978,
      "à¥ģà¤¤": 979,
      "Ńà¤¾à¤°à¤¤à¤¾à¤¤": 980,
      "Ġà¤Ĩà¤¹à¥ĩà¤¤": 981,
      "Ġà¤¸à¤Ĥà¤¸": 982,
      "İà°¨à±įà°¨": 983,
      "Ġà°¦": 984,
      "à°¨à±ĩ": 985,
      "à±ģà°²à±ģĠà°": 986,
      "CongressĠ": 987,
      "coun": 988,
      "od": 989,
      "à°¸à±įà°¤": 990,
      "à¤¾à¤ł": 991,
      "à¤¾Ġà¤¨": 992,
      "à°¤à±įà°¤": 993,
      "à°²à±ĭ": 994,
      "195": 995,
      "soc": 996,
      "à±ģà°¨à±įà°¨": 997,
      "igh": 998,
      "beg": 999,
      "à¥įà¤ķà¥ĥà¤¤": 1000,
      "grow": 1001,
      "à¤¾à¤Ĥà¤¤": 1002,
      "Emp": 1003,
      ")Ġ": 1004,
      "antĠ": 1005,
      "uralĠ": 1006,
      "etwe": 1007,
      "butĠ": 1008,
      "moreĠ": 1009,
      "suchĠasĠ": 1010,
      "etweenĠ": 1011,
      "à¤¾à¤Ł": 1012,
      "à¥Ģà¤¤": 1013,
      "isĠtheĠ": 1014,
      "199": 1015,
      "cult": 1016,
      "e-": 1017,
      "ok": 1018,
      "à¤¾à¤Ĥà¤®": 1019,
      "lim": 1020,
      ",00": 1021,
      "ca": 1022,
      "¹à°¿à°Ĥà°¦": 1023,
      "eci": 1024,
      "à±Ĩà°Ĥà°¡": 1025,
      "vers": 1026,
      "à°¿à°¨à±įà°¨": 1027,
      "à¥ģà¤³": 1028,
      "à±ģà°²à±ģ,Ġà°": 1029,
      "à°¦à±įà°§": 1030,
      "afterĠ": 1031,
      "berĠ": 1032,
      "ever": 1033,
      "s.ĠTheĠ": 1034,
      "ucl": 1035,
      "à°¾,Ġà°": 1036,
      "à°ķà±ģĠà°": 1037,
      "à°ĤĠà°ķ": 1038,
      "ationalĠ": 1039,
      "%ĠofĠ": 1040,
      "Brit": 1041,
      "beĠ": 1042,
      "ff": 1043,
      "ralĠ": 1044,
      "à°³": 1045,
      "à¤¾à¤¬": 1046,
      "arm": 1047,
      "à¤¾Ġà¤®": 1048,
      "à¥ģà¤¸": 1049,
      "ĠmillionĠ": 1050,
      "à¥įà¤¯à¤¾à¤¨": 1051,
      "Ġà¤Ĩà¤¹à¥ĩ.Ġà¤": 1052,
      "à¥įà¤ļ": 1053,
      "thisĠ": 1054,
      "urb": 1055,
      "à¤ªà¥įà¤°": 1056,
      "India,Ġ": 1057,
      "à¤ķà¥įà¤·à¤¿à¤£": 1058,
      "region": 1059,
      "tradition": 1060,
      "ĠBCE": 1061,
      "à¥įà¤¯à¤¾à¤ļ": 1062,
      "à¥ĢĠà¤ª": 1063,
      "à¤Ĥà¤¦": 1064,
      "Un": 1065,
      "ħà°¤": 1066,
      "à¤ĸ": 1067,
      "à°·": 1068,
      "Ġà°ī": 1069,
      "à°¾à°£": 1070,
      "à¥ĩĠà¤¤": 1071,
      "Ind": 1072,
      "à±įà°°à°®": 1073,
      "ish": 1074,
      "à°§à°¾à°¨": 1075,
      "Ġà°°à±Ī": 1076,
      "caus": 1077,
      "Bud": 1078,
      "à°Ĥà°¬": 1079,
      "à¥ģà¤¨": 1080,
      "sup": 1081,
      "theirĠ": 1082,
      "18": 1083,
      "Pak": 1084,
      "fol": 1085,
      "pe": 1086,
      "tur": 1087,
      "°à¤¾à¤ľà¥įà¤¯": 1088,
      "à°¸à±įà°¥": 1089,
      "thatĠ": 1090,
      "à¤¿à¤³": 1091,
      "tĠofĠ": 1092,
      "à°¿Ġà°ķ": 1093,
      "à¤¦à¥ĩà¤¶": 1094,
      "ament": 1095,
      "à¤ªà¤Ł": 1096,
      "à±įà°¯à°µà°¸à±įà°¥": 1097,
      "modernĠ": 1098,
      "Pakist": 1099,
      "à¤Ńà¤¾à¤°à¤¤": 1100,
      ".ĠD": 1101,
      "Ġà¤ķà¥ĢĠà¤": 1102,
      "Ġà¤¸à¤¾à¤®": 1103,
      "à¤²à¥ĩà¤²": 1104,
      "westernĠ": 1105,
      "Ma": 1106,
      "ĠâĢĵ": 1107,
      "à¤¾,Ġà¤": 1108,
      "fromĠtheĠ": 1109,
      "Ġà¤Ĩà¤¹à¥ĩ.": 1110,
      "withĠtheĠ": 1111,
      "à¤¿à¤¦": 1112,
      "ous": 1113,
      "exp": 1114,
      "und": 1115,
      "à¤¿à¤¤à¥įà¤°": 1116,
      "Con": 1117,
      "manyĠ": 1118,
      "o-": 1119,
      "ļà±Ĩ": 1120,
      "Ġà¤Ł": 1121,
      "on-": 1122,
      "à°¿à°µ": 1123,
      "à°¨à°¾à°": 1124,
      "à±Ģ,Ġà°": 1125,
      "à°¿Ġà°¸": 1126,
      "rib": 1127,
      "à°ªà°Ĥà°ļ": 1128,
      "sid": 1129,
      "à°§à±įà°¯": 1130,
      "ationĠofĠ": 1131,
      "à°¾à°²à±ģ,Ġà°": 1132,
      "Ġà¤°à¤¾à¤ľà¥įà¤¯": 1133,
      "class": 1134,
      "bothĠ": 1135,
      "à°¿à°²à±įà°²": 1136,
      "gl": 1137,
      "hum": 1138,
      "land": 1139,
      "ris": 1140,
      "rol": 1141,
      "à°¶": 1142,
      ".ĠB": 1143,
      "à°¿Ġà°ħ": 1144,
      "olog": 1145,
      "ell": 1146,
      "à°¾à°Ĥà°¤": 1147,
      "à¥įà¤¥à¤¾à¤¨": 1148,
      "economicĠ": 1149,
      "uclearĠ": 1150,
      "Buddh": 1151,
      "odĠ": 1152,
      "à¥įà¤Ł": 1153,
      "à¥Ģ.Ġà¤": 1154,
      "edĠaĠ": 1155,
      "à¥įà¤°à¤¾à¤ľà¥įà¤¯": 1156,
      "esĠofĠ": 1157,
      "à¤°à¥įà¤¥": 1158,
      "à¤ļà¥įà¤¯à¤¾Ġà¤": 1159,
      "Ġà¤§à¤°à¥įà¤®": 1160,
      "26": 1161,
      "à¥įà¤¨": 1162,
      "ari": 1163,
      "à¤¾Ġà¤ħ": 1164,
      "à¤¹à¤¾à¤°": 1165,
      ",ĠandĠtheĠ": 1166,
      "Ġà¤Ńà¤¾à¤°à¤¤à¥Ģà¤¯": 1167,
      "northernĠ": 1168,
      "world'sĠ": 1169,
      "Eur": 1170,
      "ber": 1171,
      "har": 1172,
      "no": 1173,
      "à¥ī": 1174,
      "à¤¾à¤·": 1175,
      "à¤¿à¤°": 1176,
      "à¤¾Ġà¤Ĩà¤¹à¥ĩ": 1177,
      "divers": 1178,
      "à¥ĩĠà¤¨": 1179,
      "à¥ĩĠà¤ªà¥įà¤°": 1180,
      "enceĠ": 1181,
      "à°§à°¿à°ķà°¾à°°": 1182,
      "yearsĠ": 1183,
      "etĠ": 1184,
      "istĠ": 1185,
      "war": 1186,
      "à¤ł": 1187,
      "à¤¾à¤ķ": 1188,
      "à¥įà¤¦": 1189,
      ".ĠS": 1190,
      "ough": 1191,
      "ilĠ": 1192,
      "à¥įà¤¥à¤¾à¤ª": 1193,
      "à¤¾à¤Ĥà¤ļà¥įà¤¯à¤¾Ġà¤": 1194,
      "Ġà¤ħà¤¨à¥ĩà¤ķ": 1195,
      "ob": 1196,
      "tim": 1197,
      "ķà±ĥ": 1198,
      "ľà°°": 1199,
      "à¤¾.": 1200,
      "à°¾à°§": 1201,
      "à°¾à°µ": 1202,
      "à°¿à°£": 1203,
      "à¤¿à¤¹": 1204,
      "à¥ĢĠà¤Ń": 1205,
      "aĠandĠ": 1206,
      "à°¨à±ģ": 1207,
      "à°¾à°°à±įà°Ł": 1208,
      "à±Ģà°¤": 1209,
      "emerg": 1210,
      "Ġà°ªà±įà°°à°§à°¾à°¨": 1211,
      "Ġà°ªà±įà°°à°ªà°Ĥà°ļ": 1212,
      "east": 1213,
      "à°¾à°¯à°¿.": 1214,
      "angesĠ": 1215,
      "main": 1216,
      "à¤¿à¤µà¤¿à¤§": 1217,
      "à°ķà±įà°·à°¿à°£": 1218,
      "à°¾à°°à±ģ.Ġà°": 1219,
      "à°¬à°¡": 1220,
      "ķà±Ĥà°¡à°¾Ġà°": 1221,
      "Ġà¤Ķà¤°": 1222,
      "ubl": 1223,
      "mil": 1224,
      "à¥«": 1225,
      "à¤¾à¥¤": 1226,
      "à¥ĩĠà¤ľ": 1227,
      "à¥Ģà¤ª": 1228,
      "à¤¸à¥įà¤¤": 1229,
      "à±Ĩà°²": 1230,
      "à¤¾à¤²à¤¯": 1231,
      "Ġà°ªà±įà°°à°¾à°Ĥà°¤": 1232,
      "à°¾à°¨à°¿à°ķà°¿Ġà°": 1233,
      "à°°à±įà°µ": 1234,
      "eastĠ": 1235,
      "imal": 1236,
      "peri": 1237,
      "BritishĠ": 1238,
      "betweenĠ": 1239,
      "lit": 1240,
      "lea": 1241,
      "pow": 1242,
      "sinc": 1243,
      "à¥ĢĠà¤¬": 1244,
      "itedĠ": 1245,
      "Ġà¤ķà¥ĩà¤²": 1246,
      "subcontin": 1247,
      ".ĠItĠ": 1248,
      "beganĠ": 1249,
      "47": 1250,
      "hist": 1251,
      "indi": 1252,
      "à¤°à¤£": 1253,
      "à¥ĢĠà¤¨": 1254,
      "à¥ĢĠà¤¯": 1255,
      "à¤¾à¤ļà¥Ģà¤¨": 1256,
      "lif": 1257,
      "constitut": 1258,
      "à¤¿à¤¤à¥įà¤°à¤ªà¤Ł": 1259,
      "histor": 1260,
      "Ġà¤ĺ": 1261,
      "à°¿à°¤à±įà°°": 1262,
      "Ġà¤¸à¤Ĥà¤¸à¥įà¤ķà¥ĥà¤¤": 1263,
      "1.": 1264,
      "Ar": 1265,
      "ce": 1266,
      "ev": 1267,
      "her": 1268,
      "ugh": 1269,
      "act": 1270,
      "ableĠ": 1271,
      "allĠ": 1272,
      "Com": 1273,
      "S$": 1274,
      "US$": 1275,
      "cour": 1276,
      "gre": 1277,
      "ik": 1278,
      "ĩà°¤à°°": 1279,
      "īà°Ĥà°¦à°¿.Ġà°": 1280,
      "ine": 1281,
      "à¤¾Ġà¤ªà¥įà¤°": 1282,
      "à¥ĩĠà¤¬": 1283,
      "à°¤à±įà°µ": 1284,
      "itaryĠ": 1285,
      "alĠelect": 1286,
      "à°¾à°²à°²à±ĭĠà°": 1287,
      "à±ĭĠà°ķà±Ĥà°¡": 1288,
      "Ġà¤¹à¥Īà¥¤": 1289,
      "à¤¾à¤Ĥà¤ª": 1290,
      "à°ªà±įà°°": 1291,
      "à°ªà±įà°ª": 1292,
      "à°ĤĠà°µ": 1293,
      "à°¿à°Ĥà°¦à°¿": 1294,
      "parli": 1295,
      "à°¿à°Ĥà°ļà°¿à°¨": 1296,
      "à°¾à°Ĥà°Ĺ": 1297,
      "à±ģà°ķà±ģ": 1298,
      "à°ľà°¾à°¤à±Ģà°¯": 1299,
      "à°ķà±įà°ķà±ģà°µ": 1300,
      "generalĠelect": 1301,
      "à°¾à°°à±įà°Ĺ": 1302,
      "¹à°¿à°Ĥà°¦à±Ĥ": 1303,
      "17": 1304,
      "à°¸à±įà°": 1305,
      "Ġà¤ıà¤ķ": 1306,
      "à¥įà¤ª": 1307,
      "à±įà°¡": 1308,
      "à¥ĩĠà¤Ńà¤¾à¤°à¤¤": 1309,
      "à¥ĩà¤¨": 1310,
      "Ġà¤®à¤§à¥įà¤¯": 1311,
      "197": 1312,
      "Ġà°ªà±įà°°à°ľ": 1313,
      "ireĠ": 1314,
      "à¥ĭà¤ł": 1315,
      "largeĠ": 1316,
      "Chin": 1317,
      "à¤¾à¤Ĥà¤®à¤§à¥įà¤¯": 1318,
      "peop": 1319,
      "fi": 1320,
      "overĠ": 1321,
      "à¤¾à¤§": 1322,
      "à°¾Ġ": 1323,
      "ther": 1324,
      "infl": 1325,
      "à¥ĢĠà¤Ĩ": 1326,
      "à¥ĭà¤²": 1327,
      "à°¾Ġà°¸": 1328,
      "à¥Īà¤¦": 1329,
      "à¤§à¤¿à¤ķ": 1330,
      "app": 1331,
      "à¤¿à¤²à¥įà¤²": 1332,
      "liter": 1333,
      "influ": 1334,
      ";ĠtheĠ": 1335,
      "long": 1336,
      "mid": 1337,
      "à¤¾Ġà¤ľ": 1338,
      "icallyĠ": 1339,
      "Ġà¤¸à¤®": 1340,
      "elop": 1341,
      "ett": 1342,
      "à¤¾à¤¸à¥įà¤¤": 1343,
      "·à¥įà¤ł": 1344,
      "becameĠ": 1345,
      "increasedĠ": 1346,
      "à¥Īà¤Ĥà¥¤": 1347,
      ",000Ġ": 1348,
      "urbanĠ": 1349,
      "Mugh": 1350,
      "aw": 1351,
      "ainĠ": 1352,
      "ies": 1353,
      "krit": 1354,
      "mill": 1355,
      "s.": 1356,
      "à°Ńà°¾à°°à°¤à±Ģà°¯": 1357,
      "à¥Ģà¤®": 1358,
      "ement": 1359,
      "isĠaĠ": 1360,
      "à°¿à°ķĠà°µ": 1361,
      "à¥Ĥà¤ª": 1362,
      ".ĠInĠtheĠ": 1363,
      "à¤Ĥà¤Ĺà¥įà¤°": 1364,
      "à¤¾Ġà¤¹à¥Īà¥¤": 1365,
      "duringĠ": 1366,
      "à¤¤à¤¾à¤¤.Ġà¤": 1367,
      "1,Ġ": 1368,
      ";ĠandĠ": 1369,
      "ianĠ": 1370,
      "y,ĠtheĠ": 1371,
      "ĠtoĠ": 1372,
      "à¤¾à¤¡": 1373,
      "eĠinĠtheĠ": 1374,
      "à¤¾Ġà¤Ĺ": 1375,
      "à¥ĢĠà¤Ĩà¤¹à¥ĩ": 1376,
      "toĠbeĠ": 1377,
      "à¥ĭà¤Ĺ": 1378,
      "abl": 1379,
      "à¥įà¤·à¤£": 1380,
      "occ": 1381,
      "à¤¾à¤¹à¤¿à¤¤": 1382,
      "à¥įà¤¹à¤£": 1383,
      "1950": 1384,
      "follow": 1385,
      "adĠ": 1386,
      "gra": 1387,
      "non-": 1388,
      "¦à°ķà±įà°·à°¿à°£": 1389,
      "ĩà°¦": 1390,
      "Ġà°²": 1391,
      "Ġà°Ĺ": 1392,
      "thr": 1393,
      "à¥ĩà¤°": 1394,
      "à°Ĥ.Ġà°": 1395,
      "à°Ĥà°ª": 1396,
      "à¥įà¤°à¤¿à¤": 1397,
      "à±ĩà°¦": 1398,
      "à¥Ģà¤ķ": 1399,
      "à¥Ģà¤Ĥà¤": 1400,
      "à°¦à°¾à°¯": 1401,
      "Ġà¤¸à¤°": 1402,
      "à¤Ĥà¤ª": 1403,
      "à±Ĩà°¸": 1404,
      "à°¯à°¿à°¨": 1405,
      "à°°à±įà°ª": 1406,
      "à°¾à°¤à±įà°°": 1407,
      "à±ģà°ķà±ĭ": 1408,
      "à°¨à°¾à°Ń": 1409,
      "à°¾à°°à±įà°Łà±Ģ": 1410,
      "ublicĠ": 1411,
      "parliament": 1412,
      "nuclearĠ": 1413,
      "perĠ": 1414,
      "à¤¾à¤Ī": 1415,
      "à°¿à°¶": 1416,
      "à°¿à°Ł": 1417,
      "atĠtheĠ": 1418,
      "orityĠ": 1419,
      "à¥ĩà¤Ĥà¤": 1420,
      "à°°à±įà°¯": 1421,
      "à°°à°£": 1422,
      "Ġà¤¸à¤°à¥įà¤µ": 1423,
      "à¤Ĥà¤¬": 1424,
      "s,ĠtheĠ": 1425,
      "IndiaĠandĠ": 1426,
      "Ġà°¸à°®": 1427,
      "à°Ĥà°¦à°¿.": 1428,
      "à¤¾à¤µà¤°": 1429,
      "à¤ľà¤¾à¤¤": 1430,
      "ultan": 1431,
      "mark": 1432,
      "notĠ": 1433,
      "hiĠ": 1434,
      "y.Ġ": 1435,
      "à¤¾à¤¥": 1436,
      "thoughĠ": 1437,
      "à¥Ģ.": 1438,
      "alit": 1439,
      "sty": 1440,
      "dis": 1441,
      "à¥ĩĠà¤¦": 1442,
      "à¥ĢĠà¤¤": 1443,
      "à¥ĭà¤¨": 1444,
      "à±Ģà°¨": 1445,
      "à¤®à¤¾à¤£": 1446,
      "Ġà°ªà±įà°°à°Ń": 1447,
      "à¤§à¥Ģà¤²": 1448,
      "oundĠ": 1449,
      "à±ģà°¤à±įà°µ": 1450,
      "uresĠ": 1451,
      "à¤¿à¤¸à¥įà¤¤": 1452,
      "newĠ": 1453,
      "develop": 1454,
      "sinceĠ": 1455,
      "Ġà°ªà±įà°°à°Ńà±ģà°¤à±įà°µ": 1456,
      "An": 1457,
      "Sans": 1458,
      "ron": 1459,
      "vedĠ": 1460,
      "à¤«": 1461,
      "anis": 1462,
      "ersĠ": 1463,
      "are": 1464,
      "à¥įà¤°à¤®": 1465,
      "à¤¦à¤¾à¤°": 1466,
      "empl": 1467,
      "ongĠtheĠ": 1468,
      "à¤Ĥà¤¤à¤°": 1469,
      "work": 1470,
      "à¥ĥà¤·à¥įà¤Ł": 1471,
      "Europ": 1472,
      "Sanskrit": 1473,
      "Beng": 1474,
      "now": 1475,
      "à¥¨": 1476,
      "thanĠ": 1477,
      "enni": 1478,
      "atelyĠ": 1479,
      "à¥ĢĠà¤ľ": 1480,
      "ech": 1481,
      "à¤°à¥įà¤£": 1482,
      "ageĠ": 1483,
      "Ġà¥¨": 1484,
      "tern": 1485,
      "Ġà¤¬à¤¨": 1486,
      "Ġà¤¦à¥ĩà¤¶": 1487,
      "includingĠ": 1488,
      "à¤¤à¥įà¤¤à¤°": 1489,
      "countr": 1490,
      "MughalĠ": 1491,
      "millenni": 1492,
      "millennium": 1493,
      "Pun": 1494,
      "jab": 1495,
      "sur": 1496,
      "à¥ª": 1497,
      "à¤¾.Ġà¤": 1498,
      ",ĠaĠ": 1499,
      "à¤¾Ġà¤ľà¤¾à¤¤": 1500,
      "à¥ĢĠà¤¦": 1501,
      "à¥ĢĠà¤¶": 1502,
      "laterĠ": 1503,
      "leg": 1504,
      "Ġà¥§à¥¯à¥": 1505,
      "Ġà¤Ķà¤°Ġà¤": 1506,
      "à¥ģà¤ĸà¥įà¤¯": 1507,
      "Indo-": 1508,
      "Punjab": 1509,
      "Himal": 1510,
      "Wor": 1511,
      "ientĠ": 1512,
      "landĠ": 1513,
      "rateĠ": 1514,
      "¨à°¿à°°": 1515,
      "ĠinĠ": 1516,
      "Ġà°¬": 1517,
      "à°¾à°¹": 1518,
      "à°¿à°§": 1519,
      "à°¿à°²à±ĭĠà°": 1520,
      "à°Ĥà°ķ": 1521,
      "à¥ĩĠà¤Ĺ": 1522,
      "à¥ĩà¤Ł": 1523,
      "à¤ķà¥įà¤ķ": 1524,
      "Ġà¤ªà¥Ĥà¤°à¥įà¤µ": 1525,
      "à±Ĩà°¦à±įà°¦": 1526,
      "Ġà°ªà±įà°°à°¤": 1527,
      "à¤¿à¤ķà¥įà¤·à¤£": 1528,
      "à°°à±įà°£": 1529,
      "Ġà°¸à°Ń": 1530,
      "Ġà°ķà°¾à°²": 1531,
      "à°¿à°Ĥà°¦à°¿.": 1532,
      "plac": 1533,
      "à¥įà¤·à¥ĩà¤¤": 1534,
      ".ĠAf": 1535,
      "à¥ĭà¤ĤĠà¤ķà¥ĩĠà¤": 1536,
      "īà°¨à±įà°¨à°¾à°¯à°¿.Ġà°": 1537,
      "Ġà¤ĩà¤¸": 1538,
      "à±ģà°µà°¾à°¤": 1539,
      "à°¾à°°à±ģ.": 1540,
      "à°¿à°¯à°¾Ġà°": 1541,
      "duringĠtheĠ": 1542,
      "primeĠministerĠ": 1543,
      "casteĠ": 1544,
      "numberĠ": 1545,
      "ļà±Ĩà°Ĥà°¦": 1546,
      "ķà±ĥà°¤": 1547,
      "ľà°°à°¿à°Ĺ": 1548,
      "militaryĠ": 1549,
      "à°¿à°Ĥà°¦à°¿.Ġ": 1550,
      "throughĠ": 1551,
      "à¥įà¤°à¤¿à¤Ł": 1552,
      "Himalay": 1553,
      "WorldĠ": 1554,
      "à¥įà¤·à¥ĩà¤¤à¥įà¤°": 1555,
      "5.": 1556,
      "Is": 1557,
      "tenĠ": 1558,
      "Äģ": 1559,
      "ĠCE": 1560,
      "ĩà¤¤": 1561,
      "à±įà°¸": 1562,
      "à°¾à°ª": 1563,
      "intoĠtheĠ": 1564,
      "à¤°à¤¤": 1565,
      "offic": 1566,
      "à±ĭà°°": 1567,
      "omet": 1568,
      "à¤°à¥įà¤¤": 1569,
      "à¤¦à¤²": 1570,
      "à°ªà±ģĠà°": 1571,
      "à¤¿à¤ķĠà¤ķ": 1572,
      ",Ġà¤ľ": 1573,
      "oseĠ": 1574,
      "speci": 1575,
      "à°¿à°Ĺà°¾Ġà°": 1576,
      "à±ģà°ĸà±įà°¯": 1577,
      "Ġà°Ńà°¾à°·": 1578,
      "humanĠ": 1579,
      "à¥įà¤°à¤¿à¤Łà¤¿à¤¶": 1580,
      "cit": 1581,
      "ef": 1582,
      "eh": 1583,
      "sol": 1584,
      "vingĠ": 1585,
      "à¤Ī": 1586,
      "erc": 1587,
      "eredĠ": 1588,
      ",Ġwh": 1589,
      "à°¿à°³": 1590,
      "dire": 1591,
      "à¥įà¤¯à¤¾à¤Ĥà¤ļ": 1592,
      "edĠasĠ": 1593,
      "edĠonĠ": 1594,
      "Indu": 1595,
      "à¥ĩà¤£": 1596,
      "à¥ĩà¤¥": 1597,
      "ing,Ġ": 1598,
      "à¥įà¤¯à¤¾Ġà¤ķ": 1599,
      "Ġà¤Ĩà¤²": 1600,
      "forĠtheĠ": 1601,
      "owever": 1602,
      "sig": 1603,
      "Ġà¤ªà¥įà¤°à¤¦à¥ĩà¤¶": 1604,
      "ationsĠ": 1605,
      "medi": 1606,
      "socialĠ": 1607,
      "Pakistan": 1608,
      "powerĠ": 1609,
      "Europe": 1610,
      "Cent": 1611,
      "Mus": 1612,
      "Sik": 1613,
      "fin": 1614,
      "loc": 1615,
      "noĠ": 1616,
      "ĩà°Ĥà°¡": 1617,
      "à¤°à¥įà¤¯": 1618,
      "à¤¾Ġà¤¯": 1619,
      "à¥ģà¤²": 1620,
      "esĠandĠ": 1621,
      "à¤¦à¥įà¤°": 1622,
      "à¤µà¥įà¤¯": 1623,
      "à¤£à¤¿": 1624,
      "ash": 1625,
      "eseĠ": 1626,
      "duct": 1627,
      "under": 1628,
      "Ġà°°à°¾à°·à±įà°Łà±įà°°": 1629,
      "ation,Ġ": 1630,
      "à¥¦à¥¦": 1631,
      "feat": 1632,
      "à¥ĩĠà¤Ĩà¤¹à¥ĩà¤¤": 1633,
      "Ġà¤Ĩà¤¹à¥ĩà¤¤.Ġà¤": 1634,
      "Ġà¤¸à¤¾à¤®à¥įà¤°à¤¾à¤ľà¥įà¤¯": 1635,
      "Muslim": 1636,
      "2.": 1637,
      "42": 1638,
      "5,Ġ": 1639,
      "col": 1640,
      "dleĠ": 1641,
      "eg": 1642,
      "¦à¥įà¤°": 1643,
      "ĩà¤¸": 1644,
      "à¤¾Ġà¤Ń": 1645,
      "à¥ĩĠà¤¯": 1646,
      ".Ġà¥§à¥": 1647,
      "à¥ģà¤µ": 1648,
      "Ġà¤ªà¥ģà¤°": 1649,
      "Ġà¤µà¤¿à¤µà¤¿à¤§": 1650,
      "à¥Ĥà¤°": 1651,
      "majorĠ": 1652,
      "ribut": 1653,
      ",Ġà¤ķ": 1654,
      "30": 1655,
      "dr": 1656,
      "eyĠ": 1657,
      "edi": 1658,
      "otherĠ": 1659,
      "à¤¾à¤ģ": 1660,
      "eĠwasĠ": 1661,
      "198": 1662,
      "rip": 1663,
      "à¥Īà¤¨": 1664,
      "à¤§à¤¾à¤¨": 1665,
      "à¤¡à¤¼": 1666,
      "prov": 1667,
      "à¤¿à¤Ĥà¤§": 1668,
      "à¤¾Ġà¤¦à¥ĩà¤¶": 1669,
      "à¤¿à¤¹à¤¾à¤¸": 1670,
      "peopleĠ": 1671,
      "\"Ġ": 1672,
      "Af": 1673,
      "Gand": 1674,
      "fam": 1675,
      "mon": 1676,
      "nedĠ": 1677,
      "®à°¾à°°à±įà°Ĺ": 1678,
      "°à±Ĩà°Ĥà°¡": 1679,
      "īà°Ĥà°Ł": 1680,
      "İà°ķà±įà°ķà±ģà°µ": 1681,
      "ıà°°à±įà°ª": 1682,
      "ļà±ĩà°": 1683,
      "à¤¢": 1684,
      "à°Ńà°¾à°°à°¤": 1685,
      "Ġà°Ńà°¾à°°à°¤": 1686,
      "à±įà°¦": 1687,
      "à±įà°²à±ĭĠà°": 1688,
      "à±ģ,Ġà°": 1689,
      "à±ģà°¡": 1690,
      "à±ģà°Ĥà°¬": 1691,
      "à°¿à°¦": 1692,
      "à°¿à°ļ": 1693,
      "alis": 1694,
      "à¥ĩà¤ĸ": 1695,
      "iticalĠ": 1696,
      "à±ĩà°Ĥà°¦": 1697,
      "à±įà°°à±Ĩà°¸": 1698,
      "Ġà°ªà±ĩà°°": 1699,
      "Ġà°ªà°¾à°°à±įà°Łà±Ģ": 1700,
      "à°ķà±ģĠà°ª": 1701,
      "à°¾à°²à°¨à±ģĠà°": 1702,
      "à°¦à°Ł": 1703,
      "Ġà¤®à¤¹": 1704,
      "Ġà¤µà¥ĩà¤": 1705,
      "esp": 1706,
      "à°¾à°¨à±įà°¨": 1707,
      "export": 1708,
      "Ġà°ķà±įà°°à±Ģ": 1709,
      "à¤¾à¤®à¥ģà¤³": 1710,
      "Ġà°°à°¾à°ľà±įà°¯": 1711,
      "dep": 1712,
      "Ġà°®à°¤": 1713,
      "Ġà¤°à¤¾à¤ľ": 1714,
      "control": 1715,
      "religi": 1716,
      "primeĠminister": 1717,
      "cordingĠ": 1718,
      "politicalĠ": 1719,
      ".ĠByĠ": 1720,
      "periodĠ": 1721,
      "à°¾à°Ĥà°Ĺà±įà°°à±Ĩà°¸": 1722,
      "generalĠelection": 1723,
      ",Ġà¤¸": 1724,
      "-largestĠ": 1725,
      "8Ġ": 1726,
      "cre": 1727,
      "ga": 1728,
      "nat": 1729,
      "nolog": 1730,
      "sch": 1731,
      "sĠ(": 1732,
      "inv": 1733,
      "à±ģà°ª": 1734,
      "à±ģà°Ĺ": 1735,
      ",ĠIndiaĠ": 1736,
      "arch": 1737,
      "yĠofĠ": 1738,
      "à¥ģà¤¦à¥įà¤§": 1739,
      "à°¦à°¿.Ġà°": 1740,
      "à¤¸à¤Ń": 1741,
      "à¤¸à¥ĩà¤ļ": 1742,
      "à°ªà°¤": 1743,
      "à°°à±įà°¤": 1744,
      "agric": 1745,
      "ritor": 1746,
      "majorityĠ": 1747,
      "SouthĠAsi": 1748,
      "à°¸à±įà°¤à±ģà°¤": 1749,
      "EmpireĠ": 1750,
      "Comp": 1751,
      "influenc": 1752,
      "agricult": 1753,
      "4Ġ": 1754,
      "Ac": 1755,
      "Jan": 1756,
      "Mo": 1757,
      "aj": 1758,
      "bas": 1759,
      "bir": 1760,
      "ire": 1761,
      "ies,Ġ": 1762,
      "lin": 1763,
      "ood": 1764,
      "someĠ": 1765,
      "tech": 1766,
      "ven": 1767,
      "Ġ2": 1768,
      "à¥¬": 1769,
      "à°¾à°ļ": 1770,
      "à°¿Ġà°ªà±įà°°": 1771,
      "thir": 1772,
      "ank": 1773,
      "à±ģà°¨": 1774,
      "à±ģà°Ĺà°¾Ġà°": 1775,
      "à¥Ģ,Ġà¤": 1776,
      "à¤¿à¤°à¥įà¤®": 1777,
      "à°¿à°¹": 1778,
      "à¤¾Ġà¤ī": 1779,
      "edĠonĠtheĠ": 1780,
      "Ġà¤ķà¤¿à¤¯": 1781,
      "ementĠ": 1782,
      "à¤µà¤¸": 1783,
      "ularĠ": 1784,
      "1947": 1785,
      "righ": 1786,
      "byĠtheĠ": 1787,
      "chang": 1788,
      "IndianĠsubcontin": 1789,
      "ack": 1790,
      "à¥ĭà¤¡": 1791,
      "à¥ĭà¤¬": 1792,
      "earlyĠ": 1793,
      "à¤¿à¤Ĥà¤¦": 1794,
      "domin": 1795,
      "classicalĠ": 1796,
      "direct": 1797,
      "ew": 1798,
      "pr": 1799,
      "t,Ġ": 1800,
      "Ķà¤°": 1801,
      "à¥Ģà¤°": 1802,
      "à¤¾Ġà¤¬": 1803,
      "atesĠ": 1804,
      "à¥ĩĠà¤¶": 1805,
      ".ĠIndiaĠ": 1806,
      "à¥Ģà¤µ": 1807,
      "consi": 1808,
      "à¤¾à¤¸à¥Ĥà¤¨": 1809,
      "Ġà¤ªà¥įà¤°à¤ķà¤¾à¤°": 1810,
      "Ġ(à¤": 1811,
      "Ġà¤Ńà¤¾à¤°à¤¤à¤¾à¤¤": 1812,
      "mathem": 1813,
      "cook": 1814,
      "trans": 1815,
      "government": 1816,
      "à¤¿à¤®à¤¾à¤²à¤¯": 1817,
      "Hinduism": 1818,
      "culture": 1819,
      "Constitut": 1820,
      "Ġà¤Łà¤ķà¥įà¤ķ": 1821,
      "oughtĠ": 1822,
      "mathemat": 1823,
      "Del": 1824,
      "En": 1825,
      "dayĠ": 1826,
      "à¤¾à¤¶": 1827,
      "ann": 1828,
      "orig": 1829,
      "ofĠIndiaĠ": 1830,
      "Ġà¤®à¤¾à¤¨": 1831,
      "à¤®à¤¾à¤¨": 1832,
      "amongĠ": 1833,
      "Ġà¤µà¤°à¥įà¤·": 1834,
      "à¥įà¤µà¥Ģà¤ª": 1835,
      "contribut": 1836,
      ".ĠAl": 1837,
      "à¤Ĥà¤¡à¤¿à¤¯": 1838,
      "Plat": 1839,
      "car": 1840,
      "mad": 1841,
      "Ķà¤°Ġà¤": 1842,
      "sĠtoĠ": 1843,
      "à¥ĩĠà¤°": 1844,
      "à¥ĩĠà¤²": 1845,
      "outĠ": 1846,
      "à¤Ĥà¤§": 1847,
      "à¤¦à¥įà¤¯": 1848,
      "Ġà¤ªà¥įà¤°à¤¾à¤ļà¥Ģà¤¨": 1849,
      "à¤¶à¥įà¤ļ": 1850,
      "Ġà¤Ńà¤¾à¤·": 1851,
      "languageĠ": 1852,
      "à¤¿à¤¦à¥įà¤¯": 1853,
      "à¤¾à¤¹à¤¿à¤¤à¥įà¤¯": 1854,
      "),Ġà°": 1855,
      "BJ": 1856,
      "GangesĠ": 1857,
      "cru": 1858,
      "eth": 1859,
      "eig": 1860,
      "hig": 1861,
      "ruralĠ": 1862,
      "wom": 1863,
      "¬à±įà°°": 1864,
      "°à°¾à°·à±įà°Łà±įà°°": 1865,
      "µà°ļà±įà°ļ": 1866,
      "à¥©": 1867,
      "à¥Ń": 1868,
      "Ġà°¸à±įà°¥à°¾à°¨": 1869,
      "à¥įà¤¸": 1870,
      "à°¾à°¸à±įà°¤": 1871,
      "ins": 1872,
      "à±ģà°®": 1873,
      "à¤¾Ġà¤¶": 1874,
      "à°¤à±ĭĠà°ķà±Ĥà°¡": 1875,
      "à°°à±ģà°µà°¾à°¤": 1876,
      "à°ķà°¾à°²": 1877,
      "à°ķà±Ģà°¯": 1878,
      "à°ķà±įà°°à°®": 1879,
      "à°¦à±įà°°": 1880,
      "à°¦à°¾à°°": 1881,
      "à±Ģ;": 1882,
      "ingĠaĠ": 1883,
      "Ġà¤®à¥įà¤¹à¤£": 1884,
      "à°®à±ģĠà°": 1885,
      "à°¿Ġà°®": 1886,
      "à±įà°¯à°§à°¿à°ķ": 1887,
      "à°µà°¾à°£": 1888,
      "emoc": 1889,
      "amm": 1890,
      "à¤¾à¤Ĥà¤§": 1891,
      "à±Ĩà°¨": 1892,
      "riverĠ": 1893,
      "à¥Ĥà¤®": 1894,
      "à°Łà°¿à°ķ": 1895,
      "à°¿à°¨à°¿à°®": 1896,
      "à°°à±įà°²": 1897,
      "ago": 1898,
      "Ġà°µà°ļà±įà°ļ": 1899,
      "Ġà°µà±įà°¯à°µà°¸à±įà°¥": 1900,
      "à°Ĥà°Ĺà°¾à°²": 1901,
      "à°Ĥà°Ĺà±įà°²": 1902,
      "à°Ĥà°Ĺà±Ģà°¤": 1903,
      "Ńà°¾à°°à°¤à°¦à±ĩà°¶à°Ĥà°²à±ĭĠà°": 1904,
      "à¤¶à¤¿à¤¯": 1905,
      "Ġà°®à°§à±įà°¯": 1906,
      "terĠtheĠ": 1907,
      "centralĠ": 1908,
      "coast": 1909,
      "à°¾à°ľà°ķà±Ģà°¯": 1910,
      "à¤¾à¤Ĺà¤°": 1911,
      "à¤¾Ġà¤¸à¤®": 1912,
      "īà°¨à±įà°¨à°¾à°¯à°¿.": 1913,
      "ĠbillionĠ": 1914,
      "economyĠ": 1915,
      "partyĠ": 1916,
      "à°¾à°¬à±įà°¦": 1917,
      "à±Įà°ķ": 1918,
      "İà°¨à±įà°¨à±ĭĠà°": 1919,
      "Ġà°¦à±įà°µ": 1920,
      "à°¤à±įà°¤à°°": 1921,
      "soci": 1922,
      "UnitedĠ": 1923,
      "yearsĠago": 1924,
      "à±ģà°ķà±ģà°Ĥà°Ł": 1925,
      "parliamentaryĠ": 1926,
      "à±ĩà°Ĥà°¦à±įà°°": 1927,
      "Ġà°ķà±įà°°à±Ģà°¡": 1928,
      "depend": 1929,
      "BJP": 1930,
      "à°¾à°¸à±įà°¤à±įà°°": 1931,
      "40": 1932,
      "EastĠ": 1933,
      "St": 1934,
      "cur": 1935,
      "fer": 1936,
      "ledĠ": 1937,
      "pen": 1938,
      "secon": 1939,
      "sett": 1940,
      "ta": 1941,
      "int": 1942,
      "aĠf": 1943,
      "aĠm": 1944,
      "à±ĭà°°à±įà°": 1945,
      "à¥Ģà¤Ĥ": 1946,
      "à¥ģà¤ķ": 1947,
      "à¥ģà¤®": 1948,
      "à¤¹à¤°": 1949,
      "thĠandĠ": 1950,
      "es.Ġ": 1951,
      "à°°à±įà°§": 1952,
      "partĠ": 1953,
      "term": 1954,
      "territor": 1955,
      "anceĠ": 1956,
      "aint": 1957,
      "Ġbec": 1958,
      "à¤¾à¤ļà¥įà¤¯à¤¾Ġà¤¸": 1959,
      ".ĠItsĠ": 1960,
      "EuropeanĠ": 1961,
      ".7": 1962,
      "Neh": 1963,
      "West": 1964,
      "dam": 1965,
      "hea": 1966,
      "longĠ": 1967,
      "taĠ": 1968,
      "à°¥": 1969,
      "à¥įà¤§": 1970,
      "à°¾à°ĸ": 1971,
      "sĠwereĠ": 1972,
      "endĠ": 1973,
      "ensu": 1974,
      "edĠandĠ": 1975,
      "à¥ĢĠà¤°": 1976,
      "à°°à°¿à°¹": 1977,
      "à¤¾à¤°à¤£": 1978,
      "à¤¹à¥ģà¤¤": 1979,
      "Ġà¤µà¤¿à¤": 1980,
      "ess": 1981,
      "India,ĠtheĠ": 1982,
      "00ĠBCE": 1983,
      "sum": 1984,
      "à¤¾à¤®à¤¾à¤¨": 1985,
      "mov": 1986,
      "à¥ĭà¤ĤĠà¤®à¥ĩà¤Ĥ": 1987,
      "produc": 1988,
      "2011Ġ": 1989,
      "à¥ĥà¤·à¥įà¤ł": 1990,
      "underĠ": 1991,
      "à¤¾Ġà¤Ĩà¤¹à¥ĩ.": 1992,
      "grewĠ": 1993,
      "fiedĠ": 1994,
      "occup": 1995,
      "IndusĠ": 1996,
      "owever,Ġ": 1997,
      "CentralĠ": 1998,
      "à¤¶à¥įà¤ļà¤¿à¤®": 1999,
      "Nehru": 2000,
      "à°°à°¿à°¹à°¦à±įà°¦": 2001,
      ")ĠandĠ": 2002,
      "ai": 2003,
      "dra": 2004,
      "ryĠ": 2005,
      "y.": 2006,
      "Ġre": 2007,
      "ļà¤¿à¤¤à¥įà¤°à¤ªà¤Ł": 2008,
      "sĠareĠ": 2009,
      "diff": 2010,
      "à¥ĩĠà¤ľà¤¾à¤¤": 2011,
      ".ĠIndiaĠhasĠ": 2012,
      "à¥ĩà¤¸": 2013,
      "itt": 2014,
      "ic,Ġ": 2015,
      "à¥ĭ.": 2016,
      "à¥ģà¤ª": 2017,
      "à¥ģà¤¦à¥įà¤°": 2018,
      "à¤¸à¥įà¤µ": 2019,
      "à¥Īà¤ķ": 2020,
      "whoĠ": 2021,
      "à¤¦à¥įà¤¦": 2022,
      "decad": 2023,
      "à°¿à°¸à±įà°¤à°¾à°¨": 2024,
      "sident": 2025,
      "à¤¿à¤Ĥà¤§à¥Ĥ": 2026,
      "%,Ġ": 2027,
      "Jain": 2028,
      "po": 2029,
      "ren": 2030,
      "ĸà¤¾à¤¸": 2031,
      "à¥®": 2032,
      "à¤¾à¤ĸ": 2033,
      "à¤¤à¤¿à¤¶": 2034,
      "alsĠ": 2035,
      "à¤¾Ġà¤Ĩ": 2036,
      "Ġà¤¸à¥įà¤µ": 2037,
      "Ġà¤¸à¥įà¤¥à¤¾à¤ª": 2038,
      "inĠIndiaĠ": 2039,
      "Ġà¤®à¥ĭ": 2040,
      "à¥įà¤¯à¤¾Ġà¤¸": 2041,
      "Ġà¤¹à¥Ī": 2042,
      "à¤¾à¤Ĥà¤¸": 2043,
      "Ġà¤ķà¥ĩĠà¤¸": 2044,
      "à¤¡à¤²": 2045,
      "à¤Ĥà¤Ĺà¤¾à¤²": 2046,
      "ourĠ": 2047,
      "Ġà¤²à¥ĭà¤ķ": 2048,
      "à¥Įà¤¦à¥įà¤§": 2049,
      "thĠcenturyĠ": 2050,
      "à¥ģà¤¸à¤¾à¤°": 2051,
      "diversityĠ": 2052,
      "Engl": 2053,
      "origin": 2054,
      "1,": 2055,
      "15": 2056,
      "ach": 2057,
      "ani": 2058,
      "al,Ġ": 2059,
      "à¥ĢĠà¤Ĺ": 2060,
      "à¤¾à¤°à¥įà¤¥": 2061,
      "Ġà¤¸à¥ģà¤°": 2062,
      "inĠIndia": 2063,
      "Ġà¤ªà¥ĥà¤·à¥įà¤ł": 2064,
      "à¤µà¤¾à¤®à¤¾à¤¨": 2065,
      "Ġà¤¹à¥ģà¤": 2066,
      "Ġà¤¹à¤¿à¤Ĥà¤¦": 2067,
      "à¥Ĥà¤°à¥įà¤£": 2068,
      "Ġà¤¤à¤ķ": 2069,
      "Ġà¤°à¤¾à¤·à¥įà¤Łà¥įà¤°": 2070,
      "ancientĠ": 2071,
      "ound": 2072,
      "theyĠ": 2073,
      "populationĠ": 2074,
      "growthĠ": 2075,
      "eciallyĠ": 2076,
      "especiallyĠ": 2077,
      "womenĠ": 2078,
      "DP": 2079,
      "GDP": 2080,
      "NationalĠ": 2081,
      "cu": 2082,
      "can": 2083,
      "fig": 2084,
      "king": 2085,
      "lĠ": 2086,
      "oy": 2087,
      "paint": 2088,
      "tect": 2089,
      "¢à°¿à°²à±įà°²": 2090,
      "¨à±ģ": 2091,
      "¨à°¡": 2092,
      "¬à°¹": 2093,
      "®à°¤": 2094,
      "°à±Ī": 2095,
      "µà°²": 2096,
      "Â°": 2097,
      "ĩà°µ": 2098,
      "ķà°²": 2099,
      "ķà±Ĭ": 2100,
      "Ĺà°²": 2101,
      "Ńà°¿à°¨à±įà°¨": 2102,
      "Ġà°²à±ĭĠà°": 2103,
      "Ġà°¸à±įà°µ": 2104,
      "à¤¾à¤±": 2105,
      "à°¾à°³": 2106,
      "à±ģà°°": 2107,
      "à±ģ.Ġà°": 2108,
      "à±ģà°Ł": 2109,
      "à°Ĥ:": 2110,
      "à°¿à°·": 2111,
      "à°¿à°¸": 2112,
      "à°¿à°ľ": 2113,
      "ens": 2114,
      "stri": 2115,
      "stateĠ": 2116,
      "à¤¿à¤ª": 2117,
      ".ĠIndia'sĠ": 2118,
      "à°¤à°Ĥà°¤à±įà°°": 2119,
      "à°²à±įà°²": 2120,
      "à°²à±įà°µ": 2121,
      "à°°à±į": 2122,
      "à±ĭà°¡": 2123,
      "à°¦à°²": 2124,
      "à±Ģà°ª": 2125,
      "à±ĢĠà°¸": 2126,
      ",Ġà°¸": 2127,
      "ecut": 2128,
      "Ġà¤®à¤¿à¤³": 2129,
      "à°®à±ģà°": 2130,
      "à°¿Ġà°ļà±Ĩà°Ĥà°¦": 2131,
      "à±įà°¯à°ĤĠà°": 2132,
      "¸à±įà°ķà±ĥà°¤": 2133,
      "emp": 2134,
      "à°¿à°Ĥà°§": 2135,
      "IndiaĠComp": 2136,
      "à±Ĩà°²à±ģ": 2137,
      "river": 2138,
      "forest": 2139,
      "à¥Īà¤²": 2140,
      "à±Ĥà°ª": 2141,
      "à°Łà±įà°²": 2142,
      "à°°à±įà°¥": 2143,
      "execut": 2144,
      "unionĠ": 2145,
      "à¤¾à¤¸à¤¨": 2146,
      "administ": 2147,
      "Ġà°°à°µà°¾à°£": 2148,
      "¦à±ĩà°¶à°Ĥà°²à±ĭ": 2149,
      "hasĠbeenĠ": 2150,
      "à°Ĥà°¡à°¿Ġà°": 2151,
      "à°¹à°¦à°¾à°°": 2152,
      "sequ": 2153,
      "à¥ĩà¤ķà¤¡": 2154,
      "endem": 2155,
      "à°²à±ģĠà°¸": 2156,
      "µà°¿à°§": 2157,
      "Ġà°ľà°¨": 2158,
      "à°¿à°ªà°¿à°Ĥà°ļ": 2159,
      "à¤¾à¤³à¤¾à¤¤": 2160,
      "à°Ĥ,Ġà°ķ": 2161,
      "Ġà¤ķà¤°à¤£": 2162,
      "à°Łà±įà°Łà°£": 2163,
      "includeĠtheĠ": 2164,
      "à°¾à°¬à°¾à°¦": 2165,
      "Ġà°Ńà°¾à°Ĺ": 2166,
      "Ĵà°ķà°Ł": 2167,
      "à¥ĩĠà¤ħà¤¸": 2168,
      "southernĠ": 2169,
      "ħà°¤à±įà°¯à°§à°¿à°ķ": 2170,
      "support": 2171,
      "easternĠ": 2172,
      "beganĠtoĠ": 2173,
      "à°ªà±įà°ªà°Łà°¿à°ķ": 2174,
      "à¤¾à¤§à¤¿à¤ķ": 2175,
      "literac": 2176,
      "à±ģà°ķà±ĭà°µ": 2177,
      "à¥ĩà¤Ĥà¤¦à¥įà¤°": 2178,
      "ıà°°à±įà°ªà°¡": 2179,
      "religiousĠ": 2180,
      "technolog": 2181,
      "highĠ": 2182,
      "¬à±įà°°à°¿à°Ł": 2183,
      "EastĠIndiaĠComp": 2184,
      "penins": 2185,
      "partĠofĠtheĠ": 2186,
      "à°®à±ģà°ĸ": 2187,
      "..": 2188,
      "Ara": 2189,
      "Hindi": 2190,
      "bre": 2191,
      "cap": 2192,
      "censu": 2193,
      "deĠ": 2194,
      "hat": 2195,
      "ib": 2196,
      "lam": 2197,
      "mus": 2198,
      "pon": 2199,
      "pres": 2200,
      "raĠ": 2201,
      "sultan": 2202,
      "well": 2203,
      "Ġ7": 2204,
      "ħà°§à°¿à°ķà°¾à°°": 2205,
      "à¤Ńà¤¾à¤°à¤¤à¥Ģà¤¯": 2206,
      "à±įĠà°ķ": 2207,
      "à°¾à°¡": 2208,
      "ers,Ġ": 2209,
      "à¤¤à¥ĩ.": 2210,
      "artĠ": 2211,
      "als,Ġ": 2212,
      "à¤¾Ġà¤¤": 2213,
      "à¥įà¤¯à¤¾à¤¸": 2214,
      "à¥ĩĠà¤ī": 2215,
      "à¥ĩĠà¤Ńà¤¾à¤°à¤¤à¥Ģà¤¯": 2216,
      "edĠforĠ": 2217,
      ".ĠE": 2218,
      "off": 2219,
      "à¥ĢĠà¤ªà¥įà¤°": 2220,
      "à°°à°¿à°ķ": 2221,
      "IndiansĠ": 2222,
      "à±ĩà°¨": 2223,
      "à¥Ģà¤¸": 2224,
      "à°ķà°¾à°°": 2225,
      "à°¾à°²à°¨": 2226,
      "à±Ģà°°": 2227,
      "out": 2228,
      "Ġà¤ªà¤°Ġà¤": 2229,
      "Ġà¤®à¥ĭà¤ł": 2230,
      "à¤°à¥įà¤ľ": 2231,
      "à°µà°°": 2232,
      "à°¾Ġà°µ": 2233,
      "ameĠtheĠ": 2234,
      "Ġà¤¹à¤¿à¤®à¤¾à¤²à¤¯": 2235,
      "ulp": 2236,
      "Ġà°ªà±įà°°à°¸à±įà°¤à±ģà°¤": 2237,
      "plain": 2238,
      "Ġà¥«": 2239,
      "Ġà¤¤à¤¥": 2240,
      "sever": 2241,
      "marri": 2242,
      "lowĠ": 2243,
      "à¤¾à¤¤à¥Ģà¤²Ġà¤¸à¤°à¥įà¤µ": 2244,
      "à¤¿à¤¨à¥įà¤¦": 2245,
      "sculp": 2246,
      "viol": 2247,
      "thisĠtim": 2248,
      "regionalĠ": 2249,
      ".ĠDur": 2250,
      "à¥ĩĠà¤¨à¤¾à¤µ": 2251,
      "lifeĠ": 2252,
      "Ġà¤¸à¤°à¤ķà¤¾à¤°": 2253,
      "Andam": 2254,
      "Islam": 2255,
      "MuslimĠ": 2256,
      "createdĠ": 2257,
      "à±ĭà°°à±įà°Ł": 2258,
      "CentralĠAsi": 2259,
      "10": 2260,
      "13": 2261,
      "16": 2262,
      "South": 2263,
      "as,Ġ": 2264,
      "ck": 2265,
      "ftĠ": 2266,
      "hous": 2267,
      "man": 2268,
      "ĵà¤Ĥ": 2269,
      "antsĠ": 2270,
      "disp": 2271,
      ".ĠT": 2272,
      "à¥ĩà¤®": 2273,
      "oup": 2274,
      "inĠ202": 2275,
      "à¤Ĥà¤¸": 2276,
      "à¤Ĥà¤ĸ": 2277,
      "à¤µà¤³": 2278,
      "à¤£à¤²": 2279,
      "à±Ĩà°Ł": 2280,
      "isticĠ": 2281,
      "ivil": 2282,
      "defin": 2283,
      "overĠtheĠ": 2284,
      "deralĠ": 2285,
      "Ġà¤ĩà¤¤": 2286,
      "Ġà°ħà°§à°¿à°ķà°¾à°°": 2287,
      "federalĠ": 2288,
      "compos": 2289,
      "Buddhism": 2290,
      "à¤¾à¤¸à¥įà¤¤à¥įà¤°": 2291,
      "noĠlong": 2292,
      "à¤µà¤¸à¥įà¤¥": 2293,
      "IndianĠsubcontinentĠ": 2294,
      "WesternĠ": 2295,
      "),Ġ": 2296,
      "Per": 2297,
      "Tam": 2298,
      "dsĠ": 2299,
      "dedĠ": 2300,
      "des": 2301,
      "e,ĠandĠ": 2302,
      "educ": 2303,
      "great": 2304,
      "hel": 2305,
      "prom": 2306,
      "so": 2307,
      "ustĠ": 2308,
      "²à¥ĭà¤ķ": 2309,
      "·à¤Ń": 2310,
      "ħà¤¨": 2311,
      "à°«": 2312,
      "à¥įà¤ŀ": 2313,
      "thereĠ": 2314,
      "inf": 2315,
      "edĠwithĠ": 2316,
      "à¤¸à¤®": 2317,
      "asĠaĠ": 2318,
      "Ġà¤ªà¤¾à¤°": 2319,
      "esĠareĠ": 2320,
      "Ġà¤µà¥įà¤¯": 2321,
      "à¤¾à¤Ĥà¤¶": 2322,
      "à±Īà°Ł": 2323,
      "âĢį": 2324,
      "ivesĠ": 2325,
      "earli": 2326,
      "Ġà¤ľà¤¨": 2327,
      ".ĠAĠ": 2328,
      "à¤¾Ġà¤¹à¥ĭà¤¤": 2329,
      "à±įâĢĮà°¸": 2330,
      "worldĠ": 2331,
      "becomeĠ": 2332,
      "à¤¹à¤¾à¤°à¤¾à¤·à¥įà¤Łà¥įà¤°": 2333,
      "constitution": 2334,
      "à¤Ĥà¤Ĺà¥įà¤°à¤ľ": 2335,
      "à¤¿à¤¸à¥įà¤¤à¤¾à¤¨": 2336,
      "Sikh": 2337,
      "EnglishĠ": 2338,
      "Persi": 2339,
      "%ĠandĠ": 2340,
      "ath": 2341,
      "kh": 2342,
      "o,Ġ": 2343,
      "¦à¤ķà¥įà¤·à¤¿à¤£": 2344,
      "Ġà¤ı": 2345,
      "div": 2346,
      "à¥ĩà¤ľ": 2347,
      "ions,Ġ": 2348,
      "à¤ķà¥įà¤°à¤®": 2349,
      "ouldĠ": 2350,
      "urtherĠ": 2351,
      "Ńà¤¾à¤°à¤¤à¤¾à¤ļà¥įà¤¯à¤¾Ġà¤": 2352,
      "à¥įà¤¯à¤¾Ġà¤ªà¥įà¤°": 2353,
      "opp": 2354,
      "ivedĠ": 2355,
      "à¥ĭà¤ļ": 2356,
      "adv": 2357,
      "compl": 2358,
      "Ġà¤¯à¥ĩà¤¤": 2359,
      "formĠofĠ": 2360,
      "à¥ĢĠà¤µà¤°à¥įà¤·": 2361,
      "à¥įà¤²à¤¾à¤®": 2362,
      "HinduĠ": 2363,
      "nific": 2364,
      ",ĠwhichĠisĠ": 2365,
      "suchĠasĠtheĠ": 2366,
      "à¤¾à¤ķà¤¿à¤¸à¥įà¤¤à¤¾à¤¨": 2367,
      "surv": 2368,
      "numberĠofĠ": 2369,
      "ĩà¤¤à¤¿à¤¹à¤¾à¤¸": 2370,
      "2,": 2371,
      "3,": 2372,
      "50": 2373,
      "airĠ": 2374,
      "gar": 2375,
      "à¤ĺ": 2376,
      "Ġà¤«": 2377,
      "à¥Ģ,": 2378,
      "onlyĠ": 2379,
      "ici": 2380,
      "icsĠ": 2381,
      "à¤¨à¥ĩĠà¤ķ": 2382,
      "à¤¾à¤²à¥Ģà¤¨": 2383,
      "à¤ªà¤²": 2384,
      ".Ġà¤¯": 2385,
      "00ĠCE": 2386,
      "à¥ĩà¤ķà¥įà¤·": 2387,
      "bod": 2388,
      "à¤¿à¤§à¤¾à¤¨": 2389,
      "à¤¬à¤¸": 2390,
      "à¤¤à¥įà¤¯à¥ĩà¤ķ": 2391,
      "à¥ĩĠà¤Ĩà¤¹à¥ĩ.": 2392,
      "Ġà¤Ĩà¤¹à¥ĩà¤¤.": 2393,
      "traditionalĠ": 2394,
      "styl": 2395,
      ".Ġà¥§à¥¯à¥": 2396,
      "famil": 2397,
      "-à°": 2398,
      ".Ġà°ª": 2399,
      "4ĠbillionĠ": 2400,
      "bor": 2401,
      "bel": 2402,
      "vastĠ": 2403,
      "wil": 2404,
      "wea": 2405,
      "yaĠ": 2406,
      "¤à°¨": 2407,
      "Ġ8": 2408,
      "ħà°¨à±ĩ": 2409,
      "ħà°¯à°¿à°¨": 2410,
      "ĩà¤Ĥà¤Ĺà¥įà¤°à¤ľ": 2411,
      "īà°Ĥà°¡": 2412,
      "īà°¤à±įà°¤à°°": 2413,
      "ļà±Īà°¨": 2414,
      "ľà°¾à°¤à±Ģà°¯": 2415,
      "à¤±": 2416,
      "Ġà¤¥": 2417,
      "Ġà°¹à°¿à°Ĥà°¦à±Ĥ": 2418,
      "à¤¾à¤Ń": 2419,
      "à¤¾à¤ĵà¤Ĥ": 2420,
      "à±įà°§": 2421,
      "à±įà°ķ": 2422,
      "inter": 2423,
      "independ": 2424,
      "à±ģ.": 2425,
      "à±ģà°Ĥà°¦à°¿.": 2426,
      "à°¤à±ĭ": 2427,
      "à°¤à±įà°¸": 2428,
      "à°¤à°¾à°¬à±įà°¦": 2429,
      "aĠandĠtheĠ": 2430,
      "à±ĭà°²": 2431,
      "Ġà¤ķà¥ĢĠà¤¸": 2432,
      "Ġà¤ķà¥įà¤·à¥ĩà¤¤à¥įà¤°": 2433,
      "anĠandĠ": 2434,
      "à°¾à°²à±įà°²à±ĭĠà°": 2435,
      "à±Ģà°Ł": 2436,
      "à±Ģà°°à±įà°£": 2437,
      ",Ġà°®": 2438,
      "à°®à°Ĥà°¤à±įà°°": 2439,
      "toĠaĠ": 2440,
      "ionĠandĠ": 2441,
      "à±įà°¯à°¾à°¯": 2442,
      "entlyĠ": 2443,
      "à¤¾à¤Ĥà¤µ": 2444,
      "à±Ĩà°Ĥà°Ĺà°¾à°²": 2445,
      "Ġà°ªà±įà°°à°®à±ģà°ĸ": 2446,
      "à°ĤĠà°®": 2447,
      "à°ĤĠà°¸": 2448,
      "à°ĤĠà°ļà±ĩà°": 2449,
      "à¥Ĥà¤¹": 2450,
      "à¤ªà¤¤": 2451,
      "elit": 2452,
      "à°°à±įà°·": 2453,
      "à°°à±įà°Ĺ": 2454,
      "Ġà°¸à°¾à°®": 2455,
      "oper": 2456,
      "siveĠ": 2457,
      "eau": 2458,
      "Ġà°µà°Ĥà°Ł": 2459,
      "Ġà°µĠà°¶": 2460,
      "à°¾à°¤à°Ĥà°¤à±įà°°": 2461,
      "à°Ĥà°¦à°¿à°¨": 2462,
      "Ġà¤ªà¥įà¤°à¤ľà¤¾à¤¤": 2463,
      "à±įà°²à°¨à±ģĠà°": 2464,
      "à±įà°µà°¹": 2465,
      "¦à±ĩà°¶à°¾à°²": 2466,
      "à°¾à°Ĥà°¡": 2467,
      "Ġà¤¦à¤ķà¥įà¤·à¤¿à¤£": 2468,
      "es,ĠandĠ": 2469,
      "à¥ĢĠà¤¸à¤®": 2470,
      "coalit": 2471,
      "à±ģà°²à±ģĠ(": 2472,
      "formedĠaĠ": 2473,
      "endang": 2474,
      "à°ķà±įà°·à°°": 2475,
      "µà°¿à°µà°¿à°§": 2476,
      "regionĠ": 2477,
      "industr": 2478,
      "à±ģà°·": 2479,
      "subsequ": 2480,
      "Ġà°¦à±ĩà°¶à°Ĥ": 2481,
      "à°Ńà°¾à°°à°¤à°¦à±ĩà°¶à°ĤĠà°": 2482,
      "¸à±įà°µà°¾à°®": 2483,
      "Ġà¤ļà¤¿à¤¤à¥įà¤°à¤ªà¤Ł": 2484,
      "à°®à±ģà°¦à±įà°°": 2485,
      "commerc": 2486,
      "®à±Ĭà°¤à±įà°¤": 2487,
      "à°¦à±įà°§à°¤": 2488,
      "à°·à±įà°Ł": 2489,
      "Ġà°°à±Īà°²à±įà°µ": 2490,
      "à°¾à°§à°¿à°Ĥà°ļ": 2491,
      ",000ĠyearsĠago": 2492,
      "ternalĠ": 2493,
      "legis": 2494,
      "¨à°¿à°°à±įà°µà°¹": 2495,
      "Ġà°ªà±įà°°à°¤à°¿à°ª": 2496,
      ".ĠAfterĠtheĠ": 2497,
      "ľà°°à°¿à°Ĺà°¿à°¨": 2498,
      "officialĠ": 2499,
      "GandhiĠ": 2500,
      "à°¿à°¦à±įà°§": 2501,
      "à°¾à°¨à±įà°¨à°¿Ġà°": 2502,
      "controlĠ": 2503,
      "à°¤à±ĭĠà°ķà±Ĥà°¡à°¿à°¨": 2504,
      "kingdom": 2505,
      "¨à°¡à°¿à°ªà°¿à°Ĥà°ļ": 2506,
      "executiveĠ": 2507,
      "peninsularĠ": 2508,
      "Ġà°µĠà°¶à°¤à°¾à°¬à±įà°¦": 2509,
      "23": 2510,
      "46": 2511,
      "5Ġ": 2512,
      "AĠ": 2513,
      "Kash": 2514,
      "Nor": 2515,
      "Raj": 2516,
      "aver": 2517,
      "cĠ": 2518,
      "d-largestĠ": 2519,
      "ganis": 2520,
      "pedĠ": 2521,
      "pur": 2522,
      "pay": 2523,
      "s;Ġ": 2524,
      "tri": 2525,
      "yan": 2526,
      "y.ĠTheĠ": 2527,
      "á¹": 2528,
      "à¤¾,": 2529,
      "à°¾à°¶": 2530,
      "anim": 2531,
      "sĠofĠtheĠ": 2532,
      "à±ģà°¦": 2533,
      "à°ĤĠà°ª": 2534,
      "à°¿à°¸à±įà°": 2535,
      "ar,Ġ": 2536,
      "organis": 2537,
      "à¥ĢĠà¤ī": 2538,
      "à¥ĢĠà¤ĺ": 2539,
      "à¥ĩà¤¹": 2540,
      "ity,Ġ": 2541,
      "ingsĠofĠ": 2542,
      "à°¾à°²à±ĭĠà°": 2543,
      "asĠtheĠ": 2544,
      "à°®à±ģà°²": 2545,
      "à°®à°¿à°³": 2546,
      "ilityĠ": 2547,
      "emper": 2548,
      "emberĠ": 2549,
      "Ġà¤Ĩà¤£à¤¿": 2550,
      "liber": 2551,
      "Ġà¤ħà¤Ń": 2552,
      "ownĠ": 2553,
      "à¥ĭà¤·": 2554,
      "establ": 2555,
      "mak": 2556,
      "and,Ġ": 2557,
      "ainsĠ": 2558,
      "à¤¾Ġà¤¹à¥Ī": 2559,
      "à¥Ģà¤ļà¥įà¤¯à¤¾Ġà¤": 2560,
      "mentĠofĠ": 2561,
      "Ġà¤ĩà¤Ĥà¤¡à¤¿à¤¯": 2562,
      "µà°¿à°¸à±įà°¤": 2563,
      "inĠ199": 2564,
      "scrip": 2565,
      "Ġà¤Ŀà¤¾à¤²à¥ĩà¤²": 2566,
      "polic": 2567,
      "Empire": 2568,
      "moreĠthanĠ": 2569,
      "à¤¾à¤Łà¤ķ": 2570,
      "causedĠ": 2571,
      "eastĠAsi": 2572,
      "leadingĠ": 2573,
      "mid-": 2574,
      "middleĠ": 2575,
      "marketĠ": 2576,
      "employ": 2577,
      "BengalĠ": 2578,
      "nowĠ": 2579,
      "à¥ĩà¤¥à¥Ģà¤²": 2580,
      "curr": 2581,
      "SoutheastĠAsi": 2582,
      "disput": 2583,
      "noĠlongerĠ": 2584,
      "à¤ķà¥įà¤°à¤®à¤£": 2585,
      "Kashm": 2586,
      "establish": 2587,
      "1,ĠtheĠ": 2588,
      "Bra": 2589,
      "Gre": 2590,
      "ces": 2591,
      "e.ĠTheĠ": 2592,
      "ge": 2593,
      "hen": 2594,
      "high": 2595,
      "iallyĠ": 2596,
      "okĠ": 2597,
      "redĠ": 2598,
      "ssĠ": 2599,
      "uaryĠ": 2600,
      "var": 2601,
      "vill": 2602,
      "vari": 2603,
      "wonĠ": 2604,
      "Ġà¤Ī": 2605,
      "ineĠ": 2606,
      "aroundĠ": 2607,
      ".ĠF": 2608,
      "InĠtheĠ": 2609,
      "à¥ĢĠà¤Ŀà¤¾à¤²": 2610,
      "à¥ĢĠà¤Ńà¤¾à¤°à¤¤à¥Ģà¤¯": 2611,
      "relat": 2612,
      "recor": 2613,
      "iteĠ": 2614,
      "ition": 2615,
      "ofĠwhichĠ": 2616,
      "ureĠ": 2617,
      "à¤®à¥ģà¤ĸ": 2618,
      "à¤¦à¤¾à¤¹": 2619,
      "Ġà¤¹à¥Īà¤Ĥà¥¤": 2620,
      "Ġà¤µà¤¿à¤¦à¥įà¤¯": 2621,
      "à¤¾à¤Ĥà¤Ĺ": 2622,
      "Ġà¤Ĩà¤¹": 2623,
      "raph": 2624,
      "elf": 2625,
      "conduct": 2626,
      "wide": 2627,
      "rossĠ": 2628,
      "play": 2629,
      "à¤Ĥà¤¤à¥ģ": 2630,
      "iesĠandĠ": 2631,
      ".ĠAm": 2632,
      "à¤¾à¤ªà¥įà¤¤": 2633,
      "lowingĠ": 2634,
      "Ġà°ľà°¾à°¬": 2635,
      "à¤¿à¤¶à¥įà¤µ": 2636,
      "group": 2637,
      "leftĠ": 2638,
      "ograph": 2639,
      "à¥ĢĠà¤ħà¤¸": 2640,
      "thĠcentury,Ġ": 2641,
      "à¥ģà¤¤à¥įà¤°": 2642,
      "ight": 2643,
      "glob": 2644,
      "court": 2645,
      "à¥Ģà¤Ĥà¤ļ": 2646,
      "countryĠ": 2647,
      "localĠ": 2648,
      "à¤°à¥įà¤¯à¤Ĥà¤¤": 2649,
      "JanuaryĠ": 2650,
      "DelhiĠ": 2651,
      "Jainism": 2652,
      "Brah": 2653,
      "à¤¦à¤¾à¤¹à¤°à¤£": 2654,
      "widelyĠ": 2655,
      "Ġà°ľà°¾à°¬à°¿à°¤": 2656,
      "Bh": 2657,
      "Govern": 2658,
      "Sh": 2659,
      "a,ĠandĠ": 2660,
      "bleĠ": 2661,
      "beĠtheĠ": 2662,
      "call": 2663,
      "e;Ġ": 2664,
      "equ": 2665,
      "i-": 2666,
      "kil": 2667,
      "know": 2668,
      "sm": 2669,
      "sing": 2670,
      "uj": 2671,
      "usĠ": 2672,
      "uĠandĠ": 2673,
      "uct": 2674,
      "ĵà¤³": 2675,
      "à¥§": 2676,
      "à¥ħ": 2677,
      "à¥Ģà¥¤": 2678,
      ",Ġà¥§à¥": 2679,
      "à¤°à¥Ĥà¤ª": 2680,
      "aleĠ": 2681,
      "à¤¿à¤ı": 2682,
      "att": 2683,
      ".ĠP": 2684,
      "à¤ķà¤²": 2685,
      "esĠwereĠ": 2686,
      "iss": 2687,
      "à¤µà¤°": 2688,
      "à¤µà¤²": 2689,
      "Ġà¤µà¥Īà¤¦": 2690,
      "à¤¾à¤ļà¥ĩĠà¤¸": 2691,
      "à¤¿à¤ķĠà¤¸": 2692,
      "lief": 2693,
      "es.ĠTheĠ": 2694,
      "unt": 2695,
      "à¤¾à¤®à¥ģà¤ĸ": 2696,
      "estim": 2697,
      "ress": 2698,
      "ally,Ġ": 2699,
      "Ġà¤¯à¤¹": 2700,
      "spre": 2701,
      ".ĠAc": 2702,
      "maryĠ": 2703,
      "à¤Łà¤¨": 2704,
      "s.ĠTh": 2705,
      "à¤ķà¥įà¤·à¤£": 2706,
      "a,ĠorĠ": 2707,
      "centuriesĠ": 2708,
      "struct": 2709,
      "à¤¤à¤¾à¤¤.": 2710,
      "continu": 2711,
      ".ĠTheseĠ": 2712,
      "number": 2713,
      "butĠalsoĠ": 2714,
      "1991": 2715,
      ",000": 2716,
      "à¥įà¤¥à¤¾à¤¨à¤¿à¤ķ": 2717,
      "à¤°à¥įà¤¥à¤µà¥įà¤¯": 2718,
      "styleĠ": 2719,
      "Bengal": 2720,
      "signific": 2721,
      "à¥ĩĠà¤Ĩà¤¹à¥ĩà¤¤.": 2722,
      "differ": 2723,
      "à¥ģà¤ªà¥įà¤¤": 2724,
      "heldĠ": 2725,
      "earliestĠ": 2726,
      "kilomet": 2727,
      "ĵà¤³à¤ĸ": 2728,
      "à¤°à¥įà¤¥à¤µà¥įà¤¯à¤µà¤¸à¥įà¤¥": 2729,
      "),Ġà¤": 2730,
      "36": 2731,
      "4%": 2732,
      "4%Ġ": 2733,
      "furtherĠ": 2734,
      "sec": 2735,
      "à¥įà¤Ľ": 2736,
      "thre": 2737,
      "eri": 2738,
      "à¤¿à¤·à¥įà¤Ł": 2739,
      "oftenĠ": 2740,
      "Ġà¤¸à¤¾à¤¹à¤¿à¤¤à¥įà¤¯": 2741,
      "Ġà¤ªà¤¦": 2742,
      "entsĠ": 2743,
      "ame": 2744,
      "Ġà¤¹à¤¿à¤¨à¥įà¤¦": 2745,
      "IndiaĠfromĠ": 2746,
      "à±Ĩà°¬": 2747,
      "Ġà¤ħà¤°": 2748,
      "à¤ªà¤¨": 2749,
      "à¥ģà¤Ĺ": 2750,
      "import": 2751,
      "Ġà¤ªà¥įà¤°à¤¤à¥įà¤¯à¥ĩà¤ķ": 2752,
      "à¤¿à¤¤à¥įà¤¤": 2753,
      "à¥įà¤µà¤¾à¤°": 2754,
      "Ġà¤ħà¤¸à¤²": 2755,
      "Ġà¤²à¤¾à¤Ĺ": 2756,
      "Ġà¤ķà¤°à¤¤": 2757,
      "à¤¤à¥įà¤¤à¤°Ġà¤": 2758,
      "1965,Ġ": 2759,
      "à¤¤à¤¿à¤¶à¤¯": 2760,
      "literacyĠ": 2761,
      ".âĢ": 2762,
      "Al": 2763,
      "Des": 2764,
      "c.âĢ": 2765,
      "ly": 2766,
      "lastĠ": 2767,
      "ool": 2768,
      "sit": 2769,
      "uch": 2770,
      "Ĺà¤³": 2771,
      "à¥įà¤¯à¤¾à¤Ĥà¤¨": 2772,
      "Ġà¤ķà¤²": 2773,
      "Ġà¤ķà¥ĩà¤Ĥà¤¦à¥įà¤°": 2774,
      "touch": 2775,
      "à¤¾à¤¤à¤Ĥà¤¤à¥įà¤°": 2776,
      "Ġà¤¸à¤¾à¤²": 2777,
      "à¤Ĥà¤ļ": 2778,
      "Ġà¤®à¥ģà¤ĸà¥įà¤¯": 2779,
      "à¤®à¤¿à¤³": 2780,
      "à¤¦à¥ĩà¤µ": 2781,
      "Ńà¤¾à¤°à¤¤à¤¾à¤ļ": 2782,
      "à¥įà¤¯à¤¾Ġà¤¶": 2783,
      "Ġà¤ħà¤¶": 2784,
      "à¤§à¤¾à¤°": 2785,
      "à¤¾à¤®à¤§à¥įà¤¯": 2786,
      "à¤¾à¤®à¥įà¤°à¤¾à¤ľà¥įà¤¯": 2787,
      ",Ġà¤¤": 2788,
      "à¥ĭà¤Ł": 2789,
      "à¤¾à¤µà¤²": 2790,
      "Ġà¥ª": 2791,
      "Ġà¤ķà¥ĩĠà¤¬": 2792,
      "à¤Ĥà¤¤à¤°Ġà¤": 2793,
      "à¤Ĺà¥įà¤¨": 2794,
      "wornĠ": 2795,
      "à¥ĩà¤¤à¥Ģà¤²": 2796,
      "Ġà¤ħà¤¸à¤¤": 2797,
      "Ġà¤ħà¤¸à¤²à¥ĩà¤²": 2798,
      "2013": 2799,
      "populationĠofĠ": 2800,
      "à¥Ĥà¤°à¥įà¤µà¥Ģà¤ļ": 2801,
      "danceĠ": 2802,
      "à¤§à¤¿à¤ķà¤¾à¤°": 2803,
      "à¤¾Ġà¤Ĺà¤¯": 2804,
      "à¤¹à¥ģà¤¤à¤¾à¤Ĥà¤¶": 2805,
      "à¥Įà¤¦à¥įà¤§Ġà¤§à¤°à¥įà¤®": 2806,
      "musicĠ": 2807,
      "c.âĢī": 2808,
      "%),Ġà°": 2809,
      ".9": 2810,
      "100": 2811,
      "80": 2812,
      "ByĠ": 2813,
      "Dra": 2814,
      "Ghat": 2815,
      "a.": 2816,
      "creat": 2817,
      "dri": 2818,
      "democ": 2819,
      "eut": 2820,
      "far": 2821,
      "fac": 2822,
      "lad": 2823,
      "los": 2824,
      "nom": 2825,
      "not": 2826,
      "publicĠ": 2827,
      "southĠ": 2828,
      "uar": 2829,
      "vic": 2830,
      "win": 2831,
      "westĠ": 2832,
      "¤à°°à±ģà°µà°¾à°¤": 2833,
      "¬à±Ĩà°Ĥà°Ĺà°¾à°²": 2834,
      "®à°¨": 2835,
      "®à±ģà°ĸà±įà°¯": 2836,
      "°à°¾à°ľà±įà°¯": 2837,
      "°à±ĭà°¡": 2838,
      "²à°¾à°®": 2839,
      "µà°¤à±įà°¸": 2840,
      "ħà°µ": 2841,
      "ħà°§à°¿à°ķ": 2842,
      "ĩ.": 2843,
      "ĪĠà°ªà±ĩà°°": 2844,
      "Ĺà°¾à°Ĥ": 2845,
      "Ĺà°Ĥà°Ĺà°¾Ġà°": 2846,
      "ĺà¤²": 2847,
      "ļà°¿à°¨à±įà°¨": 2848,
      "ľà°¨": 2849,
      "ľà°¨à°¾à°Ń": 2850,
      "à°ĸ": 2851,
      "Ġà°ĸ": 2852,
      "Ġà°Ĵà°ķ": 2853,
      "Ġà°İà°¨à±įà°¨": 2854,
      "à±įĠà°ª": 2855,
      "à°¾Ġà°ªà°°": 2856,
      "à±įà°£": 2857,
      "à±įà°Ĺ": 2858,
      "à°¾à°¦à±ĩà°¶": 2859,
      "à°¾à°¸à±įà°µà°¾à°®": 2860,
      "à°¿:": 2861,
      "à¥ĩ,": 2862,
      "à±ģà°Łà±įà°Ł": 2863,
      "à±ģà°Ĥà°¦à°¿.Ġà°": 2864,
      "à±ģà°°à±įà°¤": 2865,
      "ertĠ": 2866,
      "à°ĤĠ1": 2867,
      ",ĠanĠ": 2868,
      "à¤¤à¥įà¤°": 2869,
      "à°¿à°¸à±įà°¥à°¾à°¨": 2870,
      "area": 2871,
      "dianĠ": 2872,
      "aticĠ": 2873,
      ".ĠC": 2874,
      "à°¤à±įà°°": 2875,
      "à°¤à°ķ": 2876,
      "reform": 2877,
      "remain": 2878,
      "à°¨à°¿": 2879,
      "à°¨à±ģĠà°ª": 2880,
      "à°²Ġà°ķ": 2881,
      "à°²à°²à±ĭĠà°": 2882,
      "à°²à°¤à±ĭ": 2883,
      "à°°à°¤": 2884,
      "à°°à±Ģ": 2885,
      "itect": 2886,
      "à±ĩà°¤": 2887,
      "à±ĩ.Ġà°": 2888,
      "à±ĭà°¦": 2889,
      "à±ĭà°¯": 2890,
      "à±įà°°à°¾à°ľà±įà°¯": 2891,
      "à±įà°°à°¦à°¾à°¯": 2892,
      "Ġà°ªà°¾à°ķ": 2893,
      "Ġà°ªà±Ĩà°¦à±įà°¦": 2894,
      "Ġà°ªà°¦à±įà°§à°¤": 2895,
      "à¥ĭà¤°": 2896,
      "à¥ĭà¤ª": 2897,
      "à°¾à°°à±įà°¯": 2898,
      "à°¾à°°à°¸": 2899,
      "Ġà¤ķà¤¾à¤¹": 2900,
      "à°¾à°²à°¯": 2901,
      "à°¾à°²à°ķà±ģĠà°": 2902,
      "à°¦à°°": 2903,
      "à±Ģà°µ": 2904,
      "à±Ģà°¸": 2905,
      "à±Ģà°·": 2906,
      "à¤¸à¤¾à¤²": 2907,
      "à¤¸à¥įà¤Ł": 2908,
      "Ġà¤¸à¤¿à¤Ĥà¤§à¥Ĥ": 2909,
      "à±ģĠà°ķ": 2910,
      ",Ġà°Ĺ": 2911,
      "eciesĠ": 2912,
      "ingĠofĠ": 2913,
      "ingĠofĠtheĠ": 2914,
      "à±ĩà°¯": 2915,
      "à±ĩà°¸": 2916,
      "à±ĩà°Ĺà°Ĥà°Ĺà°¾Ġà°": 2917,
      "à¤Ĥà¤ľ": 2918,
      "à°®à±Ī": 2919,
      "à°¿Ġà°īà°Ĥà°¦à°¿.Ġà°": 2920,
      "à±įà°¯à°¤": 2921,
      "à±įà°¯à°ĤĠà°ķ": 2922,
      "à¤®à¤¾à¤°à¤¤": 2923,
      "ent,Ġ": 2924,
      "olvedĠ": 2925,
      "IndiaĠintoĠ": 2926,
      "à°ªà±Ĥ": 2927,
      "Ġà¤Ĩà¤ľ": 2928,
      "Ġà¤Ĩà¤¹à¤¾à¤°": 2929,
      "fort": 2930,
      "forestĠ": 2931,
      "foreig": 2932,
      "lianceĠ": 2933,
      "Ġà¤ħà¤®": 2934,
      "rac": 2935,
      "TheĠIndianĠ": 2936,
      "à±Ĥà°ļ": 2937,
      "à±Īà°Ĺà°¾Ġà°": 2938,
      "âĢ²": 2939,
      "à°¯à±ĭ": 2940,
      "00Ġm": 2941,
      "à°°à±įà°ķà±Ĭ": 2942,
      "ofĠtheĠIndianĠ": 2943,
      "consol": 2944,
      "à°Ĺà°°": 2945,
      "Ġà°¸à°¾à°Ĥ": 2946,
      "Ġà°¸à°Ĥà°Ĺà±Ģà°¤": 2947,
      "opicalĠ": 2948,
      "duallyĠ": 2949,
      "à°¾à°¯à°ķ": 2950,
      "à¥ģà¤ĺà¤²": 2951,
      "externalĠ": 2952,
      "Ġà°µà°¾à°¤": 2953,
      "Ġà°µà°¿à°§": 2954,
      "Ġà°ķà±Ĭ": 2955,
      "à°Ĥà°Ĺà°¾Ġ": 2956,
      "aceut": 2957,
      "à°§à°¾à°°": 2958,
      "Ġà°°à°¹à°¦à°¾à°°": 2959,
      "Ġ(à¤ª": 2960,
      "à°ķà±įà°¤": 2961,
      "result": 2962,
      "Ġà¤¨à¤¿à¤°à¥įà¤®": 2963,
      "à±įà°²à±ĭ": 2964,
      "Ńà°¾à°°à°¤à°¦à±ĩà°¶à°¾à°¨à°¿à°ķà°¿Ġà°": 2965,
      "à°¿à°Ĥà°ļà±ĩ": 2966,
      "à°¿à°Ĥà°ļà°¿à°Ĥà°¦à°¿.Ġ": 2967,
      "withĠitsĠ": 2968,
      "·à¥įà¤£": 2969,
      "à¤¶à¤ķ": 2970,
      "Ġà°®à±Ĭ": 2971,
      "à¤Ĺà¤¤": 2972,
      "à°¾à°²à±ģ.Ġà°": 2973,
      "à°¾à°²à±ģà°Ĺ": 2974,
      "à°¾à°²à±ģà°Ĺà°¾Ġà°": 2975,
      "Ġà¤¬à¤¦à¤²": 2976,
      "enceĠofĠ": 2977,
      "speciesĠ": 2978,
      "à°Ĥà°Łà±ĩ": 2979,
      "à±ģà°¤à±ģà°¨à±įà°¨": 2980,
      "à±įĠà°Ł": 2981,
      "à¥ĭà¤ĤĠà¤ķ": 2982,
      "à±ģà°²à±ģ,Ġà°ª": 2983,
      "à°Ńà°¿à°µ": 2984,
      "protect": 2985,
      "²à±ĭà°ķ": 2986,
      "à°Ĥà°¤à±ĭĠà°": 2987,
      "à¥ĢĠà¤¹à¥ĭà¤¤": 2988,
      "µà°¿à°¶": 2989,
      "à±įà°ļà°¿à°®": 2990,
      "à±ģà°³": 2991,
      "2010": 2992,
      "Ġà¤¶à¤¿à¤ķà¥įà¤·à¤£": 2993,
      "Ġà°ľà°¨à°¾à°Ń": 2994,
      "aff": 2995,
      "tropicalĠ": 2996,
      "Ġà°ħà°¯à°¿à°¨": 2997,
      "à¥ĢĠà¤ķà¥ĩà¤²": 2998,
      "à°Ĥ,Ġà°Ńà°¾à°°à°¤à±Ģà°¯": 2999,
      "Ġà°¦à±ĩà°¶à°¾à°²à°²à±ĭĠà°": 3000,
      "à°¾à°¦à°¨": 3001,
      "à¥ĩĠà¤¹à¥ĭà¤¤": 3002,
      "à±ĥà°¦à±įà°§": 3003,
      "Ġà°¶à°¾à°¸à±įà°¤à±įà°°": 3004,
      "pharm": 3005,
      "raticĠ": 3006,
      "à±į,Ġà°¬": 3007,
      "Ġà°¸à°Ĥà°¸à±įà°ķà±ĥà°¤": 3008,
      "rule": 3009,
      "south-": 3010,
      "®à±Ĭà°¦à°Ł": 3011,
      "®à±Ĭà°¦à°²": 3012,
      "à°¾à°¸à±įà°¯à°¤": 3013,
      "à¥įà¤¯à¤¾à¤¤Ġà¤Ĩà¤²": 3014,
      "republicĠ": 3015,
      "vidianĠ": 3016,
      "growingĠ": 3017,
      "à°·à±įà°£": 3018,
      "Ġà°īà°ª": 3019,
      "185": 3020,
      "landsĠ": 3021,
      "à°¶à±įà°ļà°¿à°®": 3022,
      "à¥Ģ.Ġà¤¤": 3023,
      "à¤łà¤¾à¤°": 3024,
      "à°¾à°µà°°à°£": 3025,
      "Ġà°ªà±įà°°à°§à°¾à°¨à°®à°Ĥà°¤à±įà°°": 3026,
      "Ġà°ªà±įà°°à°¾à°Ĥà°¤à°¾à°²à±ģĠà°": 3027,
      "à°°à±įà°µà±Ģà°¸": 3028,
      "constitutionĠ": 3029,
      "à°ªà±įà°°à°¦à°¾à°¯": 3030,
      "à°¾Ġà°¸à±Įà°ķ": 3031,
      "¦à°ķà±įà°·à°¿à°£à°¾à°¨": 3032,
      "ĩà°¦à°¿Ġà°": 3033,
      "Ġà°²à°ķà±įà°·": 3034,
      "à°¿à°¶à±įà°°à°®": 3035,
      "à¤¾à¤µà¤°à¥Ĥà¤¨": 3036,
      ".ĠAfterĠ": 3037,
      "species,Ġ": 3038,
      "featuresĠ": 3039,
      "Afric": 3040,
      "İà°ķà±įà°ķà±ģà°µà°Ĺà°¾Ġà°": 3041,
      "à°ķà±ģĠà°ªà±Īà°Ĺà°¾Ġà°": 3042,
      ".ĠByĠtheĠ": 3043,
      "architect": 3044,
      "ActĠ": 3045,
      "à°¾à°ļà±Ģà°¨": 3046,
      "directlyĠ": 3047,
      "Plateau": 3048,
      "à¤¦à¥įà¤¯à¥ĭà¤Ĺ": 3049,
      "Ġà°¦à±įà°µà±Ģà°ª": 3050,
      "societ": 3051,
      "UnitedĠSt": 3052,
      "parliamentaryĠsystem": 3053,
      "secondĠ": 3054,
      "tax": 3055,
      "ĠbecameĠ": 3056,
      "¢à°¿à°²à±įà°²à±Ģ": 3057,
      "à±ģà°°à±ģà°·": 3058,
      "à±ģà°Łà±ģà°Ĥà°¬": 3059,
      "unionĠterritor": 3060,
      "à°²à±ģĠà°¸à°°à±įà°µà±Ģà°¸": 3061,
      "à°¾à°¬à°¾à°¦à±į": 3062,
      "à±ģà°ķà±ĭà°µà°¡": 3063,
      "technologyĠ": 3064,
      "¬à±įà°°à°¿à°Łà°¿à°·": 3065,
      "EastĠIndiaĠCompanyĠ": 3066,
      "capit": 3067,
      "offĠ": 3068,
      "createdĠaĠ": 3069,
      "greaterĠ": 3070,
      "operationĠ": 3071,
      "endangeredĠ": 3072,
      "à°ķà±įà°·à°°à°¾à°¸à±įà°¯à°¤": 3073,
      "legislat": 3074,
      "Ġà¤µà¤¿à¤¦à¥įà¤¯à¤¾à¤°à¥įà¤¥": 3075,
      "DravidianĠ": 3076,
      "à°¾à°¸à±įà°µà°¾à°®à±įà°¯": 3077,
      "à°¾à°°à°¸à°¤à±įà°µ": 3078,
      "foreignĠ": 3079,
      "consolid": 3080,
      "Ġà°µà°¾à°¤à°¾à°µà°°à°£": 3081,
      "aceuticalĠ": 3082,
      "resultingĠ": 3083,
      "à°Ńà°¿à°µà±ĥà°¦à±įà°§": 3084,
      "pharmaceuticalĠ": 3085,
      "à°¾Ġà°¸à±Įà°ķà°°à±įà°¯": 3086,
      "1200": 3087,
      "4.": 3088,
      "400ĠBCE": 3089,
      "62": 3090,
      "6,Ġ": 3091,
      "7,": 3092,
      ":ĠtheĠ": 3093,
      "Bhar": 3094,
      "Dec": 3095,
      "Gup": 3096,
      "Re": 3097,
      "adi": 3098,
      "bi": 3099,
      "bl": 3100,
      "ceĠ": 3101,
      "eat": 3102,
      "e'sĠ": 3103,
      "fiveĠ": 3104,
      "hy": 3105,
      "hisĠ": 3106,
      "hab": 3107,
      "hi,Ġ": 3108,
      "ifiedĠ": 3109,
      "kingĠ": 3110,
      "lo": 3111,
      "nt": 3112,
      "oodĠ": 3113,
      "pli": 3114,
      "put": 3115,
      "pass": 3116,
      "richĠ": 3117,
      "sil": 3118,
      "tor": 3119,
      "uallyĠ": 3120,
      "wentĠ": 3121,
      "warĠ": 3122,
      "yanĠ": 3123,
      "Ńà±Ĥ": 3124,
      "Ńà¤¾à¤Ĺ": 3125,
      "à¤ħ": 3126,
      "Ġà°ĩ": 3127,
      "Ġà°¸à±įà°¥": 3128,
      "à¥įà¤ĸ": 3129,
      "thoughtĠ": 3130,
      "an,Ġ": 3131,
      "er,Ġ": 3132,
      ",ĠisĠ": 3133,
      "à°¿à°¡": 3134,
      "à¤°à¤ķà¤¾à¤°": 3135,
      "à¤°à¤¾à¤ł": 3136,
      "enact": 3137,
      "alongĠtheĠ": 3138,
      "à¤¿à¤ĸ": 3139,
      "ataĠ": 3140,
      "edĠintoĠ": 3141,
      "à¥ĢĠà¤ıà¤ķ": 3142,
      "aĠnewĠ": 3143,
      "à¥ĩà¤ª": 3144,
      "à°¾à°°à°£": 3145,
      "à°¾à°²Ġà°ľà°¾à°¬à°¿à°¤": 3146,
      "à¤¾à¤¤à¥Ĥà¤¨": 3147,
      "asĠwell": 3148,
      "Ġà¤ªà¤¹": 3149,
      "à¤Ĥà¤¶": 3150,
      "à¤Ĥà¤ķ": 3151,
      "à°®à±įà°®": 3152,
      "toĠitsĠ": 3153,
      "s,ĠorĠ": 3154,
      "s,ĠandĠtheĠ": 3155,
      "à¤µà¤¾à¤¦": 3156,
      "olde": 3157,
      "à±Ĩà°¹": 3158,
      "à°ªà°¾à°²": 3159,
      "Ġà¤ħà¤ľ": 3160,
      "à¥Ĥà¤¦": 3161,
      "à¥Īà¤µ": 3162,
      "à±ĤĠà°ķ": 3163,
      "char": 3164,
      "Ġà°¸à°°à°¿à°¹à°¦à±įà°¦": 3165,
      "exchang": 3166,
      "wasĠtheĠ": 3167,
      "rock": 3168,
      "abilityĠ": 3169,
      "est-": 3170,
      "à¤¾à¤µà¤¾à¤ļ": 3171,
      "usedĠinĠ": 3172,
      "à¤ļà¥įà¤Ľ": 3173,
      "Ńà°¾à°°à°¤à°¦à±ĩà°¶à°Ĥ": 3174,
      "ereĠareĠ": 3175,
      "partĠofĠ": 3176,
      "à°¹à°¾à°°": 3177,
      "dersĠ": 3178,
      "iesĠinĠtheĠ": 3179,
      "lowerĠ": 3180,
      ".ĠInĠ200": 3181,
      "à¥ĥà¤¤à¥įà¤¯": 3182,
      "ed,Ġ": 3183,
      "iveĠp": 3184,
      "Ġà°ľà°¾à°¤à±Ģà°¯": 3185,
      "northĠ": 3186,
      "becameĠtheĠ": 3187,
      "inĠ1947": 3188,
      ",Ġà°ªà°¾à°ķ": 3189,
      "antedĠ": 3190,
      "Ġà°¸à°Ĥà°ĸà±įà°¯": 3191,
      "art,Ġ": 3192,
      "servedĠasĠ": 3193,
      "Ġà¤¸à¤Ĥà¤¸à¤¦": 3194,
      "Maur": 3195,
      "à¤¿à¤¦à¥įà¤§": 3196,
      "indigen": 3197,
      "à°¸à±įà°Ł": 3198,
      "Ġà°ªà±įà°°à°ľà°²": 3199,
      ";ĠandĠtheĠ": 3200,
      "à¥ĥà¤·à¥įà¤Łà¥įà¤¯à¤¾Ġà¤": 3201,
      "millenniumĠ": 3202,
      "underĠtheĠ": 3203,
      "majorityĠofĠ": 3204,
      "agriculturalĠ": 3205,
      "thirdĠ": 3206,
      "third-largestĠ": 3207,
      "consist": 3208,
      "ConstitutionĠofĠ": 3209,
      "intro": 3210,
      "endĠofĠtheĠ": 3211,
      "movementĠ": 3212,
      "Ġà¤®à¥ĭà¤¹": 3213,
      "Arab": 3214,
      "sultanateĠ": 3215,
      ".ĠDuringĠ": 3216,
      "animalĠ": 3217,
      "Gree": 3218,
      "oldestĠ": 3219,
      "1%Ġ": 3220,
      "1ĠmillionĠ": 3221,
      "2Ġ": 3222,
      "50Ġ": 3223,
      "70": 3224,
      "Guj": 3225,
      "ManyĠ": 3226,
      "Vall": 3227,
      "ah": 3228,
      "bar": 3229,
      "cin": 3230,
      "centĠ": 3231,
      "cep": 3232,
      "derĠ": 3233,
      "del": 3234,
      "eirĠ": 3235,
      "fast": 3236,
      "however,Ġ": 3237,
      "ip": 3238,
      "i)Ġ": 3239,
      "ken": 3240,
      "ly,Ġ": 3241,
      "mer": 3242,
      "nationalĠ": 3243,
      "rang": 3244,
      "sem": 3245,
      "s.ĠInĠ": 3246,
      "saf": 3247,
      "trib": 3248,
      "utĠ": 3249,
      "wan": 3250,
      "writ": 3251,
      "xim": 3252,
      "y'sĠ": 3253,
      "ĠbyĠ": 3254,
      "à¤¾à¤ĩ": 3255,
      "à¤¤à¤ķ": 3256,
      "oneĠofĠtheĠ": 3257,
      "theĠlargestĠ": 3258,
      "sti": 3259,
      "dit": 3260,
      "dist": 3261,
      "atingĠ": 3262,
      "ativeĠ": 3263,
      "à¥įà¤¯à¤¾à¤²": 3264,
      "à¥ĩĠà¤ĸ": 3265,
      "reduc": 3266,
      "à°°à°¾à°·à±įà°Łà±įà°°": 3267,
      "à°°à°¿à°¤à±įà°°": 3268,
      "ich": 3269,
      "alĠandĠ": 3270,
      "à¤¨à¥įà¤¯": 3271,
      "à¤¨à¤¾à¤¡": 3272,
      "à¤Ĥà¤Ł": 3273,
      "à°®à±Ĩ": 3274,
      "toĠhaveĠ": 3275,
      "ileĠ": 3276,
      "à¤¾à¤¨à¤Ĥà¤¤à¤°": 3277,
      "à¥Ĥà¤³": 3278,
      "es.": 3279,
      "ra,Ġ": 3280,
      "entĠA": 3281,
      "agesĠ": 3282,
      "inct": 3283,
      "à¥ĭà¤¯": 3284,
      "ablyĠ": 3285,
      "withĠanĠ": 3286,
      "Ġà¤¬à¥įà¤°à¤¿à¤Łà¤¿à¤¶": 3287,
      "icalĠandĠ": 3288,
      "spea": 3289,
      "shar": 3290,
      "à±įĠà°ħ": 3291,
      "à±įĠà°ĩà°Ĥà°¡": 3292,
      "à¥ĭà¤ĤĠà¤ķà¥ĭ": 3293,
      "proxim": 3294,
      "à¥ĢĠà¤¹à¥Īà¥¤": 3295,
      "aksh": 3296,
      "approxim": 3297,
      "Hindust": 3298,
      "mentsĠ": 3299,
      "mostĠpopul": 3300,
      ".ĠThisĠ": 3301,
      "extantĠ": 3302,
      "ergyĠ": 3303,
      "Ġà°ļà°°à°¿à°¤à±įà°°": 3304,
      "religionsĠ": 3305,
      "poll": 3306,
      "isĠtheĠworld'sĠ": 3307,
      "amentalĠ": 3308,
      "undamentalĠ": 3309,
      "à¤¾Ġà¤Ĩà¤¹à¥ĩ.Ġà¤": 3310,
      "à¥ĢĠà¤Ńà¤¾à¤Ĺ": 3311,
      ".ĠItĠisĠ": 3312,
      "à°¿à°¤à±įà°°à°ķ": 3313,
      "millenniumĠBCE": 3314,
      "Ġà¤µà¤¿à¤µà¤¿à¤§Ġà¤ªà¥įà¤°à¤ķà¤¾à¤°": 3315,
      "provid": 3316,
      "à¤¢à¤¼": 3317,
      "cordingĠtoĠtheĠ": 3318,
      "consider": 3319,
      ".ĠAlthoughĠ": 3320,
      "IndusĠVall": 3321,
      "decadesĠ": 3322,
      "renew": 3323,
      "Ġà¤ķà¥ĩĠà¤¸à¤¾à¤¥": 3324,
      "growthĠrateĠ": 3325,
      "ivilis": 3326,
      "TamilĠ": 3327,
      "globalĠ": 3328,
      "knownĠ": 3329,
      "singleĠ": 3330,
      "estimatedĠ": 3331,
      "significantĠ": 3332,
      "à¥įà¤¯à¤¾Ġà¤¶à¤¤à¤ķ": 3333,
      "approximatelyĠ": 3334,
      "IndusĠValleyĠ": 3335,
      ").": 3336,
      "bro": 3337,
      "found": 3338,
      "hi": 3339,
      "justĠ": 3340,
      "mitt": 3341,
      "na": 3342,
      "wa": 3343,
      "yp": 3344,
      "¬à¤Ĥà¤§": 3345,
      "µà¤¿à¤§à¤¾à¤¨": 3346,
      "Ġ\"": 3347,
      "Ġkilomet": 3348,
      "ĭà¤": 3349,
      "th.": 3350,
      "à¤¤à¥įà¤ķ": 3351,
      "à¤¤à¤Ĥà¤¤à¥įà¤°": 3352,
      "à¤¾Ġà¤°": 3353,
      "à¤¾Ġà¤ıà¤ķ": 3354,
      "ati": 3355,
      "à¥įà¤¯à¤¤": 3356,
      "à¥ĢĠà¤ĩ": 3357,
      "reach": 3358,
      "iceĠ": 3359,
      "Ġà¤¸à¥Īà¤¨": 3360,
      "Ġà¤®à¤¹à¤¾à¤°à¤¾à¤·à¥įà¤Łà¥įà¤°": 3361,
      "Ġà¤®à¥ģà¤ĺà¤²": 3362,
      "à¤µà¤¨": 3363,
      "amp": 3364,
      "Ġà¤¹à¥Īà¤Ĥ": 3365,
      "à¥Ĥà¤²": 3366,
      "à¥Īà¤¶": 3367,
      "ract": 3368,
      "owĠ": 3369,
      "India.": 3370,
      "à¥Ģà¤¯Ġà¤¸": 3371,
      "Ġà¤ªà¥įà¤°à¤¾à¤£": 3372,
      "à¤°Ġà¤¯": 3373,
      "à¤°Ġà¤ī": 3374,
      "aboutĠ": 3375,
      "à¤¯à¤¾à¤°": 3376,
      "oci": 3377,
      "befor": 3378,
      "es,ĠincludingĠ": 3379,
      "Ġà¤ľà¤¾à¤¤": 3380,
      "à¤¿à¤µà¤¸": 3381,
      "associ": 3382,
      "Ġà¤ķà¤°à¥Ĥà¤¨": 3383,
      "à¥ĩĠà¤ªà¤°": 3384,
      "Ġà¤ªà¤°à¤Ĥà¤¤à¥ģ": 3385,
      "themĠ": 3386,
      "traditionallyĠ": 3387,
      "Ġà¤¸à¤¾à¤®à¤¾à¤ľ": 3388,
      "express": 3389,
      "BuddhistĠ": 3390,
      "à¥īà¤²": 3391,
      "timesĠ": 3392,
      "there": 3393,
      "followingĠ": 3394,
      "ternationalĠ": 3395,
      "cordingĠtoĠ": 3396,
      "à¥ĭà¤¡à¤¼": 3397,
      "madeĠ": 3398,
      "ĸà¤¾à¤¸à¤¦à¤¾à¤°": 3399,
      "educationĠ": 3400,
      "calledĠ": 3401,
      "à¤¾à¤®à¥ģà¤ĸà¥įà¤¯à¤¾à¤¨": 3402,
      "%.ĠInĠ": 3403,
      "bac": 3404,
      "crip": 3405,
      "herĠ": 3406,
      "tt": 3407,
      "Ġ4": 3408,
      "Ġà¤¡": 3409,
      "ere": 3410,
      "eral": 3411,
      "à¤¾Ġà¤Ķà¤°Ġà¤": 3412,
      "dish": 3413,
      "à¥ĭà¤§": 3414,
      "à¤ķà¤°": 3415,
      "oul": 3416,
      "Ġà¤ªà¤¶à¥įà¤ļà¤¿à¤®": 3417,
      "à¤®à¥ĩà¤Ĥ": 3418,
      "amasĠ": 3419,
      "ampl": 3420,
      "à¥įà¤¯à¤¾Ġà¤¹": 3421,
      "Ġà¤ħà¤²": 3422,
      "à¥Ĥà¤ļ": 3423,
      "à¥Īà¤¸": 3424,
      "essĠ": 3425,
      "à¥įà¤¤à¤°": 3426,
      "IndianĠmathemat": 3427,
      "à¥ģà¤ľ": 3428,
      "mainĠ": 3429,
      "Ġà¤¦à¥įà¤µà¥Ģà¤ª": 3430,
      "à¥įà¤¥à¤¿à¤¤": 3431,
      "à¤Ĥà¤Ĺà¥Ģà¤¤": 3432,
      "Ġmus": 3433,
      "edul": 3434,
      "Ġà¤¶à¤¹à¤°": 3435,
      "Ġà¤Ńà¤¾à¤Ĺ": 3436,
      "Ġà¤Ĺà¥įà¤°": 3437,
      "âĢĶĠ": 3438,
      "à¤¥à¤µ": 3439,
      "à¥ĢĠà¤®à¥ĩà¤Ĥ": 3440,
      "commonlyĠ": 3441,
      "dance-": 3442,
      "à¤Ĥà¤¦à¤¿à¤°": 3443,
      "à¤¾à¤Ĥà¤ªà¥Īà¤ķ": 3444,
      "urbanĠare": 3445,
      "à¤¾.Ġà¤¤": 3446,
      "à¤¾Ġà¤ľà¤¾à¤¤à¥ĭ.": 3447,
      "à¤¾Ġà¤Ńà¤¾à¤Ĺ": 3448,
      "dramasĠ": 3449,
      "school": 3450,
      "cookingĠ": 3451,
      "Ġà¤®à¥įà¤¹à¤£à¥Ĥà¤¨": 3452,
      "2011Ġcensu": 3453,
      "sculptur": 3454,
      "soonĠ": 3455,
      "officialĠlanguag": 3456,
      "ĵà¤³à¤ĸà¤²": 3457,
      "threeĠ": 3458,
      "à¥įà¤ĸà¤¨": 3459,
      "backĠ": 3460,
      "dance-dramasĠ": 3461,
      "nation": 3462,
      "ĠL": 3463,
      "īà¤¤à¥įà¤¤à¤°": 3464,
      "ĳà¤«": 3465,
      "à¤¾à¤ı": 3466,
      "à¤¾à¤ĺ": 3467,
      "à¥įâĢį": 3468,
      "à¥ĩ,Ġà¤": 3469,
      "à¤¿à¤·": 3470,
      "à¤¾Ġà¤¥": 3471,
      "à¥įà¤¯à¤¾à¤ª": 3472,
      "à¥ĢĠà¤ļ": 3473,
      "à¥ĩà¤¦": 3474,
      "à¥ĩà¤¯": 3475,
      "à¤¾à¤°à¤ķ": 3476,
      "à¥įà¤°à¤¾à¤Ł": 3477,
      "à¥Ģà¤£": 3478,
      "Ġà¤ķà¤¾Ġà¤¸": 3479,
      "à¤¹à¥ģà¤®": 3480,
      "à¤®à¤Ĥà¤¤à¥įà¤°": 3481,
      "à¥įà¤¯à¤¾Ġà¤®": 3482,
      "à¥Ĥà¤£": 3483,
      "à¥Ĥà¤ķ": 3484,
      "untouch": 3485,
      "à¤°Ġà¤¦": 3486,
      "à¤¾à¤µà¤¸": 3487,
      "à¤¾à¤µà¤¾à¤¨": 3488,
      "Ġà¥Ń": 3489,
      "Ġà¤ķà¥ĩĠà¤ª": 3490,
      "Ġà¤ķà¥ĩĠà¤²": 3491,
      "à¤°à¥įà¤µà¤¤": 3492,
      "Ġà¤¯à¤¾Ġà¤¨": 3493,
      "à¤Ĥà¤Ĺà¤²": 3494,
      "à¤Ĥà¤Ĺà¥įà¤²": 3495,
      "à¥ĢĠà¤¸à¥įà¤µ": 3496,
      "Ġà¤ħà¤¸à¥Ĥà¤¨": 3497,
      "grand": 3498,
      "à¤¾à¤¯à¤¿à¤ķ": 3499,
      "à¥ĩĠà¤¹à¥Īà¤Ĥà¥¤": 3500,
      "à¥ĩĠà¤¹à¤µà¤¾à¤®à¤¾à¤¨": 3501,
      "Ġà¤¹à¥ĭà¤¤à¥ĩ.Ġà¤": 3502,
      "à¤¾Ġà¤®à¥ĩà¤Ĥ": 3503,
      "à¤ªà¥įà¤°à¤§à¤¾à¤¨": 3504,
      "à¤°à¥įà¤¥à¤¿à¤ķ": 3505,
      "à¥ĢĠà¤Ĩà¤¹à¥ĩà¤¤": 3506,
      "à¤¢à¤³": 3507,
      "birth": 3508,
      "Ġà¤®à¥įà¤¹à¤£à¤ľ": 3509,
      "Ġà¤¸à¥įà¤¥à¤¾à¤ªà¤¤à¥įà¤¯": 3510,
      "Ġà¤¸à¥ģà¤°à¥Ĥ": 3511,
      "à¤¾Ġà¤¹à¥ĭà¤¤à¤¾.": 3512,
      "Ġà¤µà¥Īà¤¦à¤¿à¤ķĠà¤ķ": 3513,
      "à¤¿à¤·à¥įà¤Łà¥įà¤¯": 3514,
      "à¤®à¤¿à¤³à¤¨à¤¾à¤¡": 3515,
      "à¥Īà¤¶à¤¿à¤·à¥įà¤Łà¥įà¤¯": 3516,
      ").Ġà°": 3517,
      ".5": 3518,
      ".6": 3519,
      "1stĠ": 3520,
      "Ash": 3521,
      "Bang": 3522,
      "BayĠ": 3523,
      "Fron": 3524,
      "However,Ġ": 3525,
      "Myan": 3526,
      "ND": 3527,
      "Nic": 3528,
      "Non-": 3529,
      "NuclearĠ": 3530,
      "PA": 3531,
      "Pl": 3532,
      "Pre": 3533,
      "Pro": 3534,
      "Sri": 3535,
      "Sha": 3536,
      "Treat": 3537,
      "Vi": 3538,
      "bell": 3539,
      "back": 3540,
      "cialĠ": 3541,
      "clim": 3542,
      "dens": 3543,
      "eet": 3544,
      "foundĠ": 3545,
      "good": 3546,
      "hub": 3547,
      "iz": 3548,
      "ifer": 3549,
      "jur": 3550,
      "ject": 3551,
      "ledĠbyĠ": 3552,
      "last": 3553,
      "mig": 3554,
      "ner": 3555,
      "nationĠ": 3556,
      "nameĠ": 3557,
      "ningsĠofĠ": 3558,
      "pover": 3559,
      "sli": 3560,
      "sect": 3561,
      "sover": 3562,
      "text": 3563,
      "uesĠ": 3564,
      "uchĠ": 3565,
      "vent": 3566,
      "vall": 3567,
      "velyĠ": 3568,
      "wn": 3569,
      "wayĠ": 3570,
      "y-": 3571,
      "¤à°®à°¿à°³": 3572,
      "ªà°¾à°²": 3573,
      "«à°²": 3574,
      "®à±Ģ": 3575,
      "®à°¹": 3576,
      "®à°¾à°¤à±įà°°": 3577,
      "°à°¾à°ľà°ķà±Ģà°¯": 3578,
      "°à±Ĥà°ª": 3579,
      "µà±Ī": 3580,
      "¶à±įà°°à±Ģ": 3581,
      "¶à°¾à°¸à±įà°¤à±įà°°": 3582,
      "¸à°¾à°Ĥ": 3583,
      "¸à°¿à°¨à°¿à°®": 3584,
      "¸à±Ĥà°ļ": 3585,
      "¹à°¿à°®": 3586,
      "Ĩà°°à±įà°§": 3587,
      "ĩà°Ĥà°Ĺà±įà°²": 3588,
      "ĪĠà°°": 3589,
      "īà°ª": 3590,
      "Ĵà°²": 3591,
      "ķà±ĩà°": 3592,
      "ķà°¾à°Ĥà°Ĺà±įà°°à±Ĩà°¸": 3593,
      "ķà±ĩà°Ĥà°¦à±įà°°": 3594,
      "ļà°¾à°²": 3595,
      "łà¤¿à¤ķ": 3596,
      "à¤ģ": 3597,
      "à°¸à±įà°µ": 3598,
      "à°¸à±įà°¥à°¾à°¨": 3599,
      "à¥¯": 3600,
      "Ġà¤ĸà¤¾à¤¸à¤¦à¤¾à¤°": 3601,
      "Ġà°¯": 3602,
      "Ġà°ı": 3603,
      "Ġà°īà°¨à±įà°¨": 3604,
      "à¤¾à¤Ĭ": 3605,
      "à±įĠà°¸": 3606,
      "à±įĠà°°": 3607,
      "à±įà°³": 3608,
      "à°¾à°ĸà±įà°¯": 3609,
      "threat": 3610,
      "th-largestĠ": 3611,
      "sĠinĠ": 3612,
      "sĠfollow": 3613,
      "inat": 3614,
      "à±ģĠ(": 3615,
      "à°ĤĠ2": 3616,
      ",ĠP": 3617,
      ",ĠbutĠ": 3618,
      "ond": 3619,
      "à¤°à¤¾à¤ľà¥įà¤¯": 3620,
      "à°Ĥà°Ń": 3621,
      "en,Ġ": 3622,
      "alistĠ": 3623,
      "stea": 3624,
      "stand": 3625,
      "à¤¾Ġà¤ļ": 3626,
      "oralĠ": 3627,
      "à¥įà¤¯à¤¾": 3628,
      "ĠtheĠIndianĠ": 3629,
      "à°¤à°¿Ġà°": 3630,
      "à°¤à±įà°¯": 3631,
      "resĠ(": 3632,
      "reven": 3633,
      "refer": 3634,
      "à°¨à°¦": 3635,
      "à°¨à°¾à°²à±ģĠà°": 3636,
      "à°¨à°¿Ġà°ª": 3637,
      "à°²à±į": 3638,
      "à°²à°ķ": 3639,
      "à°²à°¿à°Ĺ": 3640,
      "à°²à°¨à±ģĠà°": 3641,
      "à°²à°²à±ĭ": 3642,
      "à°²à±įà°²à±ĭĠà°": 3643,
      "à°°à±ĭĠà°": 3644,
      "IndiraĠ": 3645,
      "à±ĩà°°à±įà°²": 3646,
      "à±ĩà°°à±įà°ķà±Ĭ": 3647,
      "à±ĭà°³": 3648,
      "Ġà°ªà°Ĥà°¡": 3649,
      "Ġà°ªà°Łà±įà°Łà°£": 3650,
      "inglyĠ": 3651,
      "inghĠ": 3652,
      "à°¾à°°à±ģĠà°ª": 3653,
      "à°¾à°°à°Ĥà°Ń": 3654,
      "Ġà¤ķà¤®": 3655,
      "à°ķà±ģ": 3656,
      "à°ķà±Ĭ": 3657,
      "anĠS": 3658,
      "anĠPlateau": 3659,
      "town": 3660,
      "à°¾à°²Ġà°ķ": 3661,
      "à°¾à°²à°¿à°Ĥà°ļ": 3662,
      "à°¾à°²à°¨à±ĩ": 3663,
      "à°¾à°²à±Ĩà°Ĥà°¡": 3664,
      "à°¦à°¿.": 3665,
      "à¤¾à¤¤à¥įà¤®": 3666,
      "à¤¨à¤ķ": 3667,
      "à¤¸à¥įà¤ķ": 3668,
      "à¤¹à¥Ģà¤Ĥ": 3669,
      "à±ģĠà°®à°¾à°°à±įà°Ĺ": 3670,
      ",Ġà°Ī": 3671,
      ",Ġà°ķ": 3672,
      "inĠintoĠtheĠ": 3673,
      "ingĠitsĠ": 3674,
      "erĠofĠ": 3675,
      "ureĠandĠ": 3676,
      "à±ĩà°·": 3677,
      "à±ĩà°ľ": 3678,
      "à±ĩà°ªà°¾à°²": 3679,
      "Ġà¤®à¤¿à¤²": 3680,
      "Ġà¤®à¤Ĥà¤¤à¥įà¤°": 3681,
      "à°®à°²": 3682,
      "à°®à°¿à°Ĥà°ļ": 3683,
      "à°®à±Ĭ": 3684,
      "à°¿Ġà°ĩ": 3685,
      "toĠUS$": 3686,
      "à±įà°¯à°®à±Īà°¨": 3687,
      "à±įà°¯à°¾à°²à±Ĩà°Ĥà°¡": 3688,
      "à¤®à¥įà¤": 3689,
      "isedĠ": 3690,
      "à¤°à¥įà¤Ĺ": 3691,
      "à°µà°¾à°°": 3692,
      "à°µà°¿.Ġà°": 3693,
      "à°µà°ļà±įà°ļ": 3694,
      "à°µà°¿à°§": 3695,
      "à°µà±Ĩà°¨": 3696,
      "TharĠ": 3697,
      "à°¿à°Ĥà°ª": 3698,
      "à°¾Ġà°°": 3699,
      "à°¾Ġà°Ĺà°¾à°Ĥ": 3700,
      "Ġà¤¹à¤µà¤¾à¤®à¤¾à¤¨": 3701,
      "olvingĠ": 3702,
      "IndiaĠwasĠ": 3703,
      "IndiaĠfromĠtheĠ": 3704,
      "IndiaĠisĠaĠ": 3705,
      "Ġà¤µĠà¤¬": 3706,
      "Ġà¤µà¤¿à¤¶à¥įà¤µ": 3707,
      "à±Ĩà°¨à±įà°¨": 3708,
      "193": 3709,
      "à°¿à°ķ,Ġà°": 3710,
      "à°¿à°ķĠà°¸à°Ĥà°": 3711,
      "à°ªà°¡": 3712,
      "asedĠonĠ": 3713,
      "Ġà¤Ĩà¤ªà¤²": 3714,
      "Ġà°ªà±įà°°à°¦à±ĩà°¶": 3715,
      "Ġà°ªà±įà°°à°ķà°¾à°°": 3716,
      "Ġà°ªà±įà°°à°¾à°°à°Ĥà°Ń": 3717,
      "à°ĤĠà°¨à±ģ": 3718,
      "verse": 3719,
      "rail": 3720,
      "à±ĤĠà°µà°ļà±įà°ļ": 3721,
      "à±Īà°ª": 3722,
      "à°¿à°¨Ġà°ķ": 3723,
      "à°¾à°¨à°¿à°ķ": 3724,
      "à°¯à°¿à°¤": 3725,
      "ireĠandĠ": 3726,
      "changesĠ": 3727,
      "à°Ĺà±įà°Ĺ": 3728,
      "à°¨à±įà°¨à°¡": 3729,
      "à°¨à±įà°¨à°¾à°¯à°¿.Ġà°": 3730,
      "à°¨à±įà°¨à°¿Ġà°¸": 3731,
      "Ġà°¸à°¾à°°": 3732,
      "opt": 3733,
      "six": 3734,
      "sivelyĠ": 3735,
      "eticĠ": 3736,
      "etwork": 3737,
      "Ġà°µà°¿à°": 3738,
      "Ġà°ķà±ĭ": 3739,
      "Ġà°ķà±ĩà°Ĥà°¦à±įà°°": 3740,
      "Ġà°ķà°¾à°°à±įà°¯": 3741,
      "à¤¾à¤¸à¤¾à¤ł": 3742,
      "ivilĠ": 3743,
      "à°¾à°¤à±įà°®": 3744,
      "inĠtheĠworld": 3745,
      "inĠtheĠwesternĠ": 3746,
      ",ĠtheĠBJP": 3747,
      "à°Ĥà°Ĺà°¾": 3748,
      "à¥ĭà¤³": 3749,
      "ear-": 3750,
      "à°§à±Ģ": 3751,
      "adopt": 3752,
      "Ġà°°à°¾à°ľà°ķà±Ģà°¯": 3753,
      "Ġ(à°µà±Ĩà°¨": 3754,
      "à¤¯à¥ĭà¤Ĺ": 3755,
      "ushĠ": 3756,
      "Ġà¤¨à¤¦": 3757,
      "Ġà¤¨à¤¿à¤µ": 3758,
      "Ńà°¾à°°à°¤à°¦à±ĩà°¶à°ĤĠà°": 3759,
      "Ńà°¾à°°à°¤à°¦à±ĩà°¶à°Ĥà°²à±ĭ": 3760,
      "à¤ľà¤¹": 3761,
      "à°¿à°Ĥà°ļà°¿,Ġà°": 3762,
      "à°¿à°Ĥà°ļà°¿à°Ĥà°¦à°¿.Ġà°": 3763,
      "Ġà¤Ńà¤¾à¤°à¤¤Ġà¤®à¥ĩà¤Ĥ": 3764,
      "à¤Ĥà¤¤à¤ªà¥įà¤°à¤§à¤¾à¤¨": 3765,
      "à°¸à°°": 3766,
      "à°¸à±įà°°": 3767,
      "¦à±ĩà°¶à°Ĥà°²à±ĭĠà°": 3768,
      "Ġà°®à°Ĥà°¦": 3769,
      "Ġà°®à±Ĥà°¡": 3770,
      "Ġà°®à°¾à°°à±įà°Ĺ": 3771,
      "à¥ĩà¤¶à¤¿à¤¯": 3772,
      "à±Ĭà°Ĥà°¦à°¿à°¨": 3773,
      "à¤Ĺà¤¾à¤¤à¥Ģà¤²Ġà¤¸à¤°à¥įà¤µ": 3774,
      "à°¾à°²à±ģĠà°ª": 3775,
      "à°¾à°²à±ģ,Ġà°ª": 3776,
      "andingĠ": 3777,
      "à°ļà±ĩ": 3778,
      "ence": 3779,
      "ency,Ġ": 3780,
      "à°¾à°²à±ģĠà°Ĺà°²": 3781,
      "itsĠeconom": 3782,
      "centr": 3783,
      "à¤³à¤µà¤³": 3784,
      "shareĠ": 3785,
      "separ": 3786,
      "co-": 3787,
      "à±įĠà°²à±ĭĠà°": 3788,
      "marg": 3789,
      "à±ģà°ķà°Ł": 3790,
      "à±ģà°ķà±Ĭ": 3791,
      "à±ģà°ķà±ģà°¨à±įà°¨": 3792,
      "areĠdirectlyĠ": 3793,
      "endingĠ": 3794,
      "assertĠ": 3795,
      "Ġbi": 3796,
      "à°²à±ģĠà°®à°¾à°°à±įà°Ĺ": 3797,
      "edlyĠ": 3798,
      "ed,ĠandĠ": 3799,
      "upĠtoĠ": 3800,
      "regul": 3801,
      "Ġà°ľà°¾à°¤": 3802,
      "2009": 3803,
      "bodi": 3804,
      "tsĠandĠ": 3805,
      "à°²à±ģ.Ġà°": 3806,
      "trad": 3807,
      "Ġà°¦à±ĩà°¶à°Ĥà°Ĺà°¾Ġà°": 3808,
      "à°¾à°¦à°¾à°ª": 3809,
      "à°Ĥà°²à±ĭ,Ġà°": 3810,
      "weal": 3811,
      "à°Ńà°¾à°°à°¤à°¦à±ĩà°¶à°Ĥà°²à±ĭĠà°": 3812,
      "à°Ńà°¾à°°à°¤à°¦à±ĩà°¶à°ªà±ģĠà°": 3813,
      "Ġà°¨à°¾à°Ĺ": 3814,
      "Ġà°¨à°Ĺà°°": 3815,
      "à°Łà±įà°Łà°®à±Ĭ": 3816,
      "AsiaĠ": 3817,
      "streng": 3818,
      "Ġà¥§à¥¨": 3819,
      "electedĠ": 3820,
      "predomin": 3821,
      "president": 3822,
      "à±ĩà°°à±ģĠà°": 3823,
      "à°¨à°¿Ġà°¨": 3824,
      "à°¿à°¸à±įà°¤à±ģà°¨à±įà°¨": 3825,
      "à°¿à°¸à±įà°¤à°¾à°°à±ģ.": 3826,
      "itĠtoĠ": 3827,
      "à±į,Ġà°¨": 3828,
      "thĠcenturies,Ġ": 3829,
      "IndiaĠhasĠbeenĠ": 3830,
      "Ġà°Ĩà°°à±įà°¥": 3831,
      ".ĠThereĠareĠ": 3832,
      "onĠtheĠsouth": 3833,
      "exten": 3834,
      "à¤¤à¥įà¤¯à¤¾à¤¦": 3835,
      "increasinglyĠ": 3836,
      "Ġà°ļà°¿à°¨à±įà°¨": 3837,
      "compan": 3838,
      "®à±Ĭà°Łà±įà°Łà°®à±Ĭ": 3839,
      "à°¾à°¸à°¿à°¯à°¾Ġà°": 3840,
      "à°¾à°°à±įà°ķ": 3841,
      "Ġà°¤à°°à±ģà°µà°¾à°¤": 3842,
      "à°¾à°Łà±ģĠà°": 3843,
      "epĠ": 3844,
      "okaĠ": 3845,
      "à°³à±įà°²à°¨à±ģĠà°": 3846,
      "armiesĠ": 3847,
      "à°¾à°£à°¿à°ľ": 3848,
      "Ġà°°à±Īà°²à±ģĠà°¸à°°à±įà°µà±Ģà°¸": 3849,
      "à°Ĥà°¬à±Ĥ": 3850,
      "suppl": 3851,
      "PakistanĠ": 3852,
      "riseĠ": 3853,
      "à°¿Ġà°ħà°¨à±ĩ": 3854,
      "diverseĠ": 3855,
      "à¤¾à¤Ĥà¤ļà¥įà¤¯à¤¾Ġà¤¸": 3856,
      "ľà°°à±ģà°ª": 3857,
      "à°¾à°µà°°": 3858,
      "à°¨à±ģà°®": 3859,
      "maint": 3860,
      "à°¬à°¡à°¿à°¨": 3861,
      "à°¬à°¡à±įà°¡": 3862,
      "leader": 3863,
      "à¤¾à¤Ĥà¤ªà¥Ĥà¤°à¥įà¤µ": 3864,
      "à°ľà°¾à°¤à±Ģà°¯Ġà°ª": 3865,
      "à°¸à±įà°ķà±ĥà°¤": 3866,
      "à°¸à±įà°²à°¾à°®": 3867,
      "Ġà°ªà±įà°°à°ľà°¾à°¸à±įà°µà°¾à°®à±įà°¯": 3868,
      "ChinaĠ": 3869,
      "ianĠS": 3870,
      "à¥ĢĠà¤Ĩà¤¹à¥ĩ.": 3871,
      "à¥ĢĠà¤Ĩà¤¹à¥ĩ.Ġà¤": 3872,
      "graduallyĠ": 3873,
      "¦à°ķà±įà°·à°¿à°£à°¾à°¸à°¿à°¯à°¾Ġà°": 3874,
      "à°Ĥà°ªà±Ĩà°¨": 3875,
      "à°Ĥà°ªà±įà°°à°¦à°¾à°¯": 3876,
      "nuclearĠwea": 3877,
      "perĠcapit": 3878,
      "SanskritĠ": 3879,
      "Indo-Ar": 3880,
      "¨à°¿à°°à±įà°®": 3881,
      "Ġà°¸à°Ńà±įà°¯": 3882,
      "à°¿à°¯à°¾Ġà°ķ": 3883,
      ",ĠwhoseĠ": 3884,
      "signedĠ": 3885,
      "mediatelyĠ": 3886,
      "ductionĠ": 3887,
      "°à±Ĩà°Ĥà°¡à±ģ": 3888,
      "gaveĠ": 3889,
      "SouthĠAsia": 3890,
      "SouthĠAsiaĠ": 3891,
      "4ĠgeneralĠelection": 3892,
      "JanataĠ": 3893,
      "right": 3894,
      "à¥ĭà¤¬à¤¤": 3895,
      "governmentsĠfollow": 3896,
      "crust": 3897,
      "crucialĠ": 3898,
      "eignt": 3899,
      "°à°¾à°·à±įà°Łà±įà°°à°ªà°¤": 3900,
      "µà°ļà±įà°ļà°¿à°Ĥà°¦à°¿.Ġà°": 3901,
      "à°Ĥà°Ĺà±įà°²à°¾à°¦à±ĩà°¶": 3902,
      "à±ģà°ķà±ģà°Ĥà°Łà°¾à°°à±ģ.Ġà°": 3903,
      "settl": 3904,
      "aĠmemberĠ": 3905,
      "headĠ": 3906,
      "drainĠintoĠtheĠ": 3907,
      "Ġà¤¹à¥ģà¤Ĩ": 3908,
      "GDPĠ": 3909,
      "NationalĠCongressĠ": 3910,
      "ķà°²à°¿à°Ĺ": 3911,
      "Ġà°¸à±įà°µà°¾à°¤à°Ĥà°¤à±įà°°": 3912,
      "à°¤à°Ĥà°¤à±įà°°Ġà°°à°¾à°ľà±įà°¯": 3913,
      "empireĠ": 3914,
      "à±Ĩà°²à±ģà°Ĺ": 3915,
      "administr": 3916,
      "Ġà°°à°µà°¾à°£à°¾Ġà°¸à±Įà°ķà°°à±įà°¯": 3917,
      "à¥ĩà¤ķà¤¡à¥Ģà¤²": 3918,
      "easternĠIndia": 3919,
      "ıà°°à±įà°ªà°¡à±įà°¡": 3920,
      "à°°à°¿à°ķà°¤": 3921,
      "violenc": 3922,
      "thisĠtime,Ġ": 3923,
      "IslamicĠ": 3924,
      "CentralĠAsianĠ": 3925,
      "à¤Ĥà¤¸à¥įà¤ķà¥ĥà¤¤": 3926,
      "WesternĠGhat": 3927,
      "²à¥ĭà¤ķà¤¸à¤Ń": 3928,
      "à¥įà¤ŀà¤¾à¤¨": 3929,
      "à¥ĭà¤ļà¥įà¤ļ": 3930,
      "wild": 3931,
      "ħà°¨à±ĩà°ķ": 3932,
      "independenceĠ": 3933,
      "à±Ģà°Łà°¿à°²à±ĭĠà°": 3934,
      "à°ĤĠà°ļà±ĩà°¯": 3935,
      "Ġà°¸à°¾à°®à±įà°°à°¾à°ľà±įà°¯": 3936,
      "coalitionĠ": 3937,
      "industryĠ": 3938,
      "subsequentĠ": 3939,
      "commercialĠ": 3940,
      "Ġà°°à±Īà°²à±įà°µà±ĩ": 3941,
      "¨à°¿à°°à±įà°µà°¹à°£": 3942,
      "Ġà°ªà±įà°°à°¤à°¿à°ªà°¾à°¦à°¨": 3943,
      "à°¿à°¦à±įà°§à°¿Ġà°ļà±Ĩà°Ĥà°¦": 3944,
      "liberalis": 3945,
      "disputesĠ": 3946,
      "Kashmir": 3947,
      "lades": 3948,
      "uardĠ": 3949,
      "victor": 3950,
      "®à°¨à°¦à±ĩà°¶": 3951,
      "°à±ĭà°¡à±įà°¡": 3952,
      "µà°¤à±įà°¸à°°": 3953,
      "ĪĠà°ªà±ĩà°°à±ģĠà°": 3954,
      "à°ĸà°Ĥà°¡": 3955,
      "Ġà°İà°¨à±įà°¨à°¿à°ķ": 3956,
      "à°¤à°ķà°¾à°²à±ģĠà°": 3957,
      "remainingĠ": 3958,
      "à°²à°¤à±ĭ,Ġà°": 3959,
      "Ġà°ªà°¾à°ķà°¿à°¸à±įà°¤à°¾à°¨": 3960,
      "Ġà°°à°¹à°¦à°¾à°°à±ģà°²à±ģ,Ġà°": 3961,
      "Ġ(à¤ªà¥Ĥà¤°à¥įà¤µà¥Ģà¤ļ": 3962,
      "protectedĠ": 3963,
      "Ġà°¦à±ĩà°¶à°¾à°²à°²à±ĭĠà°Ĵà°ķà°Ł": 3964,
      "à±į,Ġà°¬à°Ĥà°Ĺà±įà°²à°¾à°¦à±ĩà°¶": 3965,
      "Ġà°īà°ªà°ĸà°Ĥà°¡": 3966,
      "à°ªà±įà°°à°¦à°¾à°¯à°¿à°ķ": 3967,
      "AfricaĠ": 3968,
      "architecture": 3969,
      "UnitedĠStat": 3970,
      "à°Ńà°¿à°µà±ĥà°¦à±įà°§à°¿Ġà°ļà±Ĩà°Ĥà°¦": 3971,
      "habit": 3972,
      "loos": 3973,
      "à°ªà°¾à°²à°¿à°¤": 3974,
      "wasĠtheĠworld'sĠ": 3975,
      "ArabianĠS": 3976,
      "ĠLank": 3977,
      "AshokaĠ": 3978,
      "Banglades": 3979,
      "BayĠofĠ": 3980,
      "Myanmar": 3981,
      "Nicob": 3982,
      "SriĠLank": 3983,
      "povert": 3984,
      "sectorĠ": 3985,
      "sovereignt": 3986,
      "¶à°¾à°¸à±įà°¤à±įà°°à±Ģà°¯": 3987,
      "¹à°¿à°®à°¾à°²à°¯": 3988,
      "ķà±ĩà°µà°²": 3989,
      "łà¤¿à¤ķà¤¾à¤£": 3990,
      "revenuesĠ": 3991,
      "IndiraĠGandhiĠ": 3992,
      "à±įà°¯à°¾à°²à±Ĩà°Ĥà°¡à°°à±į": 3993,
      "TharĠDes": 3994,
      "à°¾Ġà°Ĺà°¾à°Ĥà°§à±Ģ": 3995,
      "Ġà°ķà°¾à°°à±įà°¯à°ķà±įà°°à°®": 3996,
      "Ġ(à°µà±Ĩà°¨à±ģà°ķà°Ł": 3997,
      "Ġà°¨à°¾à°Ĺà°°à°¿à°ķà°¤": 3998,
      "thĠcenturies,ĠtheĠ": 3999,
      "®à±Ĭà°Łà±įà°Łà°®à±Ĭà°¦à°Ł": 4000,
      "à°¾à°£à°¿à°ľà±įà°¯": 4001,
      "à°¸à±įà°²à°¾à°®à°¾à°¬à°¾à°¦à±į": 4002,
      "nuclearĠweapon": 4003,
      "perĠcapitaĠ": 4004,
      "aĠmemberĠofĠ": 4005,
      "43": 4006,
      "49": 4007,
      "4,Ġ": 4008,
      "7,Ġ": 4009,
      "700": 4010,
      "8âĢĵ": 4011,
      "8%Ġ": 4012,
      "9%ĠofĠ": 4013,
      "At": 4014,
      "Bi": 4015,
      "Civilis": 4016,
      "Mal": 4017,
      "Mid": 4018,
      "Pall": 4019,
      "WestĠ": 4020,
      "ail": 4021,
      "aicĠ": 4022,
      "aut": 4023,
      "crit": 4024,
      "cameĠ": 4025,
      "ckĠ": 4026,
      "cientĠ": 4027,
      "dar": 4028,
      "eas": 4029,
      "eff": 4030,
      "eight": 4031,
      "fundamentalĠ": 4032,
      "gn": 4033,
      "genc": 4034,
      "jo-": 4035,
      "lab": 4036,
      "lay": 4037,
      "law": 4038,
      "merĠ": 4039,
      "mult": 4040,
      "othĠ": 4041,
      "oast": 4042,
      "otion": 4043,
      "pat": 4044,
      "past": 4045,
      "seĠ": 4046,
      "self": 4047,
      "tre": 4048,
      "tak": 4049,
      "vis": 4050,
      "vel": 4051,
      "¬à¤Ĥà¤Ĺà¤¾à¤²": 4052,
      "°à¤¾à¤·à¥įà¤Łà¥įà¤°": 4053,
      "¸à°°à°¿à°¹à°¦à±įà°¦": 4054,
      "Ġc": 4055,
      "īà¤ª": 4056,
      "Ńà°¾à°": 4057,
      "Ńà°¾à°Ĺ": 4058,
      "Ġà°ĺ": 4059,
      "à¤¾à¤¢": 4060,
      "that": 4061,
      "thos": 4062,
      "an-": 4063,
      "anag": 4064,
      "animal": 4065,
      "sĠfromĠtheĠ": 4066,
      "in,Ġ": 4067,
      "init": 4068,
      "iningĠ": 4069,
      "ines,Ġ": 4070,
      "institut": 4071,
      "indh": 4072,
      "eraĠ": 4073,
      "à¥ĢĠ": 4074,
      ",ĠwereĠ": 4075,
      ",ĠbetweenĠ": 4076,
      "ones": 4077,
      "onialĠ": 4078,
      "à°Ĥà°§": 4079,
      "araĠ": 4080,
      "à¤¾Ġà¤²": 4081,
      "à¤¾Ġà¤Ķà¤°": 4082,
      "yĠandĠ": 4083,
      "à¥įà¤¯à¤¾à¤¦": 4084,
      "à¥įà¤¯à¤¾à¤¯": 4085,
      "à¥ĩĠà¤Ŀà¤¾à¤²": 4086,
      ".ĠM": 4087,
      ".ĠIndianĠ": 4088,
      "à¥ĢĠà¤°à¤¾à¤ľà¥įà¤¯": 4089,
      "à°²à°¸": 4090,
      "à°°à°µ": 4091,
      "ion,Ġ": 4092,
      "itatedĠ": 4093,
      "à±ĭà°§": 4094,
      "icl": 4095,
      "à¥Ģà¤¡": 4096,
      "ofĠK": 4097,
      "à°¾à°°à°¿à°¤à±įà°°à°ķ": 4098,
      "à°ķà°°": 4099,
      "todayĠ": 4100,
      "à¤¾à¤¤Ġà¤®": 4101,
      "à¤¨à¤¸": 4102,
      "à¤¸à¤¿à¤¤": 4103,
      "à±ģĠà°¤": 4104,
      "asĠofĠ": 4105,
      "ectĠ": 4106,
      "inĠwhichĠ": 4107,
      "à°®à°¨": 4108,
      "à°®à±ĩà°¨": 4109,
      "toĠbeĠtheĠ": 4110,
      "à±įà°¯à°¾à°ª": 4111,
      "isol": 4112,
      "stĠofĠ": 4113,
      "à¤µà¤°à¥įà¤·": 4114,
      "à¤µà¤Ĥà¤Ł": 4115,
      "amongĠtheĠ": 4116,
      "ular,Ġ": 4117,
      "à¤¾à¤²à¤¾Ġà¤": 4118,
      "es:Ġ": 4119,
      "à±Ĥà°°": 4120,
      "consum": 4121,
      "à°Ĺà°£": 4122,
      "sist": 4123,
      "dueĠ": 4124,
      "unit": 4125,
      "whoseĠ": 4126,
      "which": 4127,
      "à¤¾à¤¸à¤¿à¤¤": 4128,
      "ivityĠ": 4129,
      "à°Ĥà°Ĺà°¾,Ġà°": 4130,
      "acter": 4131,
      "acrossĠ": 4132,
      "à¥ĭà¤ľ": 4133,
      "à¤°Ġà¤¬": 4134,
      "à¤¯à¤¾à¤¸": 4135,
      "à¤¯à¤Ĥà¤¤": 4136,
      "respon": 4137,
      "Ġà¥©": 4138,
      "Ġà¤Ńà¤¾à¤°à¤¤à¤¾à¤ļà¥įà¤¯à¤¾Ġà¤": 4139,
      "havingĠ": 4140,
      "Ġà¤ķà¥ĩĠà¤ħà¤¨": 4141,
      "Ġà°®à°¹": 4142,
      "Ġà°®à±ģà°ĸà±įà°¯": 4143,
      "illĠ": 4144,
      "allyĠandĠ": 4145,
      "containsĠ": 4146,
      "es,ĠtheĠ": 4147,
      "clas": 4148,
      "dern": 4149,
      "iesĠofĠtheĠ": 4150,
      "à¥ĢĠà¤¸à¥įà¤¥à¤¾à¤ª": 4151,
      "shor": 4152,
      "cogn": 4153,
      "à±įĠà°Ĩ": 4154,
      "largest": 4155,
      "proces": 4156,
      "ainedĠ": 4157,
      "lower": 4158,
      "à¤¾Ġà¤¸à¤°à¥įà¤µ": 4159,
      "uresĠandĠ": 4160,
      "ism,ĠandĠ": 4161,
      "regionsĠ": 4162,
      "2004": 4163,
      "e,ĠwhichĠ": 4164,
      "à±įâĢĮà°²": 4165,
      "à¤¿à¤¨à¤¾à¤°": 4166,
      "à°¿à°¯à°¾à°²à±ĭĠà°": 4167,
      "level": 4168,
      "declin": 4169,
      "partition": 4170,
      "northwest": 4171,
      "qualit": 4172,
      "prev": 4173,
      "systemĠofĠ": 4174,
      "à±įà°®à±Ģà°°": 4175,
      "Ġà°Ĩà°°à±įà°§": 4176,
      ".ĠTheirĠ": 4177,
      "statu": 4178,
      "withinĠ": 4179,
      "religion": 4180,
      "Ġà°ªà°°à°¿à°ª": 4181,
      "repres": 4182,
      "SouthĠIndianĠ": 4183,
      "okĠtheĠ": 4184,
      "British": 4185,
      "urbanis": 4186,
      "regions.Ġ": 4187,
      "Indones": 4188,
      "suppli": 4189,
      "expans": 4190,
      "Euras": 4191,
      ".ĠSh": 4192,
      "à¥ĢĠà¤¬à¥įà¤°à¤¿à¤Łà¤¿à¤¶": 4193,
      "heredi": 4194,
      "inequalit": 4195,
      "1971": 4196,
      "influenceĠ": 4197,
      "à°¿à°ķĠà°µà±įà°¯à°µà°¸à±įà°¥": 4198,
      "à¤Ĥà¤ªà¤°": 4199,
      "à¤¿à¤¸à¥įà¤¤à¤¾à¤°": 4200,
      "AncientĠ": 4201,
      "MughalĠEmpireĠ": 4202,
      "PunjabĠ": 4203,
      "Punjab,Ġ": 4204,
      "citiesĠ": 4205,
      "colonialĠ": 4206,
      "Mohen": 4207,
      "basedĠonĠtheĠ": 4208,
      "prop": 4209,
      "princ": 4210,
      ".ĠAllĠ": 4211,
      "à¥ģà¤ķà¥įà¤¤": 4212,
      "termĠ": 4213,
      "head": 4214,
      "summerĠ": 4215,
      "movement": 4216,
      "NehruĠ": 4217,
      "à¥ĢĠà¤Ĺà¥ĩà¤²": 4218,
      "Ġà¤¸à¥ģà¤°à¥ģà¤µ": 4219,
      "BuddhismĠandĠ": 4220,
      "·à¤Ńà¤¦à¥ĩà¤µ": 4221,
      "constitutionalĠ": 4222,
      "PersianĠ": 4223,
      "NorthĠ": 4224,
      "à°¾à°¶à±įà°®à±Ģà°°": 4225,
      "organisationĠ": 4226,
      "makesĠ": 4227,
      ".ĠAmongĠtheĠ": 4228,
      "ission": 4229,
      "Decc": 4230,
      "GuptaĠ": 4231,
      "à°¾à°²Ġà°ľà°¾à°¬à°¿à°¤à°¾": 4232,
      "character": 4233,
      "indigenousĠ": 4234,
      "introduc": 4235,
      "GreekĠ": 4236,
      "merch": 4237,
      "mostĠpopulousĠ": 4238,
      "IndusĠValleyĠCivilis": 4239,
      "à¥ģà¤ľà¤°": 4240,
      "MiddleĠ": 4241,
      "Pallav": 4242,
      "jo-dar": 4243,
      "Ńà°¾à°µà°¿à°¸à±įà°¤": 4244,
      "à±įà°¯à°¾à°ªà°¾à°°": 4245,
      "Indonesi": 4246,
      "heredit": 4247,
      "Mohenjo-dar": 4248,
      "59": 4249,
      "Ak": 4250,
      "Coun": 4251,
      "East": 4252,
      "Mar": 4253,
      "Va": 4254,
      "blyĠ": 4255,
      "cesĠ": 4256,
      "cos": 4257,
      "cav": 4258,
      "couldĠ": 4259,
      "farĠ": 4260,
      "fourĠ": 4261,
      "nam": 4262,
      "row": 4263,
      "sav": 4264,
      "somet": 4265,
      "ssem": 4266,
      "templ": 4267,
      "uentĠA": 4268,
      "wouldĠ": 4269,
      "¬à¤¹à¥ģà¤¤à¤¾à¤Ĥà¤¶": 4270,
      "ĠisĠ": 4271,
      "Ĩà°«": 4272,
      "ĩà¤Ĥà¤Ĺà¥įà¤²": 4273,
      "ĺà°¨": 4274,
      "anch": 4275,
      "anotherĠ": 4276,
      "sĠaĠ": 4277,
      "sĠorĠ": 4278,
      "sĠforĠ": 4279,
      ",ĠorĠ": 4280,
      ",ĠwithĠ": 4281,
      "oneĠ": 4282,
      "on,Ġ": 4283,
      "à¤¿Ġà¤¸": 4284,
      "à¤°à¤¾à¤£": 4285,
      "energyĠ": 4286,
      "ste": 4287,
      "disc": 4288,
      "à¥įà¤¯à¤¾à¤®à¥ģà¤³": 4289,
      "à¥ĩĠà¤Ń": 4290,
      "edĠdec": 4291,
      "à¥ĢĠà¤Ńà¤¾à¤°à¤¤à¤¾à¤¤": 4292,
      "recentĠ": 4293,
      "à¥ĩà¤¡": 4294,
      "à¥ĩà¤·": 4295,
      "à¥ĩà¤Ĺà¤³": 4296,
      "à¤¾à¤°à¥įà¤®": 4297,
      "à¤ķà¥įà¤¤": 4298,
      "tot": 4299,
      "à¤¸à¥įà¤¥à¤¾à¤¨": 4300,
      "à¤¸à¤¿à¤¦à¥įà¤§": 4301,
      "inĠ201": 4302,
      "Ġà¤ªà¤¾à¤ķà¤¿à¤¸à¥įà¤¤à¤¾à¤¨": 4303,
      "à¤®à¥ģà¤¨": 4304,
      "lyĠinfluenc": 4305,
      "à¤µà¤¾à¤¹": 4306,
      "à¥įà¤¯à¤¾Ġà¤ª": 4307,
      "Ġà¤¹à¥ĩĠà¤¨à¤¾à¤µ": 4308,
      "à¤¾à¤¨à¤µ": 4309,
      "rig": 4310,
      "rimin": 4311,
      "à¤¿à¤ķà¤¸à¤¿à¤¤": 4312,
      "lik": 4313,
      "life": 4314,
      "Ġà¤ħà¤¶à¤¿à¤¯": 4315,
      "rap": 4316,
      "ratherĠ": 4317,
      "chos": 4318,
      "eter": 4319,
      "à¥ģà¤·": 4320,
      "uni": 4321,
      "à¤¾à¤®à¤§à¥Ģà¤²": 4322,
      "imesĠ": 4323,
      "Ġà¤ªà¥įà¤°à¤¾à¤Ĥà¤¤": 4324,
      "à¤°Ġà¤°": 4325,
      "Ġà¤¨à¤¾à¤®": 4326,
      "Ġà¤¨à¤¾à¤µà¤¾à¤ļ": 4327,
      "de,Ġ": 4328,
      "Ġà¥¬": 4329,
      "Ġà¤ķà¥ĩĠà¤¨": 4330,
      "à¤¶à¤¾à¤¸à¤¿à¤¤": 4331,
      "Ġà¤¤à¤¸à¥ĩà¤ļ": 4332,
      "à¤Ĺà¤¡": 4333,
      "anceĠofĠ": 4334,
      "belief": 4335,
      "es,ĠorĠ": 4336,
      "Ġà¤ľà¤¾à¤¨": 4337,
      "spic": 4338,
      "atĠisĠ": 4339,
      "à¤Ĥà¤Ĺà¥ĩà¤ļ": 4340,
      "India'sĠpopulationĠ": 4341,
      "à¥ĢĠà¤¸à¤Ĥà¤": 4342,
      "showĠ": 4343,
      "ityĠofĠ": 4344,
      "à¤¾à¤ļà¥įà¤¯à¤¾Ġà¤ª": 4345,
      "upperĠ": 4346,
      "2001": 4347,
      "stituentĠA": 4348,
      "primaryĠ": 4349,
      "Ġà¤īà¤¤à¥įà¤¤à¤°": 4350,
      "Ġà¤īà¤¦à¤¾à¤¹à¤°à¤£": 4351,
      "partsĠofĠ": 4352,
      "Ġà°¶à°¾à°ĸ": 4353,
      "popularĠ": 4354,
      "ment.": 4355,
      "itĠisĠ": 4356,
      "à¤¤à¥įà¤¤à¥įà¤µ": 4357,
      "ratesĠ": 4358,
      "à¤¦à¥įà¤§à¤¤": 4359,
      "à¥ĢĠà¤ħà¤°à¥įà¤¥à¤µà¥įà¤¯à¤µà¤¸à¥įà¤¥": 4360,
      "hadĠbeenĠ": 4361,
      "commonĠ": 4362,
      "SouthĠIndiaĠ": 4363,
      "ightĠ": 4364,
      "à¤¾à¤Ĥà¤¤Ġà¤®à¥ĭà¤ł": 4365,
      "culturalĠ": 4366,
      "à¤¾à¤Ĥà¤®à¥ģà¤³": 4367,
      "every": 4368,
      "à¤²à¥ĩà¤²à¥įà¤¯à¤¾Ġà¤": 4369,
      "à¤¾,Ġà¤ľ": 4370,
      "ConstituentĠA": 4371,
      "à¤¾à¤Ĥà¤ļà¥įà¤¯à¤¾Ġà¤®": 4372,
      "courtĠ": 4373,
      "greatĠ": 4374,
      "à¥Īà¤¦à¤¾à¤¨": 4375,
      "Ġà¤ĩà¤¸à¤ķ": 4376,
      "Ġà¤ĩà¤¸à¥įà¤²à¤¾à¤®": 4377,
      "casteĠsystem": 4378,
      "humanĠfig": 4379,
      "ĩà¤¸à¥įà¤²à¤¾à¤®": 4380,
      "Ġ(à¤ĩà¤Ĥà¤Ĺà¥įà¤°à¤ľ": 4381,
      "annu": 4382,
      "languageĠfamil": 4383,
      "grewĠbyĠ": 4384,
      ")ĠandĠtheĠ": 4385,
      "à¤¦à¥įà¤¦à¤²": 4386,
      "Ġà¤¸à¥įà¤µà¤¾à¤¤à¤Ĥà¤¤à¥įà¤°": 4387,
      "originallyĠ": 4388,
      "Ġà¤¹à¤¿à¤Ĥà¤¦à¥Ĥ": 4389,
      "theyĠwereĠ": 4390,
      "painting,Ġ": 4391,
      "Ġà¤®à¤¿à¤³à¤¾à¤²": 4392,
      "inĠ2023": 4393,
      "Ġà¤ĩà¤¤à¤¿à¤¹à¤¾à¤¸": 4394,
      "Sikhism": 4395,
      "oppos": 4396,
      "advanc": 4397,
      "aroundĠtheĠ": 4398,
      "untilĠ": 4399,
      "spreadĠ": 4400,
      ".ĠAccordingĠtoĠ": 4401,
      "Ġà¤ħà¤°à¤¬": 4402,
      "à¤¿à¤¤à¥įà¤¤à¥įà¤µ": 4403,
      "literacyĠrateĠ": 4404,
      "Ġà¤ķà¥ĩĠà¤¬à¤¾à¤¦": 4405,
      "Ġà¤¸à¤¿à¤Ĥà¤§à¥ĤĠà¤¸à¤Ĥà¤¸à¥įà¤ķà¥ĥà¤¤": 4406,
      "à¤Ĥà¤ľà¤¾à¤¬": 4407,
      "Gujar": 4408,
      "tribalĠ": 4409,
      "writtenĠ": 4410,
      "pollut": 4411,
      "ractic": 4412,
      "à¥įà¤¯à¤¾Ġà¤¹à¥ĭà¤¤": 4413,
      "à¤¾à¤µà¤¸à¤¾à¤¯à¤¿à¤ķ": 4414,
      "à¤®à¤¿à¤³à¤¨à¤¾à¤¡à¥Ĥ": 4415,
      "blyĠofĠIndiaĠ": 4416,
      "sometimesĠ": 4417,
      "ssemblyĠofĠIndiaĠ": 4418,
      "Ĩà°«à±įà°": 4419,
      "discrimin": 4420,
      "chosenĠ": 4421,
      "ConstituentĠAssemblyĠofĠIndiaĠ": 4422,
      "Ġ(à¤ĩà¤Ĥà¤Ĺà¥įà¤°à¤ľà¥Ģ": 4423,
      "%;": 4424,
      ",Ġà¤¹": 4425,
      "1-": 4426,
      "63": 4427,
      "BN": 4428,
      "Dev": 4429,
      "Fact": 4430,
      "HO": 4431,
      "IS": 4432,
      "WarĠ": 4433,
      "WHO": 4434,
      "ai,Ġ": 4435,
      "ez": 4436,
      "fem": 4437,
      "gasĠ": 4438,
      "ketĠ": 4439,
      "kame": 4440,
      "oth": 4441,
      "other": 4442,
      "sar": 4443,
      "val": 4444,
      "veg": 4445,
      "wear": 4446,
      "¤à¤¸à¥ĩà¤ļ": 4447,
      "¦à¤ĸ": 4448,
      "Ġ5": 4449,
      "à¤ı": 4450,
      "à¤Ńà¤¾à¤°à¤¤à¤¾à¤¤": 4451,
      "Ġà¤ĸ": 4452,
      "Ġà¤Ľ": 4453,
      ",Ġ1965,Ġ": 4454,
      "à¤¤à¥ĩ.Ġà¤": 4455,
      "à¤°Ġà¤¸": 4456,
      "à¤°à¤²": 4457,
      "à¤°à¤ķà¥įà¤·à¤£": 4458,
      "arnat": 4459,
      "à¤¾Ġà¤°à¤¾à¤ľà¥įà¤¯": 4460,
      "à¤¾Ġà¤ļà¤¿à¤¤à¥įà¤°à¤ªà¤Ł": 4461,
      "ati,Ġ": 4462,
      "ateri": 4463,
      "à¥įà¤¯à¤®": 4464,
      "à¥ĩĠà¤ıà¤ķ": 4465,
      "à¥ĩĠà¤Ńà¤¾à¤°à¤¤à¤¾à¤¤": 4466,
      "aĠC": 4467,
      "report": 4468,
      "à¥įà¤°à¤¾à¤®": 4469,
      "à¥ĭà¤¸": 4470,
      "à¥ĭ.Ġà¤": 4471,
      "à¥ĭĠà¤¤": 4472,
      "Ġà¤ķà¤¿à¤²à¥įà¤²": 4473,
      "à¤¾à¤¤Ġà¤µ": 4474,
      "à¤¨à¤¾Ġà¤ķ": 4475,
      "à¤¨Ġà¤ªà¥įà¤°à¤¾à¤£": 4476,
      "à¤¸à¤¾à¤Ĺà¤°": 4477,
      "Ġà¤¸à¤£": 4478,
      "Ġà¤¸à¤Ń": 4479,
      "Ġà¤ªà¤ķà¥įà¤·": 4480,
      "urid": 4481,
      "Ġà¤®à¥Į": 4482,
      "Ġà¤®à¤¸à¤¾à¤²": 4483,
      "iseĠ": 4484,
      "à¤°à¥įà¤¨": 4485,
      "Ġà¤µà¤¾à¤ª": 4486,
      "à¤£à¥įà¤": 4487,
      "à¥Ĥà¤Ł": 4488,
      "veryĠ": 4489,
      "churid": 4490,
      "IndianĠf": 4491,
      "à¤§à¥ģà¤¨": 4492,
      "wideĠ": 4493,
      "exampl": 4494,
      ",Ġà¤°": 4495,
      ",Ġà¤Ńà¤¾à¤°à¤¤": 4496,
      "adher": 4497,
      "uscrip": 4498,
      "Ġà¤¨à¤¾à¤Łà¤ķ": 4499,
      "à¤ļà¥ĩĠà¤µ": 4500,
      "à¤ļà¥ĩĠà¤ª": 4501,
      "Ġà¤ķà¥ĩĠà¤¦": 4502,
      "Ġà¤ķà¥ĩĠà¤µ": 4503,
      "à¤¡à¤£": 4504,
      "à¥Ĥà¤¨à¤¹": 4505,
      "à¤Ĺà¤°": 4506,
      "à¤¾à¤¹à¥ĢĠà¤µà¤°à¥įà¤·": 4507,
      "sport": 4508,
      "à¤Ńà¤¾à¤µ": 4509,
      "à¤³à¥Ĥ": 4510,
      "à¤³à¥Ĥà¤¹": 4511,
      "shal": 4512,
      "formalĠ": 4513,
      "à¥ĩà¤¤à¥ĥà¤¤": 4514,
      "eĠofĠIndia'sĠ": 4515,
      "à¥ĢĠà¤¹à¥Īà¤Ĥà¥¤": 4516,
      "iĠisĠ": 4517,
      "à¤¿à¤Ĥà¤¹": 4518,
      "à¤¾à¤³à¤µà¤Ĥà¤Ł": 4519,
      "à¤¿à¤¸à¤ķ": 4520,
      "Ġà¥§à¥«": 4521,
      "comprom": 4522,
      "ricketĠ": 4523,
      "1962": 4524,
      "servedĠ": 4525,
      "à¥įà¤®à¤¾à¤°à¤ķ": 4526,
      "à¤Ĥà¤¦à¥įà¤°": 4527,
      "à¥ģà¤¨à¤¾à¤µ": 4528,
      "classic": 4529,
      "à¤ļà¥įà¤¯à¤¾Ġà¤īà¤ª": 4530,
      "à¥ĢĠà¤Ńà¥Ĥà¤®": 4531,
      "à¤¸à¥įà¤¤à¤¨Ġà¤ªà¥įà¤°à¤¾à¤£": 4532,
      "à¥ĢĠà¤¨à¤¦": 4533,
      "Ġà¤ĺà¥ĩà¤£": 4534,
      "ine.ĠTheĠ": 4535,
      "à¥įà¤ªà¤¤": 4536,
      "à¤¾Ġà¤ľà¤¾à¤¸à¥įà¤¤": 4537,
      "à°¿à°ķĠà°µà±Ĩà°¬": 4538,
      "à¤Ĥà¤Ĺà¥įà¤°à¥ĩà¤ľ": 4539,
      "à¤¾Ġà¤Ĺà¥ĩà¤Ł": 4540,
      "à¥ĩà¤°à¤¿à¤ķ": 4541,
      "perĠ1": 4542,
      "à¥ĢĠà¤¶à¤¿à¤ķà¥įà¤·à¤£": 4543,
      "à¥įà¤¯à¤¾Ġà¤ķà¤¾à¤¹à¥ĢĠà¤µà¤°à¥įà¤·": 4544,
      "featur": 4545,
      "\"ĠorĠ": 4546,
      "natalĠ": 4547,
      "schedul": 4548,
      "cookedĠ": 4549,
      "transmitt": 4550,
      "Hinduism,Ġ": 4551,
      "mathematicalĠ": 4552,
      "contributionsĠ": 4553,
      "à¤Ĥà¤¡à¤¿à¤¯à¤¾Ġà¤Ĺà¥ĩà¤Ł": 4554,
      "ruralĠare": 4555,
      "Ġà¤µà¤¿à¤·": 4556,
      "à¥ĩĠà¤ľà¤¾à¤¤à¥ĩ.Ġà¤": 4557,
      "hasĠbeenĠanĠ": 4558,
      "breath": 4559,
      "Ġà¤ĩà¤¤à¤°": 4560,
      "thereĠwereĠ": 4561,
      "à±Īà°Łà±ģ": 4562,
      "à±įâĢĮà°¸à±Īà°Łà±ģ": 4563,
      "Ġà¤¯à¥ĩà¤¤à¤¾à¤¤": 4564,
      "iciansĠ": 4565,
      "bodyĠ": 4566,
      "below": 4567,
      "differentĠ": 4568,
      "importantĠ": 4569,
      "Ġà¤²à¤¾à¤Ĺà¤²": 4570,
      "danceĠtradition": 4571,
      "ĩ.à¤¸": 4572,
      "Ġà¤¸à¤¾à¤®à¤¾à¤ľà¤¿à¤ķ": 4573,
      "Ġà¤Ńà¤¾à¤Ĺà¤¾à¤¤": 4574,
      "Ġà¤¯à¤¾Ġà¤¨à¤¾à¤µà¤¾à¤¨": 4575,
      "à¤¨à¤¸à¥įà¤ªà¤¤": 4576,
      "à¤¶à¤¾à¤¸à¤¿à¤¤Ġà¤ªà¥įà¤°à¤¦à¥ĩà¤¶": 4577,
      "Factbo": 4578,
      "ISBN": 4579,
      "kameez": 4580,
      "veget": 4581,
      ",Ġ1965,Ġ1971": 4582,
      "churidar": 4583,
      "à¤³à¥Ĥà¤¹à¤³à¥Ĥ": 4584,
      "à¤ļà¥įà¤¯à¤¾Ġà¤īà¤ªà¤¸à¤¾à¤Ĺà¤°": 4585,
      "à°¿à°ķĠà°µà±Ĩà°¬à±įâĢĮà°¸à±Īà°Łà±ģ": 4586,
      "scheduledĠ": 4587,
      "transmittedĠ": 4588,
      ",Ġà¤®": 4589,
      "§à¤°à¥įà¤®": 4590,
      "Ġ%": 4591,
      "Ġ-": 4592,
      "Ġ201": 4593,
      "Ġ26": 4594,
      "Ġ1947": 4595,
      "à¤Ĩ": 4596,
      "à¤·à¥įà¤£": 4597,
      "à¥ĩĠ": 4598,
      "à¤¿à¤ļ": 4599,
      "à¤¿à¤Ń": 4600,
      "à¤¿à¤·à¥įà¤ł": 4601,
      "à¤¾Ġà¤ĩ": 4602,
      "à¥ĢĠà¤²": 4603,
      "à¤¾à¤°à¤¿à¤ķ": 4604,
      "à¥įà¤°à¤¿à¤ķ": 4605,
      "à¥Ģà¤ľ": 4606,
      "Ġà¤ķà¤¿": 4607,
      "à¤ķà¤¿": 4608,
      "à¤ķà¥įà¤°": 4609,
      "à¤ķà¤¾à¤²": 4610,
      "à¤ķà¤¾à¤²à¥Ģà¤¨": 4611,
      "à¤¾à¤¤Ġà¤¦": 4612,
      "à¤¸à¤Ĥà¤ĸ": 4613,
      "Ġà¤ªà¤¾à¤µà¤²": 4614,
      "Ġà¤®à¥ģ": 4615,
      "à¤®à¥įà¤®": 4616,
      "à¤®à¤§à¥Ģà¤²": 4617,
      "à¤°à¥įà¤¶": 4618,
      "Ġà¤¹à¥ĭ": 4619,
      "à¤£à¥įà¤¯à¤¾à¤¤": 4620,
      "Ġà¤Ĩà¤§à¤¾à¤°": 4621,
      "Ġà¤ħà¤ªà¤¨": 4622,
      "à¥Ĥà¤·": 4623,
      "à¤ªà¤£": 4624,
      "à¥ģà¤¡": 4625,
      "à¥ģà¤Ł": 4626,
      ",Ġà¤¯": 4627,
      "Ġà¤ªà¥įà¤°à¤®à¥ģà¤ĸ": 4628,
      "Ġà¤®à¥ĩà¤ĤĠà¤Ńà¤¾à¤°à¤¤": 4629,
      "·à¥įà¤ķ": 4630,
      "Ġà¤°à¤¹": 4631,
      "à¤Ńà¤¾à¤°": 4632,
      "à¤Ĥà¤Ĺà¤®": 4633,
      "à¥ģà¤°à¥Ĥ": 4634,
      "Ġà¤Ĺà¤£": 4635,
      "à¤¾à¤¯à¤¦": 4636,
      "à¤¿à¤Ĥà¤¸": 4637,
      "à¤¾à¤³à¤¾à¤¤à¥Ģà¤²": 4638,
      "Ġà¤ķà¤°à¥ĭà¤¡à¤¼": 4639,
      "Ġà¤īà¤¤": 4640,
      "Ġà¤īà¤ª": 4641,
      "Ġà¥§à¥¦": 4642,
      "Ġà¤ħà¤¨à¥įà¤¯": 4643,
      "à¤¾à¤Ĥà¤¤à¤¾à¤¤": 4644,
      "Ġà¤Ŀà¤¾à¤²à¤¾.": 4645,
      "1960": 4646,
      "Ġà¤°à¤¾à¤ľà¥įà¤¯à¥ĩĠà¤Ĩ": 4647,
      "à¥ĩĠà¤¬à¤¡à¤¼": 4648,
      "à¥ĩĠà¤Ńà¤¾à¤°à¤¤à¤¾à¤ļà¥įà¤¯à¤¾Ġà¤": 4649,
      "à¥ĭà¤ĤĠà¤ķà¥ĩĠà¤¸": 4650,
      "Ġà¤°à¤¾à¤ľà¤µ": 4651,
      "Ġà¤®à¤¾à¤¨à¤²": 4652,
      "Ġà¤®à¤¾à¤¨à¤µ": 4653,
      "à¥ģà¤®à¤¾à¤°": 4654,
      "à¤£à¤²à¤¾Ġà¤ľà¤¾à¤¤à¥ĭ.": 4655,
      "à¥ĭà¤ªà¥Ģà¤¯": 4656,
      "Ġà¤ħà¤®à¥ĩà¤°à¤¿à¤ķ": 4657,
      "Ġà¤Ĩà¤§à¤¾à¤°à¤¿à¤¤": 4658,
      ",Ġà¤ª": 4659,
      ".3": 4660,
      "24": 4661,
      "6.": 4662,
      "Au": 4663,
      "mand": 4664,
      "¦à¥ĩà¤¶": 4665,
      "Ġ30": 4666,
      "Ġ40": 4667,
      "Ĺà¥ģà¤ªà¥įà¤¤": 4668,
      "Ġà¤ĵà¤³à¤ĸà¤²": 4669,
      "à¤°à¥Ĥà¤¨": 4670,
      "à¤°à¥ĭà¤¬": 4671,
      "à¤¾Ġà¤Ńà¤¾à¤°à¤¤à¥Ģà¤¯": 4672,
      "à¤¾Ġà¤ĩà¤¤à¤¿à¤¹à¤¾à¤¸": 4673,
      "à¥ĩĠà¤°à¤¾à¤ľà¥įà¤¯": 4674,
      "à¥ĩĠà¤ĸà¤¾à¤¸": 4675,
      "à¥ĩà¤¬": 4676,
      "à¤¾à¤°à¥įà¤¯": 4677,
      "Ġà¤ķà¤¾à¤®": 4678,
      "à¤¾à¤¤Ġà¤¸": 4679,
      "à¤¨à¤¤": 4680,
      "à¤¨à¥įà¤¤": 4681,
      "à¤¨à¥ĩà¤ķ": 4682,
      "Ġà¤¸à¥ĩà¤¨": 4683,
      "à¤²à¤¾Ġà¤µ": 4684,
      "Ġà¤®à¤¤": 4685,
      "Ġà¤®à¤¾à¤°": 4686,
      "Ġà¤®à¤Ĥà¤¦à¤¿à¤°": 4687,
      "Ġà¤µĠà¤ķ": 4688,
      "Ġà¤µĠà¤¸": 4689,
      "Ġà¤µĠà¤ª": 4690,
      "Ġà¤Ĩà¤¢à¤³": 4691,
      "à¥ģà¤·à¥įà¤ķ": 4692,
      "à¤¿à¤¯à¤¾à¤ģ": 4693,
      "Ġà¤¨à¥įà¤¯à¤¾à¤¯": 4694,
      "à¤Ĺà¥įà¤°": 4695,
      "Ġà¤¯à¥ģà¤¦à¥įà¤§": 4696,
      "à¥ĭà¤ĤĠà¤¨": 4697,
      "à¤¿à¤µà¤¾à¤ľ": 4698,
      "à¥ĩĠà¤¸à¤®": 4699,
      "à¤¾à¤ļà¥įà¤¯à¤¾Ġà¤ĵ": 4700,
      "2003": 4701,
      "Ġà¤¸à¤Ĥà¤ĺ": 4702,
      "Ġà¤Ĺà¥ĩà¤²": 4703,
      "à¥ĩĠà¤¹à¥Īà¤Ĥ": 4704,
      "à¥ĩĠà¤µĠà¤¤": 4705,
      "à¤¾Ġà¤µà¤¿à¤µà¤¿à¤§": 4706,
      "Ġà¤ªà¤°à¥įà¤¯": 4707,
      "2022": 4708,
      "à¥įà¤¯à¤¾à¤¨à¤Ĥà¤¤à¤°": 4709,
      "à¤ļà¥įà¤¯à¤¾Ġà¤ª": 4710,
      "à¤ļà¥įà¤¯à¤¾Ġà¤®": 4711,
      "à¥ĩĠà¤ªà¥įà¤°à¤¾à¤ļà¥Ģà¤¨": 4712,
      "à¤¸à¥įà¤¤à¥įà¤°": 4713,
      "à¤¸à¥įà¤¤à¤¿à¤¤à¥įà¤¤à¥įà¤µ": 4714,
      "ianĠPlat": 4715,
      "Ġà¤¸à¤°à¥įà¤µà¤¾à¤§à¤¿à¤ķ": 4716,
      "à¥ĩĠà¤Ĺà¥ĩà¤²": 4717,
      "1984": 4718,
      "Ġà¤ķà¤¿à¤¯à¤¾à¥¤": 4719,
      "à¤¾à¤Ĥà¤§à¤²": 4720,
      "Ġà¤¸à¥įà¤¥à¤¾à¤ªà¤¨": 4721,
      "à¥įà¤¯à¤¾Ġà¤ªà¥įà¤°à¤®à¤¾à¤£": 4722,
      "à¤ĺà¤¾à¤¤": 4723,
      "à¥ĭà¤·à¤£": 4724,
      "Ġà¤Ĩà¤¹à¥ĩĠà¤¤": 4725,
      "ĭà¤·à¤Ńà¤¦à¥ĩà¤µ": 4726,
      "à¤¹à¥ģà¤®à¤¤": 4727,
      "à¥ĢĠà¤Ĩà¤¹à¥ĩà¤¤.": 4728,
      "°à¤¾à¤·à¥įà¤Łà¥įà¤°à¤ªà¤¤": 4729,
      "à¤¾à¤°à¥įà¤®à¤¿à¤ķ": 4730,
      "Ġ(à¤ĩà¤Ĥà¤Ĺà¥įà¤°à¤ľà¥Ģ:Ġ": 4731,
      "à¤£à¥įà¤¡": 4732,
      "Ġà¤ķà¥ĩĠà¤¦à¤¶à¤ķ": 4733,
      "à¥ĩà¤¤à¥ĥà¤¤à¥įà¤µ": 4734,
      "%Ġà°Ĩ": 4735,
      "(2": 4736,
      "(Ar": 4737,
      ");Ġ": 4738,
      ")Ġb": 4739,
      ")Ġà°²": 4740,
      ",7": 4741,
      ",Ġà°ªà±įà°°": 4742,
      "-à°²": 4743,
      "-ga": 4744,
      "-majorityĠ": 4745,
      "-dayĠ": 4746,
      "-styleĠ": 4747,
      ".à°": 4748,
      ".à°ªà±Ĥ": 4749,
      "01": 4750,
      "0%ĠofĠ": 4751,
      "04%": 4752,
      "12.": 4753,
      "28Ġ": 4754,
      "48": 4755,
      "52": 4756,
      "55": 4757,
      "517": 4758,
      "6%ĠofĠ": 4759,
      "7à°²à±ĭĠà°": 4760,
      "7.5": 4761,
      "85": 4762,
      "8Ġà°ķà±ĩà°Ĥà°¦à±įà°°": 4763,
      "9Ġà°°à°¾à°·à±įà°Łà±įà°°": 4764,
      ":Ġà°": 4765,
      ";Ġà°": 4766,
      ";Ġà°ķ": 4767,
      ";Ġà°®": 4768,
      "=Ġ1": 4769,
      "Am": 4770,
      "Ach": 4771,
      "Democ": 4772,
      "Ear": 4773,
      "EĠ7": 4774,
      "Gang": 4775,
      "Gond": 4776,
      "Jun": 4777,
      "Jaw": 4778,
      "Jamm": 4779,
      "Ko": 4780,
      "Kaver": 4781,
      "Laksh": 4782,
      "Min": 4783,
      "Nar": 4784,
      "Network": 4785,
      "Oc": 4786,
      "Oce": 4787,
      "PP": 4788,
      "Part": 4789,
      "Prol": 4790,
      "Rep": 4791,
      "So": 4792,
      "Sab": 4793,
      "Sultan": 4794,
      "Tib": 4795,
      "UPA": 4796,
      "Vaj": 4797,
      "aem": 4798,
      "air": 4799,
      "aim": 4800,
      "ahar": 4801,
      "as,ĠtheĠ": 4802,
      "bul": 4803,
      "bour": 4804,
      "cris": 4805,
      "civil": 4806,
      "civilĠ": 4807,
      "d,Ġ": 4808,
      "dre": 4809,
      "dem": 4810,
      "dest": 4811,
      "ey": 4812,
      "eaĠ": 4813,
      "e,ĠtheĠ": 4814,
      "eous": 4815,
      "ft": 4816,
      "foun": 4817,
      "four": 4818,
      "fact": 4819,
      "flowĠ": 4820,
      "gainedĠ": 4821,
      "ho": 4822,
      "hor": 4823,
      "hol": 4824,
      "hun": 4825,
      "hot": 4826,
      "hÄģ": 4827,
      "iaĠ": 4828,
      "idu": 4829,
      "ide": 4830,
      "iansĠ": 4831,
      "jorĠ": 4832,
      "jay": 4833,
      "jectĠ": 4834,
      "kn": 4835,
      "lalĠ": 4836,
      "lateĠ": 4837,
      "lass": 4838,
      "ledĠtoĠ": 4839,
      "ledĠtheĠ": 4840,
      "lationsĠ": 4841,
      "mn": 4842,
      "mamm": 4843,
      "muchĠ": 4844,
      "neĠ": 4845,
      "non": 4846,
      "nex": 4847,
      "ningĠtheĠ": 4848,
      "na,Ġ": 4849,
      "nedĠtoĠ": 4850,
      "nearĠ": 4851,
      "oĠtheĠ": 4852,
      "och": 4853,
      "oint": 4854,
      "odiversityĠ": 4855,
      "pushĠ": 4856,
      "ranĠ": 4857,
      "rup": 4858,
      "rangesĠ": 4859,
      "s'": 4860,
      "sea": 4861,
      "set": 4862,
      "sha": 4863,
      "tea": 4864,
      "testĠ": 4865,
      "treat": 4866,
      "temper": 4867,
      "ude": 4868,
      "ufac": 4869,
      "vol": 4870,
      "vir": 4871,
      "vot": 4872,
      "wet": 4873,
      "way": 4874,
      "y;Ġ": 4875,
      "yingĠtheĠ": 4876,
      "yâĢĶ": 4877,
      "zon": 4878,
      "¢à°¾à°ķ": 4879,
      "¤à±Ĥ": 4880,
      "¤à°°à±įà°µ": 4881,
      "¥à°¨": 4882,
      "¦à±įà°µ": 4883,
      "¦à°¾à°Ł": 4884,
      "¦à°¾à°¦à°¾à°ª": 4885,
      "§à°°": 4886,
      "¨à°¿à°²": 4887,
      "¨à±ĩà°°": 4888,
      "¨à±Ĩà°²": 4889,
      "¬à°Ĥà°Ĺ": 4890,
      "¬à±Į": 4891,
      "®à±Ī": 4892,
      "®à°¾à°¨": 4893,
      "®à°¾à°¤": 4894,
      "®à±Ĥà°¡": 4895,
      "¯à±ģ": 4896,
      "¯à¥ģà¤¦à¥įà¤§": 4897,
      "°à¥Ĥà¤ª": 4898,
      "°à°¿à°Ł": 4899,
      "°à°ķà°¾à°²": 4900,
      "²à°¿": 4901,
      "²à±Ĩ": 4902,
      "²à±ĩà°¦": 4903,
      "µà°Ĥà°Ł": 4904,
      "µà±ĩà°Ĺà°Ĥà°Ĺà°¾Ġà°": 4905,
      "µà±Ģà°Łà°¿à°²à±ĭĠà°": 4906,
      "¶à°¾à°¸": 4907,
      "¶à¤¿à¤ķà¥įà¤·à¤£": 4908,
      "¸Î": 4909,
      "¸à°Ĥà°": 4910,
      "¸à°¾à°®": 4911,
      "¸à°¾à°§": 4912,
      "¸à°¿à°Ĥà°§": 4913,
      "¸à°Ĥà°ªà±įà°°à°¦à°¾à°¯": 4914,
      "¹à±Ī": 4915,
      "¹à°¾à°ķ": 4916,
      "¼¸Î": 4917,
      "½Î": 4918,
      "á¼¸Î": 4919,
      "âĤ": 4920,
      "ĠV": 4921,
      "ĠtoĠtheĠ": 4922,
      "ĠforĠ": 4923,
      "Ġterm": 4924,
      "ĠÂ°": 4925,
      "ħà°¹": 4926,
      "ħà°Ĥà°Ł": 4927,
      "ħà°ªà±įà°ª": 4928,
      "ħà°Ńà°¿à°µà±ĥà°¦à±įà°§à°¿Ġà°ļà±Ĩà°Ĥà°¦": 4929,
      "Ĩà°µ": 4930,
      "Ĩà°ķà±įà°°à°®": 4931,
      "ĩà°Ł": 4932,
      "ĩà°¸à±įà°²à°¾à°®à°¾à°¬à°¾à°¦à±į": 4933,
      "Īà°¸à±įà°Ł": 4934,
      "İà°¡": 4935,
      "İà°Ĺ": 4936,
      "İà°²à°ķ": 4937,
      "ıà°¡": 4938,
      "Ĳà°°": 4939,
      "ķà±įà°°": 4940,
      "ķà°°à°£": 4941,
      "ķà±ģà°¡": 4942,
      "ķà°¥": 4943,
      "ĸà±ĭ": 4944,
      "Ĺà°¤": 4945,
      "Ĺà±įà°°": 4946,
      "Ĺà±Ĩà°²à±ģ": 4947,
      "Ĺà±ģà°°à±įà°¤": 4948,
      "ľà°¾à°¤": 4949,
      "ľà±Īà°¨": 4950,
      "ľà°Ĥà°¬à±Ĥ": 4951,
      "łà°Ń": 4952,
      "Ńà°µ": 4953,
      "Ńà°¾à°·": 4954,
      "Ńà°ķà±įà°¤": 4955,
      "à¤ĥ": 4956,
      "à°Ĩ": 4957,
      "à°ĺ": 4958,
      "à°ĩà°¦": 4959,
      "à°¢à°¾à°ķ": 4960,
      "à°łà°Ń": 4961,
      "à¤¾)": 4962,
      "Ġà°²à±ĭ": 4963,
      "Ġà°Ńà°¾à°°à°¤à±Ģà°¯": 4964,
      "Ġà°ĩà°¤à°°": 4965,
      "Ġà°İà°¨à±įà°¨à±ĭĠà°": 4966,
      "eĠforest": 4967,
      "à±įĠà°¸à°Ń": 4968,
      "à±įĠà°ªà°¾à°°à±įà°Łà±Ģ": 4969,
      "à±į,Ġà°ªà°¾à°ķ": 4970,
      "à±įĠà°°à±Īà°²à±įà°µà±ĩ": 4971,
      "à°¾Ġà°ªà±įà°°à°§à°¾à°¨": 4972,
      "à°¾Ġà°ªà°¾à°°à±įà°Łà±Ģ": 4973,
      "à°¾-à°": 4974,
      "à°¾à°«": 4975,
      "à°¿,Ġà°ª": 4976,
      "à°¿Ġ26": 4977,
      "thor": 4978,
      "thĠtheĠ": 4979,
      "thenĠ": 4980,
      "theastĠ": 4981,
      "theseĠ": 4982,
      "sĠasĠ": 4983,
      "sĠinĠtheĠ": 4984,
      "sĠtoĠtheĠ": 4985,
      "inalĠ": 4986,
      "insĠofĠtheĠ": 4987,
      "inningsĠofĠ": 4988,
      "à±ģ\"": 4989,
      "à±ģĠà°ªà±įà°°": 4990,
      "à±ģà°Ĥà°¦": 4991,
      "à±ģà°£": 4992,
      "à±ģà°¨à±ģĠà°": 4993,
      "à±ģĠ\"": 4994,
      "ers": 4995,
      "à°Ĥ\"": 4996,
      "à°Ĥ.": 4997,
      "à°Ĥ:Ġ": 4998,
      ",ĠTh": 4999,
      ",ĠnowĠ": 5000,
      ",Ġ8Ġà°ķà±ĩà°Ĥà°¦à±įà°°": 5001,
      "à¤¤à¥įâĢį": 5002,
      "à°¿à°²à±ĭ": 5003,
      "à°¿à°µà°¿à°": 5004,
      "à°Ĥà°ľ": 5005,
      "enedĠ": 5006,
      "enabl": 5007,
      "aris": 5008,
      "ardis": 5009,
      "alt": 5010,
      "alsĠofĠ": 5011,
      "alism": 5012,
      "allianceĠ": 5013,
      "stre": 5014,
      "stic": 5015,
      "stant": 5016,
      "à¤¿à¤ľ": 5017,
      "à¤¿à¤¬à¤Ĥà¤§": 5018,
      "yĠshor": 5019,
      "dict": 5020,
      "diedĠinĠ": 5021,
      "dimentĠ": 5022,
      "difiedĠ": 5023,
      "diverse": 5024,
      "attra": 5025,
      "à¥įà¤¯à¤¾à¤Ĥà¤®à¤§à¥įà¤¯": 5026,
      "à¥įà¤¯à¤¾à¤µà¤¸à¤¾à¤¯à¤¿à¤ķ": 5027,
      "à¥ĩĠà¤¥": 5028,
      "edĠitsĠ": 5029,
      "edĠthroughĠ": 5030,
      "edĠIndiaĠintoĠ": 5031,
      ".Ġ26": 5032,
      "à¥ĢĠà¤ľà¤¾à¤¤": 5033,
      "à¥ĢĠà¤Ķà¤°": 5034,
      "andĠaĠ": 5035,
      "andĠwesternĠ": 5036,
      "à°¤à±ĭĠà°": 5037,
      "à°¤à°¿à°¨": 5038,
      "à°¤à°¾à°ķ": 5039,
      "à°¤à°Ĥà°Ĺà°¾Ġà°": 5040,
      "à°¤Ġà°¨": 5041,
      "à°¤à°¾à°°à±ģ.": 5042,
      "à°¤à±Ģà°°": 5043,
      "à°¤à°¾Ġà°ªà°¾à°°à±įà°Łà±Ģ": 5044,
      "aĠwasĠ": 5045,
      "aĠmod": 5046,
      "aĠlargeĠ": 5047,
      "aĠpartĠofĠtheĠ": 5048,
      "aĠfederalĠ": 5049,
      "rebell": 5050,
      "relationsĠ": 5051,
      "à°¨à±ģà°ķ": 5052,
      "à°¨à±įâĢĮ": 5053,
      "à°¨Ġà°µà±įà°¯à°µà°¸à±įà°¥": 5054,
      "à°¨à°¿à°ľ": 5055,
      "à°²à±Ĩ": 5056,
      "à°²à°¯": 5057,
      "à°²à±ģĠà°ª": 5058,
      "à°²à±įà°ª": 5059,
      "à°²à±ĩà°¦": 5060,
      "à°²à°Ĥà°ķ": 5061,
      "à°²à°¿à°¸": 5062,
      "à°°à°Ĥ": 5063,
      "à°°à±Ĩà°Ĥà°¡": 5064,
      "à¤¾à¤°à¤ĸ": 5065,
      "à¤¾à¤°à¤ļà¥ĩĠà¤µ": 5066,
      "itud": 5067,
      "itionĠofĠ": 5068,
      "ity.Ġ": 5069,
      "à±ĩĠà°ª": 5070,
      "à±ĩà°ķ": 5071,
      "à±ĩ,Ġà°": 5072,
      "à±ĩĠà°¨": 5073,
      "à±ĩ.Ġà°ª": 5074,
      "à±ĩà°²Ġà°ķ": 5075,
      "à±ĭà°¤": 5076,
      "à±ĭà°¨": 5077,
      "à±ĭĠà°ª": 5078,
      "à±ĭà°ķ": 5079,
      "à±ĭà°ª": 5080,
      "icleĠ": 5081,
      "iction": 5082,
      "à±įà°°à±Ī": 5083,
      "à±įà°°à°¾à°¨": 5084,
      "Ġà°ªà°Łà±įà°Ł": 5085,
      "Ġà°ªà°Ĥà°ļ": 5086,
      "Ġà°ªà°¾à°¤à±įà°°": 5087,
      "à¥Ģà¤¬": 5088,
      "à¥Ģà¤ł": 5089,
      "ofĠeasternĠIndia": 5090,
      "à¥ĭà¤¹": 5091,
      "ingu": 5092,
      "alĠhy": 5093,
      "à°¾à°°à°¾Ġà°": 5094,
      "à°¾à°°à°¿à°Ĺà°¾Ġà°": 5095,
      "Ġà¤ķà¥ĭà¤Ł": 5096,
      "à°ķà±Ĥ": 5097,
      "à°ķà°¾à°¤": 5098,
      "à°ķà±ģà°²à±ģĠà°": 5099,
      "à°ķà±ģ,Ġà°": 5100,
      "à°ķà±ĩà°¤": 5101,
      "à¥ģà¤¤à¥įà¤¤à¤°Ġà¤": 5102,
      "omicĠ": 5103,
      "tookĠ": 5104,
      "à°¾à°²à°¤à±ĭĠà°ķà±Ĥà°¡": 5105,
      "à°¾à°²à°¤à±ĭĠà°ķà±Ĥà°¡à°¿à°¨": 5106,
      "à°¦à±ģ": 5107,
      "à°¦à°¿à°¨": 5108,
      "à°¦à°Ĺà°¾Ġà°": 5109,
      "à¤¾à¤¤à¤¨": 5110,
      "à¤¾à¤¤Ġà¤¤": 5111,
      "à¤¾à¤¤Ġà¤µà¤¿à¤µà¤¿à¤§": 5112,
      "à±ĢĠà°ķ": 5113,
      "à±Ģà°²à±ĭĠà°": 5114,
      "à±Ģà°łà°Ń": 5115,
      "à¤¸à¥įà¤¯": 5116,
      "à¤¹à¥įà¤¯à¤¾à¤¦": 5117,
      "Ġà¤¸.Ġà¥§à¥": 5118,
      "à±ģĠà°²à±ĭ": 5119,
      "asĠandĠtheĠ": 5120,
      "asĠhun": 5121,
      "echĠ": 5122,
      "inĠ18": 5123,
      "inĠart,Ġ": 5124,
      "inĠSouthĠAsia": 5125,
      "ingĠinĠ": 5126,
      "ingĠpl": 5127,
      "ingĠbothĠ": 5128,
      "erĠandĠtheĠ": 5129,
      "Ġà¤ªà¥ģ": 5130,
      "Ġà¤ªà¤¡à¤²": 5131,
      "uredĠbyĠ": 5132,
      "ureĠinĠtheĠ": 5133,
      "esĠtheĠ": 5134,
      "esĠofĠtheĠ": 5135,
      "à±ĩà°¡": 5136,
      "à±ĩà°ļ": 5137,
      "Ġà¤®à¤¨": 5138,
      "Ġà¤®à¤°à¤¾à¤ł": 5139,
      "à°®à±ĩ": 5140,
      "à°®à±Ģ": 5141,
      "à°®à±Ĥ": 5142,
      "à°®à°¹": 5143,
      "à°®à±Ģà°Ł": 5144,
      "à°¿Ġà°¨": 5145,
      "à°¿Ġà°ĩà°Ĥà°¡": 5146,
      "à°¿Ġà°īà°Ĥà°Ł": 5147,
      "à°¿Ġà°¨à±ģ": 5148,
      "toĠanĠ": 5149,
      "toĠent": 5150,
      "toĠwarĠ": 5151,
      "ionĠwasĠ": 5152,
      "ionĠwithĠ": 5153,
      "à±įà°¯à±ģà°¤": 5154,
      "à±įà°¯Ġà°¸à°®": 5155,
      "s,ĠaĠ": 5156,
      "à¤®à¤¨": 5157,
      "à¤®à¤¹": 5158,
      "isansĠ": 5159,
      "isdict": 5160,
      "à°µĠà°¸": 5161,
      "à°µà±ģà°¤": 5162,
      "à°µà±įà°¯à°µà°¸à±įà°¥": 5163,
      "à°µà°¿à°¤à±įà°°": 5164,
      "à°µà°¿à°¦": 5165,
      "à°µà±ģà°¦": 5166,
      "entuallyĠ": 5167,
      "lyĠinĠtheĠ": 5168,
      "lyĠdiverse": 5169,
      "¸à±įà°²à°¿": 5170,
      "¸à±įà°ķà°°à°£": 5171,
      "ild": 5172,
      "à°¿à°Ĥà°Ĺ": 5173,
      "à¤µà¥ĥà¤¤": 5174,
      "à¤µà¤¿à¤²": 5175,
      "à¤µà¥įà¤¹": 5176,
      "à°¾Ġà°¹à°¿à°Ĥà°¦à±Ĥ": 5177,
      "à°¾Ġà°®à°¾à°°à±įà°Ĺ": 5178,
      ".Ġà°ķ": 5179,
      "à±ĩà°¶à°¾à°ĸ": 5180,
      "amĠ": 5181,
      "amph": 5182,
      "Ġà¤¹à¥ĩĠà¤Ńà¤¾à¤°à¤¤": 5183,
      "à¤¾à¤¨à¥ĩĠà¤ķ": 5184,
      "à¤¾à¤¨à¥ĩĠà¤®": 5185,
      "old": 5186,
      "ollowingĠ": 5187,
      "IndiaĠandĠtheĠ": 5188,
      "Ġà¤µĠà¤¤": 5189,
      "Ġà¤µà¤¾à¤Ł": 5190,
      "à¤¾à¤Ĥà¤ķ": 5191,
      "à¤£à¤¾à¤¤": 5192,
      "à¤£à¤¾à¤±": 5193,
      "à±Ĩà°¡": 5194,
      "à±Ĩà°Łà±įà°Ł": 5195,
      "1930": 5196,
      "19thĠcenturyĠ": 5197,
      "à°¿à°ķà±įâĢĮ": 5198,
      "à°¿à°ķĠà°ħ": 5199,
      "à°¿à°ķĠà°¤": 5200,
      "à°¿à°ķ,Ġà°¸": 5201,
      "à°¿à°ķà±įà°ķ": 5202,
      "à°¿à°ķĠà°İà°¨à±įà°¨à°¿à°ķ": 5203,
      "à¤¾à¤²à¥ĩà¤¯": 5204,
      "rief": 5205,
      "à°ªà°°": 5206,
      "à°ªà±Ī": 5207,
      "à°ªà±ģà°¤": 5208,
      "à°ªà±ģĠà°ª": 5209,
      "asiveĠ": 5210,
      "Ġà¤Ĩà¤ķ": 5211,
      "Ġà¤Ĩà¤°à¥įà¤": 5212,
      "Ġà°ªà±įà°°à°¸": 5213,
      "Ġà°ªà±įà°°à°¯à±ĭ": 5214,
      "Ńà°¾à°°à°¤à±įĠà°": 5215,
      "Ńà°¾à°°à°¤Ġà°°à°¾à°ľà±įà°¯": 5216,
      "Ńà°¾à°°à°¤Ġà°°à±Īà°²à±įà°µ": 5217,
      "à¤¿à¤ķà¤¾à¤°": 5218,
      "Ġà¤ħà¤Ĺà¥įà¤¨": 5219,
      "à°ĤĠà°īà°Ĥà°¦à°¿.Ġà°": 5220,
      "à°ĤĠà°ħà°§à°¿à°ķà°¾à°°": 5221,
      "à°ĤĠà°°à±Ĥà°ª": 5222,
      "à¥Ĥà¤¡": 5223,
      "es;Ġ": 5224,
      "es)Ġ": 5225,
      "à±Ĥà°®": 5226,
      "à±Ĥà°°à±įà°µ": 5227,
      "à±Ĥà°¨à°¦": 5228,
      "à°Łà°¿": 5229,
      "à°Łà°¾Ġà°": 5230,
      "à°Łà°¾à°¨": 5231,
      "à±ĪĠ(à°µà±Ĩà°¨à±ģà°ķà°Ł": 5232,
      "à¤ªà¥Ĥà¤°": 5233,
      "à°¿à°¨Ġà°¸": 5234,
      "à°¿à°¨à°¾à°²à±ģĠà°": 5235,
      "à°¿à°¨à°¦à°¿.Ġà°": 5236,
      "India.ĠIndiaĠhasĠ": 5237,
      "à°¾à°¨à±ģĠà°": 5238,
      "à°¾à°¨à±įà°¯": 5239,
      "à°°à±įà°¶": 5240,
      "à°°à±įà°ľ": 5241,
      "à°°à±įà°ľà°¾à°¤à±Ģà°¯": 5242,
      "nĠforest": 5243,
      "ofĠtheĠHimalay": 5244,
      "ofĠtheĠWesternĠGhat": 5245,
      "cheet": 5246,
      "à±ģà°²à°ķà±ģĠà°": 5247,
      "à±ģà°²à°¨à±ģ": 5248,
      "à±ģà°²à°¤à±ĭĠà°ķà±Ĥà°¡à°¿à°¨": 5249,
      "à°Ĺà°¿à°¸à±įà°¤": 5250,
      "à°Ĺà°¾,Ġà°": 5251,
      "à°Ĺà±ĭà°³": 5252,
      "IndianĠpl": 5253,
      "IndianĠNationalĠCongressĠ": 5254,
      "IndianĠOce": 5255,
      "super": 5256,
      "supre": 5257,
      "siz": 5258,
      "agre": 5259,
      "again": 5260,
      "againĠ": 5261,
      "ea.": 5262,
      "eaceĠ": 5263,
      ".ĠTheĠIndianĠ": 5264,
      ".ĠTheĠtwoĠ": 5265,
      ".ĠTheĠCongressĠ": 5266,
      ".ĠTheĠsettl": 5267,
      "à¤¾à¤ľà¤°": 5268,
      "à°¾à°¯à±ģà°¤": 5269,
      "à¥ģà¤¢": 5270,
      "à¥ģà¤Ī": 5271,
      "exist": 5272,
      "exerc": 5273,
      "ung": 5274,
      "unres": 5275,
      "unitaryĠ": 5276,
      "icĠch": 5277,
      "Ġà°µà°¨": 5278,
      "Ġà°µà°¹": 5279,
      "Ġà°µà°¿à°®": 5280,
      "Ġà°µà°°à±įà°Ĺ": 5281,
      "Ġà°µĠà°ªà±Ĩà°¦à±įà°¦": 5282,
      "Ġà°ķà±įà°¯à°¾à°²à±Ĩà°Ĥà°¡à°°à±į": 5283,
      "à°¦à±ĩà°¶à°ĤĠà°°à±Ĥà°ª": 5284,
      "à¤¾à¤¸à¤¾à¤Ĺà¤°": 5285,
      "ivĠ": 5286,
      "ivelyĠ": 5287,
      "ive-": 5288,
      "à°¾à°¤à°¿Ġà°": 5289,
      "à°¾à°¤à±ĭĠà°": 5290,
      "à°¾à°¤à°ĤĠà°": 5291,
      "à¥Ĥà¤°à¥įà¤¤": 5292,
      ",Ġà¤Ĺ": 5293,
      "wasĠaĠ": 5294,
      "wasĠtoĠ": 5295,
      "wasĠus": 5296,
      "wasĠsh": 5297,
      "wasĠass": 5298,
      "wasĠableĠ": 5299,
      "wasĠmark": 5300,
      "wasĠvot": 5301,
      "ĠandĠ3": 5302,
      "ĠandĠ201": 5303,
      ",ĠtheĠCongres": 5304,
      ",ĠtheĠsouthernĠ": 5305,
      ",ĠtheĠEastĠIndiaĠCompanyĠ": 5306,
      "à°Ĥà°Ĺà°Ĥà°²à±ĭĠà°": 5307,
      "enĠbyĠ": 5308,
      "incomeĠ": 5309,
      "uteĠ": 5310,
      "orĠinĠ": 5311,
      "impl": 5312,
      "imper": 5313,
      "imultan": 5314,
      "immediatelyĠ": 5315,
      "Ġà¤ªà¥įà¤°à¤¶": 5316,
      "Ġà¤ªà¥įà¤°à¤¾à¤ªà¥įà¤¤": 5317,
      "Ġà¤ªà¥įà¤°à¤Ĺà¤¤": 5318,
      "Ġà¤ªà¥įà¤°à¤¾à¤®à¥ģà¤ĸà¥įà¤¯à¤¾à¤¨": 5319,
      "adwe": 5320,
      "à±įà°Łà±ĭà°°": 5321,
      "à°¿à°Ĥà°¦à°ķà±ģĠà°": 5322,
      "Ġà°°à°ķ": 5323,
      "Ġà°°à°ļ": 5324,
      "Ġà°°à°¾à°ľ": 5325,
      "Ġà°°à°ķà°¾à°²": 5326,
      "esticĠ": 5327,
      "à¤¾à¤µà¥ĩà¤¶": 5328,
      "plat": 5329,
      "ationĠandĠ": 5330,
      "ationĠinĠ": 5331,
      "ationĠTreat": 5332,
      "ationĠasĠhun": 5333,
      "Ġ(à¤ķ": 5334,
      "usedĠintoĠ": 5335,
      "Ġà¤¨à¤¹à¥Ģà¤Ĥ": 5336,
      "à±įà°²à±ģĠà°": 5337,
      "à±įà°²à°²à±ĭĠà°": 5338,
      "defeat": 5339,
      "Ńà°¾à°°à°¤à°¦à±ĩà°¶à°ĤĠà°µ": 5340,
      "Ńà°¾à°°à°¤à°¦à±ĩà°¶à°ĤĠà°®": 5341,
      "motherĠ": 5342,
      "moistĠ": 5343,
      "à°¿à°Ĥà°ļà°¿à°Ĥà°¦à°¿.": 5344,
      "Ġà¤Ńà¤¾à¤°à¤¤Ġà¤¹à¥ĩĠà¤¨à¤¾à¤µ": 5345,
      "withĠaĠ": 5346,
      "ha,ĠwhoseĠ": 5347,
      "Ġà¤ķà¥ĩĠà¤®": 5348,
      "à±įà°µà°¤à±įà°°": 5349,
      "Ġà¤®à¥ĩà¤ĤĠà¤¸": 5350,
      "¸à±įà°¤à±įà°°à±Ģ": 5351,
      "hasĠmad": 5352,
      "Ġà°®à°°": 5353,
      "Ġà°®à±ģà°": 5354,
      "Ġà°®à°Ĥà°¤à±įà°°": 5355,
      "à°¹à°¾à°¯": 5356,
      "à°¹à°¸à±įà°°": 5357,
      "ter-ga": 5358,
      "maput": 5359,
      "overranĠ": 5360,
      "à°¾à°Ĥà°¬": 5361,
      "à°¾à°Ĥà°¤à°°": 5362,
      "à°¾à°²à±ģ:": 5363,
      "osph": 5364,
      "ally": 5365,
      "Ġà¤¬à¤Ĥà¤Ĺà¤¾à¤²": 5366,
      "Ġà¤°à¥Ĥà¤ª": 5367,
      "Ġà¤¦à¤¿à¤²à¥įà¤²": 5368,
      "à°£à°¤à°Ĥà°¤à±įà°°Ġà°°à°¾à°ľà±įà°¯": 5369,
      "à°ļà°¨": 5370,
      "à°ļà±ģà°ķà±ĭà°µà°¡": 5371,
      "comfort": 5372,
      "contra": 5373,
      "whichĠwasĠ": 5374,
      "whichĠbecameĠ": 5375,
      "sĠofĠlif": 5376,
      "sĠofĠwomenĠ": 5377,
      "Ġà¤ľà¤Ĺ": 5378,
      "Ġà¤¯à¥ĩà¤¥à¥Ģà¤²": 5379,
      "clear": 5380,
      "closeĠ": 5381,
      "claim": 5382,
      "à°¾à°²à±ģĠà°Ńà°¾à°°à°¤à°¦à±ĩà°¶à°Ĥà°²à±ĭĠà°": 5383,
      "à°¾à°²à±ģĠà°īà°¨à±įà°¨à°¾à°¯à°¿.": 5384,
      "à°¾à°²à±ģĠà°īà°Ĥà°¡": 5385,
      "à°¾à°²à±ģĠà°¨à°¿à°°à±įà°®": 5386,
      "spot": 5387,
      "atĠinĠtheĠ": 5388,
      ".ĠAnĠ": 5389,
      "ªà¥įà¤°à¤®à¤¾à¤£": 5390,
      "à¥ĢĠà¤¸à¥įà¤¥à¤¾à¤¨à¤¿à¤ķ": 5391,
      "à°Ĥà°²à±ĭĠà°°à±Ī": 5392,
      "à°¿à°¤à±įà°µ": 5393,
      "à°Ĥà°Łà±ģà°¨à±įà°¨": 5394,
      "à°Ĥà°Łà±ģà°Ĥà°¦à°¿.": 5395,
      "à±Īà°¨Ġà°¸": 5396,
      "wereĠintroduc": 5397,
      "fromĠ6": 5398,
      "fromĠUS$": 5399,
      "fromĠAfricaĠ": 5400,
      "idenceĠ": 5401,
      "setĠ": 5402,
      "sedimentĠ": 5403,
      "coal": 5404,
      "costĠofĠ": 5405,
      "à°²à±ĭĠà°ħà°¤à±įà°¯à°§à°¿à°ķ": 5406,
      "à±įĠà°¦à±ĩà°¶à°¾à°²": 5407,
      "à±įĠà°¬à±Ĩà°Ĥà°Ĺà°¾à°²": 5408,
      "à¥ĭà¤ĤĠà¤ķà¥ĢĠà¤": 5409,
      "à¤¾Ġà¤ķà¤¿à¤²à¥įà¤²": 5410,
      "à¤¾Ġà¤ķà¤¾à¤³à¤¾à¤¤": 5411,
      "marsh": 5412,
      "à°Ńà°¾à°·": 5413,
      "à°Ńà°°à°¤": 5414,
      "formĠ": 5415,
      "formedĠIndiaĠintoĠ": 5416,
      "largerĠ": 5417,
      "largelyĠ": 5418,
      "large-": 5419,
      "à°¾à°ľà±ģĠà°ª": 5420,
      "à°¾à°ľà°¿à°ķ,Ġà°": 5421,
      "à±ģà°ķà±ģĠà°": 5422,
      "latterĠ": 5423,
      "later,Ġ": 5424,
      "latitud": 5425,
      "project": 5426,
      "à¤¾à¤ªà¤¾à¤¸à¥Ĥà¤¨": 5427,
      "à°ľà°¿à°¤": 5428,
      "à°ľà°¨à°¾à°Ń": 5429,
      "ctsĠ": 5430,
      "à±ģĠà°ªà°¾à°°à±įà°Łà±Ģ": 5431,
      "à±ģĠà°ªà°°à±Ģ": 5432,
      "à¤¾Ġà¤¸à¤¾à¤®à¥įà¤°à¤¾à¤ľà¥įà¤¯": 5433,
      "s.ĠIndia'sĠ": 5434,
      "à°Ĥà°¤à±ĭĠà°ķà±Ĥà°¡": 5435,
      "à°Ĥà°¤à°°à±įà°ľà°¾à°¤à±Ģà°¯": 5436,
      "veĠtheĠ": 5437,
      "arĠIs": 5438,
      "à¤¿à¤µà¤¡à¤£": 5439,
      "à¤¿à¤µà¥Ĥà¤¡": 5440,
      "īà°¨à±įà°¨à°¾à°°à±ģ.Ġà°": 5441,
      "edĠinĠ198": 5442,
      "à°ķà±įà°·à°ĤĠà°ķ": 5443,
      ".ĠInĠSouthĠ": 5444,
      ".ĠInĠ197": 5445,
      "à¤¾à¤¦à¤°": 5446,
      "assinat": 5447,
      "à¥ĢĠà¤¹à¥Ī": 5448,
      "à¥ĢĠà¤¹à¥ĩĠà¤¸": 5449,
      "ĠbasedĠonĠ": 5450,
      "Ġà¤ĩà¤Ĥà¤¡": 5451,
      "Ġà¤ĩà¤®à¤¾à¤°à¤¤": 5452,
      "Ġà¤ĩà¤¤à¥įà¤¯à¤¾à¤¦": 5453,
      "à±ģà°µĠà°¸à°Ń": 5454,
      "à°²à±ģĠà°ħ": 5455,
      "à°²à±ģĠà°īà°¨à±įà°¨à°¾à°¯à°¿.": 5456,
      "µà°¿à°¡": 5457,
      "µà°¿à°Ńà°¿à°¨à±įà°¨": 5458,
      "ourish": 5459,
      "andĠtheĠBrah": 5460,
      "regist": 5461,
      "industri": 5462,
      "à±ģà°¸à±įà°¤": 5463,
      "Ġà¤¶à¤¾à¤¸à¤¨": 5464,
      "à°¾à°®à°¾à°ľà°¿à°ķ,Ġà°": 5465,
      "à°¿à°ªà±Ĩà°¦à±įà°¦": 5466,
      "à°¿à°ªà±ĭà°¯": 5467,
      "à°¿à°ªà±ģà°£": 5468,
      "à±įâĢĮà°ķà°¾à°¤": 5469,
      "à°¾à°°à±ģĠ(": 5470,
      "CEEĠ7": 5471,
      "eĠtheĠregionĠ": 5472,
      "bothĠtheĠ": 5473,
      "iĠriverĠ": 5474,
      "Ġà¤²à¥ĩà¤£": 5475,
      "Ġà°ħà°¤": 5476,
      "Ġà°ħà°ķà±įà°·à°°à°¾à°¸à±įà°¯à°¤": 5477,
      "edĠbyĠtheĠCh": 5478,
      "substant": 5479,
      "%ĠduringĠ": 5480,
      "à°²à±ģ,Ġà°": 5481,
      "à°²à±ģ,Ġà°ª": 5482,
      "à°¿à°¯à°®à°¿à°Ĥà°ļ": 5483,
      "à¥ĢĠà¤ķà¤¾à¤³": 5484,
      "à°¿,Ġà°¦": 5485,
      "à°¿,Ġà°¸": 5486,
      "à°Ĥ,Ġà°®": 5487,
      "à°¾à°ķà±įĠà°°à±Īà°²à±įà°µà±ĩ": 5488,
      "Ġà°¦à±ĩà°¶à°¾à°¨à°¿à°ķà°¿Ġà°": 5489,
      "Ġà°¦à±ĩà°¶à°Ĥ.Ġà°": 5490,
      "à°¿à°Ĥà°¦à°¿.Ġà°ħ": 5491,
      "à°¿à°Ĥà°¦à°¿.Ġà°¦à°ķà±įà°·à°¿à°£à°¾à°¸à°¿à°¯à°¾Ġà°": 5492,
      "à°¾à°¦à°¾à°¯": 5493,
      "à°¾à°¦à°°à°£": 5494,
      "years;Ġ": 5495,
      "yearĠterm": 5496,
      "Ġà°¨à±ģ": 5497,
      "Ġà°¨à°¾à°¯à°ķ": 5498,
      "Ġà°¨à±ĩà°ªà°¾à°²": 5499,
      "à¤¿à¤§à¥įà¤°": 5500,
      "language,Ġ": 5501,
      "strong": 5502,
      "decis": 5503,
      "decidu": 5504,
      "partic": 5505,
      "north-": 5506,
      "inĠ195": 5507,
      "inĠ197": 5508,
      "inĠ1962": 5509,
      "Ġà¥§à¥Ń": 5510,
      "includingĠtheĠ": 5511,
      "à¥ĩĠà¤®à¥įà¤¹à¤£": 5512,
      "flood": 5513,
      "flank": 5514,
      "flourish": 5515,
      "Ġà°¶à±Ĩà°²": 5516,
      "Ġà°¶à°ķà±įà°¤": 5517,
      "west,ĠandĠtheĠ": 5518,
      ".ĠIm": 5519,
      "kĠofĠtheĠ": 5520,
      "¸à±įà°µà°¾à°¤à°Ĥà°¤à±įà°°": 5521,
      "à°ķà±įà°ķà°¨": 5522,
      "à°ķà±įà°ķà°¡": 5523,
      "otechĠ": 5524,
      "à°¨à°¿Ġà°ħà°¤": 5525,
      "à°¨à°¿Ġà°īà°Ĥà°¦à°¿.Ġà°": 5526,
      "mentalĠ": 5527,
      "à°¿à°¸à±įà°¤à±Ģà°°à±įà°£": 5528,
      "meas": 5529,
      "mega": 5530,
      "à°¾à°Ĺà°¾Ġà°": 5531,
      "sci": 5532,
      "scaleĠ": 5533,
      "à¥ĢĠà¤®à¤¹": 5534,
      "à±įà°°à±Ģ.à°ªà±Ĥ": 5535,
      "Ġà¤ļà¤²": 5536,
      "Ġà¤ļà¤³à¤µà¤³": 5537,
      "à¤¾Ġà¤ªà¤¹": 5538,
      "à¤¾Ġà¤ªà¥ģà¤¤à¥įà¤°": 5539,
      "à¥ĩĠà¤ªà¤¦": 5540,
      "generatedĠ": 5541,
      "Ġà¤¹à¥ĭà¤¤à¤¾.Ġà¤": 5542,
      "continentĠ": 5543,
      "à±į,Ġà°ĩà°¤à°°": 5544,
      "à±į,Ġà°Ńà±Ĥ": 5545,
      "à°¿Ġà°ªà°¦": 5546,
      "à°¿Ġà°ªà°²à±ģĠà°": 5547,
      "à°¿Ġà°ªà±Ĩà°¦à±įà°¦": 5548,
      "à°¿Ġà°ªà±ĩà°°à±ģĠà°": 5549,
      "intoĠaĠ": 5550,
      "thĠcentury": 5551,
      "thĠcentury,ĠtheĠ": 5552,
      "à°®à±Īà°¨à°¦": 5553,
      "à°®à±Īà°¨à°¦à°¿.Ġà°": 5554,
      "Emerg": 5555,
      "Ġà°Ĩà°§à°¾à°°": 5556,
      "Ġà°Ĩà°¹à°¾à°°": 5557,
      "onĠtheĠIndianĠsubcontinentĠ": 5558,
      "extend": 5559,
      "extinct": 5560,
      "neigh": 5561,
      "artisansĠ": 5562,
      "hadĠemerg": 5563,
      "hadĠaris": 5564,
      "à°¤à°°à±ģà°µà°¾à°¤": 5565,
      "ruleĠ": 5566,
      "rulingĠ": 5567,
      "ruleĠofĠtheĠ": 5568,
      "edĠtheĠcar": 5569,
      "edĠtheĠnationĠ": 5570,
      "committ": 5571,
      "statesĠandĠ": 5572,
      "à¥ĩĠà¤Ĩà¤¹à¥ĩ.Ġà¤": 5573,
      "companyĠ": 5574,
      "compris": 5575,
      "à±Įà°°à±įà°¯": 5576,
      "à°¾à°¸à°®à±ģà°¦à±įà°°": 5577,
      "à¥ĩà¤µà¤³": 5578,
      "à¥ĩà¤µà¤£à¤¾à¤¤": 5579,
      "1965Ġ": 5580,
      "servingĠ": 5581,
      "Ġà°¤à°¿à°°": 5582,
      "Ġà°¤à°ķà±įà°ķà±ģà°µ": 5583,
      "Ġà°¤à±Ĩà°²à±ģà°Ĺ": 5584,
      "domesticĠ": 5585,
      "rept": 5586,
      "republ": 5587,
      "repeat": 5588,
      "vietĠ": 5589,
      "devast": 5590,
      "devotion": 5591,
      "governmentĠlast": 5592,
      "twoĠyears;Ġ": 5593,
      "İà°¨à±įà°¨à±ģà°ķà±ĭ": 5594,
      "Ġà°¦à°ķà±įà°·à°¿à°£": 5595,
      "CongressĠemerg": 5596,
      "countri": 5597,
      "à°¸à±įà°¤à°¾à°¨": 5598,
      "à°²à±ĭ,Ġà°": 5599,
      "à°²à±ĭà°¨à±ģĠà°": 5600,
      "beginningsĠofĠ": 5601,
      "EmpireĠandĠ": 5602,
      "1996": 5603,
      "1991,Ġ": 5604,
      "culturesĠ": 5605,
      "e-kn": 5606,
      "s.ĠTheĠresultingĠ": 5607,
      "uclear-": 5608,
      "à°ķà±ģĠà°¦à±ĩà°¶": 5609,
      "à°³à°¿,Ġà°": 5610,
      "ĠmillionĠyearsĠago": 5611,
      "ĠmillionĠIndiansĠ": 5612,
      "à¤ªà¥įà¤°à¤ķà¤¾à¤°": 5613,
      "ĠBCE,ĠanĠ": 5614,
      "à¥ĢĠà¤ªà¤¤à¥įâĢį": 5615,
      "Union": 5616,
      "Ġà°īà°Ĥà°¦à°¿.": 5617,
      "Ġà°īà°¤à±įà°¤à°°": 5618,
      "Indo": 5619,
      "Ġà°°à±Īà°²à±ģĠà°": 5620,
      "Ġà°°à±Īà°³à±įà°²à°¨à±ģĠà°": 5621,
      "causedĠbyĠ": 5622,
      "turnedĠ": 5623,
      "turnedĠtoĠ": 5624,
      "thatĠwereĠ": 5625,
      "thatĠbecameĠ": 5626,
      "à°¿Ġà°ķà°¾à°²": 5627,
      "PakistanĠandĠ": 5628,
      "MajorĠ": 5629,
      "ouslyĠ": 5630,
      "expandingĠ": 5631,
      "ļà±Ĩà°ªà±įà°ª": 5632,
      "à±Ģ,Ġà°ķ": 5633,
      "à°¿Ġà°¸à°¿à°Ĥà°§": 5634,
      "à°¾à°²à±ģ,Ġà°¨": 5635,
      "bothĠofĠwhichĠ": 5636,
      "humansĠ": 5637,
      "à°¶à°¾à°¨à±įà°¯": 5638,
      "ologicalĠ": 5639,
      "ologicallyĠ": 5640,
      "economicĠexpans": 5641,
      "northernĠIndiaĠ": 5642,
      "à¥īà¤Ĥà¤Ĺà¥įà¤°": 5643,
      "diversity.Ġ": 5644,
      ".ĠSinghĠ": 5645,
      ".ĠSimultan": 5646,
      "ķà±ĥà°·à±įà°£": 5647,
      "à°¾à°°à±įà°Łà±Ģ,Ġà°": 5648,
      "Ġà°ªà±įà°°à°ªà°Ĥà°ļà°Ĥà°²à±ĭĠà°": 5649,
      "Ġà°ªà±įà°°à°ªà°Ĥà°ļà°Ĥà°²à±ĭ": 5650,
      "Ġà°ªà±įà°°à°ªà°Ĥà°ļà°®à±ģà°²": 5651,
      "east,Ġ": 5652,
      "à°¬à°¡à°¿à°Ĥà°¦à°¿.Ġà°": 5653,
      "à°¬à°¡à°¤à°¾à°°à±ģ.": 5654,
      "ķà±Ĥà°¡à°¾Ġà°īà°¨à±įà°¨à°¾à°¯à°¿.Ġà°": 5655,
      "Ġà°ªà±įà°°à°¾à°Ĥà°¤à±Ģà°¯": 5656,
      "Ġà°ªà±įà°°à°¾à°Ĥà°¤à°¾à°²à±įà°²à±ĭĠà°": 5657,
      "power": 5658,
      "sinceĠtheĠ": 5659,
      "subcontinent,Ġ": 5660,
      ".ĠItĠisĠaĠ": 5661,
      "historicalĠ": 5662,
      "historiansĠ": 5663,
      "1.3": 5664,
      "ceed": 5665,
      "evalĠ": 5666,
      "eventuallyĠ": 5667,
      "allĠf": 5668,
      "Common": 5669,
      "ĩà°¤à°°à°¦à±ĩà°¶": 5670,
      "ĩà°¤à°°Ġà°ĸ": 5671,
      "à°¤à±įà°µà°Ĥà°²à±ĭĠà°": 5672,
      "Ġà¤¹à¥Īà¥¤Ġà¤Ńà¤¾à¤°à¤¤": 5673,
      "à¤¾à¤Ĥà¤ªà¥ĩà¤ķà¥įà¤·": 5674,
      "à°ªà±įà°°à°¿à°²": 5675,
      "à°ĤĠà°µà°¹": 5676,
      "à°¿à°Ĥà°ļà°¿à°¨à°Łà±įà°²": 5677,
      "à°ľà°¾à°¤à±Ģà°¯Ġà°Ĺ": 5678,
      "generalĠelectionsĠ": 5679,
      "Ġà°ªà±įà°°à°ľà°¾à°¦à°°à°£": 5680,
      "China": 5681,
      "China,Ġ": 5682,
      "à°¾Ġ\"": 5683,
      "therers,Ġ": 5684,
      "appoint": 5685,
      "literat": 5686,
      "long-": 5687,
      "icallyĠendangeredĠ": 5688,
      ",000Ġ=Ġ1": 5689,
      "à°¿à°ķĠà°µà°¾à°°à°¸à°¤à±įà°µ": 5690,
      "duringĠMughalĠ": 5691,
      "à¤¤à¤¾à¤¤.Ġà¤Ĺ": 5692,
      "ianĠnuclearĠ": 5693,
      "toĠbeĠparliamentaryĠ": 5694,
      "1950Ġà°ľà°¨": 5695,
      "gradi": 5696,
      "graph": 5697,
      "non-CongressĠ": 5698,
      "non-co-": 5699,
      "non-violenc": 5700,
      "ĩà°¦à°¿Ġà°¸à°¿à°Ĥà°§": 5701,
      "Ġà°²à±Įà°ķ": 5702,
      "Ġà°Ĺà°Ĥà°Ĺ": 5703,
      "Ġà¤¸à¤°à¤¸à¥įà¤µ": 5704,
      "à¤Ĥà¤ªà¤¾à¤°à¤¿à¤ķ": 5705,
      "à°¿à°¶à±įà°°": 5706,
      "à¤Ĥà¤¬à¤Ī": 5707,
      "IndiaĠandĠPakistan": 5708,
      "Ġà°¸à°®à°¾à°ľ": 5709,
      "Ġà°¸à°®à°¾à°ĸà±įà°¯": 5710,
      "à¤¾à¤µà¤°à¥Ģà¤²": 5711,
      "market": 5712,
      "Ġà°ªà±įà°°à°Ńà±ģà°¤à±įà°µà°¾à°¨à±įà°¨à°¿Ġà°": 5713,
      "à¤¦à¤¾à¤°à¥įà¤¥": 5714,
      "Sanskrit,ĠanĠ": 5715,
      "country,Ġ": 5716,
      "Indo-EuropeanĠ": 5717,
      "Indo-Gang": 5718,
      "landĠarea": 5719,
      "Ġà°¬à°¡": 5720,
      "Ġà°¬à°¹": 5721,
      "à°¾à°¹à°¾à°°": 5722,
      "à°¾à°¹à±ĭà°°": 5723,
      "à°Ĥà°ķà±Ģà°°à±įà°£": 5724,
      "Ġà°ªà±įà°°à°¤à±įà°¯": 5725,
      "Ġà°ķà°¾à°²à°Ĥà°²à±ĭĠà°": 5726,
      "Ġà°ķà°¾à°²à°Ĥà°²à±ĭ": 5727,
      "Ġà°ķà°¾à°²à±ĩà°ľ": 5728,
      "primeĠministerĠofĠtheĠ": 5729,
      "ľà°°à°¿à°Ĺà±ĩ": 5730,
      "militaryĠandĠ": 5731,
      "HimalayanĠ": 5732,
      "WorldĠWarĠ": 5733,
      "5.8%Ġ": 5734,
      "Äģy": 5735,
      "ĩà¤¤à¤°": 5736,
      "à°¾à°ªà°¾à°¡": 5737,
      "intoĠtheĠIndusĠValleyĠCivilis": 5738,
      "species.Ġ": 5739,
      "cities,Ġ": 5740,
      "citiz": 5741,
      ",ĠwhenĠ": 5742,
      "à°¿à°³à±įà°³": 5743,
      "edĠasĠtheĠlargestĠ": 5744,
      "ing,ĠpublicĠ": 5745,
      "medievalĠ": 5746,
      "socialĠreform": 5747,
      "SikhĠ": 5748,
      "à¤µà¥įà¤¯à¥ģà¤¤à¥įà¤¤à¤°Ġà¤": 5749,
      "Ġà°°à°¾à°·à±įà°Łà±įà°°à°ªà°¤": 5750,
      "eguardĠ": 5751,
      "Ġà¤ªà¥ģà¤°à¤¾à¤¤à¤¨": 5752,
      "edictsĠ": 5753,
      "provinc": 5754,
      "AfterĠ": 5755,
      "īà°Ĥà°Łà±ģà°Ĥà°¦à°¿.Ġà°": 5756,
      "ļà±ĩà°¸": 5757,
      "à°¿à°ļà±įà°ļ": 5758,
      "alisedĠ": 5759,
      "Ġà°ªà±ĩà°°à±ģ,Ġà°": 5760,
      "Ġà°ªà°¾à°°à±įà°Łà±Ģà°²": 5761,
      "à°ķà±ģĠà°ªà±ģà°Łà±įà°Ł": 5762,
      "à°¾à°²à°¨à±ģĠà°ķà±Ĥà°¡à°¾Ġà°": 5763,
      "à°¾à°²à°¨à±ģĠà°Ĺà±Ĩà°²à±ģ": 5764,
      "exportsĠ": 5765,
      "Ġà°°à°¾à°ľà±įà°¯à°¾à°²à±ģà°Ĺà°¾Ġà°": 5766,
      "generalĠelection,Ġ": 5767,
      "8ĠunionĠterritor": 5768,
      "involvingĠ": 5769,
      "archaicĠ": 5770,
      "majorityĠinĠtheĠ": 5771,
      "agricultureĠandĠ": 5772,
      "Modi": 5773,
      "lineĠ": 5774,
      "Ġ25": 5775,
      "à¥¬Ġà¤Łà¤ķà¥įà¤ķ": 5776,
      "rightsĠ": 5777,
      "ackbu": 5778,
      "dominionĠofĠ": 5779,
      "transformedĠIndiaĠintoĠ": 5780,
      "Ġà¤Ńà¤¾à¤·à¤¾à¤ĵà¤Ĥ": 5781,
      "GangesĠriverĠ": 5782,
      "GangesĠandĠtheĠBrah": 5783,
      "ethn": 5784,
      "°à°¾à°·à±įà°Łà±įà°°à°¾à°²": 5785,
      "µà°ļà±įà°ļà°¿à°¨": 5786,
      "Ġà°¸à±įà°¥à°¾à°¨à°¾à°²à°¨à±ģĠà°Ĺà±Ĩà°²à±ģ": 5787,
      "à±ģà°®à°¾à°°à±ģ": 5788,
      "riverĠbas": 5789,
      "à°°à±įà°²à°ķà±ģĠà°ªà±Īà°Ĺà°¾Ġà°": 5790,
      "Ġà°µà°ļà±įà°ļà°¿à°¨": 5791,
      "coastalĠ": 5792,
      "coastlineĠ": 5793,
      "Ġà°¦à±įà°µà°¾à°°à°¾Ġà°": 5794,
      "Ġà°ķà±įà°°à±Ģà°¡à°²à±ģĠà°": 5795,
      "dependentĠ": 5796,
      "ĠbecameĠtheĠ": 5797,
      "longĠoccup": 5798,
      "sĠwereĠf": 5799,
      "grewĠfromĠ": 5800,
      "IndusĠriverĠbas": 5801,
      "ryĠandĠtheĠ": 5802,
      "diffusedĠintoĠ": 5803,
      "originalĠ": 5804,
      "1,3": 5805,
      "Ġà¤°à¤¾à¤·à¥įà¤Łà¥įà¤°à¥Ģà¤¯": 5806,
      "¬à°¹à±ģà°³": 5807,
      "µà°²à°¨": 5808,
      "ĩà°µà°¿Ġà°": 5809,
      "ķà°²à±įà°ª": 5810,
      "Ġà°²à±ĭĠà°®": 5811,
      "striĠ": 5812,
      "à±ĢĠà°¸à°¿à°¨à°¿à°®": 5813,
      "rivers,Ġ": 5814,
      "à°Łà±įà°²à°ķà±ģĠà°ªà±Īà°Ĺà°¾Ġà°": 5815,
      "à°°à±įà°¥à±įà°¯à°ĤĠà°ķ": 5816,
      "administrat": 5817,
      "Ġà°°à°µà°¾à°£à°¾Ġà°®à°¾à°°à±įà°Ĺ": 5818,
      "¦à±ĩà°¶à°Ĥà°²à±ĭà°¨à°¿": 5819,
      "endemic": 5820,
      "endemism": 5821,
      "Ġà°ľà°¨à°Ĺà°£": 5822,
      "à°¾à°¬à°¾à°¦à±ģ": 5823,
      "Ġà°Ńà°¾à°Ĺà°¾à°¨à±įà°¨à°¿Ġà°": 5824,
      "à°ªà±įà°ªà°Łà°¿à°ķà±Ģ": 5825,
      "à°ªà±įà°ªà°Łà°¿à°ķà°¿à°¨": 5826,
      "à°ªà±įà°ªà°Łà°¿à°ķà±Ģ,Ġà°": 5827,
      "à±ģà°ķà±ĭà°µà°ļà±įà°ļ": 5828,
      "highĠcourt": 5829,
      "¬à±įà°°à°¿à°Łà±Ģà°·": 5830,
      "EastĠIndiaĠCompan": 5831,
      "sultanat": 5832,
      "well-": 5833,
      "ħà°§à°¿à°ķà°¾à°°à°¿à°ķ": 5834,
      "outĠtheĠ": 5835,
      "à°µà°°à°¿Ġ26": 5836,
      "Ġà°ªà±įà°°à°¸à±įà°¤à±ģà°¤à°ĤĠà°": 5837,
      "plains,Ġ": 5838,
      "severelyĠ": 5839,
      "violentĠ": 5840,
      "regionalĠkingdom": 5841,
      ".ĠDuringĠtheĠ": 5842,
      "AndamanĠandĠ": 5843,
      "à±ĭà°°à±įà°Łà±ģà°²à±ģĠà°": 5844,
      ".ĠToĠtheĠ": 5845,
      "composedĠinĠ": 5846,
      "desc": 5847,
      "·à¤Ńà¥Ĥà¤·": 5848,
      "à¤¸à¤®à¥Ĥà¤¹": 5849,
      "Ġà¤ªà¤¾à¤°à¤Ĥà¤ªà¤¾à¤°à¤¿à¤ķ": 5850,
      "à±įâĢĮà°¸à°Ń": 5851,
      "formĠofĠSanskrit,ĠanĠ": 5852,
      "4ĠbillionĠ(": 5853,
      "borneĠ": 5854,
      "ħà°¯à°¿à°¨à°¾,Ġà°": 5855,
      "īà°¤à±įà°¤à°°à°¾à°¨": 5856,
      "ļà±Īà°¨à°¾,Ġà°": 5857,
      "ļà±Īà°¨à°¾à°¨à±ģĠà°": 5858,
      "intervent": 5859,
      "independentĠ": 5860,
      "à±ĭà°²à±įâĢĮà°ķà°¾à°¤": 5861,
      "à±įà°¯à°¾à°¯à°µà±įà°¯à°µà°¸à±įà°¥": 5862,
      "à¤¾à¤Ĥà¤µà¤°": 5863,
      "Ġà°ªà±įà°°à°®à±ģà°ĸà°®à±Īà°¨à°¦": 5864,
      "à°ĤĠà°®à°§à±įà°¯": 5865,
      "à°ĤĠà°ļà±ĩà°¸": 5866,
      "elitesĠ": 5867,
      "à°°à±įà°·à°£": 5868,
      "Ġà°¸à°¾à°®à°°à±įà°¥à±įà°¯à°ĤĠà°ķ": 5869,
      "à±ģà°²à±ģĠ(0": 5870,
      "formedĠaĠcoalitionĠ": 5871,
      "subsequentlyĠ": 5872,
      "à°®à±ģà°¦à±įà°°à°¤à±Ģà°°": 5873,
      "®à±Ĭà°¤à±įà°¤à°ĤĠà°": 5874,
      "®à±Ĭà°¤à±įà°¤à°ĤĠ1": 5875,
      ",000ĠyearsĠago.ĠTheirĠ": 5876,
      "¨à°¿à°°à±įà°µà°¹à°¿à°Ĥà°ļà°¿à°Ĥà°¦à°¿.Ġ": 5877,
      "¨à°¡à°¿à°ªà°¿à°Ĥà°ļà°Ł": 5878,
      "Ġà°µĠà°¶à°¤à°¾à°¬à±įà°¦à°ĤĠà°¨à±ģ": 5879,
      "Ġà°µĠà°¶à°¤à°¾à°¬à±įà°¦à°ĤĠà°®à°§à±įà°¯": 5880,
      "NortheastĠ": 5881,
      "RajivĠ": 5882,
      "averageĠ": 5883,
      "paye": 5884,
      "á¹ĩ": 5885,
      "à°ĤĠà°ªà°¾à°¤à±įà°°": 5886,
      "makeĠ": 5887,
      "middleĠclas": 5888,
      "currenc": 5889,
      "SoutheastĠAsia.": 5890,
      "highlyĠdiverse": 5891,
      "villageĠ": 5892,
      "relativeĠp": 5893,
      "recordedĠ": 5894,
      "à¤¾à¤Ĥà¤Ĺà¤²": 5895,
      "DelhiĠSultan": 5896,
      "uĠandĠKashmir": 5897,
      ",Ġà¥§à¥¯à¥": 5898,
      "attle": 5899,
      "à¤ķà¤²à¥įà¤ª": 5900,
      "centuriesĠofĠ": 5901,
      "Ġà¤ªà¤¦à¤µ": 5902,
      "AllianceĠ": 5903,
      "à¥Įà¤¦à¥įà¤§Ġà¤§à¤°à¥įà¤®à¤¾à¤ļ": 5904,
      "100ĠbillionĠ": 5905,
      "ByĠtheĠ": 5906,
      "creatingĠaĠ": 5907,
      "creativityĠ": 5908,
      "democrac": 5909,
      "democraticĠ": 5910,
      "far-": 5911,
      "lossĠofĠlif": 5912,
      "nominalĠ": 5913,
      "notableĠ": 5914,
      "notablyĠ": 5915,
      "windsĠ": 5916,
      "®à±ģà°ĸà±įà°¯à°Ĥà°Ĺà°¾Ġà°": 5917,
      "°à°¾à°ľà±įà°¯Ġà°¸à°Ń": 5918,
      "ļà°¿à°¨à±įà°¨Ġà°ļà°¿à°¨à±įà°¨": 5919,
      "ľà°¨à±įà°®": 5920,
      "Ġà°Ĵà°ķà±ĩà°": 5921,
      "à°¾Ġà°ªà°°à°¿à°¶à±įà°°à°®": 5922,
      "à±ĭà°¯Ġà°¨à°¾à°Ĺà°°à°¿à°ķà°¤": 5923,
      "à±Ģà°µà°²": 5924,
      "à±ĩà°Ĺà°Ĥà°Ĺà°¾Ġà°ħà°Ńà°¿à°µà±ĥà°¦à±įà°§à°¿Ġà°ļà±Ĩà°Ĥà°¦": 5925,
      "fortifiedĠ": 5926,
      "âĢ²Ġ": 5927,
      "à°¯à±ĭà°Ĺà°¿à°¸à±įà°¤": 5928,
      "00Ġmi)Ġ": 5929,
      "Ġà°¸à°¾à°Ĥà°¸à±įà°ķà±ĥà°¤": 5930,
      "Ġà°¸à°Ĥà°Ĺà±Ģà°¤à°ĤĠà°": 5931,
      "externalĠsupport": 5932,
      "Ġà°®à±Ĭà°¦à°²": 5933,
      "²à±ĭà°ķà±įĠà°¸à°Ń": 5934,
      "²à±ĭà°ķà±įâĢĮà°¸à°Ń": 5935,
      "à°Ĥà°¤à±ĭĠà°µà±Ī": 5936,
      "µà°¿à°¶à±įà°µ": 5937,
      "Ġà°ľà°¨à°¾à°Ńà°¾Ġà°": 5938,
      "affect": 5939,
      "affair": 5940,
      "®à±Ĭà°¦à°²à°Ĺ": 5941,
      "®à±Ĭà°¦à°²à±Īà°¨": 5942,
      "growingĠeconom": 5943,
      "à°·à±įà°£Ġà°µà°¾à°¤à°¾à°µà°°à°£": 5944,
      "1858": 5945,
      "à°¶à±įà°ļà°¿à°®à°¾à°¨": 5946,
      "Ġà°²à°ķà±įà°·à°£": 5947,
      "à°¿à°¶à±įà°°à°®à°²à±ģĠà°": 5948,
      "parliamentaryĠsystem,ĠtheĠ": 5949,
      "¢à°¿à°²à±įà°²à±Ģ-à°²": 5950,
      "à±ģà°°à±ģà°·à±ģà°²": 5951,
      "unionĠterritoriesĠ": 5952,
      "¬à±įà°°à°¿à°Łà°¿à°·à±ģĠà°": 5953,
      "DravidianĠlanguag": 5954,
      "Ġà°µà°¾à°¤à°¾à°µà°°à°£à°Ĥ": 5955,
      "1200ĠBCE,ĠanĠ": 5956,
      "400ĠBCE,Ġ": 5957,
      "7,517": 5958,
      "blackbu": 5959,
      "wentĠtoĠwarĠ": 5960,
      "à°¾à°°à°£à°Ĥà°Ĺà°¾Ġ": 5961,
      "à¥Īà¤µà¤¿à¤§": 5962,
      "exchangeĠ": 5963,
      "lowerĠhous": 5964,
      ".ĠInĠ2008": 5965,
      "becameĠtheĠfirstĠ": 5966,
      "antedĠinĠtheĠ": 5967,
      "servedĠasĠprimeĠminister": 5968,
      "MauryaĠ": 5969,
      "consistsĠofĠtheĠ": 5970,
      ".ĠDuringĠthisĠtime,Ġ": 5971,
      "keningĠofĠtheĠ": 5972,
      "safeguardĠ": 5973,
      "speakingĠ": 5974,
      "à±įĠà°ĩà°Ĥà°¡à°¿à°¯à°¾Ġà°ķ": 5975,
      "HindustanĠ": 5976,
      "à¥įà¤¯à¤¾Ġà¤¶à¤¤à¤ķà¤¾à¤¤": 5977,
      "ĠkilometresĠ(": 5978,
      "Ġà¤¸à¥Īà¤¨à¤¿à¤ķ": 5979,
      "à¤¯à¤¾à¤°Ġà¤Ŀà¤¾à¤²": 5980,
      "à¥īà¤²à¤¿à¤µà¥Ĥà¤¡": 5981,
      "Ġà¤¦à¥įà¤µà¥Ģà¤ªà¤¸à¤®à¥Ĥà¤¹": 5982,
      "nationalistĠ": 5983,
      "à¤¿à¤·à¤¯": 5984,
      "FrontĠ": 5985,
      "NDAĠ": 5986,
      "Non-Prol": 5987,
      "NuclearĠNon-Prol": 5988,
      "Plain": 5989,
      "ShastriĠ": 5990,
      "Vijay": 5991,
      "climaticĠ": 5992,
      "denseĠforest": 5993,
      "foundĠinĠtheĠ": 5994,
      "iferationĠTreat": 5995,
      "jurisdict": 5996,
      "migr": 5997,
      "nameĠforĠ": 5998,
      "valley": 5999,
      "wayĠforĠtheĠ": 6000,
      "®à±Ģà°¦à°Ĺà°¾Ġà°": 6001,
      "¸à°¾à°Ĥà°ªà±įà°°à°¦à°¾à°¯à°¿à°ķ": 6002,
      "¸à°¿à°¨à°¿à°®à°¾à°²à±ģĠà°¨à°¿à°°à±įà°®": 6003,
      "¸à±Ĥà°ļà°¿à°Ĥà°ļà°¿à°¨à°Łà±įà°²": 6004,
      "ĩà°Ĥà°Ĺà±įà°²à±Ģà°·": 6005,
      "īà°ªà°¯à±ĭà°Ĺà°¿à°¸à±įà°¤": 6006,
      "Ĵà°²à°Ĥà°ª": 6007,
      "ķà±ĩà°Ĥà°¦à±įà°°Ġà°ªà±įà°°à°Ńà±ģà°¤à±įà°µ": 6008,
      "ļà°¾à°²à°¾Ġà°": 6009,
      "à°¸à±įà°µà°¤": 6010,
      "threatenedĠ": 6011,
      "standardis": 6012,
      "referr": 6013,
      "à°²à±įĠà°ķà°¾à°²à±ĩà°ľ": 6014,
      "à±ĩà°°à±įà°²à±ģĠà°": 6015,
      "Ġà°ªà°Ĥà°¡à±ģà°Ĺ": 6016,
      "à°¾à°°à±ģĠà°ªà°¤à°ķà°¾à°²à±ģĠà°": 6017,
      "à°¾à°²à°¿à°Ĥà°ļà°¾à°°à±ģ.Ġà°": 6018,
      "à¤¸à¥įà¤ķà¤¾à¤°": 6019,
      ",Ġà°Īà°¶à°¾à°¨à±įà°¯": 6020,
      "à°µà°¿à°§à±įà°¯à°®à±Īà°¨": 6021,
      "IndiaĠfromĠtheĠnorthwest": 6022,
      "à°¿à°ķĠà°¸à°Ĥà°¸à±įà°ķà°°à°£": 6023,
      "Ġà°ªà±įà°°à°¾à°°à°Ĥà°Ńà°¿à°Ĥà°ļ": 6024,
      "railway": 6025,
      "à±ĤĠà°µà°ļà±įà°ļà°¿à°Ĥà°¦à°¿.Ġà°": 6026,
      "Ġà°¸à°¾à°°à±įà°µà°¤à±įà°°": 6027,
      "à°¾à°¤à±įà°®à°¾Ġà°Ĺà°¾à°Ĥà°§à±Ģ": 6028,
      "inĠtheĠwesternĠmarg": 6029,
      ",ĠtheĠBJPĠ": 6030,
      "à°Ĥà°Ĺà°¾Ġà°ªà±įà°°à°ªà°Ĥà°ļà°®à±ģà°²": 6031,
      "Ġà°°à°¾à°ľà°ķà±Ģà°¯Ġà°ª": 6032,
      "Ġà°®à±Ĥà°¡à±ģĠà°": 6033,
      "Ġà°®à°¾à°°à±įà°Ĺà°¾à°²à±ģĠà°": 6034,
      "shareĠofĠ": 6035,
      "separat": 6036,
      "à±ģà°ķà±Ĭà°¨": 6037,
      "ĠbiodiversityĠ": 6038,
      "upĠtoĠUS$": 6039,
      "strengthĠ": 6040,
      "president,ĠtheĠ": 6041,
      "à°¨à°¿Ġà°¨à°¿à°ªà±ģà°£": 6042,
      "extensivelyĠ": 6043,
      "companies": 6044,
      "supplantedĠinĠtheĠ": 6045,
      "à°¿Ġà°ħà°¨à±ĩà°ķ": 6046,
      "ľà°°à±ģà°ªà±ģà°ķà±ģà°Ĥà°Łà°¾à°°à±ģ.Ġà°": 6047,
      "maintain": 6048,
      "Indo-AryanĠ": 6049,
      "gaveĠriseĠ": 6050,
      "4ĠgeneralĠelection,ĠtheĠBJPĠ": 6051,
      "JanataĠPart": 6052,
      "crust,Ġ": 6053,
      "headĠofĠ": 6054,
      "drainĠintoĠtheĠBayĠofĠ": 6055,
      "GDPĠperĠcapitaĠ": 6056,
      "Ġà°¸à±įà°µà°¾à°¤à°Ĥà°¤à±įà°°à±įà°¯Ġà°¸à°®": 6057,
      "à¥ĩà¤ķà¤¡à¥Ģà¤²Ġà¤°à¤¾à¤ľà¥įà¤¯": 6058,
      "ıà°°à±įà°ªà°¡à±įà°¡à°¾à°¯à°¿.Ġà°": 6059,
      "independenceĠinĠ1947": 6060,
      "Ġà°ªà±įà°°à°¤à°¿à°ªà°¾à°¦à°¨à°ķà±ģĠà°ª": 6061,
      "liberalisationĠ": 6062,
      "°à±ĭà°¡à±įà°¡à±ģĠà°®à°¾à°°à±įà°Ĺ": 6063,
      "UnitedĠStates,Ġ": 6064,
      "habitatĠ": 6065,
      "loose-kn": 6066,
      "à°ªà°¾à°²à°¿à°¤Ġà°ªà±įà°°à°¾à°Ĥà°¤à°¾à°²à±ģĠà°": 6067,
      "ArabianĠSeaĠ": 6068,
      "BangladeshĠ": 6069,
      "Myanmar,ĠTh": 6070,
      "NicobarĠIs": 6071,
      "SriĠLankanĠ": 6072,
      "povertyĠ": 6073,
      "ķà±ĩà°µà°²à°ĤĠà°": 6074,
      "revenuesĠfromĠ": 6075,
      "TharĠDeser": 6076,
      "Ġà°ķà°¾à°°à±įà°¯à°ķà±įà°°à°®à°¾à°²à±ģĠà°": 6077,
      "nuclearĠweaponsĠ": 6078,
      "WestĠandĠ": 6079,
      "cameĠtoĠ": 6080,
      "effect": 6081,
      "layerĠ": 6082,
      "patron": 6083,
      "pastoralĠ": 6084,
      "that,ĠbetweenĠ": 6085,
      "anagaraĠ": 6086,
      "isolationĠasĠhun": 6087,
      "processĠofĠ": 6088,
      "à±įâĢĮà°²Ġà°®à°§à±įà°¯": 6089,
      "preventĠ": 6090,
      "British-styleĠ": 6091,
      "BuddhismĠandĠJainism": 6092,
      "DeccanĠPlateau": 6093,
      "characteristicĠ": 6094,
      "Ġà¤ħà¤¶à¤¿à¤¯à¤¾à¤Ī": 6095,
      "Ġà¤īà¤¦à¤¾à¤¹à¤°à¤£Ġà¤Ĩà¤¹à¥ĩ.Ġà¤": 6096,
      "Ġà¤¸à¥įà¤µà¤¾à¤¤à¤Ĥà¤¤à¥įà¤°à¥įà¤¯": 6097,
      "¦à¤ĸà¥įà¤ĸà¤¨": 6098,
      "à¤ļà¥ĩĠà¤ªà¤łà¤¾à¤°": 6099,
      "à¥įà¤¯à¤¾Ġà¤ķà¤¾à¤¹à¥ĢĠà¤µà¤°à¥įà¤·à¤¾à¤¤": 6100,
      "%Ġà°Ĩà°ķà±įà°°à°®": 6101,
      "(Art": 6102,
      "-majorityĠdominionĠofĠ": 6103,
      "28ĠstatesĠandĠ": 6104,
      "55,000ĠyearsĠago.ĠTheirĠ": 6105,
      "Achaem": 6106,
      "Gondwan": 6107,
      "Jawahar": 6108,
      "JammuĠandĠKashmir": 6109,
      "Kosi": 6110,
      "Lakshadwe": 6111,
      "Octo": 6112,
      "RepublicĠ": 6113,
      "SovietĠ": 6114,
      "Sabha,ĠwhoseĠ": 6115,
      "Tibet": 6116,
      "Vajpaye": 6117,
      "bulkĠofĠtheĠ": 6118,
      "civilianĠnuclearĠ": 6119,
      "drewĠ": 6120,
      "hotspot": 6121,
      "lassicalĠ": 6122,
      "nonviolentĠ": 6123,
      "nextĠ": 6124,
      "ufactur": 6125,
      "volcan": 6126,
      "¤à±Ĥà°°à±įà°ª": 6127,
      "¨à±Ĩà°²à°ķà±Ĭ": 6128,
      "¬à°Ĥà°Ĺà°¾à°°à±ģĠà°ªà°¤à°ķà°¾à°²à±ģĠà°": 6129,
      "¬à±Įà°¦à±įà°§": 6130,
      "¯à±ģà°¦à±įà°§": 6131,
      "¶à°¾à°¸à°¨Ġà°µà±įà°¯à°µà°¸à±įà°¥": 6132,
      "½Î´": 6133,
      "á¼¸Î½Î´": 6134,
      "âĤ¹": 6135,
      "ĩà°Łà±Ģà°µà°²": 6136,
      "Īà°¸à±įà°Łà±įĠà°ĩà°Ĥà°¡à°¿à°¯à°¾Ġà°ķ": 6137,
      "İà°²à°ķà±įà°Łà±ĭà°°": 6138,
      "Ĳà°°à±ĭà°ª": 6139,
      "ķà°¥à°ķ": 6140,
      "à°¢à°¾à°ķà°¾-à°": 6141,
      "thornĠforest": 6142,
      "insĠofĠtheĠIndusĠriverĠbas": 6143,
      "à±ģĠà°ªà±įà°°à°¾à°ļà±Ģà°¨": 6144,
      "à°¿à°²à±ĭà°®à±Ģà°Ł": 6145,
      "attract": 6146,
      "edĠthroughĠaĠ": 6147,
      "aĠmodel": 6148,
      "à°¨à°¿à°ľà°¾à°²à±ģĠà°": 6149,
      "à°²à°¯à°¾à°³": 6150,
      "à¤¾à¤°à¤ļà¥ĩĠà¤µà¤¾à¤³à¤µà¤Ĥà¤Ł": 6151,
      "à±ĩĠà°¨à°¿à°¯à°®à°¿à°Ĥà°ļ": 6152,
      "à±ĩà°²Ġà°ķà°¿à°²à±ĭà°®à±Ģà°Ł": 6153,
      "Ġà°ªà°¾à°¤à±įà°°Ġà°µà°¹": 6154,
      "Ġà¤ķà¥ĭà¤Łà¥ĢĠà¤µà¤°à¥įà¤·": 6155,
      "à±Ģà°łà°Ńà±Ĥà°®": 6156,
      "à¤¹à¥įà¤¯à¤¾à¤¦à¥įà¤°": 6157,
      "Ġà¤¸.Ġà¥§à¥¬": 6158,
      "inĠart,Ġarchitecture": 6159,
      "Ġà¤ªà¤¡à¤²à¥ĩĠà¤ħà¤¸": 6160,
      "toĠenterĠ": 6161,
      "à°µĠà°¸à°¹à°¸à±įà°°": 6162,
      "à°µà±ģà°¤à±ģà°Ĥà°¦à°¿.": 6163,
      "à°µà°¿à°¦à±įà°¯à±ģà°¤": 6164,
      "à°µà±ģà°¦à°¿à°¨à°¾à°²à±ģĠà°": 6165,
      "¸à±įà°²à°¿à°ĤĠà°": 6166,
      "amphib": 6167,
      "à°¿à°ķ,Ġà°¸à°¾à°Ĥ": 6168,
      "rieflyĠ": 6169,
      "Ġà°ªà±įà°°à°¸à°¿à°¦à±įà°§à°¿Ġà°ļà±Ĩà°Ĥà°¦": 6170,
      "Ġà°ªà±įà°°à°¯à±ĭà°ľ": 6171,
      "Ńà°¾à°°à°¤Ġà°°à°¾à°ľà±įà°¯à°¾à°Ĥà°Ĺ": 6172,
      "Ńà°¾à°°à°¤Ġà°°à±Īà°²à±įà°µà±ĩà°¶à°¾à°ĸ": 6173,
      "Ġà¤ħà¤Ĺà¥įà¤¨à¤¿à¤§à¥įà¤°": 6174,
      "supercontinentĠ": 6175,
      "supremeĠ": 6176,
      "againstĠ": 6177,
      "existingĠ": 6178,
      "unresolvedĠ": 6179,
      "Ġà°µà°¿à°®à°¾à°¨": 6180,
      "à°¦à±ĩà°¶à°ĤĠà°°à±Ĥà°ªà°¾à°Ĥà°¤à°°": 6181,
      "ive-yearĠterm": 6182,
      "wasĠassassinat": 6183,
      "wasĠableĠtoĠ": 6184,
      "wasĠmarkedĠbyĠ": 6185,
      "wasĠvotedĠ": 6186,
      "implement": 6187,
      "imperialĠ": 6188,
      "Ġà°°à°ļà°¯à°¿à°¤": 6189,
      "defeated": 6190,
      "motherĠofĠ": 6191,
      "¸à±įà°¤à±įà°°à±Ģà°²à±ģĠà°": 6192,
      "hasĠmadeĠtheĠregionĠ": 6193,
      "Ġà°®à±ģà°¸à±įà°²à°¿à°ĤĠà°": 6194,
      "ter-gatherers,Ġ": 6195,
      "osphereĠ": 6196,
      "à°ļà±ģà°ķà±ĭà°µà°¡à°ĤĠà°": 6197,
      "comfortableĠ": 6198,
      "large-scaleĠ": 6199,
      "à°ľà°¨à°¾à°Ńà°¾Ġà°ªà°°": 6200,
      "à±ģĠà°ªà°°à±Ģà°ķà±įà°·": 6201,
      ".ĠInĠSouthĠIndia,ĠtheĠ": 6202,
      "à±ģà°µĠà°¸à°Ńà°¨à±ģĠà°": 6203,
      "industrialĠ": 6204,
      "CEEĠ7/": 6205,
      "iĠriverĠvalley": 6206,
      "à°¿à°Ĥà°¦à°¿.Ġà°¦à°ķà±įà°·à°¿à°£à°¾à°¸à°¿à°¯à°¾Ġà°°à±Ī": 6207,
      "deciduousĠ": 6208,
      "Ġà°¶à±Ĩà°²à°µà±ģà°¦à°¿à°¨à°¾à°²à±ģĠà°": 6209,
      "megadiverseĠ": 6210,
      "à±į,Ġà°Ńà±Ĥà°Łà°¾à°¨": 6211,
      "Ġà°Ĩà°§à°¾à°°à°ªà°¡": 6212,
      "neighbour": 6213,
      "committe": 6214,
      "à±Įà°°à±įà°¯Ġà°¸à°¾à°®à±įà°°à°¾à°ľà±įà°¯": 6215,
      "republic": 6216,
      "repeatedlyĠ": 6217,
      "governmentĠlastedĠ": 6218,
      "İà°¨à±įà°¨à±ģà°ķà±ĭà°¬à°¡à°¤à°¾à°°à±ģ.": 6219,
      "CongressĠemergedĠasĠtheĠlargestĠ": 6220,
      "à¥ĢĠà¤ªà¤¤à¥įâĢįà¤¨": 6221,
      "turnedĠtoĠpowerĠ": 6222,
      "à¥īà¤Ĥà¤Ĺà¥įà¤°à¥ĩà¤¸": 6223,
      ".ĠSimultaneous": 6224,
      "Commonweal": 6225,
      "ĩà°¤à°°Ġà°ĸà°¨à°¿à°ľà°¾à°²à±ģĠà°": 6226,
      "toĠbeĠparliamentaryĠleader": 6227,
      "1950Ġà°ľà°¨à°µà°°à°¿Ġ26": 6228,
      "Ġà¤¸à¤°à¤¸à¥įà¤µà¤¤": 6229,
      "Ġà°¸à°®à°¾à°ĸà±įà°¯.Ġà°": 6230,
      "Ġà°ªà±įà°°à°Ńà±ģà°¤à±įà°µà°¾à°¨à±įà°¨à°¿Ġà°ıà°°à±įà°ª": 6231,
      "Indo-EuropeanĠlanguage,Ġ": 6232,
      "Indo-GangeticĠ": 6233,
      "WorldĠWarĠI": 6234,
      "5.8%ĠamongĠ": 6235,
      "à°¾à°ªà°¾à°¡à±ģà°ķà±ģà°Ĥà°Ł": 6236,
      "citizen": 6237,
      "à¤µà¥įà¤¯à¥ģà¤¤à¥įà¤¤à¤°Ġà¤¶à¤¿à¤ķà¥įà¤·à¤£": 6238,
      "8ĠunionĠterritories": 6239,
      "archaicĠformĠofĠSanskrit,ĠanĠ": 6240,
      "GangesĠandĠtheĠBrahmaput": 6241,
      "Ġà°¸à±įà°¥à°¾à°¨à°¾à°²à°¨à±ģĠà°Ĺà±Ĩà°²à±ģà°ļà±ģà°ķà±ĭà°µà°¡à°ĤĠà°": 6242,
      "longĠoccupation,Ġ": 6243,
      "diffusedĠintoĠIndiaĠfromĠtheĠnorthwest": 6244,
      "à°Łà±įà°²à°ķà±ģĠà°ªà±Īà°Ĺà°¾Ġà°ľà°¨à°¾à°Ń": 6245,
      "AndamanĠandĠNicobarĠIs": 6246,
      "à±ĭà°²à±įâĢĮà°ķà°¾à°¤à°¾": 6247,
      "Ġà°¸à°¾à°®à°°à±įà°¥à±įà°¯à°ĤĠà°ķà°²à°¿à°Ĺ": 6248,
      "formedĠaĠcoalitionĠgovernmentĠ": 6249,
      "DelhiĠSultanateĠ": 6250,
      "AllianceĠ(": 6251,
      "creativityĠinĠart,Ġarchitecture": 6252,
      "à±ĩà°Ĺà°Ĥà°Ĺà°¾Ġà°ħà°Ńà°¿à°µà±ĥà°¦à±įà°§à°¿Ġà°ļà±Ĩà°Ĥà°¦à±ģà°¤à±ģà°¨à±įà°¨": 6253,
      "Ġà°¸à°¾à°Ĥà°¸à±įà°ķà±ĥà°¤à°¿à°ķĠà°µà°¾à°°à°¸à°¤à±įà°µ": 6254,
      "à°·à±įà°£Ġà°µà°¾à°¤à°¾à°µà°°à°£à°ĤĠà°": 6255,
      "¢à°¿à°²à±įà°²à±Ģ-à°²à°¾à°¹à±ĭà°°": 6256,
      "1200ĠBCE,ĠanĠarchaicĠformĠofĠSanskrit,ĠanĠ": 6257,
      "NuclearĠNon-ProliferationĠTreat": 6258,
      "VijayanagaraĠ": 6259,
      "jurisdictionĠ": 6260,
      "standardisedĠ": 6261,
      "railways,Ġ": 6262,
      "Ġà°¸à°¾à°°à±įà°µà°¤à±įà°°à°¿à°ķĠà°İà°¨à±įà°¨à°¿à°ķ": 6263,
      "à°¾à°¤à±įà°®à°¾Ġà°Ĺà°¾à°Ĥà°§à±ĢĠà°¨à°¾à°¯à°ķ": 6264,
      "inĠtheĠwesternĠmarginsĠofĠtheĠIndusĠriverĠbas": 6265,
      "à°Ĥà°Ĺà°¾Ġà°ªà±įà°°à°ªà°Ĥà°ļà°®à±ģà°²à±ĭ": 6266,
      "ĠbiodiversityĠhotspot": 6267,
      "à°¨à°¿Ġà°¨à°¿à°ªà±ģà°£à±ģà°²à±ģĠà°": 6268,
      "drainĠintoĠtheĠBayĠofĠBengal": 6269,
      "loose-knitĠ": 6270,
      "Myanmar,ĠThail": 6271,
      "isolationĠasĠhunter-gatherers,Ġ": 6272,
      "28ĠstatesĠandĠ8ĠunionĠterritories": 6273,
      "55,000ĠyearsĠago.ĠTheirĠlongĠoccupation,Ġ": 6274,
      "Achaemen": 6275,
      "JawaharlalĠ": 6276,
      "LakshadweepĠ": 6277,
      "Īà°¸à±įà°Łà±įĠà°ĩà°Ĥà°¡à°¿à°¯à°¾Ġà°ķà°Ĥà°ªà±Ĩà°¨": 6278,
      "İà°²à°ķà±įà°Łà±ĭà°°à°²à±įĠà°ķà°¾à°²à±ĩà°ľ": 6279,
      "à°¢à°¾à°ķà°¾-à°¢à°¿à°²à±įà°²à±Ģ-à°²à°¾à°¹à±ĭà°°": 6280,
      "à±ĩà°²Ġà°ķà°¿à°²à±ĭà°®à±Ģà°Łà°°à±įà°²à°ķà±ģĠà°ªà±Īà°Ĺà°¾Ġà°": 6281,
      "à°µĠà°¸à°¹à°¸à±įà°°à°¾à°¬à±įà°¦": 6282,
      "wasĠassassinatedĠbyĠ": 6283,
      "hasĠmadeĠtheĠregionĠhighlyĠdiverse": 6284,
      "CongressĠemergedĠasĠtheĠlargestĠsingleĠ": 6285,
      "1950Ġà°ľà°¨à°µà°°à°¿Ġ26à°¨": 6286,
      "diffusedĠintoĠIndiaĠfromĠtheĠnorthwest.ĠItsĠ": 6287,
      "1200ĠBCE,ĠanĠarchaicĠformĠofĠSanskrit,ĠanĠIndo-EuropeanĠlanguage,Ġ": 6288,
      "NuclearĠNon-ProliferationĠTreaty,Ġ": 6289,
      "isolationĠasĠhunter-gatherers,ĠhasĠmadeĠtheĠregionĠhighlyĠdiverse": 6290,
      ").ĠTheĠ": 6291,
      ")Ġ(": 6292,
      ",\"": 6293,
      "-0": 6294,
      "-des": 6295,
      "0.7": 6296,
      "1%": 6297,
      "14%Ġ": 6298,
      "25": 6299,
      "21.": 6300,
      "3.9": 6301,
      "7ĠandĠ": 6302,
      "8ĠmillionĠ": 6303,
      "8.7": 6304,
      "900": 6305,
      "Agenc": 6306,
      "Bah": 6307,
      "Col": 6308,
      "For": 6309,
      "Gen": 6310,
      "Jhar": 6311,
      "Lat": 6312,
      "Mod": 6313,
      "Na": 6314,
      "Nep": 6315,
      "New": 6316,
      "Or": 6317,
      "OldĠ": 6318,
      "Ram": 6319,
      "Sang": 6320,
      "Sindh": 6321,
      "Ter": 6322,
      "Zor": 6323,
      "aâĢĶ": 6324,
      "bit": 6325,
      "balĠ": 6326,
      "cess": 6327,
      "d-": 6328,
      "doc": 6329,
      "datesĠ": 6330,
      "downĠ": 6331,
      "e\"Ġ": 6332,
      "e.ĠT": 6333,
      "eograph": 6334,
      "fr": 6335,
      "ful": 6336,
      "fav": 6337,
      "fishĠ": 6338,
      "fash": 6339,
      "gend": 6340,
      "god": 6341,
      "gani": 6342,
      "hal": 6343,
      "ham": 6344,
      "ith": 6345,
      "ians": 6346,
      "iantĠ": 6347,
      "jo": 6348,
      "kat": 6349,
      "kill": 6350,
      "keyĠ": 6351,
      "leng": 6352,
      "ly,ĠtheĠ": 6353,
      "maĠ": 6354,
      "melyĠ": 6355,
      "nin": 6356,
      "nas": 6357,
      "oorĠ": 6358,
      "por": 6359,
      "pil": 6360,
      "pet": 6361,
      "pect": 6362,
      "ring": 6363,
      "rough": 6364,
      "s\"": 6365,
      "slowĠ": 6366,
      "te": 6367,
      "ti": 6368,
      "ten": 6369,
      "tel": 6370,
      "tex": 6371,
      "vedĠinĠ": 6372,
      "welf": 6373,
      "xedĠ": 6374,
      "yingĠ": 6375,
      "zationĠ": 6376,
      "¨à±Ĩà°¹": 6377,
      "«à¥¦": 6378,
      "¬à°¾à°Ł": 6379,
      "īà°Ĥà°¦à°¿.": 6380,
      "Ĳà°ķ": 6381,
      "ĵà¤¡": 6382,
      "ļà°¿à°°": 6383,
      "Ńà¤¾à¤·": 6384,
      "than": 6385,
      "anat": 6386,
      "anism": 6387,
      "anity,Ġ": 6388,
      "sĠtheĠ": 6389,
      "sĠatĠ": 6390,
      "inform": 6391,
      "dĠm": 6392,
      "eralĠ": 6393,
      "erlyĠ": 6394,
      ",ĠH": 6395,
      "à¤¤à¥įà¤µ": 6396,
      "à¤¤à¥ĩĠà¤¹à¥Īà¤Ĥà¥¤": 6397,
      "onicĠ": 6398,
      "onse": 6399,
      "arb": 6400,
      "ard": 6401,
      "alesĠ": 6402,
      "alend": 6403,
      "st-": 6404,
      "stom": 6405,
      "didĠ": 6406,
      "ator": 6407,
      "ativesĠ": 6408,
      "ord": 6409,
      "ory": 6410,
      "orĠtheĠ": 6411,
      "orit": 6412,
      "edĠfromĠ": 6413,
      "edĠmanyĠ": 6414,
      "edĠduringĠ": 6415,
      ".ĠV": 6416,
      ".Ġ700": 6417,
      "InternationalĠ": 6418,
      "ĠtheĠfollowingĠ": 6419,
      "à¥ĢĠà¤Ńà¤¾à¤°à¤¤": 6420,
      "andĠandĠ": 6421,
      "aĠtermĠ": 6422,
      "redi": 6423,
      "refl": 6424,
      "rece": 6425,
      "relief": 6426,
      "recogn": 6427,
      "remelyĠ": 6428,
      "à°¨à°¿Ġà°ªà±įà°°": 6429,
      "à¤¾à¤°à¤²à¥ĩà¤²": 6430,
      "à¤¾à¤°à¤Ńà¤¾à¤°": 6431,
      "ion-": 6432,
      "ion.": 6433,
      "ions.ĠTheĠ": 6434,
      "Indian": 6435,
      "italĠ": 6436,
      "à±ĭà°Ĥà°¦à°¿.Ġà°": 6437,
      "ic,ĠandĠ": 6438,
      "ics.Ġ": 6439,
      "ically,Ġ": 6440,
      "Ġà°ªà°Ł": 6441,
      "à¥Ģà¤¦": 6442,
      "ofĠwesternĠ": 6443,
      "à¥ĭà¤µ": 6444,
      "ingsĠ": 6445,
      "ing:Ġ": 6446,
      "à°¾à°°à±įà°²": 6447,
      "Ġà¤ķà¤Ł": 6448,
      "à°ķà°°à°£": 6449,
      "à¥ģà¤£": 6450,
      "ome": 6451,
      "top": 6452,
      "tookĠtheĠ": 6453,
      "à°¾à°²à±įĠà°": 6454,
      "à±ĢĠà°ª": 6455,
      "à±Ģà°ķà°°à°£": 6456,
      "outĠofĠ": 6457,
      "Ġà¤¸à¤¾à¤§": 6458,
      "inĠIndia,Ġ": 6459,
      "ingĠs": 6460,
      "ingĠtoĠ": 6461,
      "ingĠoverĠtheĠ": 6462,
      "ingĠBuddhistĠ": 6463,
      "Ġà¤ªà¤¸": 6464,
      "ural": 6465,
      "urredĠ": 6466,
      "esĠ3": 6467,
      "esĠIndiaĠ": 6468,
      "à±ĩà°Ł": 6469,
      "toĠproduc": 6470,
      "toĠaboutĠ": 6471,
      "ionĠofĠtheĠ": 6472,
      "ionĠtoĠtheĠ": 6473,
      "s,ĠincludingĠ": 6474,
      "s,ĠbutĠalsoĠ": 6475,
      "isesĠ": 6476,
      "à¤°à¥įà¤«": 6477,
      "à¤°à¥įà¤ļ": 6478,
      "à°µà°¿à°": 6479,
      "entialĠ": 6480,
      "lyĠf": 6481,
      "thĠofĠ": 6482,
      "thĠlargestĠ": 6483,
      "ilitatedĠ": 6484,
      "emph": 6485,
      "amend": 6486,
      "Ġà¤¹à¤³à¥Ĥà¤¹à¤³à¥Ĥ": 6487,
      "IndiaĠisĠtheĠworld'sĠ": 6488,
      "IndiaĠcontainsĠ": 6489,
      "Ġà¤µà¥ĥ": 6490,
      "uls": 6491,
      "isĠoftenĠ": 6492,
      "à°¡à°¿à°¸à±įà°": 6493,
      "1949": 6494,
      "rior": 6495,
      "risti": 6496,
      "rianism": 6497,
      "asis": 6498,
      "as.ĠTheĠ": 6499,
      "Ġà¤Ĩà¤¶à¤¿à¤¯": 6500,
      "à¤¾à¤ļà¥ĩĠà¤¨à¤¾à¤µ": 6501,
      "livingĠ": 6502,
      "Ġà¤ħà¤§à¤¿à¤ķ": 6503,
      "Ġà¤ħà¤°à¥įà¤¥à¤µà¥įà¤¯à¤µà¤¸à¥įà¤¥": 6504,
      "à¥Ĥà¤Ńà¤¾à¤Ĺ": 6505,
      "rag": 6506,
      "à±Ĥà°°à±įà°¤": 6507,
      "à¤ªà¥Ĥà¤°à¥įà¤£": 6508,
      "à¤ªà¥ĩà¤ķà¥įà¤·": 6509,
      "elin": 6510,
      "India,ĠandĠ": 6511,
      "India,ĠandĠtheĠ": 6512,
      "byĠIndianĠ": 6513,
      "ofĠtheĠworld'sĠ": 6514,
      "ofĠtheĠthirdĠ": 6515,
      "chil": 6516,
      "chap": 6517,
      "chivedĠ": 6518,
      "Ġà°¸à±Īà°¨": 6519,
      "suc": 6520,
      "openĠ": 6521,
      "simil": 6522,
      "ageĠofĠ": 6523,
      "à¥ģà¤ļ": 6524,
      "exĠ": 6525,
      "whereĠ": 6526,
      "Ġà°µà±įà°¯à°µ": 6527,
      "ivingĠ": 6528,
      ",Ġà¤¬": 6529,
      "inĠtheĠ13": 6530,
      "ĠandĠtheĠ": 6531,
      "accoun": 6532,
      "acces": 6533,
      "rockĠ": 6534,
      "Ġà¤ªà¥įà¤°à¤¾à¤Ĥà¤¤à¤¾à¤¤": 6535,
      "adingĠ": 6536,
      "addition": 6537,
      "abo": 6538,
      "plainĠ": 6539,
      "ationĠofĠtheĠthirdĠ": 6540,
      "à¤¿à¤¯à¤¨": 6541,
      "resour": 6542,
      "reserv": 6543,
      "respect": 6544,
      "usedĠforĠ": 6545,
      "Ġà¤¨à¤®": 6546,
      "Ġà¤¨à¥ĥà¤¤à¥įà¤¯": 6547,
      "à±įà°²à°¾à°¡": 6548,
      "à¤ļà¤¨": 6549,
      "Ġà¥¯": 6550,
      "modern": 6551,
      "ereĠwasĠ": 6552,
      "Ġà¤ķà¥ĩĠà¤ļ": 6553,
      "¦à±ĩà°¶à±Ģ": 6554,
      "Ġà¤¤à¥įà¤¯à¤¾à¤ļ": 6555,
      "ectionsĠ": 6556,
      "mayĠ": 6557,
      "ation,ĠandĠ": 6558,
      "allow": 6559,
      "Ġà¤¬à¤¢à¤¼": 6560,
      "umĠ": 6561,
      "Ġà¤¦à¤¿à¤²": 6562,
      "anceĠinĠ": 6563,
      "containĠ": 6564,
      "whichĠserv": 6565,
      "sĠofĠ202": 6566,
      "Ġà¤ľà¥ĭ": 6567,
      "Ġà¤¯à¤¾": 6568,
      "y,ĠorĠ": 6569,
      "ulti-": 6570,
      "itsĠculture": 6571,
      ".ĠAsĠofĠ202": 6572,
      "à°Ĥà°²à±ĭĠà°īà°¨à±įà°¨": 6573,
      "fromĠCentralĠAsi": 6574,
      "seat": 6575,
      "formsĠofĠ": 6576,
      "à¤¾à¤ªà¤°à¥įà¤¯à¤Ĥà¤¤": 6577,
      "à±ģĠà°ªà±Ĥà°°à±įà°¤": 6578,
      "s.ĠIndiaĠ": 6579,
      "s.ĠIndiaĠhasĠ": 6580,
      "s.ĠManyĠ": 6581,
      "edĠinĠIndia,ĠandĠtheĠ": 6582,
      "à¥Ģà¤ļà¥ĢĠà¤¸": 6583,
      "à°ķà±įà°·à°£": 6584,
      "mentĠofĠtheĠ": 6585,
      "mentĠofĠIndiaĠ": 6586,
      "persist": 6587,
      "à¤¾à¤¦à¥ĩà¤¶": 6588,
      "ĠbutĠ": 6589,
      "à±ģà°¬à°¾à°Ł": 6590,
      "Chol": 6591,
      "Christi": 6592,
      "after": 6593,
      "Ġà¤¸à¤Ĥà¤µà¤¿à¤§à¤¾à¤¨": 6594,
      "%ĠtoĠ": 6595,
      "à°²à±ģĠâĢĵ": 6596,
      "tradit": 6597,
      "atedĠwithĠ": 6598,
      "à¤¿à¤¸à¤±": 6599,
      "à°Ĥà°²à±ĭà°¨à°¿Ġà°ªà±įà°°": 6600,
      "à°Ńà°¾à°°à°¤à°¦à±ĩà°¶Ġà°ļà°°à°¿à°¤à±įà°°": 6601,
      "languages": 6602,
      "becom": 6603,
      "declar": 6604,
      "ongĠtoĠ": 6605,
      "north,Ġ": 6606,
      "inĠ1950": 6607,
      "à¥ĩĠà¤®à¥ģà¤ĸà¥įà¤¯": 6608,
      "prec": 6609,
      "preadĠ": 6610,
      "population": 6611,
      "mean": 6612,
      "scen": 6613,
      "à±įà°°à±Ģà°ĤĠà°ķ": 6614,
      ":Ġ6": 6615,
      "rate,Ġ": 6616,
      "ants,Ġ": 6617,
      "IndiaĠhasĠaĠ": 6618,
      "mostĠofĠtheĠ": 6619,
      "eĠinĠaĠ": 6620,
      ".ĠTheyĠ": 6621,
      "Ġà°¸à°Ĥà°ĺ": 6622,
      "extremelyĠ": 6623,
      "artist": 6624,
      "à¥ĩĠà¤ħà¤§à¤¿à¤ķ": 6625,
      "Ġà°ļà°¾à°°à°¿à°¤à±įà°°à°ķ": 6626,
      ",ĠwhichĠhasĠ": 6627,
      ",ĠwhichĠhadĠ": 6628,
      "caste,Ġ": 6629,
      "caste-": 6630,
      "serviceĠ": 6631,
      "Ġà°¤à°®à°¿à°³": 6632,
      "1ĠtoĠ": 6633,
      "1ĠJanuaryĠ": 6634,
      "à°¾à°Łà°ķ": 6635,
      "à°¾à°Łà±įà°²à°¾à°¡": 6636,
      ")ĠorĠ": 6637,
      "limitedĠ": 6638,
      "everyĠ": 6639,
      "Ġà¤Ĩà¤¹à¥ĩ.Ġà¤Ńà¤¾à¤°à¤¤": 6640,
      "thisĠperiodĠ": 6641,
      "causedĠtheĠ": 6642,
      "à°Ĥà°¬à°Ĥà°§": 6643,
      "expect": 6644,
      "sideĠ": 6645,
      "ationĠofĠaĠ": 6646,
      "à¥Ģ.Ġà¤¯": 6647,
      "esĠofĠIndiaĠ": 6648,
      "à¤¾Ġà¤ħà¤ľ": 6649,
      "northernĠIndia,Ġ": 6650,
      "ward": 6651,
      "warrior": 6652,
      ".ĠSomeĠ": 6653,
      "obstruct": 6654,
      "timeĠandĠ": 6655,
      "à±Ĩà°²à±įà°²": 6656,
      "period": 6657,
      "à¥ĢĠà¤¬à¤¨": 6658,
      "à¥ĢĠà¤¯à¤¾à¤Ĥà¤ļ": 6659,
      "historicallyĠ": 6660,
      "ArchivedĠ": 6661,
      "actionĠ": 6662,
      "à¥ĩĠà¤¬à¤¾à¤¦": 6663,
      "à¤¾à¤§à¥įà¤¯à¤®": 6664,
      "à¥ĢĠà¤Ĩà¤ķà¥įà¤°à¤®à¤£": 6665,
      "appli": 6666,
      "appearĠ": 6667,
      "literaryĠ": 6668,
      "Ġà¤¸à¤®à¥įà¤°à¤¾à¤Ł": 6669,
      "ementsĠ": 6670,
      "ĠtoĠ1200": 6671,
      "eĠinĠtheĠnumberĠofĠ": 6672,
      "occurredĠ": 6673,
      "1950,Ġ": 6674,
      "1950s,ĠandĠ": 6675,
      "à¤Ĥà¤ªà¤¨": 6676,
      "à¤ľà¤¾à¤¤à¤¿": 6677,
      "notĠaĠ": 6678,
      "à¥ĢĠà¤¤à¤°": 6679,
      "à¤®à¤¾à¤£à¥ģ": 6680,
      "à¥¨à¥¬": 6681,
      "country'sĠ": 6682,
      "MughalĠEmpire": 6683,
      "à¥ĢĠà¤¦à¥ĩà¤¶": 6684,
      "Ġà¥§à¥¯à¥Ń": 6685,
      "placeĠ": 6686,
      "officeĠ": 6687,
      "specific": 6688,
      ",ĠwhoĠ": 6689,
      "edĠonĠaĠ": 6690,
      "socialĠwelf": 6691,
      "Pakistan,Ġ": 6692,
      "2.8ĠmillionĠ": 6693,
      "422": 6694,
      "egatesĠ": 6695,
      "Ġà¤ªà¥ģà¤°à¤¾à¤£": 6696,
      "à°Ńà°¾à°°à°¤Ġà°ľà°¾à°¤à±Ģà°¯": 6697,
      "à±ģà°ªà±įà°°à±Ģà°ĤĠà°ķ": 6698,
      "à±ģà°Ĺà±ģà°¬à°¾à°Ł": 6699,
      "CompanyĠ": 6700,
      "AccordingĠtoĠtheĠ": 6701,
      "birthĠ": 6702,
      "à¤¿à¤°à¥įà¤®à¤¾à¤£": 6703,
      ".ĠIndiaĠisĠ": 6704,
      ".ĠIndiaĠalsoĠ": 6705,
      "culture.": 6706,
      "Delhi,Ġ": 6707,
      "second-": 6708,
      "territorialĠ": 6709,
      "essentialĠ": 6710,
      "à¤¾à¤ĸà¤¾à¤²": 6711,
      "à¥Ĥà¤°à¥įà¤£Ġà¤Ńà¤¾à¤°à¤¤": 6712,
      "especiallyĠinĠtheĠ": 6713,
      "custom": 6714,
      "presentĠ": 6715,
      "IndiansĠhaveĠ": 6716,
      "severalĠ": 6717,
      "thisĠtimeĠandĠ": 6718,
      "Islam,Ġ": 6719,
      "MuslimĠrul": 6720,
      "10,": 6721,
      "antsĠandĠ": 6722,
      "à¤Ĥà¤¸à¤¦": 6723,
      "à±Ĩà°Łà±įà°°": 6724,
      "composedĠbyĠ": 6725,
      "Buddhism,Ġ": 6726,
      "Tamil": 6727,
      "adventĠ": 6728,
      "complet": 6729,
      "survivesĠ": 6730,
      "3,422": 6731,
      "airĠpollut": 6732,
      "à¤¬à¤¸à¥ĩĠà¤¬à¤¡à¤¼": 6733,
      "styles,Ġ": 6734,
      "Rajput": 6735,
      "à¥ĩà¤¹à¤°": 6736,
      "à°®à±ģà°²à±ĭĠà°": 6737,
      "emperorĠ": 6738,
      "libert": 6739,
      "policiesĠ": 6740,
      "middleĠandĠ": 6741,
      "employedĠ": 6742,
      "disputedĠ": 6743,
      "geograph": 6744,
      "highestĠ": 6745,
      "variousĠ": 6746,
      "wonĠaĠ": 6747,
      "record": 6748,
      "ureĠdevelop": 6749,
      "conductedĠinĠ": 6750,
      ".ĠAmongĠ": 6751,
      "GovernmentĠofĠIndiaĠ": 6752,
      "bleĠtoĠtheĠ": 6753,
      "small": 6754,
      "until": 6755,
      "ally,Ġ\"": 6756,
      "spreadingĠ": 6757,
      "s.ĠThereĠwasĠ": 6758,
      "numbers,Ġ": 6759,
      "earliestĠextantĠ": 6760,
      "361ĠmillionĠ": 6761,
      "secular,Ġ": 6762,
      "amework": 6763,
      "Bharat": 6764,
      "enactedĠ": 6765,
      "asĠwellĠ": 6766,
      "à°®à±įà°®à±ĤĠà°ķ": 6767,
      "rockĠandĠ": 6768,
      "iesĠinĠtheĠworldĠ": 6769,
      "delegatesĠ": 6770,
      "rangeĠofĠ": 6771,
      "stiff": 6772,
      "à°°à°¾à°·à±įà°Łà±įà°°à°ªà°¤": 6773,
      "à°®à±Ĩà°Ĥà°Ł": 6774,
      "à°®à±Ĩà°°à°¿à°ķ": 6775,
      "mentsĠad": 6776,
      "broadĠ": 6777,
      "à¤¤à¥įà¤ķà¤¾à¤²à¥Ģà¤¨": 6778,
      "beforeĠ": 6779,
      "associatedĠwithĠ": 6780,
      "traditionallyĠbeenĠ": 6781,
      "untouchabilityĠ": 6782,
      "Ġà¤¹à¥ģà¤Ĩà¥¤": 6783,
      "Bihar": 6784,
      "Malay": 6785,
      "lawsĠandĠ": 6786,
      "oastrianism": 6787,
      "thoseĠofĠtheĠ": 6788,
      "initi": 6789,
      "institution": 6790,
      "consump": 6791,
      "dueĠtoĠtheĠ": 6792,
      "whichĠtheĠ": 6793,
      "Ġà°®à±ģà°ĸà±įà°¯à°®à±Īà°¨": 6794,
      "partition.": 6795,
      "Ġà°Ĩà°°à±įà°§à°¿à°ķĠà°µà±įà°¯à°µà°¸à±įà°¥": 6796,
      "Ġà°ªà°°à°¿à°ªà°¾à°²à°¨": 6797,
      "urbanisationĠ": 6798,
      "inequality,Ġ": 6799,
      "Ġà¤¸à¥ģà¤°à¥ģà¤µà¤¾à¤¤": 6800,
      "NorthĠIndiaĠandĠ": 6801,
      "hereditaryĠ": 6802,
      "Mohenjo-daro,Ġ": 6803,
      "Akbar": 6804,
      "EasternĠ": 6805,
      "Marath": 6806,
      "templesĠ": 6807,
      "recentĠdecadesĠ": 6808,
      "totalĠ": 6809,
      "rapid": 6810,
      "annualĠ": 6811,
      "discriminator": 6812,
      "chosenĠbyĠtheĠ": 6813,
      "à¤°à¥įà¤¨à¤¾à¤Łà¤ķ": 6814,
      "à¤£à¥įà¤¯à¤¾à¤¤Ġà¤¯à¥ĩà¤¤": 6815,
      "à¥ĭà¤ĤĠà¤ķà¥ĩĠà¤¸à¤¾à¤¥": 6816,
      "GeneralĠ": 6817,
      "Jharkh": 6818,
      "ModernĠ": 6819,
      "Organi": 6820,
      "Zoroastrianism": 6821,
      "eographicĠ": 6822,
      "framework": 6823,
      "genderĠ": 6824,
      "half": 6825,
      "portĠofĠ": 6826,
      "textsĠ": 6827,
      "Ĳà°ķà±įà°¯": 6828,
      "thanĠtheĠ": 6829,
      "anatom": 6830,
      "onsetĠofĠ": 6831,
      "reflect": 6832,
      "à°¾à°°à±įà°²à°®à±Ĩà°Ĥà°Ł": 6833,
      "ingĠBuddhistĠandĠ": 6834,
      "toĠproduceĠ": 6835,
      "amendmentsĠad": 6836,
      "Ġà°¸à±Īà°¨à°¿à°ķ": 6837,
      "similarĠ": 6838,
      "additionalĠ": 6839,
      "ationĠofĠtheĠthirdĠmillenniumĠBCE": 6840,
      ".ĠAsĠofĠ2026,Ġ": 6841,
      "à±ģĠà°ªà±Ĥà°°à±įà°¤à°¿à°Ĺà°¾Ġà°": 6842,
      "Christianity,Ġ": 6843,
      "à°¾à°Łà±įà°²à°¾à°¡à±ĩ": 6844,
      "ĠtoĠ1200ĠCE": 6845,
      "à±ģà°ªà±įà°°à±Ģà°ĤĠà°ķà±ĭà°°à±įà°Ł": 6846,
      "à°®à±įà°®à±ĤĠà°ķà°¾à°¶à±įà°®à±Ģà°°": 6847,
      "OrganizationĠ": 6848,
      "\"ĠofĠ": 6849,
      "(\"": 6850,
      "(c.âĢī": 6851,
      "-7": 6852,
      "-bodyĠ": 6853,
      ".8": 6854,
      ".à¥«": 6855,
      "10Ġ": 6856,
      "27": 6857,
      "29": 6858,
      "2%.ĠInĠ": 6859,
      "31.": 6860,
      "53": 6861,
      "5-0": 6862,
      "Aj": 6863,
      "BC": 6864,
      "CI": 6865,
      "Cup": 6866,
      "Carnat": 6867,
      "CricketĠ": 6868,
      "Kal": 6869,
      "Keral": 6870,
      "Languag": 6871,
      "Mum": 6872,
      "Ni": 6873,
      "Nat": 6874,
      "Out": 6875,
      "Pr": 6876,
      "Par": 6877,
      "Sar": 6878,
      "Sch": 6879,
      "Sant": 6880,
      "Ur": 6881,
      "Vedi": 6882,
      "Way": 6883,
      "Yaksh": 6884,
      "a.Ġ": 6885,
      "br": 6886,
      "bĠ": 6887,
      "bron": 6888,
      "bablyĠ": 6889,
      "bai,Ġ": 6890,
      "cra": 6891,
      "cover": 6892,
      "creas": 6893,
      "cere": 6894,
      "dd": 6895,
      "dy": 6896,
      "dow": 6897,
      "doĠ": 6898,
      "ei": 6899,
      "eanĠ": 6900,
      "e\"ĠofĠ": 6901,
      "fo": 6902,
      "fest": 6903,
      "fall": 6904,
      "gro": 6905,
      "gig": 6906,
      "giveĠ": 6907,
      "ii": 6908,
      "jack": 6909,
      "kur": 6910,
      "lic,Ġ": 6911,
      "lessĠ": 6912,
      "men": 6913,
      "menĠ": 6914,
      "nar": 6915,
      "pĠ": 6916,
      "practic": 6917,
      "rop": 6918,
      "round": 6919,
      "sin": 6920,
      "ser": 6921,
      "s:Ġ": 6922,
      "tu": 6923,
      "tal": 6924,
      "tun": 6925,
      "tand": 6926,
      "ta,Ġ": 6927,
      "tionĠofĠ": 6928,
      "tub": 6929,
      "typ": 6930,
      "uk": 6931,
      "ueĠ": 6932,
      "usu": 6933,
      "ures": 6934,
      "wood": 6935,
      "ya,ĠorĠ": 6936,
      "®à¥«": 6937,
      "ĠinĠtheĠ": 6938,
      "Ġà¥¤": 6939,
      "ĠyearsĠ": 6940,
      "Ġgig": 6941,
      "ĪĠà°°à°¾à°·à±įà°Łà±įà°°": 6942,
      "ľà¥ĭ": 6943,
      "à¤ĩ": 6944,
      "Ġà¤ĳà¤«": 6945,
      "eĠgasĠ": 6946,
      "thm": 6947,
      "anaĠ": 6948,
      "à¥ĩà¥¤": 6949,
      "à¥ĩĠà¥«": 6950,
      "intsĠ": 6951,
      "inno": 6952,
      "internationalĠ": 6953,
      "ers.Ġ": 6954,
      ",ĠforĠ": 6955,
      ",ĠthoughĠ": 6956,
      "à¤¤à¤¨": 6957,
      "à¤¤à¥Ģà¤²": 6958,
      "à¤¤à¤¾à¤¬": 6959,
      "onomet": 6960,
      "à¤°à¤¾à¤ļ": 6961,
      "enhous": 6962,
      "ardsĠ": 6963,
      "alc": 6964,
      "alityĠ": 6965,
      "stud": 6966,
      "yĠdish": 6967,
      "yĠPr": 6968,
      "dise": 6969,
      "atedĠinĠ": 6970,
      "ortĠ": 6971,
      "à¥ĩĠà¤ļ": 6972,
      "edĠup": 6973,
      "edĠbre": 6974,
      "aĠb": 6975,
      "aĠfeatur": 6976,
      "à¥ĩà¤¢": 6977,
      "à¤¾à¤°Ġà¤ķ": 6978,
      "ionalĠ": 6979,
      "à¥ĭà¤°à¤£": 6980,
      "alĠisĠaĠ": 6981,
      "Ġà¤ķà¤¾Ġà¤µ": 6982,
      "à¤ķà¤¥": 6983,
      "omĠandĠ": 6984,
      "à¤¾à¤¤.Ġà¤¯": 6985,
      "à¤¨à¤²": 6986,
      "à¤¨à¤¾à¤¥": 6987,
      "inĠ200": 6988,
      "inĠurbanĠare": 6989,
      "inĠruralĠare": 6990,
      "à¤²à¤µ": 6991,
      "à¤²à¤¦à¤²": 6992,
      "ingĠart": 6993,
      "Ġà¤ªà¤¾à¤¨": 6994,
      "Ġà¤ªà¤°à¥įà¤µà¤¤": 6995,
      "urĠ": 6996,
      "esĠsuchĠasĠ": 6997,
      "à¤Ĥà¤Ń": 6998,
      "à¤Ĥà¤µà¤¿à¤§à¤¾à¤¨": 6999,
      "Ġà¤®à¥įà¤¯à¤¾à¤¨": 7000,
      "à¤®à¤°": 7001,
      "ilm": 7002,
      "à¥įà¤¯à¤¾Ġà¤¯": 7003,
      "à¥įà¤¯à¤¾Ġà¤ĸ": 7004,
      "Ġà¤¹à¥įà¤¯à¤¾Ġà¤": 7005,
      "Ġà¤¹à¤¾Ġà¤ľ": 7006,
      "à¤¾à¤¨à¥įà¤¯": 7007,
      "à¤¾à¤¨à¥ĩĠà¤Ĩ": 7008,
      "olut": 7009,
      "IndiaĠArchivedĠ": 7010,
      "Ġà¤µà¤°": 7011,
      "à¤¾à¤Ĥà¤¡": 7012,
      "ulos": 7013,
      "isĠandĠ": 7014,
      "isĠob": 7015,
      "isĠequ": 7016,
      "ri,Ġ": 7017,
      "as.ĠInĠ": 7018,
      "asiĠ": 7019,
      "Ġà¤Ĩà¤ķà¥įà¤°à¤®à¤£": 7020,
      "à¤¿à¤ķà¤¾à¤¸": 7021,
      "à¤¿à¤ķĠà¤¸à¤Ĥà¤¸à¥įà¤ķà¥ĥà¤¤": 7022,
      "liveĠ": 7023,
      "Ġà¤ħà¤¥à¤µ": 7024,
      "Ġà¤ħà¤Ĥà¤Ĺà¥įà¤°à¥ĩà¤ľ": 7025,
      "à¥Ĥà¤¸": 7026,
      "à¤ªà¤¾à¤¤": 7027,
      "à¤ªà¤¾à¤²": 7028,
      "à¤ªà¤¾à¤¸": 7029,
      "ofĠtheĠpopulationĠofĠ": 7030,
      "concep": 7031,
      "IndianĠclassicalĠ": 7032,
      "IndianĠgovernment": 7033,
      "age": 7034,
      "eaf": 7035,
      "etici": 7036,
      "à¤¾à¤ľà¤¨": 7037,
      "à¤¾à¤ľà¤¸à¥įà¤¥à¤¾à¤¨": 7038,
      "excav": 7039,
      "icĠisĠ": 7040,
      "where": 7041,
      ",Ġà¤¶": 7042,
      "inĠtheĠruralĠ": 7043,
      "à¥ĭà¤ĸ": 7044,
      "improv": 7045,
      "à¥Ģà¤¯Ġà¤¬à¤¦à¤²": 7046,
      "à°§à±Ģà°¨": 7047,
      "adem": 7048,
      "abad": 7049,
      "pleĠ": 7050,
      "Ġ(à¤®": 7051,
      "useĠofĠ": 7052,
      "à¤ļà¥ĩĠà¤¹à¤µà¤¾à¤®à¤¾à¤¨": 7053,
      "à¥ĥà¤¹": 7054,
      "à¤ľà¥įà¤ŀ": 7055,
      "parentsĠ": 7056,
      "Ġà¤Ńà¤¾à¤°à¤¤à¤¾à¤ļ": 7057,
      "Ġà¤ķà¥ĩĠà¤ķ": 7058,
      "à¤¡à¤¤": 7059,
      "à¤¶à¤¸à¥įà¤µ": 7060,
      "à¤¶à¥ĩà¤·": 7061,
      "andh": 7062,
      "Ġà¤°à¤¾à¤®": 7063,
      "Ġà¤°à¥ĭà¤ľ": 7064,
      "Ġà¤¦à¥įà¤µà¤¾à¤°": 7065,
      "Ġà¤¦à¥ĥà¤·à¥įà¤Łà¥įà¤¯à¤¾Ġà¤": 7066,
      "à¤¾à¤¹à¤¤": 7067,
      ".ĠIncreas": 7068,
      "cloth": 7069,
      "spe": 7070,
      "derivedĠ": 7071,
      "onĠIndia": 7072,
      "India'sĠconstitution": 7073,
      "à¥ĢĠà¤¸à¤Ĥà¤ĸ": 7074,
      "centageĠ": 7075,
      "à°¿à°¤à°¿Ġà°ķ": 7076,
      "ship": 7077,
      "shoul": 7078,
      "fromĠSouthĠIndiaĠ": 7079,
      "à±įĠà°¬": 7080,
      "à°Ńà°¾à°Ĺ": 7081,
      "formallyĠ": 7082,
      "probablyĠ": 7083,
      "à¥ĩĠà¤¸à¤¾à¤®à¥įà¤°à¤¾à¤ľà¥įà¤¯": 7084,
      "à¥Ģà¤ļà¥įà¤¯à¤¾Ġà¤ķ": 7085,
      "percentageĠ": 7086,
      "Ġmal": 7087,
      "ouryĠdish": 7088,
      "Chha": 7089,
      "Champ": 7090,
      "ChessĠ": 7091,
      "Ġà¤Ńà¤°à¤¤": 7092,
      "à¤¿à¤¶à¥įà¤ļ": 7093,
      "affir": 7094,
      "bott": 7095,
      "centuryĠ": 7096,
      "tryĠPr": 7097,
      "à°¿à°¯à°¾Ġ": 7098,
      "le.ĠTheĠ": 7099,
      "Ġà¤ķà¤°à¤¨à¥ĩĠà¤ķ": 7100,
      "à¤¿à¤¸à¤®à¥ĩà¤Ĥ": 7101,
      "à¥ĩĠà¤µà¥Īà¤¶à¤¿à¤·à¥įà¤Łà¥įà¤¯": 7102,
      "ogam": 7103,
      "decreas": 7104,
      "partiallyĠ": 7105,
      "theor": 7106,
      "à¥ĩĠà¤ķà¤®": 7107,
      "includeĠ": 7108,
      "popular": 7109,
      "meat": 7110,
      "meet": 7111,
      "meatĠisĠ": 7112,
      "rati": 7113,
      "à¥ĢĠà¤ħà¤¥à¤µ": 7114,
      "antaĠC": 7115,
      "niqu": 7116,
      "haveĠbeenĠ": 7117,
      "Ġà¤ªà¤°à¤Ĥà¤ªà¤°": 7118,
      "à¥įà¤¯à¤¾à¤¤à¥Ĥà¤¨": 7119,
      "religionĠ": 7120,
      "à¥ĩà¤µà¤¾à¤°": 7121,
      "Ġà¤ķà¥ĭà¤°": 7122,
      "castes,ĠorĠ": 7123,
      "dancesĠ": 7124,
      "dancesĠofĠ": 7125,
      "à¥įà¤®à¥Ģà¤°": 7126,
      "à¥ĩĠà¤Ĩà¤ľ": 7127,
      "numeral": 7128,
      "à¤¾Ġà¤¨à¤¦": 7129,
      "butĠsh": 7130,
      "à¥Ģà¤¤à¥Ģà¤²": 7131,
      "everalĠ": 7132,
      "à¤¾à¤¬à¤¦à¥įà¤¦à¤²": 7133,
      "à¤¾à¤¬à¤°à¥ĭà¤¬": 7134,
      "Ġà¤Ĩà¤¹à¥ĩ.Ġà¤¤": 7135,
      "à¤ªà¥įà¤°à¤¿à¤¯": 7136,
      "theirĠnatalĠ": 7137,
      "folk": 7138,
      "turnĠ": 7139,
      "°à¤¾à¤ľà¥įà¤¯à¤¸à¤Ń": 7140,
      "à¤¦à¥ĩà¤¶à¤¾à¤¤à¥Ģà¤²": 7141,
      "Mach": 7142,
      "ĠâĢĵĠ": 7143,
      "bothĠstyl": 7144,
      "Buddhist": 7145,
      "à¥įà¤¦à¥įà¤°": 7146,
      ".ĠSt": 7147,
      "Ġà¤ķà¥ĩà¤²à¥ĩĠà¤µĠà¤¤": 7148,
      "à¥ĢĠà¤¯à¤¾à¤ļ": 7149,
      "history,Ġ": 7150,
      "greenhous": 7151,
      "à¤¾à¤Ĥà¤®à¤§à¥įà¤¯à¥ĩĠà¤Ĺ": 7152,
      "thereaf": 7153,
      "à¥ĢĠà¤Ĩà¤¹": 7154,
      ",000ĠliveĠ": 7155,
      "duringĠwhichĠ": 7156,
      "à¤¤à¤¾à¤¤.Ġà¤ľ": 7157,
      "toĠbeĠanĠ": 7158,
      "ables,Ġ": 7159,
      "occas": 7160,
      "à¥Ģà¤ķà¤°à¤£": 7161,
      "atĠtheĠWay": 7162,
      "à¥ĩĠà¤¦à¤ķà¥įà¤·à¤¿à¤£": 7163,
      "à¥ĢĠà¤¤à¤¥": 7164,
      "developedĠ": 7165,
      "à¤¾Ġà¤ľà¤¾à¤¤à¤¾Ġà¤¹à¥Ī": 7166,
      "WorldĠFactbo": 7167,
      "WorldĠCup": 7168,
      "à¤¿à¤ķĠà¤ķà¥įà¤°": 7169,
      "à¤¿à¤ķĠà¤ķà¤¾à¤³à¤¾à¤¤": 7170,
      ",Ġà¤ľà¥ĭ": 7171,
      "soleĠ": 7172,
      "erculos": 7173,
      "à¥ģà¤²à¤¨": 7174,
      "colleg": 7175,
      "à¤§à¤¾à¤¨à¤®à¤Ĥà¤¤à¥įà¤°": 7176,
      "à¥ĩà¤ĸà¤ķ": 7177,
      "Ġà¤µà¥ĩà¤¦": 7178,
      "periodĠofĠ": 7179,
      "influencesĠ": 7180,
      "techniqu": 7181,
      "dominanceĠofĠ": 7182,
      "à¥ĩĠà¤¶à¤¾à¤¸à¥įà¤¤à¥įà¤°": 7183,
      "Ġ(à¤Ĩ": 7184,
      "carvedĠ": 7185,
      "à¤¾Ġà¤¸à¤®à¥ģà¤¦à¥įà¤°": 7186,
      "à¤¾à¤°à¤£à¤ªà¤£": 7187,
      "Ġà¤µà¤¿à¤ľ": 7188,
      "draw": 7189,
      "Ġresident": 7190,
      "pointsĠ": 7191,
      "thĠcenturyĠCE": 7192,
      "diversityĠofĠ": 7193,
      "aniĠandĠ": 7194,
      "Ġà¤¹à¥ģà¤Ī": 7195,
      "ancientĠIndianĠ": 7196,
      "cutĠ": 7197,
      "cuis": 7198,
      "figure": 7199,
      "figuresĠ": 7200,
      "marriedĠ": 7201,
      "marriag": 7202,
      "marriagesĠ": 7203,
      "sculpt": 7204,
      "manuscrip": 7205,
      "IndianĠsubcontinentĠisĠtheĠ": 7206,
      "promin": 7207,
      "ħà¤¨à¥ĩà¤ķ": 7208,
      "divor": 7209,
      "garlic,Ġ": 7210,
      "familiesĠ": 7211,
      "Ġà¤ĩà¤Ĥà¤¡à¤¿à¤¯à¤¾Ġà¤ķ": 7212,
      "villag": 7213,
      ".ĠForĠ": 7214,
      "à¥ĢĠà¤Ŀà¤¾à¤²à¥Ģ.": 7215,
      "relatedĠtoĠ": 7216,
      "Bhang": 7217,
      "Shiv": 7218,
      "secularĠ": 7219,
      "lastĠ50Ġ": 7220,
      "danceĠisĠ": 7221,
      "à¤¾Ġà¤Ĺà¤¯à¤¾à¥¤": 7222,
      "musicĠhasĠ": 7223,
      "à¤¸à¥įà¤ŁĠà¤ĩà¤Ĥà¤¡à¤¿à¤¯à¤¾Ġà¤ķ": 7224,
      "theĠlargestĠpopulationĠofĠ": 7225,
      "distinct": 7226,
      "speak": 7227,
      "à±įĠà°ĩà°Ĥà°¡à°¿à°¯à°¾Ġ": 7228,
      "waist": 7229,
      "waistĠ": 7230,
      "à¤¤à¥įà¤ķà¥ĥà¤·à¥įà¤Ł": 7231,
      "Ġà¤®à¤¹à¤¾à¤°à¤¾à¤·à¥įà¤Łà¥įà¤°à¤¾à¤¤à¥Ģà¤²": 7232,
      "beforeĠtheĠ": 7233,
      "associateĠ": 7234,
      "therefor": 7235,
      "educationĠsystem": 7236,
      "calledĠ\"": 7237,
      "commonlyĠwornĠ": 7238,
      "cookingĠtechniqu": 7239,
      "2011Ġcensus,Ġ": 7240,
      "sculptureĠ": 7241,
      "sculptureĠinĠ": 7242,
      "backĠMach": 7243,
      "dance-dramasĠChha": 7244,
      "Ġà¤ķà¥ĩĠà¤²à¤¿à¤ı": 7245,
      "Ġà¤ķà¥ĩĠà¤ħà¤¨à¥ģà¤¸à¤¾à¤°": 7246,
      "59-": 7247,
      "CountryĠPr": 7248,
      "savouryĠdish": 7249,
      "ĩà¤Ĥà¤Ĺà¥įà¤²à¤¿à¤¶": 7250,
      "ĺà°¨à°¿à°¸à±įà°¤à°¾à°¨": 7251,
      "steam": 7252,
      "Ġà¤ľà¤¾à¤¨à¥ĩà¤µà¤¾à¤°": 7253,
      "everydayĠ": 7254,
      "Ĩà°«à±įà°ĺà°¨à°¿à°¸à±įà°¤à°¾à°¨": 7255,
      "IndianĠfilm": 7256,
      "example,Ġ": 7257,
      "sportsĠ": 7258,
      "formalĠoccas": 7259,
      "compromiseĠ": 7260,
      "classical,Ġ": 7261,
      "à¥ĢĠà¤Ńà¥Ĥà¤®à¤¿à¤ķ": 7262,
      "perĠ1,000ĠliveĠ": 7263,
      "\"ĠorĠ\"": 7264,
      "hasĠbeenĠanĠimportantĠ": 7265,
      "belowĠtheĠ": 7266,
      "vegetari": 7267,
      "Ġà¤Ĺà¤£à¤°à¤¾à¤ľà¥įà¤¯": 7268,
      "à¤¾à¤ļà¥įà¤¯à¤¾Ġà¤ĵà¤ĺà¤¾à¤¤": 7269,
      "Ġà¤¸à¤¾à¤§à¤¾à¤°à¤£à¤ªà¤£": 7270,
      "Ġà¤ķà¥ĩĠà¤ļà¥ģà¤¨à¤¾à¤µ": 7271,
      "à¥¨à¥¬Ġà¤ľà¤¾à¤¨à¥ĩà¤µà¤¾à¤°": 7272,
      "-bodyĠgar": 7273,
      "KeralaĠ": 7274,
      "Mumbai,Ġ": 7275,
      "Sarna": 7276,
      "Urdu": 7277,
      "VedicĠ": 7278,
      "Yakshag": 7279,
      "broughtĠ": 7280,
      "bronz": 7281,
      "cerealĠ": 7282,
      "doĠnotĠ": 7283,
      "eitherĠ": 7284,
      "foetici": 7285,
      "jacket": 7286,
      "narrow": 7287,
      "tuberculos": 7288,
      "usuallyĠ": 7289,
      "Ġgigaw": 7290,
      "eĠgasĠem": 7291,
      "innov": 7292,
      ",ĠforĠexample,Ġ": 7293,
      "à¤¤à¤¾à¤¬à¥įà¤¦": 7294,
      "diseas": 7295,
      "edĠupĠinĠ": 7296,
      "ofĠtheĠpopulationĠofĠIndiaĠ": 7297,
      "whereasĠ": 7298,
      "shoulder": 7299,
      "percentageĠpointsĠ": 7300,
      "affirm": 7301,
      "bottom": 7302,
      "antaĠCav": 7303,
      "greenhouseĠgasĠem": 7304,
      "atĠtheĠWaybackĠMach": 7305,
      "CountryĠProf": 7306,
      "perĠ1,000ĠliveĠbirth": 7307,
      "tuberculosisĠ": 7308,
      "%.": 7309,
      ")Ġà¤¯": 7310,
      "),Ġà¤ķ": 7311,
      ".à¥¬Ġà¤Łà¤ķà¥įà¤ķ": 7312,
      "CN": 7313,
      "IU": 7314,
      "materi": 7315,
      "¦à¤¿à¤²à¥įà¤²": 7316,
      "§à¤¾à¤°à¥įà¤®à¤¿à¤ķ": 7317,
      "ªà¥Ń": 7318,
      "¬à¥īà¤²à¤¿à¤µà¥Ĥà¤¡": 7319,
      "²à¤¾à¤²": 7320,
      "²à¤Ĺà¥įà¤¨": 7321,
      "Ĺà¤¤": 7322,
      "à¤Ŀ": 7323,
      "à¤·à¥įà¤Ł": 7324,
      "Ġà¤łà¤¿à¤ķà¤¾à¤£": 7325,
      "à¤¾,Ġà¤¸": 7326,
      "à¥įà¤«": 7327,
      "à¤¤à¤µà¤¾à¤¦": 7328,
      "à¤¿Ġà¤®à¥ĩà¤Ĥ": 7329,
      "à¤°à¤¿à¤ķ": 7330,
      "à¤°à¤ľ": 7331,
      "à¥įà¤¯à¤¾à¤Ĥà¤ļà¥įà¤¯à¤¾Ġà¤": 7332,
      ".ĠO": 7333,
      "à¥ĢĠà¤Ķà¤°Ġà¤": 7334,
      "à¥ĢĠà¤ļà¤¿à¤¤à¥įà¤°à¤ªà¤Ł": 7335,
      "à¥ĩà¤Ĭ": 7336,
      "à¥ĭà¤Ĥà¤¡": 7337,
      "Ġà¤ķà¤¾à¤²": 7338,
      "Ġà¤ķà¤¾Ġà¤¨": 7339,
      "Ġà¤ķà¤¾à¤¶": 7340,
      "à¤¾à¤¤à¤¾à¤³": 7341,
      "à¤¾à¤¤Ġà¤®à¥ĭà¤ł": 7342,
      "à¤¨à¥įà¤¨": 7343,
      "à¤¸à¤¾à¤®": 7344,
      "à¤¸à¥ĥà¤·à¥įà¤Ł": 7345,
      "à¤¹à¤²": 7346,
      "à¤¹à¤¾à¤µ": 7347,
      "à¤¹à¤¶": 7348,
      "Ġà¤¸à¥ĩ": 7349,
      "Ġà¤¸à¤¾à¤¹à¤¿à¤¤": 7350,
      "à¤²à¥įà¤¤": 7351,
      "Ġà¤ªà¥ģà¤¨": 7352,
      "Ġà¤®à¥Īà¤²": 7353,
      "à¤®à¤¿à¤²": 7354,
      "à¤®à¤¦à¤¾à¤°": 7355,
      "à¤¦à¤¿": 7356,
      "à¤µà¥ĢĠà¤¦": 7357,
      "à¥įà¤¯à¤¾Ġà¤µ": 7358,
      "Ġà¤¹à¤°": 7359,
      "Ġà¤¹à¥ĩĠà¤¸": 7360,
      "à¤¾à¤¨à¥ĩĠà¤ľ": 7361,
      "Ġà¤µà¤¿à¤¦": 7362,
      "Ġà¤µĠà¤²à¥ĭà¤ķ": 7363,
      "Ġà¤µĠà¤Ī": 7364,
      "Ġà¤µà¤¾à¤ĺ": 7365,
      "Ġà¤µà¥Īà¤¶à¤¿à¤·à¥įà¤Łà¥įà¤¯": 7366,
      "à¤¾à¤Ĥà¤¦": 7367,
      "à¤£à¤¾à¤°": 7368,
      "Ġà¤Ĩà¤£à¤²": 7369,
      "à¥Īà¤ķà¥įà¤·à¤£": 7370,
      "à¤ªà¥ģà¤¤à¥įà¤°": 7371,
      "à¤ªà¤¯à¥ĭà¤Ĺ": 7372,
      "à¤ªà¤¦à¥įà¤§à¤¤": 7373,
      "à¤¾à¤ľà¤µ": 7374,
      "à¤¾à¤ľà¤ª": 7375,
      "à¥ģà¤Ĩ": 7376,
      "à¥ģà¤Ľ": 7377,
      "à¤°Ġà¤²": 7378,
      "à¤°Ġà¤ľ": 7379,
      "Ġà¤¨à¥ĩà¤¹à¤°": 7380,
      "à¤ļà¥ĢĠà¤¸": 7381,
      "à¤¶à¤¾à¤¨à¥įà¤¯": 7382,
      "à¥ĩà¤¶à¤¨": 7383,
      "Ġà¤¤à¤¯à¤¾à¤°Ġà¤Ŀà¤¾à¤²": 7384,
      "à¤Ĺà¤Ń": 7385,
      "Ġà¤¬à¤¹": 7386,
      "Ġà¤Ĩà¤¹à¥ĩ.Ġ": 7387,
      "Ġà¤¦à¥ĭ": 7388,
      "à¤¾à¤¹à¤ľà¤¹": 7389,
      "Ġà¤¯à¥ĩà¤¥": 7390,
      "à¥ĢĠà¤¸à¤°à¤ķà¤¾à¤°": 7391,
      "à¥ĭà¤ĤĠà¤¸": 7392,
      "à¥ĭà¤ĤĠà¤ªà¤°Ġà¤": 7393,
      "à¤¾Ġà¤ķà¥ĭ": 7394,
      "à¤¾à¤ªà¥Ģà¤ł": 7395,
      "à¤Łà¤²": 7396,
      "à¤¾Ġà¤¸à¤°à¤ķà¤¾à¤°": 7397,
      "à¤¾Ġà¤¸à¥įà¤®à¤¾à¤°à¤ķ": 7398,
      "à¤ķà¥įà¤·à¤¾à¤¸": 7399,
      "Ġà¤ĩ.": 7400,
      "Ġà¤ħà¤¸à¤¤à¥ĩ.": 7401,
      "Ġà¤ħà¤¸à¥ĩĠà¤®à¥įà¤¹à¤£": 7402,
      "Ġà¤¶à¤ķ": 7403,
      "Ġà¤¶à¤¾à¤¹à¤ľà¤¹": 7404,
      "Ġà¤Ńà¤µà¤¨": 7405,
      "à¤¿à¤¶à¥įà¤°": 7406,
      "Ġà¤¸à¤Ĥà¤¬à¤Ĥà¤§": 7407,
      "Ġà¤Ĺà¤¯": 7408,
      "Ġà¤²à¥Ĥà¤Ł": 7409,
      "à¤¿à¤¨à¤¾à¤±": 7410,
      "à¥ĢĠà¤ķà¥įà¤·à¥ĩà¤¤à¥įà¤°": 7411,
      "Ńà¤¾à¤°à¤¤à¥Ģà¤¯Ġà¤ªà¥ĥà¤·à¥įà¤ł": 7412,
      "Ġà¤ķà¤°à¤¨": 7413,
      "à¥ĩĠà¤µà¤¿à¤·à¤¯": 7414,
      "à¤¬à¤Ĥà¤§": 7415,
      "à¥Įà¤°": 7416,
      "Ġà¤¹à¥ĭà¤¤à¥ĭ.": 7417,
      "à¥ĢĠà¤ħà¤¨à¥ĩà¤ķ": 7418,
      "à¤¾à¤·à¥įà¤Łà¥įà¤°à¥Ģà¤¯": 7419,
      "Ġà¤Ŀà¤¾à¤²à¤¾.Ġà¤": 7420,
      "à¥ģà¤¤à¤³": 7421,
      "1999": 7422,
      "à¤¾Ġà¤®à¤¹": 7423,
      "à¤¾Ġà¤®à¤¿à¤³": 7424,
      "à¥ĢĠà¤ªà¤°à¥įà¤µà¤¤": 7425,
      "à¥ĩĠà¤¤à¤°": 7426,
      "à¥ĩĠà¤¤à¤¯à¤¾à¤°": 7427,
      "à¤Ńà¤¾à¤°à¤¤à¤¾à¤ļà¥įà¤¯à¤¾Ġà¤": 7428,
      "Ġà¤°à¤¾à¤ľà¥įà¤¯à¤¾à¤¤à¥Ģà¤²": 7429,
      "à¤¾Ġà¤ħà¤¸": 7430,
      "à¤¿à¤°à¥ģà¤¦à¥įà¤§": 7431,
      "Ġà¤Ķà¤°Ġ": 7432,
      "à¥Ģà¤ªà¤¾à¤¸à¥Ĥà¤¨": 7433,
      "Ġà¤ķà¥ĩà¤²à¥ĩà¤²": 7434,
      "Ġà¤ıà¤ķà¥Ĥà¤£": 7435,
      "à¥ĩà¤¨à¥įà¤¦à¥įà¤°": 7436,
      "Ġà¤®à¤§à¥įà¤¯à¤ªà¥įà¤°": 7437,
      "à¤¾à¤Ĥà¤®à¤§à¥įà¤¯à¥ĩĠà¤®": 7438,
      "à¥ĭà¤²à¤¨": 7439,
      "à¥Ģà¤®à¤§à¥Ģà¤²": 7440,
      "à¤¤à¤¾à¤¤.Ġà¤Ńà¤¾à¤°à¤¤": 7441,
      "à¥Ģà¤Ĥà¤¨": 7442,
      "à¤Ĥà¤¬à¥Ĥà¤¦": 7443,
      "à¥ĭà¤¨à¥ĩà¤¶à¤¿à¤¯": 7444,
      "à¤«à¥įà¤°": 7445,
      "ersĠ(": 7446,
      "à¥ĢĠà¤ľà¤Ĥà¤Ĺà¤²": 7447,
      "Ġà¤¬à¤¨à¤µà¤¿à¤²": 7448,
      "à¤¾Ġà¤ľà¤¾à¤¤à¤¾Ġà¤¹à¥Īà¥¤": 7449,
      "Ġà¥§à¥¯à¥¯à¥": 7450,
      "à¥ĩĠà¤Ĺà¤°à¤ľ": 7451,
      "placeĠofĠ": 7452,
      "Ġà¤ªà¥įà¤°à¤¦à¥ĩà¤¶à¤¾à¤¤": 7453,
      "à¤°à¥įà¤¯Ġà¤¸à¤¾à¤®à¥įà¤°à¤¾à¤ľà¥įà¤¯": 7454,
      "à¥¦à¥¦à¥¦": 7455,
      "à¥ĩĠà¤Ĩà¤¹à¥ĩà¤¤.Ġà¤": 7456,
      "ĩà¤¸à¤ķ": 7457,
      "Ġà¤ªà¥ģà¤°à¤¸à¥įà¤ķà¤¾à¤°": 7458,
      "à¥ĩà¤ĸà¥Ģà¤²": 7459,
      "Ġà¤®à¤¹à¤¤à¥įà¤¤à¥įà¤µ": 7460,
      "Ġà¤µà¥ĩà¤³": 7461,
      "Ġà¤µà¥ĩà¤Ĺà¤³": 7462,
      "Ġà¤µà¥ĩà¤·à¤Ńà¥Ĥà¤·": 7463,
      "à¤¿à¤°à¥įà¤®à¤¿à¤¤": 7464,
      "à¤¾Ġà¤īà¤¤à¥įà¤¤à¤°": 7465,
      "à¤µà¤¸à¤¾à¤¯": 7466,
      "à¤¾Ġà¤¬à¤¾à¤Ĥà¤§": 7467,
      "à¥Ģà¤µà¤°": 7468,
      "à¤¾Ġà¤¸à¤®à¤¾à¤µà¥ĩà¤¶": 7469,
      "à¥ĩĠà¤ľà¤¾à¤¤à¥ĩ.": 7470,
      "à¤¦à¥įà¤¦à¥ĩà¤¶": 7471,
      "alsĠinĠtheĠ": 7472,
      "à¤¾à¤Ĥà¤¸à¤¾à¤ł": 7473,
      "à¤¾à¤Ĥà¤¸à¥ĭà¤¬à¤¤": 7474,
      "à¤Ĥà¤Ĺà¤¾à¤²à¤ļà¥įà¤¯à¤¾Ġà¤īà¤ªà¤¸à¤¾à¤Ĺà¤°": 7475,
      "Ġà¤¹à¥ģà¤ı": 7476,
      "Ġà¤¹à¤¿à¤Ĥà¤¦à¥ĢĠà¤®à¤¹": 7477,
      "à¥ĩĠà¤ħà¤¸à¤¤à¥ĩ.": 7478,
      "à¤¾Ġà¤¤à¤¥": 7479,
      "à¥įà¤¯à¤¾à¤¸à¤¾à¤ł": 7480,
      "Ġà¤µà¥įà¤¯à¤¾à¤ª": 7481,
      "Ġà¤µà¥įà¤¯à¤µà¤¸à¤¾à¤¯": 7482,
      "Ġà¤ľà¤¨à¤ľà¤¾à¤¤à¤¿": 7483,
      "Ġà¤ıà¤¶à¤¿à¤¯": 7484,
      "à¤±à¥įà¤¯à¤¾Ġà¤ª": 7485,
      "à¥ĢĠà¤¸à¤®à¥ģà¤¦à¥įà¤°": 7486,
      "à¥ĭà¤·à¤¿à¤¤": 7487,
      "Ġà¤Īà¤¸": 7488,
      "à¤¿à¤ķĠà¤¸à¥ģ": 7489,
      "Ġà¤¸à¤¾à¤¹à¤¿à¤¤à¥įà¤¯Ġà¤¹": 7490,
      "à¤Ĥà¤ļà¤¾à¤ļ": 7491,
      "Ġà¤®à¥ģà¤ĸà¥įà¤¯Ġà¤¸à¤£": 7492,
      "Ġà¤ħà¤¶à¥ĭà¤ķ": 7493,
      "Ġà¤¨à¤¿à¤°à¥įà¤®à¤¿à¤¤": 7494,
      "Ġà¤µà¤¿à¤¦à¥įà¤¯à¤¾à¤°à¥įà¤¥à¥įà¤¯à¤¾à¤Ĥà¤ļ": 7495,
      "Ġà¤ħà¤ľà¥Ĥà¤¨à¤¹": 7496,
      "Ġà¤µà¤¿à¤µà¤¿à¤§Ġà¤ªà¥įà¤°à¤ķà¤¾à¤°à¤ļà¥įà¤¯à¤¾Ġà¤": 7497,
      "ĠkilometersĠ(": 7498,
      "à¤¤à¤Ĥà¤¤à¥įà¤°à¤¤": 7499,
      "Ġà¤¸à¥Īà¤¨à¥įà¤¯": 7500,
      "à¤¾Ġà¤¥à¤¾à¥¤": 7501,
      "à¥įà¤¯à¤¾Ġà¤®à¥ĭà¤ł": 7502,
      "birthplaceĠofĠ": 7503,
      "à¥ĢĠà¤¸à¤Ĥà¤²à¤Ĺà¥įà¤¨": 7504,
      "à¥ĭĠà¤¤à¤°Ġà¤": 7505,
      "Ġà¤µà¤¾à¤ªà¤°": 7506,
      "à¤§à¥ģà¤¨à¤¿à¤ķ": 7507,
      "Ġà¤ĺà¥ĩà¤£à¥įà¤¯à¤¾à¤¸": 7508,
      "à¤¨à¤¸à¥įà¤ªà¤¤à¥Ģà¤Ĥà¤ļ": 7509,
      "Ġ%Ġà¤µà¤¾à¤Ł": 7510,
      "Ġà¤®à¥ģà¤Ĥà¤¬à¤Ī": 7511,
      "à¤ļà¥įà¤¯à¤¾Ġà¤ªà¤łà¤¾à¤°": 7512,
      "à¥ĭà¤·à¤£à¤¾Ġà¤ķ": 7513,
      "à¤µà¥ĥà¤¤à¥Ģà¤¯": 7514,
      "à¤¾à¤²à¥ĩà¤¯Ġà¤¶à¤¿à¤ķà¥įà¤·à¤£": 7515,
      "à¤¿à¤µà¤¡à¤£à¥Ĥà¤ķ": 7516,
      "Ġà¤ªà¤¾à¤°à¤Ĥà¤ªà¤¾à¤°à¤¿à¤ķĠà¤µà¥ĩà¤·à¤Ńà¥Ĥà¤·": 7517,
      "Ġà¤ªà¤¦à¤µà¥ĢĠà¤¶à¤¿à¤ķà¥įà¤·à¤£": 7518,
      "¦à¤ĸà¥įà¤ĸà¤¨à¤ļà¥įà¤¯à¤¾Ġà¤ªà¤łà¤¾à¤°": 7519,
      "Ġà¤¸à¤®à¥įà¤°à¤¾à¤ŁĠà¤¶à¤¾à¤¹à¤ľà¤¹": 7520,
      "Ġà¤®à¥įà¤¯à¤¾à¤¨à¤®": 7521,
      "à¥ĢĠà¤¸à¤Ĥà¤ĸà¥įà¤¯à¤¾Ġà¤": 7522,
      "à¤¸à¥įà¤ŁĠà¤ĩà¤Ĥà¤¡à¤¿à¤¯à¤¾Ġà¤ķà¤Ĥà¤ªà¤¨": 7523,
      "IUCN": 7524,
      "à¤¹à¤¶à¤¤à¤µà¤¾à¤¦": 7525,
      "à¤²à¥įà¤¤à¤¨à¤¤": 7526,
      "Ġà¤®à¥Īà¤²)": 7527,
      "à¤µà¥ĢĠà¤¦à¤¿à¤²à¥įà¤²": 7528,
      "à¤ļà¥ĢĠà¤¸à¥Ģà¤®": 7529,
      "à¤Ĺà¤Ńà¤Ĺ": 7530,
      "à¤¬à¤Ĥà¤§à¤¨": 7531,
      "à¤Ĥà¤¬à¥Ĥà¤¦à¥įà¤µà¥Ģà¤ª": 7532,
      "à¥ĩĠà¤Ĺà¤°à¤ľà¥ĩà¤ļ": 7533,
      "Ġà¤¹à¤¿à¤Ĥà¤¦à¥ĢĠà¤®à¤¹à¤¾à¤¸à¤¾à¤Ĺà¤°": 7534,
      "Ġà¤¸à¤®à¥įà¤°à¤¾à¤ŁĠà¤¶à¤¾à¤¹à¤ľà¤¹à¤¾à¤¨": 7535,
      "'à¤Ńà¤¾à¤°à¤¤": 7536,
      "'Ġà¤®à¥įà¤¹à¤£à¤ľ": 7537,
      ",Ġà¤ħ": 7538,
      ",Ġà¤ħà¤¨à¥ĩà¤ķ": 7539,
      ",à¥©": 7540,
      "-à¤ª": 7541,
      ".Ġà¤ªà¥Ĥà¤°à¥įà¤µ": 7542,
      "¢à¤¼": 7543,
      "¦à¥ĭà¤¨": 7544,
      "«à¥įà¤°": 7545,
      "¬à¤¾à¤¬": 7546,
      "®à¤¤": 7547,
      "®à¥ª": 7548,
      "¯à¥ģà¤ķà¥įà¤¤": 7549,
      "Ġ$": 7550,
      "Ġ'": 7551,
      "ħà¤¤à¤¿à¤¶à¤¯": 7552,
      "à¥įà¤Ĺ": 7553,
      "à¥Ģ)": 7554,
      "à¤¤à¤¿": 7555,
      "à¤¤à¤¾à¤¨": 7556,
      "à¤¤à¤¿à¤ķ": 7557,
      "à¤¤à¥Ģà¤¤": 7558,
      "à¤¤à¥įà¤¨": 7559,
      "à¤¿à¤°à¥įà¤": 7560,
      "à¤°-": 7561,
      "à¤°à¤¨": 7562,
      "à¤¾Ġà¤Ł": 7563,
      "à¤¾Ġà¤Ŀà¤¾à¤²": 7564,
      "à¥ĩĠà¤Ł": 7565,
      "à¥ĢĠà¤¥": 7566,
      "à¥ĢĠà¤§": 7567,
      "à¥ĢĠà¤ĩà¤¤à¤¿à¤¹à¤¾à¤¸": 7568,
      "à¥ĩà¤·à¥įà¤ł": 7569,
      "à¤¾à¤°à¤¸": 7570,
      "à¤¾à¤°à¥įà¤Ĺ": 7571,
      "à¥įà¤°à¤¤": 7572,
      "à¥įà¤°à¤¿à¤¯": 7573,
      "à¥ĭ.Ġà¤¯": 7574,
      "à¥ĭà¤µà¤²": 7575,
      "Ġà¤ķà¤Ī": 7576,
      "Ġà¤ķà¥īà¤Ĥà¤Ĺà¥įà¤°à¥ĩà¤¸": 7577,
      "à¤ķà¤¾Ġà¤¯": 7578,
      "à¤¾à¤¤Ġà¤Ńà¤¾à¤°à¤¤": 7579,
      "à¤¨à¥įà¤¦": 7580,
      "à¤¨Ġà¤ªà¥Ĥà¤°à¥įà¤µ": 7581,
      "à¤¨à¤¾à¤Ń": 7582,
      "à¤¨à¤¿à¤·à¥įà¤ł": 7583,
      "Ġà¤¸à¥įà¤¤à¤°": 7584,
      "Ġà¤¸à¤Ĥà¤Ĺà¥Ģà¤¤": 7585,
      "à¤²à¥įà¤¯": 7586,
      "à¤²à¥įà¤¯à¤¾Ġà¤¹à¥ĭà¤¤": 7587,
      "Ġà¤ªà¥įà¤²": 7588,
      "Ġà¤ªà¥ģà¤¢": 7589,
      "à¤®à¤®à¤¾à¤£": 7590,
      "à¤®à¥ģà¤¦à¥įà¤°": 7591,
      "à¤¦à¤¾à¤¨": 7592,
      "à¤¦à¤¾à¤¯": 7593,
      "à¤¦à¤¯à¤¾à¤¸": 7594,
      "à¤¦à¤¸à¥įà¤¯": 7595,
      "à¤µà¤¾à¤¨": 7596,
      "à¤µà¥ĩà¤¶": 7597,
      "à¤µà¤°à¥įà¤¤": 7598,
      "à¤¾à¤¨à¥įà¤¯à¤¤": 7599,
      "à¤£Ġà¤¸": 7600,
      "à¤¾à¤²à¤¾à¤ģ": 7601,
      "à¤¾à¤²Ġà¤¨à¥ĩà¤¹à¤°": 7602,
      "Ġà¤Ĩà¤¯": 7603,
      "à¤¾à¤ļà¤¾à¤°": 7604,
      "à¤¾à¤ļà¥ĩĠà¤¨": 7605,
      "à¤ªà¥įà¤ª": 7606,
      "à¤ªà¤¾à¤¸à¥Ĥà¤¨": 7607,
      "000": 7608,
      "à¤¾à¤¸à¤¾à¤¹": 7609,
      ",Ġà¤¡": 7610,
      "à¥ĭà¤Ĭ": 7611,
      "à¤°Ġà¤Ńà¤¾à¤°à¤¤": 7612,
      "2020": 7613,
      "à¤¾à¤µà¤°Ġà¤¬": 7614,
      "à¤¿à¤¯à¤¾à¤°": 7615,
      "à¤¿à¤¯à¤¾à¥¤": 7616,
      "à¤¯à¥ģà¤Ĺ": 7617,
      "Ġà¤¨à¥ĩĠà¤ħ": 7618,
      "à¤ļà¤²": 7619,
      "à¤ľà¤¾à¤°": 7620,
      "Ġà¤ķà¥ĩĠà¤°à¥Ĥà¤ª": 7621,
      "Ġà¤®à¥ĩà¤ĤĠà¤ªà¥įà¤°": 7622,
      "à¤¶à¤¾à¤¸à¥įà¤¤à¥įà¤°": 7623,
      "à¤Ĺà¥ĭà¤²": 7624,
      "Ġà¤¬à¤¾à¤°": 7625,
      "Ġà¤°à¤ķà¥įà¤·": 7626,
      "Ġà¤¦à¥ĩà¤¤": 7627,
      "Ġà¤¦à¥ģà¤¸": 7628,
      "Ġà¤¦à¤¿à¤µà¤¸": 7629,
      "à¤¾à¤¹à¤¾à¤°": 7630,
      "Ġà¤ľà¥Īà¤¨": 7631,
      "Ġà¤¯à¤¾Ġà¤ķà¤¾à¤³à¤¾à¤¤": 7632,
      "à¤Ńà¤°": 7633,
      "à¤Ńà¥Ĥà¤®": 7634,
      "à¤¾Ġà¤ķà¤¾à¤³": 7635,
      "à¤¾Ġà¤¸à¥įà¤µ": 7636,
      "à¤¾Ġà¤¸à¤¿à¤Ĥà¤§à¥Ĥ": 7637,
      "à¥ĢĠà¤µà¥Īà¤¦": 7638,
      "à¥ĢĠà¤µĠà¤µà¥Īà¤¦à¤¿à¤ķĠà¤ķ": 7639,
      "à¤¿à¤µà¤¾à¤¦": 7640,
      "à¥ĩĠà¤¸à¥įà¤µ": 7641,
      "à¥ĢĠà¤¹à¥ģà¤Ī": 7642,
      "Ġà¤ĩà¤¨": 7643,
      "à¥ģà¤°à¥ĭà¤ªà¥Ģà¤¯": 7644,
      "à¤¾à¤¤à¥Ģà¤²Ġà¤ªà¥įà¤°à¤¾à¤ļà¥Ģà¤¨": 7645,
      "Ġà¤¸à¤Ĥà¤¬": 7646,
      "à¥įà¤²à¤¿à¤®": 7647,
      "à¥ĢĠà¤ķà¥ĭ": 7648,
      "Ġà¤īà¤¦à¥įà¤¯à¥ĭà¤Ĺ": 7649,
      "à¥ĩĠà¤®à¥ĩà¤Ĥ": 7650,
      "à¤¾Ġà¤µà¤¾à¤°à¤¸": 7651,
      "à¥įà¤¹à¥ĩà¤Ĥ": 7652,
      "à¤¥à¤¿à¤¯à¤¾à¤°": 7653,
      "Ġà¤ļà¥įà¤¯à¤¾Ġà¤¸": 7654,
      "à¤¾Ġà¤ªà¤°": 7655,
      "à¤¾Ġà¤ªà¥Ĥà¤°à¥įà¤µ": 7656,
      "Ġà¤ħà¤¨à¥ģà¤": 7657,
      "à¤°à¥įà¤·à¤¿à¤¤": 7658,
      "à¥ĥà¤·": 7659,
      "Ġà¤Ŀà¤¾à¤²à¥Ģ.Ġà¤": 7660,
      "à¥ĩĠà¤Ĩà¤°à¥įà¤¥à¤¿à¤ķ": 7661,
      "à¤¾Ġà¤¨à¤¿à¤Ń": 7662,
      "à¥įà¤ķà¥ĥà¤¤à¤¿à¤ķ": 7663,
      "à¤¾à¤¬à¥Ģà¤ľ": 7664,
      "à¤¾Ġà¤®à¥ģà¤²": 7665,
      "à¥ģà¤¸à¥įà¤¥à¤¾à¤¨": 7666,
      "à¥ģà¤¸à¥įà¤²à¤¿à¤®": 7667,
      "à¥įà¤¯à¤¾à¤ļà¥ĩĠà¤ª": 7668,
      "Ġà¤ķà¥ĢĠà¤ĵ": 7669,
      "à¤¾Ġà¤ħà¤ª": 7670,
      "à¤¿à¤°à¤ªà¥ĩà¤ķà¥įà¤·": 7671,
      "à¤łà¤¾à¤µ": 7672,
      "à¤łà¤¬à¤Ĥà¤§à¤¨": 7673,
      "à¥įà¤¥à¤¾à¤ªà¤¨": 7674,
      "Ġà¤ħà¤¨à¥ĩà¤ķĠà¤ĩà¤¸à¥įà¤²à¤¾à¤®": 7675,
      "à¥ĢĠà¤Ńà¤°à¤¤": 7676,
      "à¥ĩĠà¤ľà¤¾à¤Ĭ": 7677,
      "Ġà¤ĺà¥ĭà¤·à¤¿à¤¤": 7678,
      "à¥ĭà¤²Ġà¤¸à¤¾à¤®à¥įà¤°à¤¾à¤ľà¥įà¤¯": 7679,
      "à¤¾à¤¡à¤¼": 7680,
      "à¤¾Ġà¤Ĺà¤¾à¤Ĥà¤§": 7681,
      "à¤Ĥà¤¬à¥ĩà¤¡": 7682,
      "Ġà¥¨à¥¦à¥¦": 7683,
      "à¤¾Ġà¤ľà¤¾à¤¤à¥ĭ.Ġà¤¯": 7684,
      "à¥ĢĠà¤¶à¤¹à¤°": 7685,
      "à¥ĭà¤ĤĠà¤ķà¥ĩĠà¤¬": 7686,
      "à¤¾Ġà¤¯à¤¾Ġà¤¦à¥ĩà¤¶": 7687,
      "ĩà¤¸à¤µ": 7688,
      "à¤¾Ġà¤īà¤ªà¤¯à¥ĭà¤Ĺ": 7689,
      "Ġà¤µà¤°à¥įà¤·à¤¾à¤Ĥà¤ªà¥Ĥà¤°à¥įà¤µ": 7690,
      "à¥ĩĠà¤°à¤¾à¤ľ": 7691,
      "à¥įà¤¯à¤¾Ġà¤¸à¤Ĥà¤¶": 7692,
      "à¤¾à¤Ĥà¤¸à¥įà¤ķà¥ĥà¤¤à¤¿à¤ķ": 7693,
      "Ġà¤¹à¤¿à¤Ĥà¤¦à¥ģà¤¸à¥įà¤¥à¤¾à¤¨": 7694,
      "Ġà¤ķà¤°à¤£à¥ĩĠà¤¹": 7695,
      "à¥ĩĠà¤īà¤¦à¤¯à¤¾à¤¸": 7696,
      "Ġà¤ľà¤¨à¤¤": 7697,
      "ĩà¤Ĥà¤Ĺà¥įà¤°à¤ľà¤¾à¤Ĥà¤¨": 7698,
      "à¤¾à¤Ĥà¤µà¤¿à¤°à¥ģà¤¦à¥įà¤§": 7699,
      "Ġà¤ħà¤Ńà¤¿à¤¯": 7700,
      "Ġà¤ĩà¤Ĥà¤¡à¤¿à¤¯à¤¾": 7701,
      "Ġà¤²à¤¾à¤Ĺà¥Ĥ": 7702,
      "AllĠ": 7703,
      "Ġà¤ķà¥ĩà¤Ĥà¤¦à¥įà¤°à¤¶à¤¾à¤¸à¤¿à¤¤Ġà¤ªà¥įà¤°à¤¦à¥ĩà¤¶": 7704,
      "Ġà¤ķà¤¾à¤¹à¥ĢĠà¤ķà¤¾à¤³": 7705,
      "Ġà¤¨à¤¿à¤°à¥įà¤®à¤¾à¤£": 7706,
      "à¥ĩĠà¤¹à¥ĭà¤¤à¥ĩ.": 7707,
      "à¥Ģ.Ġà¤¤à¤¿à¤ļ": 7708,
      "à¤¾à¤µà¤°à¥Ĥà¤¨Ġà¤Ńà¤¾à¤°à¤¤Ġà¤¹à¥ĩĠà¤¨à¤¾à¤µ": 7709,
      "à¤°à¤¾à¤łà¤¾Ġà¤¸à¤¾à¤®à¥įà¤°à¤¾à¤ľà¥įà¤¯": 7710,
      "Ġà¤®à¥ģà¤ĺà¤²Ġà¤°à¤¾à¤ľà¤µ": 7711,
      "à¥ĭà¤§à¤ķ": 7712,
      "Ġà¤Ĺà¥įà¤°à¥Ģà¤ķ": 7713,
      "à¥ĩà¤¦à¤¾à¤°": 7714,
      "Ġà¤ķà¤¾Ġà¤¸à¤¬à¤¸à¥ĩĠà¤¬à¤¡à¤¼": 7715,
      "Ġà¤ķà¥ĩĠà¤²à¤¿à¤¯": 7716,
      "grandmotherĠofĠ": 7717,
      "à¤¾à¤¤à¥įà¤®à¤ķ": 7718,
      "à¤®à¥įà¤Ń": 7719,
      "à¤µà¤¾à¤¹à¤°à¤²": 7720,
      "à¥ĢĠà¤¨à¤¦à¥ĢĠà¤¹": 7721,
      "ĩ.à¤¸.Ġà¤ªà¥Ĥà¤°à¥įà¤µ": 7722,
      "Ġà¤īà¤¤à¥įà¤ª": 7723,
      "Ġà¤®à¤¾à¤¨à¤²à¤¾Ġà¤ľà¤¾à¤¤à¥ĭ.Ġà¤¯": 7724,
      "à¥ģà¤®à¤¾à¤°à¤¾à¤¸": 7725,
      "Ġà¤¨à¥įà¤¯à¤¾à¤¯à¤¾à¤²à¤¯": 7726,
      "à¤¾à¤¨à¥ĩĠà¤®à¥ĭà¤ł": 7727,
      ",Ġà¤Ĺà¤£": 7728,
      "Ġà¤°à¥Ĥà¤ªĠà¤¸": 7729,
      "Ġà¤ĩà¤Ĥà¤¡à¥ĭà¤¨à¥ĩà¤¶à¤¿à¤¯": 7730,
      "Ġà¤¹à¥ĭà¤¤à¤¾.Ġà¤¯": 7731,
      "Ġà¤¸à¤°à¤¸à¥įà¤µà¤¤à¥ĢĠà¤¨à¤¦à¥ĢĠà¤¹": 7732,
      "à¤¿à¤¸à¤±à¥įà¤¯à¤¾Ġà¤¶à¤¤à¤ķà¤¾à¤¤": 7733,
      "Ġà¤Ĩà¤¹à¥ĩ.Ġà¤Ńà¤¾à¤°à¤¤à¤¾à¤²": 7734,
      "à¥Ģ.Ġà¤¯à¤¾à¤¤à¥Ģà¤²": 7735,
      "à¥ĢĠà¤¯à¤¾à¤Ĥà¤ļà¤¾Ġà¤ªà¥ģà¤¤à¥įà¤°": 7736,
      "Ġà¤ķà¥ĩĠà¤ļà¥ģà¤¨à¤¾à¤µà¥ĭà¤ĤĠà¤®à¥ĩà¤Ĥ": 7737,
      "ħà¤¤à¤¿à¤¶à¤¯Ġà¤ªà¥ģà¤¢": 7738,
      "à¤¨à¤¾à¤Ńà¤µà¤°à¥įà¤·": 7739,
      "Ġà¤ªà¥įà¤²à¥ĩà¤Ł": 7740,
      "à¤®à¤®à¤¾à¤£Ġà¤Ŀà¤¾à¤²à¥ĩà¤²": 7741,
      "à¤¾à¤²à¤¾à¤ģà¤ķà¤¿": 7742,
      "à¤ªà¤¾à¤¸à¥Ĥà¤¨Ġà¤¸à¥ģà¤°à¥ģà¤µà¤¾à¤¤": 7743,
      "à¤¾à¤¸à¤¾à¤¹à¥ĩà¤¬": 7744,
      "Ġà¤ļà¥įà¤¯à¤¾Ġà¤¸à¥ģà¤®à¤¾à¤°à¤¾à¤¸": 7745,
      "à¤¾Ġà¤®à¥ģà¤²à¤Ĺ": 7746,
      "à¥ĩĠà¤ľà¤¾à¤ĬĠà¤²à¤¾à¤Ĺà¤²": 7747,
      "à¤Ĥà¤¬à¥ĩà¤¡à¤ķ": 7748,
      "à¥įà¤¯à¤¾Ġà¤¸à¤Ĥà¤¶à¥ĭà¤§à¤ķ": 7749,
      "à¥ĩĠà¤īà¤¦à¤¯à¤¾à¤¸Ġà¤Ĩà¤²": 7750,
      "à¤¾à¤µà¤°à¥Ĥà¤¨Ġà¤Ńà¤¾à¤°à¤¤Ġà¤¹à¥ĩĠà¤¨à¤¾à¤µĠà¤ªà¤¡à¤²à¥ĩĠà¤ħà¤¸": 7751,
      "Ġà¤®à¥ģà¤ĺà¤²Ġà¤°à¤¾à¤ľà¤µà¤Ł": 7752,
      "à¤µà¤¾à¤¹à¤°à¤²à¤¾à¤²Ġà¤¨à¥ĩà¤¹à¤°": 7753,
      "ħà¤¤à¤¿à¤¶à¤¯Ġà¤ªà¥ģà¤¢à¤¾à¤°à¤²à¥ĩà¤²": 7754,
      ",Ġà¤Ĩ": 7755,
      ".à¥®": 7756,
      "1Ġà¤®à¥ĩà¤Ĥ": 7757,
      "2-": 7758,
      "2âĢĵ": 7759,
      "21,": 7760,
      "7.9": 7761,
      "Act": 7762,
      "PI": 7763,
      "SI": 7764,
      "ief": 7765,
      "¤à¥įà¤¯": 7766,
      "®Ġà¤®à¤§à¥įà¤¯": 7767,
      "Ġ9": 7768,
      "Ġ2003": 7769,
      "īà¤¨": 7770,
      "īà¤¤à¥įà¤¤à¤°Ġà¤": 7771,
      "Ĭà¤ģ": 7772,
      "à¤ī": 7773,
      "Ġà¤ĳ": 7774,
      "Ġà¤ł": 7775,
      "à¤¾,Ġà¤ķ": 7776,
      "à¥ĩ.Ġ": 7777,
      "à¥ĩĠà¥§à¥¯à¥": 7778,
      "à¤¤à¥ģ": 7779,
      "à¤¤à¤¾Ġà¤µ": 7780,
      "à¤¤à¤ļà¥įà¤¯à¤¾Ġà¤": 7781,
      "à¤¤à¤ĥ": 7782,
      "à¤¤à¤ľà¥įà¤ŀ": 7783,
      "à¤¿à¤°à¥įà¤µ": 7784,
      "à¤°à¤ķ": 7785,
      "à¤°à¤¿à¤¤": 7786,
      "à¤°à¥Ģà¤ļ": 7787,
      "à¤°à¤¾à¤·à¥įà¤Łà¥įà¤°": 7788,
      "alianĠPlat": 7789,
      "à¤¿à¤¥": 7790,
      "à¥įà¤¯à¤¾à¤Ĥà¤®": 7791,
      "à¥įà¤¯à¤¾.": 7792,
      "à¥įà¤¯Ġà¤ħà¤¸à¤¤": 7793,
      "à¥įà¤¯à¤¾à¤Ĥà¤ªà¥Īà¤ķ": 7794,
      "à¥ĩĠà¤ĳ": 7795,
      "à¥ĩĠà¤ĵà¤³à¤ĸà¤²": 7796,
      "à¥ĢĠà¤¡": 7797,
      "à¥ĢĠà¤ĵà¤³à¤ĸ": 7798,
      "à¥ĢĠà¤Ńà¤¾à¤°à¤¤à¤¾à¤ļ": 7799,
      "à¤¾à¤°à¤®à¥įà¤Ń": 7800,
      "à¥įà¤°à¥Ģà¤²": 7801,
      "à¥įà¤°à¥ĩà¤²": 7802,
      "à¥Ģà¤Ł": 7803,
      "à¥ĭà¤Ĥà¤¦": 7804,
      "Ġà¤ķà¤¾à¤³": 7805,
      "Ġà¤ķà¤¾Ġà¤ªà¥įà¤°": 7806,
      "Ġà¤ķà¤°Ġà¤¦": 7807,
      "à¤ķà¤¡": 7808,
      "à¤ķà¤¾à¤³": 7809,
      "à¤ķà¤°à¥įà¤¤": 7810,
      "à¤¾à¤¤Ġà¤Ĩà¤²": 7811,
      "à¤¨Ġà¤²": 7812,
      "à¤¨à¥ĢĠà¤¯": 7813,
      "à¤¹à¤¾à¤¯": 7814,
      "à¤¹à¤¾à¤ģ": 7815,
      "à¤¹à¤¯à¥ĭà¤Ĺ": 7816,
      "à¤¹à¤¿à¤Ĥà¤¸": 7817,
      "Ġà¤¸à¤¿à¤ķ": 7818,
      "Ġà¤¸à¤§": 7819,
      "Ġà¤¸à¤¿à¤¦à¥įà¤§": 7820,
      "Ġà¤¸à¤¿à¤Ĥà¤¹": 7821,
      "à¤²à¤¾à¤µ": 7822,
      "à¤²à¤¾.": 7823,
      "Ġà¤ªà¥Ĥà¤°": 7824,
      "Ġà¤ªà¤Ĥà¤ľà¤¾à¤¬": 7825,
      "à¤Ĥà¤¥": 7826,
      "à¤Ĥà¤µ": 7827,
      "à¤®à¥į": 7828,
      "à¤°à¥įà¤¬": 7829,
      "à¤¦à¤°à¥įà¤¶": 7830,
      "à¤µà¤¯": 7831,
      "à¤µà¥ĩà¤°": 7832,
      "à¥įà¤¯à¤¾Ġà¤¨": 7833,
      "à¥įà¤¯à¤¾Ġà¤ħ": 7834,
      "à¥įà¤¯à¤¾Ġà¤ľ": 7835,
      "Ġà¤¹à¥ĢĠà¤": 7836,
      "Ġà¤¹à¤¾Ġà¤¦à¥ĩà¤¶": 7837,
      "à¤¾à¤¨à¥ĩĠà¤µ": 7838,
      "Ġà¤µà¤¾à¤°": 7839,
      "Ġà¤µà¤¿à¤¶": 7840,
      "Ġà¤µà¥ĩà¤°": 7841,
      "Ġà¤µà¤¿à¤ķà¤¸à¤¿à¤¤": 7842,
      "à¤£à¤¾à¤²": 7843,
      "à¤£à¥įà¤¯à¤¾à¤ļ": 7844,
      "à¤£à¥įà¤¯à¤¾à¤¸": 7845,
      "à¤£Ġà¤ķà¤°à¥Ĥà¤¨": 7846,
      "à¤¾à¤²à¤¤": 7847,
      "Ġà¤Ĩà¤²à¥ĩà¤²à¥įà¤¯à¤¾Ġà¤": 7848,
      "à¤¾à¤ļà¥ĢĠà¤¨": 7849,
      "à¤¾à¤ļà¥ĩĠà¤µà¥Īà¤¶à¤¿à¤·à¥įà¤Łà¥įà¤¯": 7850,
      "Ġà¤ħà¤ªà¥įà¤°": 7851,
      "Ġà¤ħà¤°à¥įà¤¥": 7852,
      "Ġà¤ħà¤µà¤²": 7853,
      "Ġà¤ħà¤§à¤¿à¤ķà¤¾à¤°": 7854,
      "à¤ªà¤°": 7855,
      ".Ġà¤Ĺ": 7856,
      "à¥įà¤¤à¥ģ": 7857,
      "à¤¾à¤ľà¤®à¤¹": 7858,
      "à¥ģà¤ı": 7859,
      "à¤¾à¤®Ġà¤¸": 7860,
      "à¥ĤĠà¤ªà¥ģà¤°à¤¾à¤£": 7861,
      "à¥ĭà¤±": 7862,
      "à¥Ģà¤¯à¤¾à¤Ĥà¤ļ": 7863,
      "à¤°Ġà¤¤": 7864,
      "à¤°Ġà¤Ŀà¤¾à¤²": 7865,
      "à¤°Ġà¤ĩà¤¸à¥įà¤²à¤¾à¤®": 7866,
      "2019": 7867,
      "à¤¾à¤µà¥įà¤¯à¤¾Ġà¤¶à¤¤à¤ķ": 7868,
      "à¥ĩà¤²à¥Ģ.Ġà¤": 7869,
      "à¤¯à¤¨": 7870,
      "Ġà¤¨à¤¿à¤ķ": 7871,
      "Ġà¤¨à¤¾à¤Ĺà¤°": 7872,
      "Ġà¤¨à¤Ĺà¤°": 7873,
      "à¤ľà¤²": 7874,
      "à¤ľà¥Ģà¤µ": 7875,
      "à¥įà¤µà¤°à¥Ĥà¤ª": 7876,
      "Ġà¤Ńà¤¾à¤°à¤¤Ġà¤ķà¥ĩĠà¤": 7877,
      "Ġà¤Ńà¤¾à¤°à¤¤à¤¾à¤ļà¥įà¤¯à¤¾Ġà¤¸": 7878,
      "à¤¡à¥Ĥà¤¨": 7879,
      "Ġà¤®à¥ĩà¤ĤĠà¤ª": 7880,
      "Ġà¤®à¥ĩà¤ĤĠà¤¬": 7881,
      "Ġà¤®à¥ĩà¤ĤĠà¤Ń": 7882,
      "Ġà¤®à¥ĩà¤ĤĠà¤ī": 7883,
      "Ġà¤®à¥ĩà¤ĤĠà¤ıà¤ķ": 7884,
      "à¤¶à¤¾à¤¹": 7885,
      "Ġà¤¤à¤°": 7886,
      "à¤Ĺà¤¾à¤¤à¥Ģà¤²": 7887,
      "à¤Ĺà¤®à¤¨": 7888,
      "à¤°à¥įà¤µà¥ĭà¤ļà¥įà¤ļ": 7889,
      "à¤°à¥įà¤µĠà¤°à¤¾à¤ľà¥įà¤¯à¥ĩĠà¤Ĩ": 7890,
      "Ġà¤ľà¤®": 7891,
      "Ġà¤ľà¤¾à¤Ĺ": 7892,
      "Ġà¤ľà¥ģà¤¨": 7893,
      "Ġà¤ľà¤µà¤³": 7894,
      "à¥ĢĠà¤¸à¤²à¥įà¤¤à¤¨à¤¤": 7895,
      "à¤¾Ġà¤ķà¤°": 7896,
      "à¤¾Ġà¤ķà¤¾à¤¹": 7897,
      "à¤¾à¤Ĺà¤¤": 7898,
      "à¥ĩà¤¤à¤²": 7899,
      "à¤¾à¤¦à¥įà¤µà¥Ģà¤ª": 7900,
      "à¥ĢĠà¤¹à¥ĢĠà¤ĩ": 7901,
      "à¥ģà¤°à¥ģà¤µ": 7902,
      "à¤¾à¤¤à¥Ģà¤²Ġà¤ªà¥įà¤°à¤Ĺà¤¤": 7903,
      "Ġà¤ħà¤¸à¥ĩà¤¹": 7904,
      "à¤¿à¤²à¥ĩà¤²": 7905,
      "à¤¿à¤²à¤¾Ġà¤Ĩà¤¹à¥ĩ.Ġà¤": 7906,
      "Ġà¤¶à¥Īà¤²": 7907,
      "Ġà¤¶à¤¿à¤ĸ": 7908,
      "Ġà¤¶à¤¤à¤¾à¤¬à¥įà¤¦": 7909,
      "Ġà¤¸à¤Ĥà¤ª": 7910,
      "Ġà¤Ĺà¤£à¤²": 7911,
      "Ġà¤Ĺà¤łà¤¬à¤Ĥà¤§à¤¨": 7912,
      "Ġà¤²à¤¯": 7913,
      "Ġà¤²à¤¿à¤¹": 7914,
      "à¤¿à¤¨Ġà¤ķ": 7915,
      "à¤¿à¤¨à¥įà¤¤à¥ģ": 7916,
      "à¤¿à¤Ĥà¤µ": 7917,
      "à¤¿à¤Ĥà¤Ĺ": 7918,
[...]
